. 100
? 100
# 100
▁ 100
▁#@ 100
도 100
이 100
가 100
는 100
.. 100
에 100
을 100
▁안 100
... 100
이름 100
▁나 100
고 100
를 100
지 100
은 100
▁한다 100
▁아 100
만 100
▁근데 100
▁다 100
▁있다 100
로 100
▁진짜 100
다 100
! 100
서 100
?? 100
나 100
▁잘 100
▁너무 100
▁오늘 100
야 100
시스템 100
에서 100
▁그 100
▁난 100
요 100
~ 100
게 100
사진 100
▁ᄏᄏᄏ 100
▁내가 100
▁더 100
▁아니 100
해 100
네 100
▁왜 100
의 100
▁하고 100
어 100
▁그냥 100
) 100
▁지금 100
▁좀 100
▁ᄏᄏᄏᄏ 100
으로 100
▁한 100
▁거 100
▁나도 100
시 100
▁오 100
( 100
▁응 100
하고 100
▁ᄏᄏ 100
▁그럼 100
ᄏᄏᄏ 100
▁뭐 100
▁못 100
▁웅 100
아 100
, 100
ᄏᄏ 100
는데 100
라 100
▁이야기한다 100
랑 100
면 100
여 100
▁것 100
대 100
▁많이 100
▁대해 100
▁내 100
▁ᅲᅲ 100
▁ᄏᄏᄏᄏᄏ 100
이모티콘 100
구 100
▁수 100
▁그거 100
!! 100
해서 100
▁1 100
거 100
▁ᄒᄒ 100
▁너 100
▁2 100
한 100
▁사 100
기 100
오 100
니 100
▁헐 100
ᅲ 100
일 100
▁이제 100
▁같이 100
와 100
▁내일 100
▁또 100
인데 100
▁나는 100
ᄏᄏᄏᄏ 100
▁ᅲ 100
▁해서 100
자 100
▁ᄏᄏᄏᄏᄏᄏ 100
.... 100
▁우리 100
인 100
▁3 100
ᅲᅲ 100
▁ᄏ 100
안 100
▁먹고 100
사 100
▁이 100
▁그래서 100
,, 100
이랑 100
이야 100
라고 100
▁때 100
~~ 100
과 100
임 100
▁이거 100
▁개 100
▁했다 100
▁와 100
▁그래 100
▁이야기하고 100
▁집에 100
ᄏᄏᄏᄏᄏᄏᄏᄏᄏᄏᄏᄏᄏᄏᄏᄏ 100
▁어제 100
까지 100
▁ᄋᄋ 100
▁가 100
▁ᄏᄏᄏᄏᄏᄏᄏ 100
▁넘 100
▁하 100
▁해 100
▁할 100
▁하자 100
▁저 100
하면 100
▁다시 100
▁아직 100
▁있는 100
함 100
▁5 100
리 100
▁일 100
데 100
개 100
음 100
▁걍 100
▁다른 100
용 100
할 100
스 100
▁보고 100
니까 100
하는 100
▁엄청 100
당 100
▁10 100
분 100
▁하는 100
▁집 100
ᅮᅮ 100
들 100
▁언니 100
▁가서 100
이라 100
▁4 100
래 100
주 100
??? 100
▁엄마 100
ᄏᄏᄏᄏᄏ 100
냐 100
▁그래도 100
ᄏ 100
▁계속 100
▁일단 100
,,, 100
다고 100
▁어 100
..? 100
▁맞아 100
▁돈 100
▁게 100
▁말 100
▁빨리 100
▁응응 100
!!! 100
▁ᄏᄏᄏᄏᄏᄏᄏᄏ 100
▁하나 100
ᅮ 100
두 100
디 100
▁사람이 100
하 100
▁야 100
ᄒ 100
수 100
▁ᄒ 100
▁웅웅 100
▁바로 100
유 100
▁좋아 100
▁갈 100
더 100
원 100
▁6 100
▁그런 100
▁밥 100
▁ᅮᅮ 100
ᄒᄒ 100
장 100
▁것에 100
▁막 100
▁엄마가 100
까 100
월 100
더라 100
▁언제 100
진 100
▁요즘 100
▁주 100
▁ᄏᄏᄏᄏᄏᄏᄏᄏᄏ 100
▁있어 100
▁사람 100
▁살 100
비 100
▁원래 100
▁하니 100
인가 100
▁음 100
▁이야기를 100
좀 100
▁두 100
▁무슨 100
▁전 100
▁그게 100
보다 100
지만 100
바 100
▁비 100
보 100
러 100
▁혼자 100
▁완전 100
▁하면 100
▁했는데 100
소 100
▁하는데 100
▁갑자기 100
한다 100
▁말한다 100
▁7 100
이나 100
▁그렇게 100
▁줄 100
듯 100
하게 100
▁저거 100
며 100
마 100
▁원 100
▁8 100
▁머 100
는거 100
치 100
시에 100
▁낼 100
건 100
봐 100
내 100
▁그건 100
잖아 100
으면 100
▁없어 100
▁거기 100
이다 100
▁그리고 100
ᄏᄏᄏᄏᄏᄏ 100
제 100
▁시간 100
쓰 100
이라고 100
▁후 100
▁ᄏᄏᄏᄏᄏᄏᄏᄏᄏᄏ 100
▁한번 100
차 100
부터 100
▁그니까 100
그 100
▁중 100
긴 100
노 100
걸 100
▁어떻게 100
우 100
▁ᅮ 100
한테 100
년 100
▁없어서 100
▁일찍 100
줄 100
▁존나 100
▁때문에 100
▁지 100
부 100
▁차 100
▁자 100
꺼 100
보고 100
▁9 100
써 100
▁같아 100
가서 100
시간 100
#@ 100
때 100
▁30 100
▁여기 100
하지 100
▁같다고 100
중 100
드 100
▁자기 100
집 100
따 100
▁물 100
▁나중에 100
▁같다 100
▁먹을 100
던데 100
▁아냐 100
▁오늘은 100
져 100
▁있는데 100
▁딱 100
▁좋은 100
▁같은 100
미 100
▁있어서 100
▁뭔가 100
▁네 100
자나 100
▁12 100
▁헉 100
▁것을 100
진짜 100
▁ᄏᄏᄏᄏᄏᄏᄏᄏᄏᄏᄏ 100
▁사진 100
▁모 100
말 100
▁어디 100
살 100
▁집에서 100
다가 100
▁맨날 100
잘 100
▁와서 100
동 100
▁그치 100
신 100
전 100
처럼 100
성 100
▁전에 100
감 100
▁가는 100
냐고 100
상 100
▁건 100
던 100
만원 100
겠다 100
▁20 100
▁이런 100
했어 100
▁거의 100
▁몰라 100
▁꼭 100
명 100
▁엥 100
하는데 100
거야 100
정 100
▁엉 100
▁올 100
겨 100
했는데 100
▁함 100
면서 100
▁정말 100
▁이렇게 100
번 100
있어 100
타 100
▁생각 100
▁아니면 100
▁걸 100
▁아님 100
▁11 100
조 100
▁대해서 100
▁니 100
▁구 100
▁언니가 100
▁그때 100
▁고 100
▁어떤 100
방 100
엉 100
▁저녁 100
~~~ 100
▁전화 100
모 100
▁있다고 100
ᄋ 100
거든 100
▁날 100
화 100
삼 100
▁별로 100
▁해야 100
▁회사 100
▁머리 100
..... 100
▁ᅲᅲᅲ 100
▁대 100
▁ᄏᄏᄏᄏᄏᄏᄏᄏᄏᄏᄏᄏ 100
세 100
▁한다고 100
▁대박 100
▁약간 100
질 100
▁친구 100
▁운동 100
▁이미 100
죠 100
▁가고 100
들이 100
▁몇 100
▁제일 100
▁알 100
구나 100
^^ 100
▁얼마 100
엔 100
▁것이 100
▁아까 100
라서 100
려 100
▁시 100
▁정 100
▁너가 100
▁보 100
▁흠 100
▁조금 100
못 100
야지 100
이면 100
▁ᄒᄒᄒ 100
넹 100
▁봐 100
▁다들 100
▁가면 100
길 100
1 100
남 100
▁먹어 100
▁옷 100
▁아침에 100
▁영화 100
산 100
ᄏᄏᄏᄏᄏᄏᄏ 100
려고 100
으 100
적 100
날 100
ᅲᅲᅲ 100
트 100
▁산 100
루 100
너 100
했다 100
무 100
군 100
단 100
하나 100
▁오래 100
것 100
▁여행 100
이네 100
!!!! 100
...? 100
▁마 100
검색 100
실 100
▁배 100
는게 100
?! 100
▁ᅳᅳ 100
▁저번에 100
▁코로나 100
물 100
박 100
▁사고 100
▁벌써 100
천 100
▁없다 100
더니 100
줘 100
2 100
▁볼 100
징 100
▁눈 100
▁좋다 100
▁다음 100
▁세 100
▁점심 100
▁열심히 100
▁어케 100
애 100
3 100
▁누가 100
난 100
▁없 100
▁ᄏᄏᄏᄏᄏᄏᄏᄏᄏᄏᄏᄏᄏ 100
▁그런거 100
파 100
간 100
▁반 100
▁큰 100
▁.. 100
▁이게 100
▁겁나 100
공 100
▁부 100
▁무 100
▁술 100
▁있고 100
▁마자 100
▁같은데 100
하다 100
식 100
▁아하 100
먹고 100
께 100
▁오빠 100
▁알아 100
왜 100
한거 100
▁먹는 100
▁사실 100
▁사진을 100
겠지 100
▁있 100
▁본 100
히 100
▁시간이 100
또 100
▁먼저 100
▁아빠 100
▁늦게 100
▁번 100
▁말하고 100
▁돼 100
▁카페 100
▁이번 100
심 100
▁뭐야 100
해야 100
▁신 100
▁뭘 100
뭐 100
▁약 100
▁아주 100
▁미 100
▁정도 100
티 100
▁혹시 100
▁없는 100
▁보면 100
인지 100
저 100
▁: 100
▁말고 100
▁참 100
▁위해 100
▁자꾸 100
이고 100
옹 100
▁얼마나 100
▁시험 100
하는거 100
▁연락 100
▁병원 100
선 100
▁방금 100
▁마스크 100
▁우 100
있 100
▁하지만 100
▁버스 100
;; 100
▁하루 100
▁아아 100
▁ᄏᄏᄏᄏᄏᄏᄏᄏᄏᄏᄏᄏᄏᄏ 100
▁싶다 100
▁있으면 100
▁되 100
▁저녁에 100
▁아니야 100
나봐 100
▁고민 100
▁넌 100
▁조 100
카 100
▁젤 100
행 100
라도 100
▁될 100
▁어때 100
양 100
▁어차피 100
▁것이다 100
▁하지 100
포 100
피 100
▁타고 100
▁역시 100
▁얘기 100
한다고 100
▁달 100
▁간 100
▁사서 100
하자 100
하네 100
; 100
밖에 100
재 100
갈 100
▁타 100
▁피 100
▁들어 100
▁어디서 100
▁아니고 100
매 100
점 100
▁먹 100
▁... 100
▁하면서 100
▁울 100
▁학교 100
없어 100
▁서울 100
▁나랑 100
반 100
▁니가 100
▁싶어 100
어서 100
▁퇴근 100
건데 100
▁보내 100
▁곧 100
▁괜찮아 100
기타 100
▁유 100
회 100
▁출근 100
▁지금은 100
▁써 100
▁팔 100
맛 100
이래 100
길래 100
▁가야 100
▁싶다고 100
▁아니라 100
▁자주 100
▁상 100
▁입 100
르 100
▁불 100
움 100
▁치킨 100
▁알바 100
▁옹 100
▁싸 100
하니까 100
▁공부 100
▁이번에 100
가면 100
▁온 100
▁처음 100
▁하며 100
는지 100
▁넹 100
머 100
▁ᄏᄏᄏᄏᄏᄏᄏᄏᄏᄏᄏᄏᄏᄏᄏ 100
이지 100
▁그런가 100
▁맛 100
하기 100
▁방 100
된 100
울 100
와서 100
잇 100
발 100
▁그러면 100
ᅦ 100
▁새로 100
▁안돼 100
월에 100
▁친구가 100
찌 100
이가 100
▁오키 100
ᄏᄏᄏᄏᄏᄏᄏᄏ 100
입 100
▁카톡 100
▁커피 100
▁나두 100
되 100
호 100
▁ᄅᄋ 100
▁노래 100
▁밖에 100
▁미리 100
가지고 100
▁같아서 100
었는데 100
키 100
▁사람들이 100
이라서 100
잉 100
▁먹으면 100
▁없다고 100
옴 100
▁아빠가 100
▁있을 100
는디 100
▁이런거 100
일에 100
▁뭐가 100
▁듯 100
너무 100
▁돈을 100
사람 100
▁제 100
배 100
▁미친 100
▁만 100
정도 100
▁?? 100
란 100
▁하였다 100
▁두개 100
짐 100
▁그러게 100
겠다고 100
▁것도 100
▁이야기 100
거나 100
씨 100
에게 100
금 100
떠 100
먹어 100
▁된다 100
▁너도 100
▁기 100
▁받아 100
▁예약 100
없 100
▁많아서 100
▁새 100
▁없고 100
▁자고 100
▁돈이 100
쥬 100
▁사람들 100
▁나한테 100
할때 100
▁애들 100
▁그러 100
케 100
버 100
▁얼른 100
▁느낌 100
거같아 100
통 100
▁주고 100
▁책 100
▁거라고 100
▁삼 100
5 100
▁15 100
역 100
▁사람은 100
▁장 100
림 100
▁많아 100
▁된다고 100
▁발 100
구만 100
▁쓰고 100
▁열 100
린 100
퍼 100
▁맛이 100
으니까 100
그래 100
▁아마 100
???? 100
▁맞 100
▁진심 100
▁서로 100
▁않아 100
달 100
알 100
▁애 100
아니 100
근데 100
URL 100
▁일이 100
▁먹으러 100
▁수업 100
▁마니 100
것도 100
▁비싸 100
▁간다 100
▁다음에 100
▁쓸 100
▁들고 100
하면서 100
터 100
▁말을 100
문 100
▁아직도 100
운 100
▁싫어 100
▁금방 100
다며 100
▁잠 100
▁만들어 100
▁노 100
햇 100
본 100
▁좋다고 100
었어 100
▁가자고 100
▁수도 100
▁밥을 100
▁싶은 100
라는 100
▁적 100
먹 100
▁잘못 100
▁감 100
▁되는 100
▁다이어트 100
영 100
▁소 100
위 100
▁간다고 100
시까지 100
▁해도 100
하구 100
▁폰 100
▁오면 100
보면 100
▁문제 100
▁입고 100
▁요새 100
▁ᅲᅲᅲᅲ 100
코 100
온 100
색 100
ᅲᅲᅲᅲ 100
강 100
크 100
같이 100
▁둘 100
겠네 100
급 100
프 100
▁그럴 100
▁100 100
▁님 100
혀 100
▁50 100
▁배가 100
▁이따 100
▁시켜 100
▁좋지 100
▁나서 100
한데 100
업 100
▁가기로 100
▁일을 100
▁데 100
슈 100
▁들 100
기로 100
▁남자 100
▁손 100
됨 100
▁만나 100
▁뭔 100
▁아침 100
▁좋겠다 100
▁아예 100
돈 100
▁보는 100
▁코 100
▁취소 100
좋아 100
▁거기서 100
즈 100
▁글 100
▁고기 100
져서 100
봄 100
▁주말에 100
▁( 100
넘 100
8 100
▁기분 100
▁ᄋᄏ 100
워 100
▁오오 100
▁않고 100
▁스 100
▁문 100
▁ᄋ 100
▁가자 100
- 100
▁동생이 100
형 100
▁목 100
글 100
있는데 100
▁비가 100
▁싶은데 100
▁나와 100
씩 100
▁중에 100
▁쓰 100
▁면접 100
생 100
드라 100
▁파 100
▁조아 100
▁따로 100
했 100
▁이건 100
▁대화한다 100
▁준비 100
다니 100
ᄏᄏᄏᄏᄏᄏᄏᄏᄏ 100
레 100
연 100
/ 100
▁선물 100
▁되게 100
생각 100
▁남 100
▁게임 100
할까 100
▁양 100
▁이상 100
▁들어가 100
▁챙겨 100
▁묻고 100
그럼 100
▁김 100
▁나와서 100
편 100
▁빵 100
▁그것도 100
▁선 100
▁둘이 100
▁동 100
▁40 100
망 100
약 100
근 100
볼 100
▁하니까 100
지도 100
▁인 100
▁화 100
쳐 100
같은 100
해도 100
든 100
토 100
돼 100
중에 100
ᅳᅳ 100
▁도착 100
많이 100
ᄂ 100
▁카드 100
▁누나 100
▁저기 100
▁항상 100
▁너는 100
후 100
관 100
하라고 100
▁보러 100
▁생각보다 100
ᄀ 100
▁재 100
▁좋아하는 100
님 100
▁토 100
규 100
▁있는지 100
▁되면 100
▁^^ 100
▁둘다 100
▁대화 100
왕 100
▁달라고 100
▁봤는데 100
▁소리 100
같은거 100
▁휴 100
초 100
으니 100
▁별 100
지는 100
▁누구 100
하려고 100
▁맛있는 100
주고 100
▁왔는데 100
▁약속 100
국 100
▁좋 100
하니 100
▁덜 100
▁시작 100
▁사는 100
해야지 100
▁얼굴 100
ᄒᄒᄒ 100
등 100
들은 100
6 100
4 100
▁만나서 100
▁무조건 100
쯤 100
▁곳 100
▁걱정 100
직 100
▁없는데 100
▁대신 100
쪽 100
는건 100
▁바 100
▁대한 100
기가 100
▁진 100
▁가지 100
겟다 100
▁할인 100
잇어 100
말고 100
▁저런 100
▁나온 100
있는 100
▁결제 100
▁담에 100
▁알고 100
막 100
거같은데 100
복 100
▁오늘도 100
▁스트레스 100
▁먹은 100
걸로 100
니깐 100
▁일본 100
▁놀러 100
▁예 100
▁언니는 100
▁찾아 100
▁오라고 100
ᅳ 100
는거야 100
싸 100
되면 100
▁가능 100
판 100
▁했다고 100
▁날씨 100
백 100
낭 100
불 100
억 100
▁앗 100
▁마지막 100
▁생각해 100
▁주문 100
▁치 100
자고 100
▁한국 100
▁했더니 100
대로 100
간다 100
▁핸드폰 100
▁그걸 100
▁추천 100
▁아녀 100
▁있음 100
▁이사 100
▁나오는 100
▁맛있어 100
누 100
눈 100
▁가격 100
▁여자 100
▁드라마 100
햇어 100
밥 100
오늘 100
▁좋은데 100
각 100
▁많은 100
▁고마워 100
▁죽 100
작 100
▁물어보고 100
▁나가 100
▁쓰는 100
▁제발 100
분에 100
▁사람에게 100
▁보통 100
▁말이 100
▁티 100
▁된 100
▁ᄒᄒᄒᄒ 100
...... 100
▁ᄂᄂ 100
▁힘들 100
▁초 100
병 100
▁잠깐 100
▁일주일 100
▁배달 100
0 100
▁했어 100
9 100
그냥 100
▁예전에 100
▁가지고 100
시쯤 100
했다고 100
이여 100
알바 100
▁애기 100
▁오랜만에 100
▁잇 100
▁오빠가 100
팔 100
~! 100
었다 100
달라고 100
▁으 100
▁제대로 100
▁안에 100
▁하기 100
▁앞에 100
응 100
ᄉ 100
▁짐 100
▁저렇게 100
▁이모티콘 100
지금 100
▁피자 100
▁실 100
하러 100
▁여 100
놓고 100
▁가려고 100
▁아닌데 100
개월 100
짜 100
▁동생 100
▁따 100
▁밤에 100
댜 100
▁함께 100
릴 100
▁! 100
계 100
라구 100
▁매일 100
▁빼 100
경 100
▁ᄋᄋᄋ 100
!!!!! 100
▁대충 100
▁끝나고 100
▁학원 100
준 100
▁가게 100
▁먹어서 100
▁속 100
마다 100
▁봄 100
▁ᄋᄉᄋ 100
있음 100
▁받고 100
▁고양이 100
같 100
꼬 100
적으로 100
교 100
▁짱 100
▁흑흑 100
▁연 100
내가 100
▁솔직히 100
▁강 100
▁결국 100
▁아닌 100
▁먹어야 100
겟 100
빵 100
▁보니까 100
▁이번주 100
이라도 100
▁떡볶이 100
▁인정 100
▁작은 100
▁생 100
있다 100
▁엄마랑 100
느 100
▁가기 100
링 100
▁신청 100
라면 100
▁생일 100
담 100
▁차라리 100
▁되고 100
▁오는 100
▁따라 100
▁키 100
열 100
보니까 100
▁많 100
▁화장실 100
▁호 100
ᄅ 100
▁제주도 100
얌 100
▁하려고 100
체 100
마넌 100
▁우리가 100
보내 100
▁말라고 100
때문에 100
이니까 100
▁공 100
~~~~ 100
▁끝 100
할게 100
염 100
▁오호 100
기도 100
▁택배 100
▁갔다 100
권 100
▁같고 100
▁옆에 100
▁절대 100
▁결혼 100
▁그러니까 100
ᅡ 100
▁주는 100
▁먹었는데 100
있어서 100
▁에 100
▁단 100
겠어 100
▁정리 100
▁짜 100
▁편 100
뎅 100
▁준 100
▁위에 100
오면 100
▁엄마는 100
▁듣고 100
▁ᄀ 100
▁쉬 100
▁휴가 100
플 100
하다가 100
야해 100
▁그렇지 100
▁사야 100
죽 100
겠 100
▁너네 100
▁왔다 100
▁할지 100
언니 100
▁글고 100
▁자기가 100
▁놀 100
▁라면 100
▁금 100
▁같 100
▁자리 100
▁우린 100
▁직접 100
▁옷을 100
메 100
예 100
▁길 100
▁부산 100
끼 100
태 100
▁저는 100
청 100
더라고 100
쉬 100
▁다행이다 100
셔 100
▁것과 100
에는 100
▁싶어서 100
▁심 100
▁지하철 100
▁왜케 100
▁알아서 100
▁동안 100
▁강아지 100
▁여보 100
햇는데 100
▁크 100
▁힘들어 100
ᅮᅮᅮ 100
▁만나기로 100
ᄏᄏᄏᄏᄏᄏᄏᄏᄏᄏ 100
▁있지 100
▁백 100
▁허 100
▁가끔 100
종 100
▁몸 100
올 100
앙 100
▁없이 100
▁가방 100
▁사면 100
▁엄마한테 100
그거 100
▁담주 100
▁맥주 100
▁제가 100
을때 100
▁알겠어 100
,,,, 100
▁아이폰 100
▁기분이 100
하며 100
▁샀는데 100
천원 100
▁앞 100
▁그려 100
▁맞다 100
▁배송 100
▁인터넷 100
▁되지 100
️ 100
▁명 100
▁생각이 100
7 100
▁~ 100
▁사려고 100
▁주말 100
▁넣어 100
▁이에 100
곳 100
키로 100
▁어어 100
학 100
▁출발 100
▁알았어 100
▁등 100
석 100
는중 100
가자 100
얘기 100
층 100
▁암튼 100
일이 100
지마 100
목 100
▁급 100
줌 100
소리 100
추 100
옷 100
▁졸라 100
▁토요일 100
▁하라고 100
▁말에 100
할듯 100
잔 100
▁영상 100
▁뒤에 100
▁아파서 100
이제 100
▁까 100
▁한달 100
여서 100
▁,, 100
랭 100
댕 100
▁난리 100
벌 100
▁없으면 100
▁가격이 100
▁홀 100
보자 100
▁파는 100
▁씻고 100
▁기억 100
▁밤 100
▁문자 100
▁과제 100
꾸 100
나도 100
증 100
▁거야 100
하기로 100
▁찍어 100
락 100
들어 100
▁받을 100
▁하긴 100
▁와우 100
셈 100
▁확인 100
▁당 100
갈까 100
▁계란 100
네요 100
능 100
▁천천히 100
잠 100
▁풀 100
▁금요일 100
잡 100
▁아르바이트 100
▁여기서 100
▁첫 100
였어 100
▁욕 100
▁통 100
▁먹었다 100
▁꽃 100
▁내일은 100
▁상대방이 100
같아 100
▁산책 100
참 100
▁운전 100
▁묻자 100
▁이해 100
▁갈까 100
프로 100
겟지 100
▁옹옹 100
▁음식 100
없어서 100
이는 100
▁괜히 100
ᄏᄏᄏᄏᄏᄏᄏᄏᄏᄏᄏ 100
▁그만 100
▁마쟈 100
▁먹기로 100
▁우리집 100
▁되는데 100
왔어 100
▁맛있 100
적인 100
절 100
좋 100
건가 100
언 100
▁가는데 100
▁위 100
▁뭐지 100
민 100
▁영어 100
▁회사에서 100
였 100
전에 100
쥐 100
10 100
▁눈이 100
▁끝나 100
▁말해 100
▁수술 100
▁달라 100
▁구래 100
▁알지 100
▁천 100
▁비싼 100
▁보니 100
▁박 100
커 100
▁귀 100
친 100
▁갔는데 100
느낌 100
▁괜찮 100
새 100
▁있나 100
테 100
▁토요일에 100
▁돌 100
▁좋고 100
려면 100
▁성 100
맞아 100
▁그렇 100
▁아는 100
▁아진짜 100
▁했 100
▁말했다 100
▁호텔 100
▁느낌이 100
▁첨 100
력 100
▁귀여워 100
▁컴퓨터 100
닝 100
되는 100
▁추가 100
▁바람 100
▁영 100
▁바지 100
입니다 100
▁사주 100
▁먹지 100
▁구경 100
해줘 100
엇 100
▁우선 100
현 100
그러 100
출 100
봉 100
▁생리 100
▁구매 100
▁올해 100
▁날씨가 100
는뎅 100
속 100
▁한시간 100
보여 100
탈 100
▁과 100
▁몇시에 100
▁깨 100
▁최고 100
하는게 100
▁나오 100
▁드 100
▁만날 100
한대 100
▁마음 100
나서 100
▁신발 100
▁커 100
▁치즈 100
▁매 100
려나 100
▁사이즈 100
▁맛있게 100
고싶다 100
랴 100
▁아파 100
창 100
▁먹자고 100
▁앞으로 100
야겠다 100
▁살까 100
투 100
론 100
봤어 100
▁신고 100
없이 100
믄 100
브 100
+ 100
언제 100
▁이상한 100
▁가입 100
▁통화 100
을듯 100
▁몸이 100
▁크게 100
▁담 100
봤는데 100
▁떠 100
▁마음에 100
▁아닌가 100
▁ᅲᅲᅲᅲᅲ 100
▁마라탕 100
▁살짝 100
▁잔 100
▁걔 100
▁흑 100
▁후기 100
아냐 100
렁 100
▁청소 100
~? 100
었 100
▁먹었어 100
세요 100
▁월급 100
까진 100
인거 100
류 100
▁벌 100
앗 100
▁야근 100
을까 100
▁새벽에 100
▁것은 100
▁운동을 100
▁편의점 100
▁걸어 100
칠 100
탕 100
쿠 100
▁중국 100
▁선생님 100
▁하다가 100
▁히히 100
한번 100
▁너랑 100
▁초코 100
▁나가서 100
▁좋아서 100
▁먹자 100
달라 100
▁없을 100
▁우웅 100
이라는 100
▁앙 100
▁해야지 100
먹으면 100
▁악 100
▁동네 100
▁머리가 100
▁암 100
▁집이 100
▁네이버 100
▁검사 100
궁 100
▁당근 100
놀 100
긴한데 100
▁않을까 100
▁좋을 100
▁병원에 100
▁선택 100
될 100
▁똥 100
▁딸 100
▁했지만 100
▁아닝 100
▁쳐 100
▁괜찮은 100
슴 100
름 100
▁모르겠다 100
뜨 100
▁인생 100
▁저게 100
ᄃ 100
▁ᅳ 100
▁기대 100
▁할머니 100
▁스벅 100
▁모르겠어 100
쟈 100
그래서 100
▁아무도 100
▁회 100
▁분 100
▁봐야 100
▁지원 100
▁뭐라 100
▁아무것도 100
볼까 100
머리 100
▁하는거 100
▁맞는 100
▁내꺼 100
▁만들 100
딩 100
주면 100
된다 100
▁저도 100
▁카 100
▁사용 100
거리 100
▁것이라고 100
▁짜증 100
▁아나 100
▁하나도 100
해요 100
▁디 100
▁돼서 100
▁그날 100
;;; 100
카드 100
▁갔다가 100
순 100
▁엉엉 100
주소 100
▁갖고 100
▁때는 100
▁보는데 100
낼 100
▁입을 100
만큼 100
악 100
깨 100
았 100
거지 100
▁맘 100
▁아무 100
자너 100
▁비행기 100
냥 100
▁쿠폰 100
▁취업 100
보단 100
▁얘기하고 100
▁샀다 100
▁샀 100
▁온다고 100
▁빼고 100
▁없음 100
▁하루에 100
▁카카오톡 100
▁탈 100
▁모르는 100
▁대화를 100
30 100
▁예매 100
▁중이다 100
▁받은 100
▁힘 100
폰 100
▁점 100
습니다 100
인듯 100
먹음 100
에도 100
▁먼가 100
▁떡 100
김 100
채 100
▁곳이 100
침 100
인디 100
우리 100
허 100
▁않아서 100
▁되어 100
▁그래두 100
둘 100
욤 100
ᄆ 100
▁리 100
줄게 100
▁요 100
▁내말이 100
가봐 100
▁사러 100
▁밑에 100
▁택시 100
웅 100
▁과자 100
▁잉 100
▁당장 100
▁굳이 100
▁우와 100
▁아이스크림 100
병원 100
버려 100
▁아니다 100
ᄏᄏᄏᄏᄏᄏᄏᄏᄏᄏᄏᄏᄏᄏᄏ 100
했지 100
▁나올 100
▁내려 100
▁고구마 100
▁13 100
▁사랑 100
안에 100
▁아이 100
▁우유 100
▁유튜브 100
▁털 100
▁망 100
▁가족 100
▁알았는데 100
▁한데 100
▁할까 100
▁기억이 100
ᅵ 100
▁힝 100
▁뭔데 100
▁싼 100
얼 100
▁냄새 100
주는 100
▁쫌 100
▁무서워 100
는거지 100
▁여름 100
▁24 100
아서 100
▁겨울 100
▁애들이 100
ᅲᅲᅲᅲᅲ 100
암 100
떡 100
▁못해 100
▁노트북 100
▁에어컨 100
▁봤어 100
때마다 100
▁마음이 100
놔 100
▁기본 100
조아 100
▁먹기 100
돌 100
▁늦 100
짱 100
▁오후 100
▁맞나 100
맞 100
▁주에 100
▁확실히 100
▁숙소 100
▁근처 100
마니 100
거같애 100
▁그대로 100
▁걸로 100
가지 100
▁됨 100
짜리 100
▁늘 100
▁병 100
하다고 100
▁바꿔 100
책 100
캐 100
▁ᄋᄏᄋᄏ 100
▁안나 100
다는 100
▁없지 100
▁25 100
▁찐 100
▁엄마에게 100
했던 100
▁교육 100
▁들어가서 100
기를 100
왔 100
소속 100
꺼야 100
▁가장 100
▁다리 100
인줄 100
▁넣고 100
▁맞지 100
▁먹으라고 100
▁인스타 100
▁미안 100
▁왤케 100
▁미국 100
알아 100
이니 100
▁오케이 100
집에 100
▁받아서 100
▁일어나 100
▁멀 100
▁하나만 100
처 100
▁답 100
▁않 100
❤ 100
평 100
▁이불 100
슬 100
사람이 100
....... 100
▁금요일에 100
▁않은 100
▁이틀 100
▁나만 100
▁보기 100
▁나갈 100
▁날이 100
▁감기 100
▁포기 100
값 100
▁새로운 100
향 100
친구 100
갔 100
▁하기로 100
▁보자 100
▁먼 100
▁봐서 100
있으면 100
▁맘에 100
▁외 100
▁케이크 100
도착 100
술 100
▁왕 100
▁짜증나 100
▁역 100
▁색 100
였는데 100
▁그렇군 100
▁먹었 100
▁언니에게 100
▁그나마 100
야돼 100
▁새우 100
▁싫다 100
▁새벽 100
▁잠이 100
나와 100
▁샐러드 100
▁예쁜 100
▁닭 100
어요 100
카톡 100
▁일반 100
지않아 100
▁받는 100
ᄏᄏᄏᄏᄏᄏᄏᄏᄏᄏᄏᄏ 100
▁몇개 100
▁총 100
▁표 100
▁넘나 100
합니다 100
기는 100
▁배고파 100
▁있으니 100
없는 100
▁싸게 100
▁먹음 100
할거 100
..! 100
덕 100
해주 100
왔는데 100
표 100
▁옴 100
▁환불 100
팅 100
▁아파트 100
▁헤헤 100
▁건데 100
▁업 100
▁식 100
▁16 100
자리 100
▁꼬 100
▁결정 100
▁공부를 100
곡 100
진다 100
▁ᄀᄎ 100
▁고민하고 100
▁당연히 100
느라 100
▁일어나서 100
▁관리 100
▁회식 100
스트 100
▁시간을 100
▁많다 100
▁밥먹고 100
풀 100
라며 100
▁샀어 100
▁꽤 100
취 100
▁아픈 100
▁사람을 100
▁두고 100
나는 100
안돼 100
가능 100
!!!!!! 100
하더라 100
블 100
것같아 100
▁웃겨 100
▁어쩔 100
▁일하는 100
▁만두 100
▁살이 100
▁드디어 100
▁그런데 100
봤 100
별 100
▁바다 100
라니 100
야하는데 100
▁준다고 100
▁강의 100
▁푹 100
탄 100
_ 100
▁딱히 100
▁술을 100
▁김치 100
▁사람도 100
▁안되 100
▁남은 100
▁받 100
▁결혼식 100
려서 100
햐 100
아님 100
이상 100
▁이따가 100
▁ᄉᄇ 100
클 100
받 100
▁스타벅스 100
▁그랬 100
갓 100
▁했고 100
▁추 100
▁우리는 100
▁좋아해 100
외 100
법 100
애들 100
▁간식 100
졌 100
냐며 100
▁못하고 100
▁맛있다고 100
것같 100
거라 100
▁재밌 100
▁티비 100
▁오잉 100
▁쓴 100
▁아이패드 100
▁뜨 100
품 100
▁흐 100
▁생긴 100
갈게 100
▁돼지 100
▁퇴사 100
텐데 100
▁다른거 100
▁오키오키 100
▁많고 100
▁요리 100
▁포장 100
▁포 100
▁아항 100
▁다행 100
들고 100
▁연애 100
씀 100
ᅥ 100
▁집가서 100
▁뒤 100
▁심지어 100
▁보면서 100
▁행복 100
▁싫 100
▁오고 100
▁그렇구나 100
▁.... 100
▁삼겹살 100
▁맛있겠다 100
받고 100
▁대체 100
항 100
▁머야 100
▁글구 100
▁가져가 100
많 100
▁순 100
눈데 100
▁허리 100
▁보여 100
▁나름 100
▁에이 100
명이 100
▁보험 100
▁충전 100
▁신경 100
▁분위기 100
▁우산 100
▁먹으려고 100
▁하는지 100
▁맨 100
▁감자 100
▁만든 100
▁등록 100
▁먹어도 100
▁필요 100
▁톡 100
▁14 100
▁김밥 100
▁블랙 100
▁파스타 100
▁나오면 100
▁쓰면 100
비싸 100
▁얘 100
시부터 100
▁해주 100
20 100
▁각 100
▁추워서 100
▁꿀 100
▁이름이 100
▁절 100
▁옛날 100
엇어 100
쓰고 100
치고 100
빠 100
▁거지 100
찍 100
▁토익 100
려구 100
▁장난 100
쌤 100
▁각자 100
렸 100
▁오픈 100
▁부탁 100
▁괜찮다고 100
▁꿈 100
▁어디가 100
▁왱 100
▁언니도 100
▁17 100
▁굿 100
지말고 100
▁눈치 100
▁않을 100
▁18 100
▁물어봐 100
▁먹을지 100
해봐 100
입고 100
▁맞춰 100
▁맛집 100
료 100
준비 100
▁퇴근하고 100
▁ᄂ 100
▁있었는데 100
▁먹었다고 100
▁준다 100
손 100
이라니 100
충 100
보니 100
카페 100
▁경 100
▁아니라고 100
▁친구랑 100
▁여긴 100
▁먹는다고 100
▁칠 100
ᄐ 100
베 100
▁자기는 100
▁청 100
▁부럽다 100
들을 100
▁라 100
량 100
나요 100
녀 100
수도 100
줘서 100
▁뭔지 100
왓 100
▁졸 100
▁사과 100
▁맛있다 100
답 100
▁모든 100
▁영화를 100
없다 100
▁쇼핑 100
▁힘들다 100
뿐 100
▁친 100
학년 100
▁정신 100
▁올려 100
▁세일 100
볼게 100
봣 100
▁뭐라고 100
람 100
▁무료 100
ᄏᄏᄏᄏᄏᄏᄏᄏᄏᄏᄏᄏᄏ 100
????? 100
▁어플 100
▁저녁은 100
척 100
▁만원 100
별로 100
' 100
▁알게 100
▁잼 100
▁줘 100
▁있어야 100
▁계획 100
번호 100
▁있지만 100
▁일요일 100
▁아침부터 100
▁세상 100
▁않는다 100
▁버 100
▁블로그 100
지고 100
나보네 100
익 100
▁점심에 100
있지 100
▁가도 100
▁골라 100
쪄 100
▁마시고 100
▁너한테 100
▁괜찮을 100
▁배우 100
뭐야 100
빨리 100
▁화장 100
엿 100
▁먹고싶다 100
▁머리를 100
▁상대방 100
른 100
▁스타일 100
봐서 100
이거 100
놓 100
까봐 100
▁주식 100
▁써야 100
▁물어보 100
▁작 100
▁끼 100
▁맛잇 100
▁보기로 100
났 100
껄 100
하냐 100
▁침대 100
▁싶 100
땜에 100
▁맞어 100
▁딸기 100
귀 100
▁않는 100
▁한번도 100
s 100
▁졸업 100
▁여행을 100
▁피부 100
광 100
수가 100
▁월 100
▁안그래도 100
▁건지 100
받아 100
▁오홍 100
했네 100
▁잡 100
▁강남 100
▁은근 100
둥 100
▁무리 100
▁검정 100
▁대구 100
▁땀 100
▁식사 100
▁아프 100
▁차가 100
▁그런지 100
▁ᅮᅮᅮ 100
빼 100
▁없네 100
있고 100
▁!! 100
던가 100
▁검색 100
놈 100
▁재미 100
▁힘든 100
▁누 100
나바 100
▁베 100
합 100
▁살아 100
▁아니냐 100
낫 100
있는거 100
▁마저 100
아직 100
▁더워 100
▁밖에서 100
▁언니랑 100
자마자 100
▁200 100
▁근무 100
▁그러고 100
▁놀고 100
문제 100
듀 100
운동 100
▁쪽 100
▁쉬고 100
▁있는거 100
▁그래야 100
▁마시 100
▁기사 100
건지 100
▁먹구 100
계정 100
▁인사 100
▁햇 100
▁약을 100
▁나이 100
▁다니 100
▁귀엽 100
▁설마 100
▁마감 100
▁안된다 100
▁몰라서 100
▁회사에 100
맨 100
▁씨 100
전화 100
▁0 100
▁ᄒᄉᄒ 100
시험 100
▁모르 100
▁차를 100
▁쉬는 100
▁개웃겨 100
▁사기 100
처넌 100
시켜 100
▁시즌 100
때매 100
ᄏᄏᄏᄏᄏᄏᄏᄏᄏᄏᄏᄏᄏᄏ 100
▁목요일 100
▁어느 100
긔 100
▁시간에 100
▁주소 100
▁번호 100
▁패딩 100
땅 100
▁집으로 100
쏘 100
▁점점 100
틀 100
되고 100
▁세상에 100
▁쌤 100
▁월요일에 100
▁수가 100
▁면 100
는것도 100
엄청 100
땐 100
▁하루종일 100
령 100
긴해 100
▁잡아 100
▁정보 100
하여 100
격 100
▁안경 100
▁합격 100
▁반찬 100
어때 100
▁사다 100
골 100
그런 100
먹을 100
▁화가 100
▁눈물 100
▁웃 100
▁써서 100
▁샌드위치 100
▁빠 100
▁이러 100
▁꺼 100
ᅢ 100
▁보내주 100
▁사진이 100
▁귀엽다 100
▁투 100
▁딴 100
런 100
▁변 100
▁크림 100
되어 100
▁미안해 100
는걸 100
▁추워 100
▁괜찮다 100
▁형 100
▁떼 100
▁나옴 100
▁기다려 100
▁고생 100
짓 100
▁60 100
분이 100
던거 100
▁과일 100
▁어디로 100
대박 100
▁보자고 100
맘 100
하지만 100
▁안해 100
▁돌려 100
▁모두 100
▁하구 100
▁전화를 100
▁그걸로 100
희 100
▁얌 100
▁누나가 100
▁해보 100
있나 100
▁햄버거 100
▁싫다고 100
▁그러네 100
▁최대한 100
▁좋네 100
▁자전거 100
▁남자친구 100
▁했던 100
회사 100
거래 100
▁거리 100
▁마트 100
▁대학 100
▁왔다고 100
원이 100
안해 100
▁기다리 100
▁몇시 100
▁꾸 100
▁필요한 100
▁왔어 100
▁알려주 100
엄 100
▁연습 100
바지 100
▁콘서트 100
▁침 100
다녀 100
▁여러 100
▁19 100
▁은행 100
▁갈게 100
▁우리도 100
▁오전에 100
거임 100
▁브랜드 100
▁버스를 100
몰 100
▁왔 100
롱 100
▁말하자 100
▁많은데 100
▁더워서 100
▁하자고 100
▁효과 100
d 100
▁괜춘 100
대서 100
갈때 100
▁중간에 100
ᄌ 100
많아 100
▁ᄋᄋᄋᄋ 100
▁오전 100
▁다음주 100
▁저건 100
▁조심히 100
▁빨래 100
했음 100
▁케이스 100
▁고민중 100
▁국 100
▁마스크를 100
▁밥은 100
내일 100
샀 100
▁무엇을 100
쇼 100
▁그런가봐 100
▁옆 100
졌어 100
▁기다리고 100
▁인천 100
▁며칠 100
▁귀찮아서 100
집에서 100
니다 100
설 100
▁일요일에 100
▁삼성 100
▁오늘부터 100
▁아이고 100
은거 100
▁날짜 100
ᅮᅮᅮᅮ 100
▁보라고 100
▁치과 100
▁발표 100
▁조금만 100
▁만드는 100
▁오지 100
▁요즘은 100
▁근 100
▁추천해 100
▁학 100
빼고 100
하긴 100
▁보다 100
▁도전 100
▁취 100
▁법 100
▁두번 100
▁비싸서 100
고싶어 100
▁연차 100
▁갈지 100
▁입금 100
▁용 100
타고 100
▁갔 100
▁아저씨 100
▁친구들 100
▁물건 100
몰라 100
▁하게 100
▁귀찮 100
▁음식을 100
▁성공 100
▁설명 100
자가 100
▁곱창 100
▁- 100
▁고고 100
▁생각하고 100
▁먹는다 100
콘 100
▁다닐 100
다리 100
▁주차 100
▁잠만 100
준다 100
시간이 100
밤 100
▁같음 100
▁중인데 100
▁얘기를 100
▁귀여운 100
▁알았 100
▁복 100
돼서 100
▁그리 100
지에 100
▁잇어 100
▁찍은 100
▁오옹 100
▁토스 100
▁500 100
▁거기에 100
▁연기 100
▁프사 100
▁내년 100
승 100
▁싶지만 100
▁해봐 100
▁체 100
츠 100
▁사무실 100
오래 100
▁낮에 100
보다는 100
▁상담 100
갔어 100
▁속이 100
온다 100
▁온다 100
▁푸 100
▁당연하지 100
지않 100
적이 100
▁거라 100
▁쉬어 100
시반 100
▁직원 100
갈래 100
▁광고 100
▁않았다 100
나가 100
▁지금도 100
▁근처에 100
▁서류 100
▁모기 100
걍 100
▁옷이 100
▁감사 100
었다고 100
▁철 100
▁얼 100
▁숨 100
호선 100
▁알려준다 100
렴 100
▁안하고 100
먹자 100
▁앞에서 100
▁태 100
▁어떡해 100
지면 100
이지만 100
▁계산 100
▁잘해 100
▁해결 100
▁잠을 100
▁이마트 100
▁시러 100
▁염색 100
▁비슷한 100
▁확진자 100
공부 100
▁위해서 100
밀 100
샤 100
▁도시락 100
▁흰색 100
~^^ 100
▁어깨 100
▁식당 100
다시 100
▁자신이 100
▁카페에서 100
먼 100
▁근디 100
페 100
랏 100
▁카페에 100
▁육 100
▁먹는데 100
▁잘했어 100
▁물어본다 100
지않나 100
▁먹을까 100
겡 100
▁업무 100
▁질 100
▁구냥 100
▁노력 100
을텐데 100
아니고 100
▁있었 100
야겠다고 100
▁우리나라 100
▁할게 100
▁전화해서 100
았어 100
▁갓 100
▁선물로 100
▁가야지 100
먹었어 100
▁봐도 100
▁아무리 100
▁글쿤 100
결 100
▁쓰레기 100
▁난다 100
▁알려주고 100
▁ᄆᄌ 100
▁에어팟 100
▁그랭 100
▁이모 100
▁매우 100
끝 100
▁넵 100
▁나왔는데 100
▁허허 100
▁이번엔 100
▁설 100
하자고 100
▁책상 100
▁화이팅 100
▁모르고 100
g 100
햇다 100
▁말도 100
▁맛나 100
▁글쎄 100
▁붙 100
▁주면 100
▁살지 100
▁계약 100
먹는 100
a 100
▁그림 100
십 100
▁가려 100
킹 100
사람들 100
겟네 100
▁말한 100
▁이쁜 100
▁핵 100
쓸 100
딱 100
e 100
어디 100
▁넘어 100
왔다 100
▁죽을 100
▁샀다고 100
립 100
일까지 100
되서 100
영화 100
▁예상 100
가고 100
▁이유가 100
도안 100
나옴 100
원에 100
▁모자 100
▁됐 100
▁아니지 100
거면 100
▁연어 100
▁그랫 100
▁받으면 100
들어가 100
▁티켓 100
▁적당히 100
▁지각 100
찬 100
▁일정 100
ᅮᅲ 100
▁상대자 100
▁차이 100
▁본인 100
▁편하게 100
▁마카롱 100
치킨 100
▁물론 100
▁쟤 100
p 100
▁결과 100
▁카메라 100
▁수영 100
팀 100
▁찌 100
먹었 100
융 100
하시 100
▁전혀 100
▁개인 100
철 100
▁작년에 100
묵 100
▁엄 100
▁안가 100
▁좋겠다고 100
▁하러 100
▁퍼 100
▁봐봐 100
▁후회 100
▁회의 100
▁그니깐 100
버리 100
졌다 100
여행 100
▁자는 100
역에서 100
▁방에 100
▁확 100
껴 100
않 100
아파 100
▁있으니까 100
더라구 100
▁크리스마스 100
▁말하는 100
▁추석 100
해라 100
으며 100
▁오후에 100
수업 100
했고 100
됐 100
시작 100
▁존맛 100
m 100
기만 100
장이 100
없음 100
▁판 100
일듯 100
노래 100
존 100
▁이벤트 100
▁유명한 100
▁지나 100
▁매장 100
▁쌀 100
▁직 100
▁되나 100
▁월요일 100
▁팬 100
▁내용 100
▁소스 100
▁방송 100
놨 100
▁오빠는 100
▁예정이다 100
▁넣어서 100
▁이것도 100
▁설치 100
▁홍 100
▁당연 100
▁디자인 100
사고 100
▁재밌어 100
머거 100
▁쿠팡 100
보는 100
▁팔아 100
▁일부러 100
▁곳에 100
거같아서 100
▁춥 100
▁해외 100
▁옛날에 100
▁몰 100
푸 100
야겟다 100
▁맛있는거 100
▁카카오 100
▁수요일 100
▁;; 100
▁ᄋᄆᄋ 100
동영상 100
▁사라고 100
▁대기 100
▁샤워 100
▁문제가 100
독 100
▁다행이네 100
▁난다고 100
▁안좋아 100
▁메 100
▁카레 100
라는데 100
▁박스 100
엄마 100
▁몇번 100
~~~~~ 100
▁직장 100
셨 100
▁작업 100
▁놓고 100
구먼 100
▁트 100
▁매운 100
버림 100
같은데 100
▁아이디 100
▁건강 100
시키 100
했더니 100
싫어 100
▁끝나면 100
▁못해서 100
▁돌아 100
▁넘게 100
▁나왔 100
▁걸리 100
▁힘들어서 100
▁사람들은 100
▁신기 100
가야지 100
▁인형 100
▁상태 100
▁슬슬 100
두고 100
▁광주 100
50 100
▁포인트 100
▁저녁을 100
야징 100
▁ᅲᅲᅲᅲᅲᅲ 100
▁밀 100
▁지갑 100
▁나왔다 100
▁아쉽 100
▁기차 100
할거야 100
▁낫 100
쩌 100
▁공연 100
▁구랭 100
▁접수 100
........ 100
▁만나면 100
▁교수님 100
인가봐 100
▁거긴 100
▁얼굴이 100
▁바꾸 100
▁자신의 100
▁ᄋᄌ 100
▁로또 100
렌 100
▁참고 100
덜 100
▁있잖아 100
▁토론한다 100
▁콜 100
▁부르 100
▁나아 100
으러 100
다구 100
오빠 100
▁초밥 100
털 100
사서 100
버스 100
▁존 100
빨 100
▁댓글 100
▁코트 100
▁롯데 100
했지만 100
▁하다 100
▁맞네 100
할인 100
▁교환 100
▁인기 100
▁넷플릭스 100
▁교회 100
아니야 100
나면 100
▁나눈다 100
봐야 100
▁웹툰 100
▁책을 100
▁만약 100
▁아프다 100
본다 100
▁찍 100
지않을까 100
▁치킨을 100
▁어디야 100
▁평생 100
거같음 100
▁신기해 100
▁28 100
▁??? 100
▁느끼 100
▁내년에 100
▁알려줘 100
▁중이라고 100
보이 100
▁종이 100
▁만나는 100
되지 100
삿 100
▁칼 100
▁웃기다 100
▁장소 100
c 100
▁못가 100
▁휴대폰 100
▁받았 100
▁상관없 100
▁자격증 100
▁적이 100
가게 100
▁특히 100
▁뛰어 100
= 100
▁창 100
▁정도로 100
▁엄마도 100
덩 100
▁좋은거 100
▁힘내 100
▁얘기한다 100
▁독 100
곤 100
▁자기도 100
잼 100
똥 100
▁산다 100
준다고 100
▁냉장고 100
▁연락이 100
▁없나 100
▁파티 100
▁괜차나 100
▁담주에 100
착 100
▁창문 100
헐 100
▁다이어리 100
▁과외 100
▁다른데 100
먹엇 100
▁애가 100
▁썼 100
잇는데 100
▁혼 100
할지 100
바로 100
▁괜찮은데 100
▁교 100
▁가라고 100
주세요 100
▁다니는 100
▁보다가 100
▁재밋 100
▁토욜 100
▁네가 100
짝 100
▁싫어서 100
▁봤 100
▁원피스 100
▁이동 100
껀 100
▁자랑 100
보는데 100
괜찮 100
▁무섭다 100
하던데 100
▁네네 100
혼자 100
▁반지 100
▁오케 100
▁아니아니 100
▁생각을 100
▁들어서 100
변 100
▁해줘 100
▁음료 100
나오 100
닥 100
▁눈썹 100
▁롤 100
▁탄 100
럽 100
▁체크 100
▁그정도 100
휴 100
▁물으니 100
엥 100
▁소주 100
▁낮 100
고싶 100
한게 100
들도 100
▁커서 100
▁노래를 100
▁내일부터 100
▁캐 100
▁하나씩 100
▁동영상 100
었음 100
▁현금 100
▁공항 100
▁후에 100
▁클 100
▁듣 100
▁오히려 100
째 100
▁비교 100
야되는데 100
▁안된다고 100
▁궁금 100
▁보이는 100
였다 100
▁똑같 100
그래도 100
▁태풍 100
▁전부 100
▁엄마와 100
붙 100
▁보려고 100
저녁 100
▁같다며 100
▁움 100
지뭐 100
▁쭉 100
난다 100
▁아무래도 100
몬 100
▁왼쪽 100
했나 100
▁냄새가 100
▁목소리 100
▁대출 100
▁성격 100
▁끼고 100
▁메뉴 100
▁하더라 100
▁용돈 100
▁어려워 100
▁사장 100
보러 100
▁바보 100
▁궁금해 100
계속 100
봐야지 100
▁몸에 100
넣어 100
▁맞춰서 100
우면 100
𐨛 100
▁부분 100
▁그렇다 100
▁계 100
가지구 100
▁것이고 100
▁실패 100
몇 100
톡 100
▁미니 100
▁요가 100
▁23 100
▁기름 100
겟어 100
▁핫 100
▁지인 100
▁어머니 100
▁기계 100
▁이래서 100
일은 100
줬 100
싱 100
▁ᄌᄂ 100
▁것인지 100
할래 100
동안 100
▁데이터 100
♡ 100
▁니트 100
▁닭발 100
이얌 100
ᅭ 100
▁막상 100
액 100
▁화장품 100
▁80 100
어제 100
▁게임을 100
▁만들어서 100
▁프로 100
▁너의 100
▁생겨서 100
육 100
일날 100
어케 100
▁보낸 100
▁친구에게 100
마리 100
▁그렇다고 100
득 100
▁남친 100
엇는데 100
▁자서 100
▁갈래 100
단계 100
넴 100
▁이상해 100
▁가을 100
▁영업 100
▁데리고 100
돌아 100
▁싹 100
▁모르겠 100
극 100
굴 100
▁종 100
닷 100
효 100
는건가 100
▁있냐고 100
좋다 100
▁훨씬 100
▁치료 100
패 100
욕 100
▁다녀 100
▁이러고 100
▁내고 100
해여 100
▁홍대 100
깡 100
▁척 100
▁상품 100
먹어서 100
▁소고기 100
쪽으로 100
▁여름에 100
▁뽑 100
▁널 100
▁보여주 100
▁남았 100
▁월세 100
해보 100
▁눈에 100
▁노노 100
!!!!!!! 100
▁향 100
은데 100
간다고 100
숙 100
▁자리가 100
▁바쁘 100
을걸 100
기전에 100
▁행사 100
▁언 100
▁스티커 100
▁핑크 100
▁묵 100
일찍 100
북 100
▁겨울에 100
맛있 100
▁순간 100
▁마싯 100
▁얘기해 100
▁지역 100
쪽에 100
둔 100
▁좀만 100
▁받았다 100
▁29 100
▁팀 100
▁족발 100
았는데 100
▁모야 100
▁오바 100
▁집을 100
▁하는게 100
▁22 100
▁적금 100
집이 100
▁같은거 100
▁좀더 100
▁먹고싶어 100
▁있대 100
▁이것저것 100
이라며 100
이어서 100
▁경주 100
▁나쁜 100
썽 100
▁대답 100
▁놀아 100
▁이래 100
▁안되면 100
린다 100
거기 100
군요 100
▁접 100
ᅩ 100
리가 100
▁연장 100
▁멍 100
▁왜냐면 100
▁있던 100
▁데이트 100
흑흑 100
▁들어갈 100
하지마 100
▁수정 100
▁십 100
% 100
▁사지 100
▁헬스 100
▁불러 100
안하고 100
리는 100
▁그런건 100
▁시험을 100
습 100
▁필수 100
▁확인하고 100
▁전주 100
야하나 100
▁신기하다 100
팩 100
▁본다 100
▁슬퍼 100
▁이젠 100
▁별루 100
랫 100
▁색깔 100
안나 100
500 100
▁공유 100
▁햇는데 100
▁진짜로 100
▁초대 100
▁ᄃ 100
오고 100
▁레 100
사이즈 100
▁독서실 100
▁달려 100
▁가구 100
▁점심을 100
▁처 100
▁중간 100
가는데 100
▁해보고 100
아녀 100
존나 100
▁한잔 100
▁개이득 100
▁베트남 100
~~! 100
▁테니 100
리고 100
▁천안 100
▁300 100
▁산거 100
▁토마토 100
▁최소 100
▁야채 100
▁파일 100
▁다르 100
일까 100
▁올라가 100
는듯 100
▁내리 100
뻔 100
▁약속을 100
▁알겠 100
▁한명 100
월까지 100
▁아기 100
긋 100
구요 100
네여 100
앤 100
t 100
▁되는지 100
뷰 100
▁거기가 100
▁취향 100
▁여부 100
있네 100
야함 100
션 100
▁앉아서 100
▁안되는 100
부분 100
▁뽑아 100
필 100
늘 100
▁21 100
댐 100
도록 100
▁양이 100
송 100
▁원에 100
좋은 100
▁머거 100
▁먹는거 100
▁흰 100
잇음 100
하였다 100
▁연결 100
흐 100
가야 100
▁켜 100
완전 100
▁한거 100
셔서 100
내려 100
▁도서관 100
하잖아 100
욥 100
▁공무원 100
▁뭐해 100
▁낫지 100
▁외국 100
신청 100
▁사장님 100
▁반팔 100
▁돈은 100
▁대만 100
▁확정 100
▁감동 100
▁오른쪽 100
▁언능 100
으루 100
▁한강 100
▁무서워서 100
▁쉴 100
▁등산 100
ᄒᄒᄒᄒ 100
▁부자 100
▁생활 100
▁웃기 100
ᅲᅮ 100
딸 100
찾아 100
▁방문 100
▁왠지 100
▁다이소 100
▁쿠키 100
▁먹을거 100
▁강릉 100
▁갤럭시 100
▁한개 100
▁예뻐 100
▁운 100
록 100
▁이용 100
▁건물 100
▁바꿀 100
없는데 100
▁담배 100
▁달에 100
뇨 100
▁뒷 100
▁보이 100
▁내려서 100
▁충격 100
▁시킬 100
▁곳에서 100
을거야 100
▁화요일 100
였나 100
▁민 100
▁온라인 100
▁않나 100
▁노트 100
샀어 100
ᄇ 100
룸 100
▁걸려 100
쳐서 100
▁상상 100
▁병원에서 100
▁쪼 100
▁본다고 100
농 100
11 100
▁저나 100
아닌 100
▁채 100
▁나무 100
▁똑같은 100
▁ᄆᄎ 100
▁26 100
▁나온다 100
▁같다는 100
▁나오고 100
▁귀찮아 100
겠지만 100
▁맛있어서 100
곳이 100
해달라고 100
▁와인 100
끝나 100
▁들었 100
일부터 100
▁향수 100
갔다가 100
▁목이 100
▁처리 100
얼마 100
일단 100
에선 100
▁작년 100
가는거 100
▁내내 100
▁비싸다 100
▁개꿀 100
▁시키 100
▁방학 100
이었는데 100
▁빈 100
▁않다 100
▁커피를 100
▁분명 100
▁아니냐고 100
▁하네 100
▁바나나 100
▁어우 100
주라 100
▁해달라고 100
▁유행 100
▁높 100
▁커플 100
▁이뻐 100
▁안대 100
▁보여줘 100
▁뼈 100
▁후후 100
▁증말 100
출근 100
▁귤 100
▁공주 100
▁훔 100
환 100
▁싶고 100
▁마사지 100
▁맛난거 100
▁잤 100
헤 100
▁관심 100
원을 100
▁한달에 100
것만 100
끄 100
▁반에 100
▁꾸준히 100
마자 100
사면 100
먹구 100
▁드는 100
▁원이 100
▁금욜 100
▁국물 100
▁어디에 100
수록 100
슨 100
늠 100
▁언니야 100
▁다같이 100
▁우체국 100
듬 100
▁엽떡 100
▁부럽 100
어야 100
된거 100
▁놀러가 100
먄 100
원래 100
하라 100
만나 100
▁27 100
▁색이 100
▁극 100
▁미쳤다 100
힘들 100
▁지가 100
내고 100
▁나가면 100
이런 100
▁여기는 100
▁하여 100
▁피곤해서 100
▁전체 100
▁마실 100
😊 100
▁손님 100
웠 100
▁의자 100
▁무섭 100
▁본인이 100
출발 100
▁인터넷으로 100
무슨 100
겁나 100
안가 100
힘 100
▁라고 100
▁군대 100
▁앨범 100
났어 100
▁만들고 100
▁서울에 100
▁어찌 100
▁일하고 100
▁보인다 100
▁대박이다 100
개를 100
▁평일 100
▁있어요 100
▁이쁘다 100
봥 100
▁지금까지 100
▁간장 100
▁프로필 100
▁보냈 100
▁슈 100
되는거 100
▁제출 100
갔는데 100
▁보며 100
▁배터리 100
▁슬 100
있었 100
▁상대 100
▁상황 100
▁넹넹 100
▁틀 100
▁재밌게 100
▁먹엇 100
▁70 100
커피 100
홍 100
▁좋아요 100
하느라 100
올라 100
▁프로그램 100
▁살고 100
▁볼까 100
구려 100
▁알아보고 100
웃겨 100
▁어머님 100
▁편해 100
▁티켓팅 100
▁많다고 100
▁셔츠 100
했대 100
▁알려 100
▁컴터 100
▁촬영 100
뽑 100
▁처음에 100
쟁이 100
▁고민한다 100
▁예정 100
f 100
▁만족 100
▁대전 100
▁피곤 100
▁백수 100
▁관 100
하던 100
켜 100
▁되니까 100
하는지 100
▁해야겠다 100
고야 100
▁어렵 100
▁빨간 100
▁기억나 100
▁주변에 100
하는거야 100
▁덥 100
▁한국사 100
는겨 100
▁물건을 100
맥 100
▁삿 100
▁세트 100
▁계정 100
되는데 100
▁포함 100
렷 100
크림 100
남친 100
▁피티 100
▁가는거 100
▁갔어 100
▁잘자 100
▁생각하면 100
▁원하는 100
정리 100
ᅲᅲᅲᅲᅲᅲ 100
▁반품 100
▁ᅡ 100
▁루 100
▁좋음 100
▁땐 100
▁왓 100
▁안사 100
▁얘기했다 100
큰 100
▁누워서 100
▁예쁘다 100
▁레알 100
자기 100
이구나 100
▁먹고싶 100
룩 100
▁애플 100
▁나의 100
▁헐랭 100
맛이 100
▁할거 100
그렇 100
퇴근 100
▁' 100
▁대하여 100
▁공감 100
될듯 100
▁글케 100
▁경기 100
▁사와 100
▁부모님 100
미친 100
▁재료 100
젤 100
▁찾아서 100
▁헬스장 100
앞에 100
▁양념 100
▁먹게 100
▁ᅲᅮ 100
▁맥 100
입어 100
는건데 100
▁파마 100
▁학교에서 100
▁미세먼지 100
방에 100
▁물을 100
▁줘서 100
템 100
▁긁 100
▁입어 100
만해 100
해야해 100
▁연예인 100
▁말하며 100
▁넘어서 100
▁턱 100
범 100
성이 100
▁이걸 100
▁오는데 100
▁옆에서 100
▁헤 100
^ 100
▁바빠서 100
잇는 100
▁꺼내 100
▁완 100
▁여튼 100
▁임 100
거아냐 100
▁찾고 100
▁길이 100
▁적어 100
▁이해가 100
▁고장 100
▁한번에 100
▁끄 100
것같은데 100
▁잡고 100
스벅 100
▁생기 100
▁방법을 100
▁몬 100
안되 100
▁큰거 100
▁주변 100
흑 100
▁굴 100
▁로그인 100
없네 100
▁나왔어 100
▁사장님이 100
▁최 100
▁발견 100
▁에휴 100
▁대리 100
▁언니한테 100
▁렌즈 100
싶 100
▁잠옷 100
뿌 100
▁사랑해 100
▁없지만 100
세트 100
▁문의 100
뮤 100
▁뭐냐 100
▁마무리 100
▁ᄒᄒᄒᄒᄒ 100
▁다행히 100
▁하시 100
니께 100
시러 100
▁의사 100
▁컴 100
▁저번 100
견 100
▁언제까지 100
▁못하는 100
▁괜찮지 100
▁맞고 100
▁그렇고 100
▁면세 100
D 100
>< 100
▁연락을 100
▁되는거 100
위에 100
▁90 100
12 100
됐어 100
▁아래 100
▁학생 100
▁금액 100
▁사이 100
▁어렵다 100
시간에 100
▁인증 100
▁사이트 100
지가 100
▁음악 100
▁나보고 100
▁걸릴 100
▁있네 100
▁열어 100
i 100
▁맛은 100
에서는 100
▁걔네 100
▁아닐 100
▁이쁘 100
▁받아야 100
▁아이돌 100
박스 100
▁앞머리 100
▁저장 100
▁생겼 100
받아서 100
▁컵 100
▁야구 100
▁했지 100
▁특 100
▁설정 100
▁선물을 100
▁지인이 100
줘야 100
▁조금씩 100
뒤 100
▁갖다 100
▁부담 100
하자나 100
▁~~ 100
▁화이트 100
▁돈도 100
까지는 100
갑자기 100
▁산다고 100
비가 100
▁메일 100
▁타면 100
▁평소에 100
▁되었다 100
▁멀리 100
▁돈가스 100
▁점심은 100
그건 100
▁사람과 100
▁최대 100
▁목표 100
못해 100
▁하나는 100
▁듣는 100
▁긍까 100
▁그래그래 100
▁가겠다고 100
▁진행 100
▁저녁으로 100
▁들을 100
▁아저씨가 100
▁봤다 100
▁빠지 100
▁이야기하며 100
▁힐링 100
꿈 100
진않 100
▁한참 100
▁현실 100
▁울집 100
▁예전 100
▁데리러 100
▁아오 100
▁축구 100
잖 100
떄 100
시는 100
던지 100
인분 100
했으면 100
▁당신 100
▁보내고 100
▁거짓말 100
▁마자마자 100
▁골 100
랄 100
▁짤 100
▁흥 100
거같다 100
▁알써 100
▁바람이 100
▁기능 100
▁올리 100
▁자소서 100
▁A 100
▁시골 100
▁배고파서 100
▁링크 100
웃 100
▁밥도 100
하래 100
▁끝났 100
▁모임 100
▁캐릭터 100
▁타는 100
▁좋았 100
b 100
이에요 100
▁아이스 100
왓어 100
▁알았다 100
▁아프다고 100
▁쥐 100
▁길에 100
▁같애 100
나보다 100
관리 100
끝나고 100
▁먹어야지 100
시장 100
▁않았 100
▁먼지 100
▁히 100
▁ᄆ 100
▁일주일에 100
▁사달라고 100
▁자세 100
▁없으니 100
검사 100
▁판매 100
▁젤리 100
▁긴 100
▁알겟 100
▁들어와서 100
o 100
▁전공 100
▁될듯 100
▁스터디 100
▁마라 100
▁들어가면 100
▁거래 100
끈 100
▁첨에 100
▁셤 100
▁전기 100
▁찍어서 100
▁남편 100
▁걔가 100
▁앜ᄏᄏᄏᄏ 100
련 100
▁냉장고에 100
ᄑ 100
아프 100
학원 100
▁검 100
▁설거지 100
▁북 100
▁안됨 100
▁편의점에서 100
▁있었어 100
▁수요일에 100
촌 100
▁말이야 100
▁뭐여 100
▁녹 100
탐 100
▁행 100
▁씻 100
▁알아보 100
▁탔 100
▁칼퇴 100
▁몰래 100
▁깔 100
▁됐어 100
봐도 100
▁거면 100
▁떨 100
▁보낼 100
▁사이에 100
▁송 100
▁나눠 100
▁캐리어 100
▁집중 100
찾 100
보라고 100
▁팀장님 100
▁발라 100
▁양말 100
힐 100
▁꺄 100
▁그치만 100
▁실제로 100
ᅣ 100
▁되겠다 100
▁답이 100
▁같기도 100
▁만에 100
▁그런듯 100
▁모양 100
▁어휴 100
▁안좋 100
끼리 100
▁나지금 100
▁뿌리 100
▁아쉽다 100
으라고 100
엌ᄏᄏᄏ 100
▁유럽 100
▁봣 100
그게 100
▁쓰지 100
▁바빠 100
▁못할 100
▁그랬어 100
갑 100
▁추천한다 100
▁약국 100
▁검은색 100
▁노래방 100
멀 100
그렇게 100
프사 100
▁마셔 100
▁서비스 100
▁졸려 100
▁무튼 100
해써 100
▁예쁘 100
▁45 100
▁이유 100
▁세개 100
말이 100
▁인스타그램 100
▁읽어 100
▁구워 100
▁생각한다 100
겠는데 100
▁출장 100
▁확인해 100
분까지 100
릿 100
▁수원 100
▁서브웨이 100
▁들어오 100
가방 100
▁눌러 100
접 100
▁싶지 100
▁소리가 100
▁맛있는데 100
▁가만히 100
▁의심 100
▁ᄀᄀ 100
▁필기 100
▁빠져 100
▁끝날 100
사랑 100
▁입원 100
▁안될 100
▁일은 100
,,? 100
▁마이 100
▁버스가 100
닭 100
▁펜 100
▁머가 100
준대 100
▁물어볼 100
▁도착해서 100
뉘 100
▁많을 100
뚜 100
시면 100
▁햄 100
▁홈 100
점이 100
▁관련 100
▁나면 100
있을 100
▁따뜻한 100
▁위로 100
▁안돼서 100
▁아프고 100
𐌅 100
▁충 100
뉴 100
▁보지 100
▁됐다 100
▁들어간 100
▁모르겠다고 100
▁최근에 100
▁맞음 100
▁도착할 100
결제 100
▁큰일 100
▁31 100
오는 100
▁사기로 100
▁걸려서 100
▁안되고 100
▁초콜릿 100
▁다음날 100
▁목요일에 100
▁축하 100
▁종일 100
▁있었다 100
이냐 100
▁사자 100
아니냐 100
예약 100
▁부동산 100
▁주사 100
▁언니와 100
▁아빠랑 100
▁편한 100
▁사야지 100
그니까 100
연락 100
▁돈까스 100
▁싫은 100
▁자연 100
탱 100
든데 100
타임 100
드리 100
겠당 100
살까 100
▁났 100
▁좋겠어 100
▁일욜 100
▁끝내 100
▁줌 100
▁스토리 100
학기 100
k 100
▁,,, 100
▁버스타고 100
▁담아 100
떼 100
봐봐 100
먼저 100
▁+ 100
워서 100
▁귀엽다고 100
식당 100
▁아니라서 100
▁앜ᄏᄏᄏ 100
던뎅 100
웡 100
▁샵검색 100
기에 100
고민 100
깔 100
▁실습 100
▁끝나서 100
좋지 100
컷 100
었던 100
스터 100
지를 100
님이 100
하려 100
▁봐야지 100
▁아놔 100
▁어서 100
그런거 100
이었어 100
▁지방 100
▁내려가 100
▁있긴 100
▁제품 100
▁모아 100
▁콜라 100
▁답장 100
핑 100
▁두시간 100
▁품절 100
ᄋᄋ 100
▁계좌 100
사가 100
▁일에 100
▁튀김 100
▁봉 100
▁이어폰 100
▁겨우 100
정말 100
▁많네 100
▁좋게 100
▁알람 100
▁빠른 100
▁뉴스 100
▁필 100
▁신세계 100
▁넷플 100
▁가능한 100
졋 100
▁이직 100
▁친한 100
늦게 100
띠 100
▁시험이 100
▁사람의 100
랜 100
▁다녀와 100
▁이상하게 100
▁찍고 100
▁닭가슴살 100
월부터 100
▁냉면 100
분쯤 100
족 100
▁치마 100
예정 100
되나 100
▁행동 100
요ᅲᅲ 100
▁가는중 100
봣는데 100
챙겨 100
▁두부 100
할걸 100
가는중 100
▁유지 100
잇다 100
으니깐 100
▁수영장 100
▁조심 100
900 100
▁앉아 100
▁좋아해서 100
▁약속이 100
,,,,, 100
▁오징어 100
▁한대 100
거에요 100
빈 100
▁질문 100
▁비번 100
▁빨 100
▁나오는데 100
▁부러워 100
▁노답 100
▁합 100
▁안먹 100
▁나머지 100
하믄 100
▁버려 100
김치 100
라나 100
년에 100
▁마늘 100
▁아빠는 100
▁긍데 100
냉 100
▁밤새 100
▁현 100
▁어떤거 100
▁훨 100
풍 100
아니면 100
▁실망 100
▁넣 100
▁찾아보 100
짤 100
▁전세 100
▁하늘 100
맨날 100
▁아빠한테 100
▁허허허 100
▁선생님이 100
▁땅 100
걸까 100
먹어야지 100
하냐고 100
더만 100
ᄏᄀᄏ 100
보험 100
▁말해주 100
▁리얼 100
▁>< 100
▁삭제 100
콜 100
▁변경 100
▁고맙 100
▁뭐래 100
시고 100
▁똑같이 100
나라 100
나와서 100
▁비타민 100
▁올때 100
▁있을까 100
▁크기 100
▁차단 100
학교 100
▁가보 100
▁평일에 100
▁표정 100
일걸 100
▁피곤해 100
▁풀어 100
▁잘안 100
▁붙여 100
▁다녀오 100
▁지도 100
그랬 100
▁이번달 100
▁해줄 100
▁있다는 100
▁힘이 100
▁근육 100
댓 100
먹어야 100
꼭 100
▁힘들다고 100
진다고 100
▁고기를 100
▁선풍기 100
▁남자가 100
▁잠시 100
▁보여서 100
▁그럴까 100
이란 100
▁몰랐 100
40 100
▁끊어 100
▁세탁기 100
▁도착하면 100
▁밥먹 100
▁치고 100
▁안들어 100
▁탐 100
l 100
듣 100
쓰면 100
힌 100
냄새 100
▁내용이 100
▁하필 100
▁미용실 100
▁무릎 100
▁읽 100
큐 100
엠 100
▁찾 100
릉 100
▁실수 100
▁볶음밥 100
> 100
수잇 100
▁늦을 100
▁하냐고 100
한듯 100
칼 100
▁가방을 100
▁맛없 100
듣고 100
▁이름을 100
▁굳 100
마시 100
▁정상 100
생활 100
▁황 100
먹지 100
버렸 100
▁궁금하다 100
] 100
랬 100
▁스팸 100
▁가져다 100
▁당첨 100
샵 100
▁밑 100
▁있게 100
▁다행이 100
▁사업 100
▁시내 100
▁슈퍼 100
▁받으러 100
까지만 100
▁남아서 100
▁피곤하 100
▁들어와 100
▁그르 100
일로 100
▁핸드폰을 100
혼 100
▁얼음 100
하겠다 100
▁어려운 100
▁가성비 100
▁환전 100
▁배송비 100
▁아닐까 100
C 100
쳤 100
▁두번째 100
게임 100
▁만나자고 100
가격 100
하는건 100
▁소개 100
▁투표 100
▁거임 100
데이 100
▁누워있 100
보기 100
먹고싶다 100
▁애들은 100
▁오리 100
▁겨 100
▁누구랑 100
즁 100
▁묻는다 100
▁죽어 100
▁그런게 100
가요 100
▁표현 100
15 100
그럴 100
▁남아 100
굿 100
▁물어 100
▁바꾸고 100
💕 100
▁끊 100
▁배고프 100
▁교수님이 100
앗어 100
▁땡큐 100
두개 100
▁통장 100
▁좋아한다 100
▁피부과 100
▁사줘 100
▁종류 100
▁나보다 100
욘 100
▁착 100
▁점수 100
▁35 100
만한 100
▁; 100
였음 100
귀엽 100
찍어 100
된다고 100
저거 100
▁조심해야 100
널 100
▁저런거 100
▁싸고 100
봣어 100
뒤에 100
▁맛나게 100
갔다 100
살아 100
▁행복해 100
완 100
▁여자친구 100
▁가슴 100
하려면 100
한건 100
▁그랴 100
앞 100
팬 100
▁너희 100
▁문을 100
▁걸어서 100
▁카페가 100
▁동물 100
▁여유 100
▁아근데 100
살이 100
▁예쁘다고 100
▁사랑니 100
알지 100
수있 100
아아 100
▁단어 100
▁앱 100
틴 100
▁도대체 100
▁굿굿 100
중이 100
▁자체가 100
▁공지 100
는구나 100
엌ᄏᄏ 100
▁시계 100
▁과장님 100
▁났다 100
▁일어났 100
마트 100
▁나가는 100
▁평 100
▁걸린 100
▁학교에 100
▁놓 100
▁비용 100
▁때려 100
▁몸무게 100
▁없었 100
▁자야 100
이었 100
▁기절 100
▁앉 100
치즈 100
▁맛있었 100
▁화면 100
▁쉽게 100
▁받았는데 100
▁대부분 100
마음 100
용으로 100
▁파리 100
올게 100
▁가까운 100
잇어서 100
올려 100
▁맛난 100
▁넣으면 100
▁틀어 100
시다 100
스타 100
▁거냐고 100
▁배경 100
▁순대 100
▁정하고 100
▁활동 100
먹을까 100
▁시장 100
▁바쁜 100
▁긴장 100
▁것으로 100
▁손가락 100
▁여봉 100
냄 100
▁어캐 100
▁회색 100
▁현대 100
▁페 100
럼 100
먹었는데 100
▁이력서 100
▁회사가 100
▁권 100
▁급하게 100
▁ᄃᄃ 100
한다는 100
▁오빠도 100
▁안오 100
말해 100
^_^ 100
주겠다고 100
그치 100
▁친구는 100
▁나온다고 100
▁인터넷에서 100
▁안주 100
먹고싶 100
▁답한다 100
하거든 100
에요 100
▁돈으로 100
~~? 100
▁되냐고 100
▁롱패딩 100
▁끈 100
▁필라테스 100
▁김치찌개 100
▁한다며 100
▁셋이 100
▁읽고 100
▁떨어져서 100
▁옮겨 100
는줄 100
▁자유 100
▁칼국수 100
x 100
▁손톱 100
야대 100
온거 100
▁자면 100
▁P 100
▁양파 100
▁아그래 100
▁당황 100
▁전화해 100
▁고르 100
식으로 100
▁조만간 100
▁빌려 100
는곳 100
▁자취 100
시반에 100
▁뿌 100
▁미역국 100
▁찾아보고 100
▁짬뽕 100
만들어 100
먹으러 100
▁위한 100
▁이후로 100
▁s 100
▁개봉 100
▁손이 100
한거야 100
▁엉덩이 100
▁갈때 100
▁시켜서 100
넣고 100
▁글치 100
▁와플 100
▁위치 100
찡 100
▁백화점 100
▁씹 100
▁벌레 100
▁멋있 100
이잖아 100
▁칭찬 100
▁적립금 100
▁어쩌 100
렸어 100
▁세금 100
운데 100
▁안정 100
▁기다려야 100
▁동기 100
▁잇는데 100
▁모른다 100
▁쩐다 100
▁심해 100
▁뜯 100
뜻 100
▁패스 100
잘못 100
받았 100
없으면 100
▁샴푸 100
늦 100
볼래 100
▁낫다 100
▁것보다 100
여기 100
▁끝이 100
▁냉동 100
▁끝까지 100
▁여권 100
▁미쳐 100
때는 100
압 100
▁150 100
▁개강 100
▁집가 100
진심 100
▁멀어 100
▁가격도 100
▁휴무 100
근처 100
▁떨어져 100
▁운동화 100
▁짜장면 100
▁이모가 100
▁기간 100
▁흐음 100
차이 100
싶다 100
찜 100
▁예쁘게 100
ᄊ 100
귀여워 100
▁뮤지컬 100
던디 100
▁적응 100
....? 100
▁않다고 100
는대 100
▁설탕 100
쓴 100
▁하이 100
▁해지 100
▁와이파이 100
▁보고싶 100
▁생각하는 100
▁독감 100
특 100
▁찾아봐 100
▁지내 100
▁그사람 100
바바 100
엌ᄏᄏᄏᄏ 100
▁기숙사 100
같음 100
▁달리 100
▁잇는 100
▁닫 100
▁적립 100
▁뒤로 100
보구 100
▁시청 100
▁최애 100
▁곰 100
▁때까지 100
▁제주 100
▁수능 100
▁넣을 100
▁베이지 100
겅 100
▁친구들이 100
▁다섯 100
줬어 100
A 100
주문 100
쌀 100
▁사장이 100
▁갈아 100
▁참여 100
▁한번씩 100
▁나왔다고 100
▁할아버지 100
▁참치 100
다른 100
▁느 100
치면 100
▁아니지만 100
▁버리 100
▁알겠다 100
▁광 100
뭔 100
▁기다리는 100
u 100
▁들리 100
▁싶었는데 100
▁물어보니 100
▁소설 100
▁업체 100
었나 100
▁장사 100
▁케 100
▁오빠랑 100
없지 100
▁앜ᄏᄏᄏᄏᄏ 100
▁확진자가 100
▁테 100
칸 100
▁자라 100
▁의미 100
▁줘야 100
냐구 100
▁많지 100
▁않음 100
▁막내 100
날씨 100
에서도 100
먹는거 100
▁있다며 100
난리 100
▁공사 100
▁자녀 100
줄까 100
▁필요없 100
모르 100
▁아버지 100
▁잠실 100
라인 100
▁애기들 100
▁적게 100
거같어 100
떨 100
▁수박 100
번째 100
▁타서 100
▁가져 100
롭 100
▁입은 100
든지 100
했을 100
▁여기도 100
▁팀장 100
▁오지게 100
▁코스 100
▁부탁하고 100
▁붙어 100
▁싸서 100
하겠다고 100
▁꽉 100
▁수업을 100
▁필요하 100
▁자르 100
이요 100
▁기프티콘 100
▁땡 100
▁삐 100
케이크 100
보인다 100
▁엘 100
▁엄마아빠 100
▁가수 100
▁있을지 100
▁천원 100
자는 100
▁방법에 100
▁명이 100
것다 100
...?? 100
▁길어 100
▁모델 100
▁짠 100
▁가야겠다 100
▁잘라 100
래서 100
드려 100
▁자다가 100
▁크고 100
▁사회 100
▁인간 100
▁높은 100
▁좋아하 100
들이랑 100
▁귀가 100
▁석 100
없나 100
▁컴활 100
▁뭐든 100
▁내친구 100
▁춥다 100
▁좋긴 100
야겠네 100
▁동생은 100
▁휘 100
▁소름 100
▁거기도 100
▁말아 100
식이 100
▁좋더라 100
▁퀴즈 100
▁고추 100
▁보내줘 100
▁아들 100
거가타 100
▁홍콩 100
▁워 100
▁상황을 100
요즘 100
▁만나고 100
▁돌아가 100
▁구럼 100
그때 100
▁있으 100
▁경험 100
▁수준 100
▁프린트 100
▁못한다 100
택 100
▁결 100
▁없으니까 100
걸리 100
하거나 100
▁경력 100
써서 100
톤 100
▁자라고 100
갸 100
▁부탁한다 100
▁감정 100
▁때도 100
▁어쩐지 100
▁생각중 100
r 100
▁혀 100
▁수건 100
?????? 100
껏 100
▁차이가 100
▁패 100
▁물에 100
▁말지 100
죵 100
▁마치 100
▁노는 100
▁만난 100
하고싶다 100
▁ᅮᅮᅮᅮ 100
▁입으면 100
▁버리고 100
▁중요한 100
검 100
▁떨어지 100
▁짱이 100
▁빵을 100
둠 100
▁무서운 100
▁먹을래 100
▁모름 100
▁버거 100
v 100
▁말하면 100
▁ᅵ 100
찰 100
▁토욜에 100
▁미루 100
▁아줌마 100
▁준비를 100
▁나오늘 100
보려고 100
기분 100
균 100
홈 100
▁아닌지 100
이자나 100
▁네일 100
▁단체 100
▁매번 100
▁인턴 100
▁마리 100
▁들었다 100
▁그랬는데 100
▁생겨 100
▁갈비 100
▁사이즈가 100
▁공짜 100
없고 100
▁때가 100
첨 100
▁생각나 100
▁스스로 100
▁도와주 100
는다고 100
▁갈색 100
떡볶이 100
▁뱅기 100
▁콘 100
▁아깝 100
같다 100
으려나 100
▁조절 100
▁곳은 100
▁터미널 100
▁존맛탱 100
▁화나 100
▁친구를 100
▁애인 100
▁가고싶다 100
▁예약을 100
▁ᄋᄒ 100
즤 100
▁친구들이랑 100
▁아플 100
▁익 100
▁챙기 100
▁말은 100
?!? 100
▁나쁘지 100
;;;; 100
▁체력 100
▁주기로 100
추가 100
▁얇은 100
▁놀라 100
▁맨투맨 100
사는 100
소스 100
았다 100
해주고 100
걱정 100
▁가보고 100
빙 100
게따 100
필요 100
▁갠춘 100
▁입구 100
생기 100
야할듯 100
▁있다가 100
▁이정도 100
아닌가 100
▁당일 100
눙 100
▁먹으면서 100
▁상대방에게 100
피자 100
▁엇 100
▁계단 100
끼고 100
▁음식점 100
쿠폰 100
▁있어도 100
싫 100
▁하던데 100
▁짧 100
▁써도 100
▁그동안 100
▁아무거나 100
▁몸살 100
▁기준 100
치는 100
▁사라 100
▁편하 100
▁못한 100
조금 100
▁좋대 100
▁시켰 100
는것 100
▁하려 100
해야겠다 100
훈 100
▁귀걸이 100
▁별거 100
▁ᄉ 100
구리 100
▁슬프다 100
▁다음주에 100
했어요 100
▁짓 100
▁추운 100
세여 100
▁거절 100
고있어 100
버거 100
▁개웃기네 100
y 100
졸 100
▁보일러 100
몽 100
▁남겨 100
▁영수증 100
▁아마도 100
▁이런건 100
▁불안 100
드만 100
텐 100
엇다 100
▁영상을 100
▁카트 100
거라고 100
력이 100
▁나을 100
▁웬 100
▁나가야 100
겜 100
▁덕분에 100
장에 100
▁왜이렇게 100
▁냉 100
▁케익 100
▁작아 100
▁존잼 100
▁모르겠는데 100
▁네에 100
▁궁 100
▁오르 100
먹은 100
이런거 100
▁말해줘 100
▁이번에는 100
엿어 100
인가요 100
▁피시방 100
▁나가기 100
▁조심해 100
▁생선 100
미리 100
▁생각했는데 100
▁팔고 100
▁서울에서 100
▁싼거 100
있었는데 100
▁반응 100
▁친구와 100
▁듣기 100
▁길게 100
웅웅 100
▁꼴 100
▁ᅲᅲᅲᅲᅲᅲᅲ 100
받음 100
▁세계 100
야겠어 100
포인트 100
▁감사합니다 100
▁점심으로 100
▁펜션 100
▁미뤄 100
스럽 100
▁군 100
도돼 100
▁반대 100
▁나라 100
땨 100
그리 100
▁스트레스를 100
▁지나가 100
이한테 100
▁취직 100
홀 100
▁껴 100
▁단발 100
▁상황이 100
▁슬프 100
▁작아서 100
▁주제 100
인스타 100
율 100
▁상처 100
했잖아 100
있엉 100
▁코스트코 100
▁오우 100
개씩 100
▁경기도 100
▁보내달라고 100
...! 100
▁경찰 100
▁[ 100
칭 100
▁프리 100
ᄀᄀ 100
▁없대 100
▁대학교 100
▁간단하게 100
▁짧은 100
▁맞을 100
나여 100
샘 100
뜸 100
▁야야 100
논 100
▁탓 100
란다 100
▁샘 100
▁가고싶 100
▁식빵 100
▁이번주에 100
......... 100
▁콩 100
▁뚫 100
아닌데 100
구낭 100
사야 100
▁달아 100
긍 100
▁일년 100
▁생기면 100
온대 100
▁갔던 100
▁걱정이 100
취소 100
▁여기가 100
▁내일도 100
거얌 100
껭 100
▁있더라 100
▁앉아있 100
▁떡볶이를 100
었고 100
맛잇 100
넣 100
놔서 100
▁주인 100
▁줬 100
꽃 100
S 100
▁입장 100
남자 100
▁이걸로 100
나봄 100
▁쓰라고 100
▁받지 100
뎌 100
▁방법 100
▁아메리카노 100
확 100
싶어서 100
▁정답 100
▁그땐 100
▁떠나 100
▁사진으로 100
먹기 100
▁겜 100
▁마져 100
▁연락해 100
▁수리 100
서울 100
▁소화 100
상태 100
▁이것 100
▁홍보 100
▁버티 100
▁사오 100
▁둘째 100
받는 100
끊 100
그러면 100
언니가 100
겠다는 100
하셨 100
▁피해 100
▁물이 100
▁올린 100
▁바닥 100
옥 100
▁다니고 100
▁수학 100
▁고맙다 100
▁오늘까지 100
▁들어가는 100
▁상품권 100
젠 100
▁이럴 100
빠지 100
▁만약에 100
▁싫고 100
▁디저트 100
▁갠차나 100
▁가디건 100
▁옥수수 100
납 100
고싶은데 100
▁버터 100
▁않으면 100
이긴 100
▁면허 100
▁묻 100
으면서 100
▁못먹 100
▁멋 100
▁잘하는 100
선물 100
▁하지마 100
▁리뷰 100
보지 100
ᄏᄀ 100
▁효과가 100
▁얻 100
는걸로 100
▁대화자 100
▁음식이 100
▁테이블 100
▁뷔페 100
아이 100
생일 100
해볼게 100
▁모르겠지만 100
▁좋겠 100
시네 100
▁S 100
안대 100
니가 100
▁키키 100
▁공장 100
▁오예 100
▁만났 100
▁먹으려 100
▁유리 100
▁맛있지 100
겠군 100
▁울산 100
▁고등학교 100
먹는데 100
▁몰랏 100
총 100
▁알앗 100
으려고 100
▁불고기 100
▁편지 100
▁버거킹 100
▁자동차 100
▁소금 100
그랫 100
끌 100
n 100
했는지 100
▁투명 100
재밌 100
있었어 100
잡아 100
걸루 100
▁모를 100
▁상대가 100
▁여기저기 100
▁완료 100
▁손에 100
여ᄏᄏ 100
▁할머니가 100
도못 100
▁월욜 100
▁옥 100
▁나오지 100
▁일케 100
▁모르겠네 100
▁모바일 100
럭 100
그런가 100
▁쿠폰을 100
▁되어서 100
따라 100
▁싶으면 100
했거든 100
숨 100
▁패드 100
센터 100
▁투자 100
한지 100
갈거야 100
▁끝난 100
렸다 100
▁그러자 100
겠음 100
▁간지 100
컵 100
묘 100
▁말씀 100
▁한숨 100
▁먹다가 100
같애 100
묜 100
픽 100
▁폭 100
▁모아서 100
단다 100
줫 100
▁솔 100
▁양재 100
▁보게 100
▁정확히 100
▁기침 100
확인 100
어여 100
▁없는거 100
▁어제도 100
▁못했다 100
##@ 100
때까지 100
P 100
▁건가 100
▁모른다고 100
베이 100
▁손으로 100
▁뻔 100
▁생신 100
▁주방 100
▁보내준 100
었네 100
▁멜론 100
▁충분히 100
▁현재 100
▁덕질 100
▁야간 100
퇴 100
▁자려고 100
▁아껴 100
해놓고 100
▁다행이야 100
하니깐 100
형이 100
▁같지만 100
▁빠르게 100
▁맞아요 100
▁얼굴에 100
에다가 100
▁먼데 100
진거 100
▁일도 100
▁로션 100
▁말할 100
간대 100
애가 100
▁막걸리 100
꾼 100
▁어떤지 100
▁설사 100
▁살거 100
푼 100
보임 100
▁그렇구만 100
을수도 100
랩 100
랬는데 100
▁출 100
주지 100
▁필름 100
▁나이가 100
많아서 100
▁고민이 100
왓는데 100
▁확인한다 100
▁태국 100
배송 100
▁받음 100
▁보여주고 100
웟 100
▁더운 100
▁걱정하고 100
▁탕수육 100
▁아니근데 100
벨 100
쪼 100
잖어 100
▁수업이 100
▁든다 100
▁걱정마 100
▁나를 100
▁연휴 100
▁검은 100
▁먹어보고 100
해보고 100
▁가격은 100
때도 100
▁곳으로 100
▁고맙다고 100
▁정신이 100
▁깜짝 100
▁올라오 100
▁술집 100
있다고 100
▁궁금해서 100
▁신입 100
▁너네집 100
여자 100
▁모르게 100
▁비싸다고 100
오는거 100
이뻐 100
▁아버님 100
받은 100
▁좋지만 100
▁어느정도 100
▁갔을 100
▁누군가 100
▁해주고 100
▁아맞다 100
▁전문 100
▁같지 100
▁없다는 100
잤 100
파티 100
▁시켰는데 100
간거 100
다닐 100
▁입어야 100
▁보고싶다 100
탓 100
우니까 100
만들 100
▁직원이 100
▁믿 100
▁전화로 100
▁모습 100
▁않게 100
▁귀엽지 100
▁엄빠 100
해야돼 100
▁쥬 100
▁좋아하는데 100
기간 100
고기 100
▁덕 100
▁피부가 100
됐다 100
생각해 100
가루 100
▁엑셀 100
▁이태원 100
▁가져오 100
▁안내 100
▁메뉴를 100
▁팩 100
▁시에 100
놨어 100
▁그래요 100
▁어쩔수없 100
좋은데 100
▁영양제 100
▁될까 100
할수있 100
▁안되나 100
▁사람에 100
사라 100
시가 100
▁환승 100
▁적은 100
▁가방에 100
▁싸우 100
앞에서 100
▁슬리퍼 100
▁별로야 100
▁오디 100
잇나 100
들한테 100
▁걷 100
▁거라며 100
둬 100
오는데 100
부르 100
▁있었던 100
▁보인다고 100
▁까지 100
▁그만두 100
냠 100
▁애초에 100
▁중이라 100
옆에 100
▁축하해 100
르고 100
// 100
▁늦어 100
▁잘하고 100
시나 100
▁경우 100
▁인강 100
▁그레이 100
롤 100
▁안먹어 100
▁레드 100
▁1000 100
▁이유를 100
쯤에 100
릭 100
▁것처럼 100
▁공부할 100
▁어제는 100
▁된대 100
지않냐 100
▁많더라 100
▁착한 100
▁들은 100
▁걸어가 100
▁불가능 100
▁사야겠다 100
▁입는 100
▁중국어 100
중이야 100
▁자료 100
▁둘이서 100
▁휴지 100
럴 100
▁센터 100
▁맞제 100
▁토론하고 100
▁우리동네 100
▁지하 100
▁혼자서 100
▁잇다 100
▁대표 100
▁구니까 100
색이 100
▁뛰 100
점심 100
▁안와 100
▁뜻 100
콤 100
산거 100
▁그릇 100
▁그전에 100
▁왕복 100
받을 100
▁동생에게 100
▁따뜻하게 100
▁입맛 100
여ᅲᅲ 100
▁마시는 100
가기 100
▁사진은 100
었지 100
▁병원가 100
▁계획을 100
▁아뇨 100
▁괜찮네 100
▁될지 100
!!!!!!!! 100
▁낼은 100
갈듯 100
떵 100
▁여붕 100
▁영화관 100
▁쌀국수 100
후에 100
▁햇빛 100
▁받는다 100
▁타임 100
나왔 100
▁우왕 100
폭 100
나온 100
닫 100
▁청년 100
썼 100
궈 100
▁뜯어 100
스러워 100
▁안산 100
놓은 100
▁스테이크 100
군데 100
컴 100
▁소개팅 100
혈 100
겸 100
센 100
그만 100
▁빠르 100
▁봤다고 100
뗘 100
▁집은 100
~~~~~~ 100
먹을래 100
있대 100
▁텀블러 100
▁머지 100
▁오오오 100
야되 100
기사 100
h 100
▁이야 100
례 100
................ 100
▁라떼 100
엘 100
▁노래가 100
바꿔 100
▁않지만 100
▁상황에 100
아까 100
▁일정을 100
걸어 100
▁매달 100
▁대단하다 100
수있어 100
추워 100
음식 100
▁주지 100
ᆞ 100
▁찍을 100
되니까 100
쓰는 100
▁굉장히 100
▁닭갈비 100
▁해주는 100
만두 100
▁키우 100
땡 100
▁차에 100
든가 100
랜드 100
▁맛있을 100
▁테스트 100
▁직구 100
면접 100
▁주문한 100
졍 100
됏 100
이쁘 100
▁폐 100
▁고양이가 100
▁친구한테 100
▁왜왜 100
▁급여 100
▁있겠다 100
▁갑 100
▁알아봐 100
▁공기 100
▁살게 100
~!! 100
▁쿠 100
동에 100
램 100
만원이 100
▁가득 100
▁그럴수도 100
먹고싶어 100
▁하길래 100
사러 100
말구 100
▁클럽 100
▁돌리 100
▁전까지 100
▁열이 100
▁에어 100
▁물어봤는데 100
▁만큼 100
▁존버 100
▁복숭아 100
▁원인 100
읍 100
▁끓여 100
▁싸다 100
▁벽 100
ᄉᄇ 100
▁맘대로 100
▁제작 100
년이 100
▁강원도 100
▁다르게 100
▁프 100
▁후기를 100
▁식단 100
▁케이크를 100
▁놀다가 100
▁거울 100
▁먹어보 100
▁으아 100
▁쩝 100
▁그러지 100
ᄋᄉᄋ 100
새끼 100
내서 100
▁좌석 100
벽 100
▁당분간 100
▁만나자 100
린거 100
▁위험 100
이군 100
라니까 100
▁쿨 100
▁임신 100
곸ᄏᄏᄏ 100
▁않는다고 100
▁가능하 100
▁닦 100
부러 100
▁실물 100
▁사도 100
라떼 100
갈비 100
▁내야 100
▁나가고 100
▁윤 100
욱 100
▁젖 100
▁도로 100
▁방콕 100
▁어른 100
빌 100
▁화요일에 100
▁스케줄 100
▁본인은 100
▁허리가 100
티비 100
▁걱정되 100
▁이후 100
▁어쩌고 100
▁그러는 100
▁심해서 100
하길래 100
▁알라딘 100
▁사진찍 100
▁있자나 100
▁컵라면 100
보면서 100
▁어이없 100
▁전화가 100
▁반반 100
▁시간표 100
▁잠시만 100
▁해놓고 100
▁여성 100
▁새끼 100
▁빠졌 100
샷 100
▁중독 100
쎄 100
▁추울 100
나고 100
▁검색해 100
▁항 100
호텔 100
예요 100
▁첫날 100
감이 100
닉 100
▁한다는 100
입을 100
▁없애 100
춥 100
▁카톡으로 100
▁구두 100
겹 100
▁많았 100
▁안나오 100
▁빡 100
▁정해 100
▁했을 100
▁모르지 100
▁성격이 100
▁온도 100
즐 100
어떻게 100
▁비밀 100
다는데 100
바꾸 100
▁지워 100
▁공원 100
을거 100
▁두달 100
▁강아지가 100
축 100
▁나누 100
▁옷은 100
▁퇴직금 100
▁손목 100
▁공부하고 100
귀찮 100
▁가라 100
▁맡 100
줭 100
▁청바지 100
▁갔다고 100
▁싫어하는 100
@ 100
역에 100
▁헛 100
▁움직이 100
는사람 100
턴 100
▁영화가 100
▁달라서 100
얏 100
▁같아요 100
▁아프면 100
▁건강검진 100
▁키보드 100
▁조용히 100
▁내일까지 100
▁버즈 100
아침에 100
▁무시 100
거든요 100
삭 100
▁시발 100
▁아냐아냐 100
▁면접을 100
▁겸 100
아빠 100
▁감성 100
▁사료 100
▁어쩌지 100
▁혹 100
덴 100
▁낫다고 100
▁꿈을 100
▁요금제 100
▁비싼거 100
25 100
▁미안하다고 100
▁거기는 100
▁짜증이 100
▁피아노 100
주는거 100
▁낙 100
된대 100
100 100
~~!! 100
왓다 100
▁봐주 100
▁웃음 100
▁준비하고 100
▁얻어 100
줬는데 100
보게 100
▁언제쯤 100
펜 100
▁맞아맞아 100
▁레이 100
▁응원 100
▁물어봐서 100
잇는거 100
▁풍 100
▁동의 100
▁줄게 100
▁양치 100
▁ᄌ 100
▁컨디션 100
나오면 100
▁다리가 100
기엔 100
▁쉬운 100
▁답하고 100
▁심장 100
고생 100
▁엘지 100
▁파우치 100
▁나머지는 100
▁구매한 100
공원 100
▁ᄏᄏᄏᄏ아 100
▁그리구 100
▁노잼 100
굼 100
▁부산에 100
▁허벅지 100
밧 100
생김 100
▁도착하 100
▁힘들었 100
▁그러다 100
눌 100
▁햇어 100
▁폰으로 100
▁텐데 100
▁원래는 100
▁참아 100
칩 100
▁갸 100
▁안맞 100
▁마지막에 100
▁작은거 100
▁관계 100
▁생겼다 100
▁밀가루 100
▁자세히 100
▁연봉 100
▁가깝 100
▁작성 100
▁싶다는 100
▁인성 100
졌다고 100
킨 100
닼ᄏᄏᄏ 100
▁최고야 100
▁등등 100
▁말만 100
▁시키고 100
켓 100
▁목욜 100
▁도망 100
▁55 100
▁중에서 100
▁그것 100
▁ᅮᅲ 100
▁안해도 100
▁서면 100
잣 100
▁신라 100
▁잔소리 100
▁말투 100
▁들어온 100
▁허락 100
▁버릴 100
▁아이들 100
▁정도는 100
▁알리 100
▁뭐라도 100
햇네 100
쑤 100
쪽이 100
겨울 100
▁기록 100
▁말리 100
하겠지 100
▁불만 100
▁벚꽃 100
▁레몬 100
kg 100
하실 100
봐야겠다 100
▁빌리 100
할라고 100
▁그르게 100
갈께 100
▁중앙 100
▁쏘 100
▁맛있고 100
▁화분 100
▁머라 100
▁요청 100
▁넘어가 100
G 100
▁국내 100
▁덥다 100
▁기술 100
▁어려 100
▁신나 100
보이는데 100
ᅮᅮᅮᅮᅮ 100
케이스 100
▁언제가 100
T 100
▁찾는 100
번은 100
▁중고 100
쟝 100
▁!!! 100
▁어제부터 100
▁썸 100
▁완성 100
▁그만큼 100
▁극혐 100
▁몽 100
가는게 100
▁바르 100
▁밴드 100
▁그래야지 100
▁줄이 100
엽 100
▁가루 100
▁양배추 100
신고 100
▁한의원 100
▁여수 100
▁넴 100
▁했으면 100
▁하트 100
▁현장 100
B 100
▁불닭 100
▁쓰기 100
▁돌아다니 100
▁빌 100
▁짐을 100
밍 100
▁안녕 100
▁가격에 100
▁했다며 100
▁앤 100
거등 100
▁굽 100
뽀 100
▁야식 100
놨는데 100
▁힘드 100
▁택시를 100
▁것만 100
▁도착했 100
핫 100
▁방이 100
▁아싸 100
신데 100
▁시키면 100
▁비밀번호 100
영상 100
▁뿌려 100
딴 100
▁학점 100
▁주려고 100
▁아니구 100
먹을거 100
▁웅ᄏᄏᄏ 100
ᄃᄃ 100
▁마취 100
▁뽀 100
▁떠서 100
▁무대 100
츄 100
▁되니 100
▁필요해 100
▁지난 100
▁집들이 100
▁안써 100
인뎅 100
800 100
▁가져와 100
▁미래 100
▁설레 100
▁설명한다 100
멋 100
▁데려가 100
요ᅲ 100
▁몇시쯤 100
해주는 100
▁쓰는거 100
흥 100
▁키우는 100
▁도움 100
하세요 100
원인데 100
헌 100
추천 100
쉬어 100
▁귀엽고 100
사람은 100
▁해리포터 100
▁봐야겠다 100
▁예뻐서 100
개가 100
인이 100
▁추억 100
▁얘기하 100
나무 100
거니 100
▁혼나 100
▁페이 100
▁벗 100
마셔 100
▁들려 100
▁손님이 100
▁아끼 100
하루 100
▁반차 100
▁말해서 100
내용 100
▁하던 100
등록 100
▁들으면 100
▁양도 100
▁할래 100
▁맘이 100
▁이쁘게 100
모양 100
▁상관 100
▁착각 100
▁바꿔야 100
▁얼마전에 100
겠구만 100
지원 100
▁볼게 100
▁글씨 100
얼굴 100
▁구글 100
▁스킨 100
▁아까워 100
것들 100
▁쇼핑몰 100
▁좋겟다 100
마스크 100
▁바닥에 100
▁의견을 100
▁숙 100
▁간만에 100
▁국수 100
▁어릴 100
▁외출 100
▁걸리는 100
▁자동 100
▁신발을 100
▁암것도 100
▁ᄆᄌᄆᄌ 100
▁가방이 100
▁이빨 100
▁무게 100
▁맞으면 100
차가 100
▁생각도 100
▁고쳐 100
▁와야 100
▁어린 100
▁진료 100
낸 100
▁구리 100
▁물어봤 100
▁장난아니 100
▁창원 100
하겠 100
▁요기 100
▁다녔 100
▁두시 100
▁이제는 100
▁그쪽 100
▁성적 100
▁시간은 100
▁안전 100
▁억지로 100
▁유투브 100
▁열두시 100
▁생김 100
▁벌어 100
해야되 100
싶어 100
퍼센트 100
하는중 100
▁누르면 100
녜 100
▁쉽 100
▁빠져서 100
▁저렴한 100
▁충전기 100
잘해 100
▁막히 100
역시 100
▁다운 100
볶음 100
▁올라 100
▁..... 100
▁원짜리 100
▁십분 100
보는거 100
▁주문해 100
▁졸려서 100
▁카드로 100
갈거 100
▁할때 100
▁놀다 100
▁뇌 100
▁손해 100
▁이어 100
▁점심시간 100
▁독립 100
들어서 100
▁관심이 100
▁맞추 100
▁터 100
▁이런식으로 100
▁이러면 100
▁청약 100
▁겁 100
▁환경 100
봤다 100
벅 100
▁제안 100
찐 100
▁과장 100
▁그룹 100
▁안먹고 100
▁힘들고 100
챠 100
▁티브이 100
▁먹을게 100
▁보관 100
▁가격을 100
뭔가 100
▁들어야 100
▁모르는데 100
▁수욜 100
▁엘베 100
▁않냐 100
▁순천 100
게요 100
▁서서 100
튼 100
▁쓰는데 100
▁잤어 100
▁만나러 100
폐 100
▁한국에서 100
▁상대에게 100
▁시간도 100
▁앜ᄏᄏᄏᄏᄏᄏ 100
금융 100
▁집에만 100
거려 100
줄께 100
층에 100
▁하겠다고 100
▁있기 100
▁핫도그 100
▁반복 100
▁두유 100
▁예쁘고 100
드림 100
▁펴 100
▁밖 100
대신 100
▁만나기 100
▁남의 100
▁요금 100
겠넹 100
가고싶다 100
▁망고 100
▁지하철을 100
옆 100
▁한복 100
댔 100
▁투어 100
근무 100
▁했었 100
봐요 100
▁피자를 100
▁그렇네 100
동생 100
최 100
▁조카 100
▁자신 100
달래 100
▁만들기 100
▁신전 100
튀 100
거에여 100
▁투썸 100
기억 100
닼ᄏᄏᄏᄏ 100
▁못사 100
▁시킨 100
▁생각하 100
▁지난번에 100
팡 100
긴하지 100
잇엇 100
▁여자가 100
▁고정 100
▁마치고 100
▁고마 100
▁맛을 100
▁넣어야 100
▁각각 100
▁방법이 100
▁어머 100
▁액정 100
▁농협 100
▁왜안 100
▁저러 100
이었다 100
웠어 100
▁능력 100
▁잘했다 100
▁보구 100
▁제목 100
▁풀고 100
▁살을 100
▁아니니까 100
▁실내 100
▁말구 100
내내 100
▁않은데 100
이따 100
였지 100
있어요 100
▁국민 100
▁라면을 100
머야 100
구경 100
▁가봐 100
해줄 100
▁입술 100
▁출구 100
▁입에 100
▁시켜먹 100
▁배고프다 100
정도로 100
▁있냐 100
▁하도 100
▁말까 100
잖아요 100
▁양심 100
▁갈거야 100
▁가는게 100
▁소비 100
▁했으나 100
바람 100
▁소리를 100
▁모르겠고 100
▁발목 100
▁가능해 100
▁얍 100
▁고통 100
부턴 100
가바 100
▁바뀐 100
▁보라색 100
▁쪽으로 100
벌써 100
▁부분이 100
▁국밥 100
▁가까이 100
▁어릴때 100
M 100
▁논 100
▁헤어 100
룬 100
중인데 100
▁마음을 100
▁부부 100
▁드리 100
것이 100
▁알려달라고 100
▁없었다 100
햇지 100
▁찬 100
▁잔뜩 100
▁랩 100
▁싶음 100
▁높아 100
섭 100
꺼는 100
▁딸이 100
▁오천원 100
리스 100
하나봐 100
▁모해 100
▁구입 100
▁방에서 100
▁에바 100
▁정도면 100
▁탈색 100
세대 100
▁직업 100
누나 100
야되나 100
▁치아 100
이렇게 100
▁커버 100
▁긱사 100
▁웃긴 100
먹게 100
셧 100
▁멀미 100
▁베개 100
물이 100
▁자리를 100
▁쎄 100
▁먹겠다고 100
핸 100
▁저기서 100
건디 100
▁유튜버 100
▁뷰 100
▁사줄 100
▁생크림 100
▁블루 100
▁걔는 100
썻 100
▁저희 100
▁생각나서 100
었거든 100
▁심한 100
땜시 100
드는 100
하지말고 100
▁녹차 100
▁그린 100
▁승 100
▁사준 100
돠 100
▁목걸이 100
▁떨어질 100
▁빨아 100
▁뭘로 100
▁모닝 100
▁진자 100
힘들어 100
▁해야해 100
▁만화 100
▁할부 100
윤 100
보여서 100
▁수수료 100
▁빨간색 100
▁같어 100
하지않 100
시로 100
애기 100
▁부러 100
날이 100
▁왓챠 100
▁B 100
▁얘네 100
▁입사 100
▁속초 100
▁심하게 100
느데 100
▁짝 100
있으니까 100
▁코로나가 100
▁시리즈 100
▁일할 100
거여 100
▁글을 100
▁바뀌 100
▁김장 100
▁나왓 100
▁힘들지 100
▁존맛이 100
▁낮잠 100
▁이십 100
▁먹고싶은거 100
▁까먹 100
넘어 100
▁사람한테 100
▁장난감 100
었는지 100
▁생각해서 100
▁탈출 100
▁가시 100
▁참나 100
▁라이브 100
오라고 100
▁욕심 100
햄 100
▁여섯시 100
하고싶 100
▁샘플 100
시킬 100
▁묶 100
▁으악 100
▁땡기 100
▁거실 100
▁하아 100
▁나에게 100
▁대단해 100
▁이미지 100
▁어떠 100
▁먹었고 100
▁가정 100
맛나 100
사이 100
닼ᄏᄏ 100
▁먹어봐 100
▁군데 100
▁엠 100
었지만 100
캔 100
" 100
▁속상 100
러가 100
겨서 100
▁렌트 100
▁자신은 100
▁직원들 100
▁불편해 100
하자마자 100
▁옮기 100
▁그렇긴 100
▁잔다 100
하고싶어 100
▁요거 100
였던 100
▁인사를 100
▁신기하 100
▁증 100
▁답답 100
거의 100
▁사는거 100
▁고르고 100
▁쓴다 100
▁개를 100
졋어 100
▁와이 100
▁휴학 100
리터 100
▁귀찮다 100
▁종로 100
▁갖 100
본다고 100
▁복사 100
▁월급이 100
▁토끼 100
치료 100
큼 100
▁말라 100
▁늦어서 100
쫌 100
열심히 100
씻 100
▁플러스 100
쪙 100
▁모니터 100
▁업데이트 100
▁누워 100
▁행복한 100
▁교정 100
st 100
▁재고 100
뎁 100
▁접속 100
▁사는게 100
프라 100
▁걸렸 100
▁말하 100
껀데 100
▁일어나면 100
▁물건이 100
▁사무실에 100
해줄게 100
몸 100
할수도 100
▁끝내고 100
완료 100
싼 100
▁티셔츠 100
이트 100
나벼 100
안함 100
▁맵 100
▁a 100
▁사귀 100
▁늦은 100
▁혜택 100
▁글서 100
거아녀 100
▁달달 100
▁처방 100
햇음 100
개웃겨 100
▁아쉬워 100
하드라 100
▁이후에 100
▁크크 100
▁비슷하 100
▁니는 100
▁안된대 100
▁지나면 100
▁됐다고 100
▁버섯 100
▁상의 100
▁사는데 100
객 100
▁자체 100
▁생길 100
▁이득 100
▁해요 100
▁허걱 100
▁같으니 100
겠습니다 100
이러 100
▁넣은 100
▁자기소개서 100
▁나혼자 100
▁지나서 100
▁아니여 100
▁되어있 100
▁얼마야 100
딘 100
과목 100
깅 100
▁낸 100
▁발이 100
스타일 100
▁출근을 100
▁카드를 100
▁짱나 100
▁것이라 100
분은 100
▁빠진 100
▁택배로 100
▁된다는 100
분만 100
오네 100
▁담날 100
▁날짜를 100
▁시원한 100
▁오타 100
▁농 100
▁무슨일 100
▁어여 100
▁불러서 100
▁소독 100
▁일곱시 100
춘 100
▁수익 100
올때 100
▁올릴 100
▁남는 100
▁마라샹궈 100
& 100
▁동네에 100
▁눈을 100
스가 100
▁꿈에서 100
▁학기 100
▁재미가 100
▁걱정한다 100
▁잤는데 100
는지에 100
▁연말 100
▁좀비 100
처음 100
말이야 100
▁ᄏᄏᄏᄏᄏ아 100
버릴 100
▁어울릴 100
▁생일선물 100
▁행복하다 100
삿어 100
▁미쳤 100
▁방탄 100
▁400 100
▁하겠다 100
▁마트에서 100
▁번째 100
깃 100
▁인테리어 100
▁붕어빵 100
나오는 100
▁답변 100
다르 100
▁그정도면 100
▁과연 100
▁으응 100
웠다 100
01 100
아주 100
엌ᄏᄏᄏᄏᄏ 100
▁~~~ 100
아니가 100
▁나이제 100
▁재수 100
▁님이 100
▁사가 100
해야하나 100
있오 100
원짜리 100
▁포도 100
이라구 100
렛 100
하노 100
▁바지를 100
▁언니의 100
▁넣는 100
운거 100
먹는다 100
스러운 100
▁금욜에 100
타면 100
▁블 100
▁쓰던 100
▁지에스 100
▁속도 100
80 100
여ᅮᅮ 100
▁고민하다가 100
산다 100
팔아 100
신다 100
핀 100
콩 100
▁아이디어 100
▁캡쳐 100
▁겨울이 100
읽 100
▁아우 100
만원짜리 100
▁이기 100
▁있는게 100
▁안보 100
▁우울해 100
▁보내면 100
▁아이가 100
햇나 100
주께 100
일을 100
뿐이 100
▁있던데 100
렸는데 100
갓어 100
▁점심때 100
▁보냈다 100
더라구요 100
▁운영 100
▁왜그래 100
▁춤 100
▁했음 100
더라도 100
▁...? 100
이미 100
▁쌈 100
때메 100
▁한쪽 100
오지 100
▁퓨 100
▁토스트 100
ᄂ데 100
▁섞 100
▁바르고 100
▁못한다고 100
샀는데 100
을거같아 100
너가 100
▁빠르다 100
▁재밌는 100
▁찍는 100
▁재밌다 100
ᅲᅲᅲᅲᅲᅲᅲ 100
테니까 100
▁슬픈 100
▁과목 100
▁됐는데 100
단말야 100
▁보이고 100
하하 100
▁놉 100
▁잠들 100
▁가능하다 100
▁드라이브 100
슴다 100
레이 100
▁한번만 100
▁유심 100
▁아직은 100
▁받기 100
▁오천 100
준거 100
▁점순 100
▁좋아한다고 100
했다가 100
좌 100
ᄏᄏᄀ 100
배우 100
▁삼촌 100
▁일본어 100
▁맛있더라 100
겁 100
▁피곤하다 100
▁품 100
있더라 100
▁갠찮 100
▁편집 100
▁재미없 100
▁잤다 100
▁온대 100
▁희 100
▁나이키 100
▁나간 100
▁짧게 100
▁공유하고 100
▁웅ᄏᄏ 100
새우 100
킬로 100
▁좋았어 100
협 100
▁안하면 100
▁취미 100
솔 100
▁내용을 100
삐 100
▁자가격리 100
많은 100
▁찾으러 100
▁빠질 100
.......... 100
▁남았는데 100
▁가운데 100
긴함 100
▁안좋은 100
▁우울 100
▁별로라고 100
▁어렸을 100
사람들이 100
장을 100
자낭 100
드라마 100
▁시급 100
야게따 100
▁없었어 100
놧 100
정도는 100
▁비오 100
쁠 100
▁ᅦ 100
▁나야 100
할거같아 100
▁고급 100
▁백퍼 100
▁이자 100
▁좋다는 100
▁파는데 100
▁된거 100
▁수영복 100
▁굿즈 100
▁치면 100
하기도 100
아침 100
▁영향 100
럿 100
▁배워 100
▁튀 100
엑 100
륵 100
▁유치원 100
▁이유는 100
▁가고싶어 100
▁너무너무 100
앵 100
▁군산 100
▁버스타 100
▁분이 100
▁평소 100
▁몰랐어 100
버리고 100
▁한두 100
보겠다고 100
보까 100
▁키가 100
▁있거든 100
안됨 100
▁좋으 100
▁아이템 100
▁네이비 100
▁습 100
▁죠 100
▁C 100
▁배민 100
▁숙제 100
해줌 100
넘게 100
ᄏᄏᄀᄏ 100
▁입력 100
줄알고 100
▁몸은 100
으나 100
▁청주 100
▁응ᄏᄏ 100
▁먹었던 100
▁안쓰 100
거덩 100
곸ᄏᄏᄏᄏ 100
▁외식 100
ᄀᄏ 100
곸ᄏᄏ 100
▁닌 100
▁일회용 100
▁매력 100
▁도랏 100
▁택 100
▁스타 100
▁니도 100
빡 100
▁뭉 100
▁마켓 100
▁어째 100
▁메이플 100
▁완벽 100
거같은디 100
좋네 100
▁에어컨을 100
▁안되는데 100
▁과장님이 100
▁교수 100
▁없더라 100
▁존예 100
▁비슷하게 100
▁플 100
▁나오는거 100
밑에 100
▁기회 100
렀 100
▁코드 100
▁대단 100
▁가스 100
▁되었 100
▁해볼게 100
I 100
▁춘천 100
▁든 100
▁쓴다고 100
▁윗 100
이거든 100
▁유명하 100
▁쫄 100
▁조식 100
▁감염 100
▁사진에 100
▁얼만데 100
▁고데기 100
르르 100
▁불편하 100
▁초록색 100
▁후드 100
쳣 100
황 100
만해도 100
되어서 100
▁저걸 100
▁버스에서 100
▁라인 100
▁이런데 100
▁유산균 100
▁찾기 100
버렸다 100
▁바꿔서 100
▁해달라 100
▁깔아 100
오나 100
엄마가 100
▁물어보면 100
▁오일 100
▁추천하고 100
▁실기 100
되게 100
더랑 100
▁숙박 100
▁뭐먹 100
▁품절이 100
갖고 100
▁고생이 100
▁없다며 100
▁미쳤어 100
▁색상 100
깐 100
▁번에 100
▁저번주 100
▁자기야 100
셋 100
▁취소하고 100
▁국가 100
▁초딩 100
▁어울리는 100
▁이번주는 100
약속 100
▁믿어 100
▁괜찮고 100
년생 100
▁그거는 100
▁해보자 100
▁사고싶 100
겼 100
▁비싸게 100
▁그런것도 100
놀아 100
택배 100
올리 100
▁친구의 100
본거 100
▁오라 100
▁융 100
̊̈ 100
▁맥도날드 100
▁이랬 100
▁챙겨주 100
할까봐 100
▁귀신 100
▁다섯시 100
▁청소기 100
투어 100
▁하하 100
▁올리고 100
▁찾았다 100
▁가야해 100
갓다 100
보기로 100
▁근처에서 100
쌈 100
▁여러개 100
▁이정도면 100
넌 100
▁보는거 100
분정도 100
▁타이밍 100
겟당 100
▁안되서 100
▁안함 100
▁캬 100
▁나누고 100
▁붙어있 100
▁단백질 100
▁속눈썹 100
물어보 100
사실 100
월이 100
▁알았다고 100
▁신기하네 100
▁찾아볼게 100
해바 100
▁더블 100
▁빡세 100
▁않았어 100
▁귀여워서 100
꿀 100
더워 100
되네 100
▁잃 100
▁밟 100
▁좋으면 100
▁멋진 100
이야기 100
▁밥이 100
▁타야 100
▁비싸고 100
▁설명해 100
▁빙수 100
▁뺄 100
짜나 100
▁강제 100
▁어디든 100
정보 100
▁싶을 100
▁빨라 100
▁만들었 100
▁나눠서 100
▁코엑스 100
것두 100
▁엑소 100
▁밝 100
돌려 100
이모 100
▁목도리 100
▁녹음 100
으론 100
▁나온거 100
▁싫은데 100
▁쉽지 100
가져가 100
▁받았다고 100
▁염 100
▁어쩔수 100
▁팀장님이 100
▁버전 100
▁캠핑 100
덥 100
▁용산 100
▁후딱 100
▁주차장 100
▁의지 100
▁줬는데 100
▁직장인 100
▁2000 100
▁자긴 100
버렸어 100
▁명절 100
▁해먹 100
▁치우 100
이더라 100
▁맥날 100
탑 100
▁너두 100
시기 100
둑 100
▁잇음 100
▁아웃 100
▁훠궈 100
됴 100
둣 100
▁숫자 100
▁빗 100
묻 100
▁콩나물 100
▁우리집에 100
괴 100
L 100
▁스타일이 100
굳 100
▁인터넷에 100
▁시도 100
보다가 100
▁뒤집어 100
파일 100
▁최근 100
▁오기 100
▁동아리 100
▁올해는 100
▁내방 100
장소 100
▁언냐 100
▁잡아서 100
친구들 100
▁체험 100
▁부서 100
번이 100
하신 100
▁적용 100
보이는 100
인걸 100
그려 100
주는데 100
▁이사가 100
끔 100
▁이러면서 100
▁먹으니까 100
처리 100
▁훔쳐 100
▁모르겟 100
▁미치 100
▁전달 100
▁아깝다 100
▁짜파게티 100
▁출퇴근 100
개에 100
▁매직 100
르륵 100
할께 100
▁음성 100
▁블라우스 100
▁화내 100
▁보정 100
▁그렇다면 100
▁다녀온 100
▁음료수 100
이냐고 100
▁받으 100
▁늦잠 100
냈 100
▁쿠션 100
▁기도 100
▁갔었 100
버렷 100
▁못함 100
▁잇어서 100
▁김에 100
▁가요 100
▁올렸 100
즘 100
▁멀어서 100
▁논문 100
▁금지 100
▁매운거 100
▁통신사 100
▁사먹 100
▁빠지는 100
▁장마 100
했다며 100
▁좋아할 100
▁하려면 100
▁했는지 100
▁머리에 100
▁쇼 100
▁아픈데 100
▁포항 100
▁오궁 100
먹엇어 100
테니 100
해야하는데 100
가려고 100
골라 100
▁아닌거 100
▁받았어 100
▁어딜 100
▁뉴 100
지말라 100
어플 100
▁화장실에 100
붕 100
과자 100
힝 100
대여 100
▁실화냐 100
제발 100
▁부모님이 100
▁전철 100
맞지 100
▁물어보는 100
▁드러 100
▁지원금 100
▁교체 100
▁퇴 100
▁셀카 100
▁필터 100
이써 100
찮 100
▁밀어 100
▁괜찮으면 100
er 100
▁할수 100
담주 100
▁힘들게 100
▁다행이라고 100
▁안나와 100
▁걷는 100
▁부천 100
▁고마웡 100
▁들어오면 100
▁말했 100
흘 100
▁민트 100
▁과정 100
▁넣었 100
말아 100
▁모르지만 100
ᄁ 100
므 100
▁마우스 100
긴하다 100
▁일단은 100
▁여친 100
▁인해 100
▁많으면 100
▁뺏 100
▁자야지 100
걱 100
있으 100
▁모레 100
▁보고싶어 100
▁세탁 100
고시퍼 100
▁정산 100
▁마시면 100
▁달고 100
▁좋을듯 100
▁지하철에서 100
▁찍었 100
▁오사카 100
▁준비해 100
▁안양 100
▁조아조아 100
애들이 100
했엉 100
19 100
▁스포 100
▁취향이 100
가니까 100
▁글쿠나 100
▁찜닭 100
▁사람들도 100
▁우째 100
200 100
린데 100
담에 100
▁빛 100
▁궁금하 100
▁장갑 100
▁늘어 100
▁들어올 100
▁언제나 100
여ᅲ 100
▁립스틱 100
▁여전히 100
▁평균 100
▁몇시까지 100
▁선크림 100
▁하나를 100
김밥 100
이라는데 100
▁삶 100
▁곤 100
▁말하지 100
▁속옷 100
아아아 100
▁다녀야 100
▁들어왔 100
▁있엉 100
▁굶 100
했는디 100
낮 100
터지 100
▁없어요 100
▁울엄마 100
▁해라 100
▁해볼까 100
▁남은거 100
▁일상 100
▁그거랑 100
▁잘생긴 100
▁불가 100
▁아까워서 100
넼ᄏᄏᄏ 100
▁애들이랑 100
▁새해 100
▁할수있 100
▁우산을 100
▁다른건 100
가보네 100
▁무엇 100
▁왠 100
잡고 100
▁공개 100
버려서 100
▁언제부터 100
▁만드 100
했오 100
인치 100
여름 100
▁타투 100
▁헬 100
한텐 100
일때 100
▁안보이 100
▁사진도 100
▁컸 100
쓰는거 100
엇음 100
▁화를 100
▁추운데 100
놨다 100
▁외우 100
혀서 100
▁땡겨 100
▁없었는데 100
▁목욕 100
▁수치 100
있잖아 100
해줘서 100
?.? 100
▁딱딱 100
얘 100
▁택배가 100
▁가니까 100
▁무난 100
▁신상 100
▁사게 100
▁시키는 100
모야 100
▁이야기해 100
다던데 100
수준 100
▁평가 100
▁누나는 100
▁열받 100
▁막창 100
▁뭐하고 100
▁매주 100
▁이뿌 100
닛 100
할텐데 100
들어가서 100
계획 100
▁공구 100
▁빅 100
▁영국 100
▁상자 100
▁맞아서 100
메뉴 100
녹 100
뀨 100
▁어이없어 100
▁일정이 100
▁아몬드 100
신발 100
하시는 100
▁기업 100
사주 100
▁소식 100
수술 100
▁120 100
아나 100
▁결재 100
▁어떠냐고 100
▁기억안나 100
▁되겠 100
▁마셨 100
▁쉬는날 100
▁질리 100
곳은 100
▁심심해서 100
방에서 100
애들은 100
▁동대문 100
▁다르다 100
딜 100
오키 100
▁삼십분 100
통장 100
뼈 100
해달라 100
돈으로 100
꼴 100
▁년 100
재밋 100
탔 100
▁걸린다 100
▁생리통 100
웨이 100
▁필요한거 100
▁그러니깐 100
▁씻구 100
아파서 100
▁신어 100
▁쩔 100
▁떨어진 100
▁되겠지 100
▁먹방 100
▁갈아타 100
탁 100
▁공짜로 100
▁좋아좋아 100
▁민망 100
했었는데 100
정도면 100
▁공부하 100
모습 100
뤼 100
것같다 100
▁못보 100
▁조명 100
▁중요 100
▁먹어야겠다 100
▁들어오는 100
원으로 100
괜찮아 100
▁통영 100
▁보장 100
더나 100
▁갚 100
▁빼야 100
▁부족 100
▁갠찬 100
▁불편 100
?!?! 100
▁나고 100
▁레벨 100
만원정도 100
▁닦아 100
버린 100
하는거지 100
이즈 100
돼지 100
프레 100
냇 100
▁애인이 100
듯이 100
▁검사를 100
최고 100
▁없잖아 100
쳤어 100
▁받앗 100
▁하나에 100
▁언니네 100
먹어도 100
▁얍얍 100
주의 100
▁신용카드 100
에스 100
들의 100
▁고모 100
▁팀장이 100
▁살면 100
▁라멘 100
궁금 100
▁대면 100
린다고 100
▁주먹밥 100
꺼같아 100
▁이럼 100
르면 100
▁과제를 100
국수 100
하셈 100
멍 100
▁눕 100
▁컬러 100
90 100
▁검정색 100
▁교통 100
했을때 100
버전 100
▁나진짜 100
롯 100
▁설명하고 100
▁실험 100
▁키워 100
▁32 100
났다 100
칙 100
바다 100
▁깨워 100
▁눈물이 100
▁자켓 100
여보 100
다행 100
▁잘했 100
핏 100
▁장면 100
자소서 100
▁작가 100
▁끝나는 100
▁뚜 100
▁처음으로 100
▁어떻 100
▁치킨이 100
▁간호사 100
▁없엉 100
▁공부하는 100
▁조합 100
있니 100
▁포장해 100
▁집안 100
▁많음 100
▁비슷 100
▁애들아 100
▁최종 100
▁생리대 100
보ᅥ 100
▁항공권 100
킬 100
됫 100
▁즐기 100
▁셋 100
▁주인공 100
동네 100
!!!!!!!!! 100
수도있 100
▁죄송 100
▁다이소에서 100
▁근로 100
▁m 100
▁머리도 100
▁아니네 100
▁일어날 100
▁갈께 100
▁아라 100
▁향이 100
▁어디쯤 100
김에 100
▁???? 100
▁정리하고 100
▁하라 100
▁대단한 100
▁그대 100
다보면 100
▁찰 100
교육 100
▁기여 100
▁답답해 100
▁헝 100
멘 100
빠져 100
쨔 100
전부터 100
▁쓰려고 100
▁영등포 100
▁고프 100
였으면 100
▁첫번째 100
▁먹던 100
▁헉헉 100
보라 100
▁뜨거운 100
▁계시 100
▁선배 100
▁아씨 100
▁떨어졌 100
▁밝은 100
▁하는거야 100
▁내릴 100
랐 100
▁여드름 100
▁아직안 100
미안 100
▁졸귀 100
아이디 100
와써 100
줄알았는데 100
▁잊 100
▁문닫 100
▁만지 100
▁상추 100
▁가져갈 100
▁살아야 100
▁유명 100
70 100
▁오자마자 100
▁거고 100
▁운동하고 100
▁다른곳 100
▁사려 100
짜증나 100
봤자 100
▁ᄋᄋᄋᄋᄋ 100
들었 100
댱 100
▁물어본 100
▁크다 100
▁두꺼운 100
▁술은 100
▁생겼어 100
▁낼부터 100
▁불편한 100
▁닭강정 100
▁쪽에 100
겠다며 100
▁기모 100
▁바꾸면 100
▁오져 100
▁졸리 100
돈이 100
청소 100
▁위험하 100
▁일산 100
▁산책을 100
▁환 100
▁씀 100
▁무섭다고 100
▁앜ᄏᄏ 100
▁돈벌 100
▁올리브영 100
▁제사 100
▁채워 100
▁남자친구가 100
▁개발 100
▁말야 100
▁새거 100
▁사용할 100
▁기다릴 100
걸려 100
갑다 100
▁찜 100
학생 100
입구 100
▁미쳣 100
이든 100
▁하고싶 100
▁포토샵 100
활 100
▁좋은지 100
일어나 100
거는 100
▁올랐 100
헉 100
혜 100
▁원룸 100
R 100
▁c 100
▁조심해서 100
▁씨유 100
▁작게 100
▁느껴 100
▁활용 100
▁그러다가 100
▁만남 100
파이 100
▁탔는데 100
▁시바 100
에여 100
▁않았는데 100
밖 100
상황 100
▁가족들 100
나왔어 100
▁머해 100
만원에 100
▁38 100
줄알았 100
▁수강신청 100
ᄎ 100
▁긴팔 100
▁힘든데 100
▁생각은 100
▁빵집 100
▁마침 100
뭐지 100
쪽은 100
려다가 100
나올 100
▁어딘데 100
▁좋아하고 100
▁놀래 100
집은 100
▁호주 100
드릴 100
▁이천 100
놔야 100
▁낚시 100
▁인도 100
▁태워 100
놓으면 100
▁무겁 100
무서워 100
▁회원 100
▁눈치보 100
▁휴가를 100
텍 100
▁디즈니 100
▁가볍게 100
▁응급실 100
▁안받 100
▁조각 100
▁오래된 100
로우 100
했다는 100
고싶은 100
▁오는거 100
곧 100
▁빡치 100
▁성인 100
▁명동 100
▁읍 100
▁자식 100
때문 100
▁편하다 100
▁봐줘 100
▁깜빡 100
▁서울은 100
▁금액이 100
오늘은 100
▁환자 100
▁오빠한테 100
오르 100
할라 100
갘 100
한건데 100
들에게 100
▁들면 100
▁가봐야 100
▁멋져 100
▁건너 100
▁ᅲᅲᅲᅲᅲᅲᅲᅲ 100
▁플라스틱 100
▁역대급 100
▁ᄀᄎᄀᄎ 100
▁언넝 100
셨어 100
▁오만원 100
▁길어서 100
▁옼 100
▁조립 100
▁스트레칭 100
▁매장에 100
▁가면서 100
명이서 100
▁아이유 100
나두 100
하셔 100
왔엉 100
▁살래 100
▁전날 100
▁그것만 100
▁= 100
쉽 100
▁길을 100
▁조언 100
얀 100
잇고 100
▁바지가 100
▁출근해서 100
▁크으 100
▁똑 100
아저씨 100
우유 100
▁한국에 100
▁메인 100
▁차려 100
▁카페를 100
▁아니가 100
▁모르겟어 100
▁친구네 100
▁끝남 100
▁대학생 100
폴 100
▁보여주며 100
▁편하고 100
있다가 100
마싯 100
사항 100
▁잘했네 100
▁갠 100
업체 100
▁그렇겠지 100
▁해줘야 100
▁폴 100
잇으면 100
마냥 100
것처럼 100
▁했다는 100
문자 100
▁도움이 100
ᅧ 100
▁오니까 100
▁헐ᄏᄏᄏ 100
야됨 100
▁등을 100
▁화상 100
▁M 100
▁알림 100
응응 100
녕 100
쒀 100
하고있어 100
맛있어 100
비는 100
물어봐 100
▁엔 100
▁출발할 100
▁그만두고 100
▁레시피 100
▁혹시나 100
▁교복 100
▁용량 100
▁한시 100
▁두세 100
미가 100
인게 100
▁파란색 100
▁오십 100
▁멋지 100
라구요 100
도있고 100
것네 100
▁재미있다 100
▁아니니 100
▁생각해보니 100
▁한끼 100
▁시원 100
머금 100
▁칭구 100
▁보드 100
▁팔찌 100
😭 100
룽 100
▁해운대 100
400 100
냐는 100
▁봐바 100
랍 100
방이 100
▁있오 100
받앗 100
명은 100
같은건 100
롬 100
▁남편이 100
▁너꺼 100
거라서 100
▁신기한 100
▁수면 100
갓다가 100
▁한글 100
▁왜지 100
▁대학원 100
▁같긴 100
할수 100
건강 100
였다고 100
▁생일이 100
▁천재 100
..;; 100
▁보는중 100
눈뎅 100
▁지켜 100
▁심리 100
▁팔았 100
모르겠 100
▁죽은 100
지머 100
▁제거 100
▁타러 100
자네 100
▁케이 100
▁소중 100
▁요즘에 100
▁쩌 100
▁떨어지면 100
▁광명 100
보고싶다 100
▁어려워서 100
▁700 100
안하면 100
중이라 100
▁책이 100
부리 100
▁썼는데 100
▁모르니까 100
▁진짜루 100
▁들었어 100
▁놀자 100
▁곡 100
하까 100
됬 100
▁열시 100
▁이쁘지 100
▁들었는데 100
▁학교가 100
▁쩔어 100
▁대형 100
▁사촌 100
▁늦었 100
대요 100
▁초등학교 100
j 100
▁도쿄 100
▁더러워 100
▁누르 100
▁안자 100
▁재질 100
포장 100
주에 100
▁실제 100
늬 100
▁술먹 100
요리 100
▁시절 100
셀 100
낳 100
컨 100
셤 100
꺄 100
▁대단하 100
정이 100
▁한국인 100
▁티가 100
▁앜ᄏᄏᄏᄏᄏᄏᄏ 100
대가 100
많다 100
▁째 100
▁하루만 100
▁인스타에 100
▁그때는 100
9000 100
▁당면 100
▁맡겨 100
▁도착했어 100
포함 100
했었 100
▁망할 100
▁ᄏᄏᄏᄏᄏᄏ아 100
기준 100
욧 100
▁회복 100
▁몰랑 100
저녁에 100
뛰 100
▁원두 100
▁나갔 100
24 100
▁초록 100
▁연수 100
▁실업급여 100
▁전부터 100
▁비빔밥 100
▁전기장판 100
▁인기가 100
▁생활비 100
하대 100
▁덮 100
▁전시회 100
▁물어보자 100
다니는 100
날듯 100
▁창피 100
▁싱 100
▁예능 100
▁시켰다 100
땀 100
▁카페인 100
안좋 100
▁동생이랑 100
▁낮은 100
▁알려준 100
▁뚜껑 100
▁얼마안 100
해지 100
▁뜬 100
▁라식 100
▁지키 100
▁모습을 100
▁똑같아 100
곸ᄏᄏᄏᄏᄏ 100
▁미팅 100
해가지고 100
▁말해주고 100
▁잔다고 100
대기 100
갓는데 100
혹시 100
▁청소를 100
▁왔고 100
!!!!!!!!!!!!!!!! 100
▁안해서 100
▁지랄 100
▁있겠지 100
▁삼계탕 100
▁프리미엄 100
▁닿 100
▁점심먹고 100
▁공간 100
그렇지 100
했냐 100
▁장기 100
순위 100
▁비와 100
▁맛잇어 100
▁짜장 100
끝나면 100
겐 100
아픈 100
▁밥먹으러 100
▁같던데 100
▁보내는 100
달러 100
▁부르는 100
긴했는데 100
▁아부지 100
▁오해 100
▁필요가 100
▁아아아 100
▁얘가 100
▁더위 100
▁아는데 100
▁노랑 100
▁2020 100
▁두명 100
▁고치 100
스를 100
▁아휴 100
▁신난다 100
있냐 100
했나봐 100
됑 100
▁신천지 100
▁자르고 100
▁신촌 100
금액 100
▁더이상 100
▁자몽 100
하는사람 100
인정 100
▁소문 100
받으면 100
▁할듯 100
▁슬랙스 100
놈들 100
▁레깅스 100
▁핑계 100
▁대로 100
▁않냐고 100
▁점순이 100
해준다 100
싫다 100
▁터질 100
어도 100
▁좀따 100
▁니네 100
▁공부해야 100
▁붙이고 100
▁주었다 100
▁지옥 100
▁내리면 100
▁조건 100
▁ᅥ 100
▁먹었는지 100
▁다음에는 100
▁방을 100
▁먹고싶은 100
▁어플로 100
▁도착해 100
꼐 100
숑 100
▁아프지 100
▁가벼운 100
모임 100
▁땜에 100
넼ᄏᄏ 100
겠어요 100
이에여 100
▁가볼까 100
▁노란색 100
▁세수 100
▁다낭 100
▁베란다 100
▁프랑스 100
▁소개해 100
▁없어도 100
▁땀이 100
▁언제와 100
▁서버 100
싹 100
▁어묵 100
▁병원을 100
▁매트 100
마저 100
인증 100
불러 100
시키고 100
▁먹으라 100
▁몰랐다 100
사와 100
▁샤 100
▁날에 100
▁일욜에 100
▁드라마를 100
▁편의점에 100
쟈나 100
▁식물 100
▁어머니가 100
스럽다 100
▁날이라 100
▁비비 100
시쯤에 100
▁b 100
▁웃기네 100
▁삼십 100
▁배불러 100
▁머리카락 100
웠는데 100
▁사무실에서 100
▁장염 100
남앗 100
▁신규 100
밤에 100
▁다른사람 100
▁조정 100
거니까 100
▁사고싶어 100
가고싶어 100
▁계약서 100
▁독일 100
▁믿을 100
나가서 100
케익 100
▁예쁜데 100
▁무슨일이야 100
피곤 100
▁실비 100
▁오늘의 100
▁춥다고 100
해두 100
▁싸움 100
^^... 100
무리 100
▁놀았 100
들어오 100
ᄍ 100
퐁 100
▁TV 100
▁몇명 100
▁분위기가 100
▁쌍 100
▁탈락 100
▁잊고 100
▁지굼 100
▁젊은 100
▁언젠가 100
▁살빼 100
▁센스 100
▁심심하 100
갱 100
낄 100
▁젊 100
▁초반 100
바쁘 100
세용 100
▁퇴근시간 100
▁욕을 100
▁롱 100
시간은 100
▁뭐먹지 100
▁편할 100
▁닮았 100
▁면세점 100
▁라지 100
▁먹어요 100
▁진상 100
w 100
▁안되지 100
▁하셨 100
제가 100
도라 100
여ᄏᄏᄏ 100
▁희망 100
하넹 100
인거야 100
▁좋을지 100
▁절반 100
▁어렵다고 100
기다리 100
▁비누 100
도없고 100
▁먹어본 100
띵 100
▁창고 100
▁수고 100
▁필요하면 100
▁미용 100
자면 100
▁적당한 100
나왓 100
▁놔 100
뭘 100
봐라 100
▁애매하 100
▁보내야 100
▁해볼 100
▁빼면 100
▁현타 100
▁용기 100
▁줄여 100
줬으면 100
▁몰랐는데 100
▁정신없 100
▁가보자 100
▁볼래 100
혔 100
하려구 100
센치 100
가고싶 100
많은데 100
▁구려 100
▁범 100
▁찾았 100
▁냉동실에 100
▁한동안 100
▁붙이 100
▁대박이네 100
▁풀리 100
비를 100
▁끝났어 100
▁워낙 100
▁웃김 100
▁좋겠네 100
가면서 100
오라 100
▁조퇴 100
▁메모 100
맛집 100
종류 100
▁형이 100
▁감당 100
▁한식 100
▁지금부터 100
지마라 100
제품 100
▁부평 100
▁이케아 100
▁숙소를 100
▁신경쓰 100
▁구멍 100
끝났 100
난거 100
▁그랬다 100
▁시대 100
▁보냈어 100
▁증상 100
▁컨셉 100
▁옷장 100
▁지점 100
두면 100
▁썻 100
▁숲 100
이크 100
쳤다 100
▁고민해 100
▁큐 100
▁얼굴을 100
오오 100
▁해준 100
▁외국인 100
▁봣는데 100
▁엄마의 100
지말구 100
▁마넌 100
댄 100
▁딴거 100
* 100
▁피피티 100
친다 100
▁아웃백 100
▁ᄋᄌᄅ 100
얼마나 100
라했는데 100
▁안나가 100
▁밀크티 100
▁프로젝트 100
▁친구도 100
▁인상 100
▁자제 100
▁비와서 100
▁사건 100
▁기초 100
▁멤버 100
거랑 100
▁들지 100
조심 100
코스 100
▁누군지 100
▁중요하 100
▁몰러 100
▁믿고 100
뽑아 100
▁호두 100
▁부탁해 100
한디 100
잇지 100
라던데 100
신거 100
▁택시타 100
▁세시 100
텔 100
▁부른 100
▁피곤한 100
래요 100
▁걷기 100
둥이 100
▁스페인 100
▁3000 100
▁비닐 100
것같애 100
▁공차 100
▁명품 100
▁쌩 100
▁아무튼 100
▁완전히 100
먹었다 100
안좋아 100
▁스파게티 100
▁청첩장 100
▁시간대 100
이없어 100
▁차타고 100
흠 100
보드 100
룰 100
잤어 100
화가 100
밭 100
▁두통 100
부족 100
▁게다가 100
ᄏᄏᄏᄀ 100
뎀 100
▁갠차 100
▁아들이 100
시오 100
▁봉투 100
▁어딘지 100
▁흔 100
▁죄 100
없다고 100
▁밀리 100
▁열공 100
듕 100
▁마트에 100
▁핏 100
▁끌고 100
거같은 100
▁지구 100
핳 100
▁건대 100
< 100
▁만들면 100
▁채널 100
▁옷도 100
▁부터 100
▁확인하 100
▁다녀와서 100
▁든다고 100
하께 100
▁시킴 100
▁네넹 100
▁넓 100
저런 100
▁목소리가 100
☆ 100
▁저래 100
▁예전에는 100
▁남들 100
▁아웃겨 100
도되 100
▁말하는거 100
상이 100
E 100
강의 100
▁하잖아 100
보는중 100
▁구경하고 100
▁맛있음 100
보자고 100
▁잡을 100
▁하얀 100
▁이쁜데 100
▁몇년 100
▁학원에 100
▁희희 100
▁찰떡 100
▁숙취 100
안된다 100
▁뒤지 100
▁어쩔수없지 100
할거같 100
▁차로 100
▁미안하다 100
▁조은 100
▁억 100
먹은거 100
▁괜찮은거 100
▁귀엽네 100
펴 100
▁비온다 100
▁줄줄 100
▁왔다갔다 100
▁배송이 100
선생님 100
▁느낌이야 100
온다고 100
▁기다려봐 100
▁셀 100
▁안보여 100
▁이주 100
▁덥고 100
▁차리 100
넨 100
▁다니면 100
▁문화 100
▁어려울 100
▁타오바오 100
▁일하기 100
▁일자리 100
▁쓰게 100
남음 100
댁 100
▁양산 100
낌 100
약간 100
▁목욕탕 100
▁냈 100
섴ᄏᄏᄏ 100
▁이만 100
▁무지 100
▁의견 100
▁예스 100
같아서 100
▁영양 100
지말라고 100
▁준대 100
▁애교 100
▁짐이 100
▁울고 100
▁화욜 100
▁방향 100
▁늦게까지 100
간지 100
지는거 100
▁때부터 100
▁없는지 100
▁퇴근을 100
▁존재 100
만원씩 100
해떠 100
▁요거트 100
쟁 100
▁맛있었어 100
▁오빠에게 100
▁사먹어 100
▁걱정이다 100
개만 100
▁초반에 100
▁팔아서 100
신기 100
나온다 100
하는건가 100
▁브 100
▁걸리면 100
▁침대에 100
나게 100
▁결과가 100
사자 100
쒸 100
▁종아리 100
▁오렌지 100
나아 100
▁빨강 100
▁출석 100
틀어 100
누구 100
▁호떡 100
▁그럴듯 100
감자 100
수도잇 100
햇자나 100
▁실화 100
▁거랑 100
▁죽는 100
▁마지막으로 100
숲 100
▁상관없어 100
▁시켰어 100
▁공유한다 100
▁에스 100
▁와도 100
모자 100
맵 100
▁열한시 100
▁섬 100
▁장점 100
▁빵빵 100
▁퇴근할 100
▁물어봄 100
▁ᄇ 100
아요 100
▁깨서 100
▁멍청 100
▁아니겠지 100
▁이사람 100
교수님 100
자주 100
▁가사 100
사야지 100
싶은데 100
▁거라는 100
▁타자 100
▁들어갔 100
어야지 100
O 100
올까 100
▁건강한 100
다운 100
ᄏᄀᄏᄀ 100
▁비싸지 100
▁메시지 100
했자나 100
▁펜슬 100
▁홈페이지 100
▁맛도 100
▁흡 100
▁사준다고 100
(?) 100
▁들어보 100
닦 100
곱 100
▁고기가 100
▁뿐 100
▁값 100
못하 100
가입 100
▁칫솔 100
▁간다는 100
▁볼거 100
▁살았 100
꺼같은데 100
몀 100
▁바꾸는 100
▁마주 100
▁남아있 100
▁종류가 100
방법 100
▁학원에서 100
▁ᄒᄒᄒᄒᄒᄒ 100
▁인원 100
간당 100
▁갓다 100
▁어린이 100
▁시작하 100
▁쟈철 100
년은 100
걸림 100
엿는데 100
뭔데 100
▁그럴걸 100
우니 100
챙기 100
똑같 100
▁같이가 100
??????? 100
▁바바 100
▁이마 100
아파트 100
구매 100
▁남았다 100
까말까 100
▁바이 100
펀 100
튜 100
▁에코백 100
▁곰팡이 100
▁신분증 100
▁사이다 100
▁조회 100
▁코코 100
해보자 100
▁중이고 100
▁쿠팡에서 100
▁않아도 100
싶었는데 100
라면서 100
▁가능하다고 100
었으면 100
▁더울 100
▁애매 100
▁자신을 100
▁날씨에 100
▁호캉스 100
▁이야기하자 100
▁신호 100
섬 100
▁부모 100
▁패딩을 100
▁// 100
▁할인을 100
인생 100
▁맥주를 100
▁해장 100
주가 100
▁다음엔 100
제일 100
▁먹는게 100
저기 100
▁파란 100
▁여기에 100
앉 100
면돼 100
짘ᄏᄏᄏ 100
▁감독 100
이구만 100
▁소시지 100
낫어 100
▁해준다고 100
▁동료 100
고양이 100
▁여름이 100
▁모습이 100
▁어짜피 100
▁전에는 100
년동안 100
▁울어 100
▁쭈꾸미 100
▁식으로 100
▁도시 100
▁괜 100
▁비해 100
▁출발하 100
▁꽂 100
▁복지 100
고픈데 100
써여 100
▁속상해 100
예매 100
14 100
▁남앗 100
▁낳 100
▁공고 100
▁전자 100
▁거의다 100
▁좁 100
▁정주행 100
▁저두 100
▁어린이집 100
▁죽이 100
치기 100
▁애슐리 100
▁부대찌개 100
▁나갔다 100
▁나간다고 100
▁빌려주 100
▁패키지 100
살때 100
▁어무니 100
▁가슴살 100
높 100
때부터 100
N 100
낙 100
▁600 100
▁이왕 100
야겠당 100
▁고딩때 100
질이 100
▁알겟어 100
춰 100
쵸 100
▁가려면 100
▁좋아하지 100
▁이상하다 100
▁달력 100
와라 100
받아야 100
▁센 100
조각 100
률 100
▁여태 100
쩡 100
▁33 100
▁굳굳 100
▁관련된 100
▁농담 100
~!~! 100
▁자리에 100
▁반려동물 100
▁했다가 100
▁씻어 100
▁했네 100
▁관한 100
▁일본에서 100
▁집앞 100
▁말하였다 100
▁호박 100
넼ᄏᄏᄏᄏ 100
▁터지 100
▁뭐사 100
볼때 100
▁요기요 100
보고싶 100
시죠 100
▁짖 100
▁가죽 100
까요 100
어디서 100
▁캔 100
▁대여 100
▁끌 100
▁전국 100
▁드시 100
렵 100
기다려 100
▁죽음 100
하셔서 100
▁랜덤 100
▁에어프라이어 100
▁교촌 100
▁관광 100
▁옆집 100
▁신발이 100
해볼까 100
▁이디야 100
▁클렌징 100
▁진작 100
▁양식 100
매장 100
▁해주면 100
▁양아치 100
▁내려오 100
▁예약해 100
▁먹어봤 100
▁오류 100
▁잼나 100
▁미친듯이 100
▁비싼데 100
▁질려 100
▁구성 100
수는 100
▁재밌을 100
▁입었 100
▁멋지다 100
▁월욜에 100
했으 100
▁담당 100
▁기르 100
▁아홉시 100
겠죠 100
▁주식을 100
븐 100
▁없으 100
▁바꿨 100
짜증 100
는거임 100
▁원장님 100
▁줬다 100
학과 100
▁체력이 100
▁배우고 100
▁사이즈를 100
생겼 100
▁대장 100
▁입맛이 100
▁피어싱 100
▁ᄏᄏᄏ아 100
보고싶어 100
▁문제는 100
▁개비싸 100
▁날라 100
개나 100
섴ᄏᄏᄏᄏ 100
▁갈수 100
▁메일로 100
▁싶다며 100
▁축의금 100
▁나간다 100
▁지어 100
▁싶기도 100
▁대답한다 100
볶 100
해져서 100
페이지 100
▁격 100
▁느낌이라 100
▁습관 100
▁운동은 100
▁싶었 100
잇을 100
빛 100
가야해 100
▁집와서 100
▁가까 100
▁비염 100
▁강사 100
보냈 100
갈라고 100
▁뭐뭐 100
▁ᄏᄏᄏᄀ 100
▁흔들 100
▁해피 100
옹ᄒᄒ 100
빌려 100
▁삿어 100
▁골라서 100
▁피가 100
▁바라 100
▁가까워 100
▁안심 100
▁도저히 100
▁홈플러스 100
▁파이팅 100
퓨 100
▁보냄 100
▁종강 100
▁과학 100
▁동선 100
신다고 100
▁상사 100
▁p 100
▁담엔 100
▁맡기 100
되었다 100
▁어쩌다 100
거같고 100
하겟 100
맞춰 100
구래 100
▁생기는 100
짬뽕 100
▁고딩 100
하길 100
예뻐 100
모가 100
▁비슷해 100
▁그런건가 100
나봐요 100
▁최신 100
▁곱 100
는ᄃ 100
▁갱 100
가족 100
리아 100
됐다고 100
▁보건소 100
하쟈 100
▁몇시간 100
비용 100
▁해봤 100
▁조리 100
▁환기 100
▁L 100
▁고객 100
▁제품을 100
^^.. 100
▁잇을 100
치마 100
▁즐겨 100
할것 100
▁그러니 100
▁브라 100
치가 100
안와 100
▁몬가 100
▁참석 100
▁춥고 100
▁그분 100
▁물어봤다 100
▁저기요 100
도없 100
▁자다 100
▁나와야 100
받았다 100
▁깎 100
보낼 100
시켜서 100
종이 100
발라 100
▁제주도에 100
▁있구나 100
자체가 100
▁배려 100
▁보냈는데 100
▁맛있었다 100
▁스시 100
▁지진 100
그리고 100
거예요 100
▁했잖아 100
▁우동 100
▁십만원 100
▁가지러 100
졌는데 100
▁쌤이 100
▁본사 100
▁매장에서 100
13 100
▁체리 100
▁비대면 100
고싶음 100
▁까먹고 100
▁기부 100
▁구조 100
거같기도 100
▁고생했어 100
▁바퀴 100
▁집안일 100
▁하드 100
▁외박 100
▁집앞에 100
▁바닐라 100
▁축 100
▁축제 100
▁찔 100
▁드레스 100
▁조심하라고 100
▁아빠도 100
▁아뉘 100
▁할일 100
▁충치 100
▁자자 100
히히 100
▁검색해서 100
자꾸 100
▁해준다 100
▁당연하 100
픔 100
모르겟 100
▁송금 100
,,,,,, 100
만날 100
▁노란 100
한테도 100
▁떴 100
거리는 100
역이 100
▁연인 100
씨가 100
▁붙었 100
킼 100
▁에버랜드 100
▁트위터 100
안해도 100
▁팝콘 100
600 100
▁드뎌 100
▁펌 100
키우 100
▁인당 100
▁환장 100
▁으으 100
▁한입 100
▁변기 100
▁강의를 100
▁알레르기 100
겻 100
▁참을 100
▁갈거 100
▁훅 100
▁언닌 100
▁봉지 100
▁하나하나 100
먹을거야 100
▁통해 100
바리 100
턱 100
▁이쁜거 100
고마워 100
▁약은 100
▁예의 100
오니까 100
▁있니 100
▁느낀 100
▁솜 100
▁해야하나 100
▁묵어 100
▁세번 100
▁처음부터 100
전이 100
▁택배를 100
▁뻥 100
▁앜ᄏᄏᄏᄏᄏᄏᄏᄏ 100
텅 100
▁오토바이 100
세일 100
▁사갈까 100
▁칼로리 100
▁재택 100
초코 100
차로 100
▁빚 100
꾸야 100
▁중학교 100
하는듯 100
▁근육이 100
▁핑 100
▁1.5 100
파리 100
▁둔 100
▁배는 100
▁살기 100
▁안됐 100
▁공항에서 100
▁오시 100
스틱 100
▁할거야 100
▁본거 100
실에 100
쟤 100
▁뒤에서 100
▁집에가서 100
▁5000 100
갑니다 100
▁감고 100
기도하고 100
▁집착 100
▁깔고 100
은행 100
▁보상 100
▁중고로 100
면되지 100
▁영어로 100
가벼 100
욬ᄏᄏᄏ 100
▁선수 100
기대 100
▁거는 100
▁무료로 100
봅니다 100
▁영화는 100
▁텐트 100
▁동남아 100
▁후드티 100
▁얼렁 100
▁시작해서 100
▁반납 100
사이에 100
거같아요 100
▁올라온 100
▁걸린다고 100
▁판다 100
일수도 100
▁안했어 100
▁중인 100
▁오키도키 100
▁따흐흑 100
맥주 100
▁가게에 100
▁이런게 100
▁라는 100
엽떡 100
▁옮 100
▁중국집 100
것같아서 100
받는다 100
▁잇엇 100
공항 100
정신 100
▁주로 100
▁가습기 100
▁ᅮᅮᅮᅮᅮ 100
▁놀랐 100
▁사줄게 100
시간을 100
▁보이지 100
▁의사가 100
▁괜찮아요 100
▁경제 100
▁안에서 100
▁마이크 100
▁연말정산 100
내는 100
▁택시타고 100
▁혈 100
▁우리집은 100
▁청구 100
▁컷 100
▁바꼈 100
▁나가지 100
거려서 100
▁했었는데 100
▁드릴 100
값이 100
▁얼마에 100
석이 100
▁교통비 100
앗는데 100
..^^ 100
히고 100
▁소파 100
떴 100
▁신청을 100
팟 100
그램 100
개는 100
▁먹었더니 100
▁마셔서 100
▁빵이 100
나갈 100
▁주는데 100
▁손을 100
다녔 100
지말자 100
▁봤던 100
되어있 100
▁장어 100
차는 100
▁d 100
▁디게 100
▁아픔 100
웃기 100
▁버린 100
▁이케 100
숴 100
▁즐 100
▁월급을 100
킥 100
▁겉 100
휴가 100
▁간단히 100
▁마크 100
엌ᄏᄏᄏᄏᄏᄏ 100
▁매출 100
느냐 100
▁회계 100
▁냄비 100
▁했대 100
▁연락처 100
▁예정이 100
▁웨 100
▁글쿠만 100
▁기달 100
알려주 100
▁생각해보니까 100
시반쯤 100
지역 100
▁걔도 100
~~^^ 100
▁바꾼 100
▁배운 100
▁안감 100
▁불량 100
▁급식 100
가기로 100
▁시기 100
▁맞는데 100
▁힘을 100
권을 100
프트 100
▁옷에 100
바닥 100
좋음 100
-1 100
▁따흑 100
▁싸네 100
▁고생해 100
▁붓기 100
▁갈수있 100
▁블루투스 100
쿡 100
▁스피커 100
▁ᄋᄌᄋᄌ 100
▁마쟈마쟈 100
▁쟤네 100
될까 100
▁아줌마가 100
▁교양 100
cm 100
▁기간이 100
▁님은 100
▁치워 100
▁묵고 100
봐바 100
학점 100
즙 100
▁친구들과 100
▁제한 100
할땐 100
사줘 100
부탁 100
▁배웠 100
는거같아 100
월급 100
인거같아 100
▁잣 100
▁틀고 100
▁떨리 100
▁출연 100
▁그랬던 100
▁위험해 100
자체 100
▁아이구 100
보내주 100
을껄 100
▁칸 100
▁룸 100
▁버튼 100
▁네이버에 100
▁헷갈리 100
낰ᄏᄏᄏ 100
▁해외여행 100
역으로 100
▁요새는 100
▁역할 100
▁재밌었 100
▁띠 100
▁보라 100
가꼬 100
ᅮᅮᅲ 100
▁사라져 100
▁돌아오 100
▁거라서 100
▁가능할 100
▁드림 100
ᄏᄀᄁ 100
쌤이 100
지나 100
될지 100
▁헐ᄏᄏᄏᄏ 100
할거같은데 100
▁힙 100
▁보쌈 100
▁열고 100
▁연락하 100
▁고소 100
뚫 100
죄 100
정거장 100
▁고수 100
▁말안 100
▁생각한 100
▁중순 100
▁갈라 100
을거같은데 100
있어야 100
하는것도 100
▁이사를 100
▁찾을 100
▁머리는 100
▁몇일 100
▁심심해 100
▁번역 100
▁앵 100
넝 100
▁어버이날 100
▁집가면 100
▁변화 100
▁스캔 100
▁너만 100
대는 100
장은 100
▁줘도 100
▁반바지 100
▁보여준 100
▁바이러스 100
해야대 100
▁말해준다 100
▁이체 100
16 100
지롱 100
▁빨리와 100
▁일어난 100
하는디 100
되었 100
▁좋다며 100
▁에프 100
▁테이프 100
▁갑니다 100
▁퇴원 100
길이 100
▁썰 100
▁파트 100
다들 100
걷 100
돌이 100
▁실력 100
▁볶아 100
▁띵 100
▁웅ᄒᄒ 100
▁이름은 100
▁나을듯 100
▁주는거 100
▁카드값 100
▁뺐 100
▁번호를 100
▁개념 100
라해 100
집가서 100
60 100
▁시원해 100
▁재밌겠다 100
▁고려 100
▁탔어 100
▁되서 100
▁급한 100
함을 100
▁진짴ᄏᄏᄏ 100
▁올라와 100
▁내서 100
▁엔시티 100
▁오프라인 100
▁조개 100
▁남았어 100
가네 100
▁입이 100
▁요리를 100
해져 100
그라 100
▁왜이리 100
야겟어 100
하심 100
▁괜찬 100
있자나 100
▁경비 100
▁코로나때문에 100
날짜 100
화를 100
해야겠다고 100
▁못자 100
▁파스 100
있던 100
▁모르겠음 100
줘야지 100
▁헤어진 100
로운 100
자들 100
▁팬티 100
▁찾아보니까 100
▁과자를 100
맹 100
삘 100
튀김 100
▁해줄게 100
▁그런걸 100
자를 100
▁데이 100
▁구해 100
▁경쟁 100
▁썩 100
▁시끄럽 100
▁챙겼 100
▁그랬나 100
렷어 100
▁나눈 100
찍고 100
▁받는다고 100
▁나빠 100
17 100
잔아 100
▁내면 100
쉬고 100
듣는 100
랫는데 100
건물 100
▁한장 100
▁작고 100
누가 100
▁닭볶음탕 100
▁뿌링클 100
엣 100
▁어울린다 100
▁계곡 100
내면 100
아니지 100
▁그런가바 100
데요 100
▁및 100
헤헤 100
▁격리 100
되니 100
▁조심하 100
▁그랬구나 100
▁근육통 100
▁주기 100
▁고파서 100
▁어리 100
▁보내줄 100
▁결혼을 100
▁애들도 100
따위 100
▁불안해 100
▁벨 100
뱅 100
♥ 100
시대 100
▁버려야 100
▁헐헐 100
▁살려 100
넷플 100
▁셀프 100
▁일어났어 100
년도 100
긴하지만 100
▁사라지 100
▁기운 100
▁치약 100
▁연구 100
▁껌 100
▁버렸 100
▁만져 100
▁긁어 100
▁했거든 100
▁오만 100
한다며 100
건뎅 100
이엇 100
▁터져서 100
▁인터뷰 100
🙆 100
▁초등학생 100
▁돈만 100
▁이써 100
▁담달에 100
같네 100
▁읽는 100
잇자나 100
▁애매한 100
▁무엇인지 100
▁놈 100
든다 100
▁고양이를 100
▁2-3 100
▁유튜브에서 100
▁세부 100
주기로 100
▁기대된다 100
땡기 100
▁호호 100
▁왜그러 100
▁여보가 100
▁패션 100
▁매운맛 100
▁36 100
▁페북 100
▁아쉽네 100
▁택시비 100
▁인물 100
▁D 100
있을때 100
▁김해 100
▁이러다 100
▁삼일 100
▁공식 100
▁오래걸리 100
계약 100
바이 100
▁바른 100
헤어 100
운전 100
▁번씩 100
됌 100
▁물리치료 100
▁인쇄 100
▁블로그에 100
께서 100
▁출력 100
▁판교 100
▁안남 100
이떠 100
▁구매할 100
▁단점 100
정돈 100
▁더운데 100
▁특가 100
▁저렴하게 100
▁남색 100
▁거기로 100
▁약정 100
▁살라고 100
알았 100
컬 100
▁멀라 100
▁생각해봐 100
▁몰겟 100
댈 100
▁고생하 100
이였 100
였네 100
야하는거 100
왔네 100
▁돌려서 100
▁지지 100
순간 100
▁나오네 100
낰ᄏᄏᄏᄏ 100
▁하였 100
케이 100
▁때리 100
려는 100
게아니라 100
▁뜨는 100
▁멘탈 100
▁즐거운 100
▁순두부 100
은듯 100
▁안들 100
▁구하기 100
안해서 100
큐ᅲᅲ 100
▁쌓 100
▁외근 100
▁있겠 100
었나봐 100
보셈 100
보쟈 100
▁한판 100
직원 100
▁가쟈 100
▁큰언니 100
닼ᄏᄏᄏᄏᄏ 100
▁하더라고 100
만하면 100
▁머먹 100
동이 100
날에 100
됐는데 100
▁하는중 100
스크 100
생각이 100
▁활 100
시라 100
▁달래 100
아프다 100
▁요즘엔 100
▁항공 100
배고파 100
저번에 100
▁미쳤네 100
▁높이 100
해주면 100
▁못찾 100
이며 100
이였어 100
▁났다고 100
▁예약이 100
▁살살 100
다니고 100
▁괜찮나 100
측 100
▁노동 100
▁문자로 100
찔 100
▁진지하게 100
▁빡빡 100
▁대박이 100
▁아이보리 100
▁구래구래 100
▁히융 100
▁머글 100
▁의문 100
▁구매를 100
왜케 100
▁주문할 100
▁ᄏᄏᄏᄏᄀ 100
▁비빔면 100
▁쓰리 100
벼 100
할건데 100
▁세대 100
▁발급 100
▁구름 100
했으니 100
▁사자고 100
▁탄산수 100
▁있으라고 100
▁모여 100
하죠 100
분만에 100
▁그렇대 100
▁잠도 100
들끼리 100
▁냄새나 100
놀러 100
때가 100
▁채우 100
신대 100
하겠네 100
으라 100
라스 100
나오고 100
▁해야하는데 100
까바 100
▁기장 100
▁윽 100
놓은거 100
▁출시 100
지네 100
스는 100
▁불쌍해 100
▁같네 100
▁변비 100
졸려 100
▁술먹고 100
시지 100
▁입어도 100
못가 100
▁좋당 100
▁다운로드 100
▁데뷔 100
▁롯데리아 100
거다 100
▁관리비 100
▁친척 100
교시 100
▁거니까 100
한거지 100
월은 100
본적 100
▁생각함 100
▁샌들 100
뎈 100
▁벌금 100
▁기말 100
▁어젠 100
을땐 100
5000 100
동에서 100
▁계절 100
▁차는 100
▁넘겨 100
볼께 100
트리 100
▁틈 100
▁사지마 100
먹는게 100
▁잇나 100
▁예산 100
▁먹은거 100
▁알려줄게 100
꼬야 100
▁비싸네 100
▁맹 100
▁출발해 100
▁우리엄마 100
되겠다 100
▁먹여 100
▁끄고 100
▁키우고 100
년만에 100
마나 100
▁개빡 100
전까지 100
결혼 100
~♡ 100
▁분당 100
권이 100
올라가 100
▁내는 100
▁내일이 100
▁바질 100
주기 100
▁해먹어 100
▁않는데 100
▁못하게 100
▁차이나 100
▁어니 100
▁타지 100
▁솔로 100
▁배우자 100
▁셋이서 100
▁달달한 100
▁짜리 100
▁미안하 100
쉐 100
▁맛없어 100
▁공인인증서 100
▁웨이팅 100
▁도넛 100
▁젠장 100
효과 100
▁물놀이 100
시킴 100
▁있나봐 100
▁엄니 100
왔지 100
▁햇반 100
▁심하 100
▁봉사 100
▁하나가 100
▁물고기 100
하오 100
타구 100
▁아버지가 100
▁회사를 100
▁색을 100
▁말해봐 100
▁주워 100
300 100
▁부럽다고 100
▁댓 100
▁줄까 100
▁대놓고 100
▁저녁먹고 100
만원이면 100
만원대 100
▁과거 100
촉 100
▁눈물나 100
▁배그 100
▁뽑았 100
셔츠 100
갔을때 100
▁아랏 100
▁쪄 100
념 100
▁발생 100
할수잇 100
셨다 100
기고 100
쪽에서 100
▁한마리 100
▁통장에 100
▁어이가 100
▁올리브 100
▁탑 100
▁자신도 100
▁파이 100
▁재미있다고 100
▁고민이다 100
▁맛있대 100
` 100
▁후쿠오카 100
멀어 100
▁동시에 100
▁대상 100
분이면 100
▁올려서 100
▁탕 100
▁스콘 100
▁키링 100
안오 100
▁있었다고 100
▁국어 100
앜ᄏᄏᄏ 100
▁꿈이 100
▁구독 100
▁볶 100
▁다녀서 100
▁징 100
▁그랬더니 100
▁기기 100
ᄅᄋ 100
▁기억해 100
하더라고 100
이죠 100
섯 100
▁보이는데 100
▁들어도 100
▁백신 100
▁팥 100
▁없냐 100
▁;;; 100
▁데려다 100
▁하고싶다 100
▁콧물 100
▁써야지 100
▁해봐야 100
▁드라이 100
▁이제야 100
싸움 100
▁반쯤 100
▁하늘색 100
▁고터 100
▁수육 100
▁고민중이야 100
굽 100
가려구 100
▁들어봐 100
페이 100
욬ᄏᄏᄏᄏ 100
랑은 100
▁사망 100
다면 100
이더 100
햇더니 100
▁치는 100
▁오오오오 100
▁지우 100
▁브이로그 100
▁긍께 100
▁바깥 100
▁재택근무 100
걸릴 100
▁영혼 100
▁것인데 100
▁허니 100
▁넹ᄏᄏ 100
▁하는건 100
해야함 100
▁못먹어 100
생겻 100
▁열일 100
▁주말이 100
▁일하는데 100
▁날은 100
▁예정이라 100
▁관해 100
▁ᄏᄏᄏᄏᄏᄏᄏ아 100
▁문자가 100
▁위가 100
렉 100
닌 100
▁같으면 100
▁없냐고 100
샌 100
▁심심 100
마지막 100
잊 100
이당 100
▁짧아 100
▁확인해보 100
▁그른가 100
▁상태가 100
바라 100
▁그러면서 100
어떤 100
▁결제를 100
밖에안 100
▁맛집이 100
▁이상한거 100
▁가치 100
▁피방 100
▁방구 100
▁그래야겠다 100
닠 100
▁고생했 100
▁마라탕을 100
▁비주얼 100
▁선착순 100
▁신도림 100
▁달러 100
▁그다음 100
▁크림치즈 100
▁발바닥 100
▁주머니 100
▁세시간 100
틈 100
이넹 100
▁생겼는데 100
이긴한데 100
▁고등어 100
▁단순 100
▁기존 100
▁유튜브에 100
▁약국에서 100
▁대기업 100
▁기어 100
땡겨 100
야댐 100
▁맡아 100
모아 100
▁양꼬치 100
▁편이 100
봐야겟다 100
▁정류장 100
▁개좋아 100
대에 100
으려 100
▁무거워서 100
▁흥미 100
▁파바 100
▁적어서 100
해준 100
▁링 100
▁때문이 100
▁카드가 100
존맛 100
갤 100
불안 100
먹으려고 100
▁늘어나 100
▁제모 100
▁베라 100
순이 100
▁엄청난 100
▁세종 100
▁건조 100
700 100
▁보증금 100
▁민족 100
▁발톱 100
▁그닥 100
▁잘되 100
▁뱃살 100
여친 100
▁버텨 100
▁했나 100
떨어지 100
▁배부르 100
▁서있 100
걸렸 100
▁막아 100
▁버는 100
▁범계 100
▁수술을 100
▁도장 100
쓴다 100
▁움직여 100
ᄏᄀᄏᄏ 100
▁재밌다고 100
▁먹으 100
▁보러가 100
일이야 100
가라 100
행복 100
▁도와 100
▁구러 100
터미널 100
!!!!!!!!!! 100
▁운동도 100
▁것들 100
▁필요하다 100
▁여섯 100
▁말려 100
▁오늘이 100
▁죠아 100
간데 100
▁아직까지 100
온나 100
▁일해 100
▁개학 100
자랑 100
▁말하면서 100
▁무슨일이 100
▁혈압 100
마실 100
가자고 100
▁잘때 100
이아니라 100
파는 100
코트 100
된데 100
▁누웠 100
▁자기네 100
인거지 100
▁쳐서 100
▁오래됐 100
▁할말 100
▁비쌀 100
아직도 100
을까봐 100
할뻔 100
▁쪄서 100
▁지나고 100
▁배불러서 100
심해 100
진않아 100
▁말하기 100
▁신청해 100
▁오기로 100
▁중국에서 100
덤 100
▁주문했다 100
▁구매했다 100
▁전화번호 100
쭉 100
▁구라 100
▁닮은 100
할꺼 100
나중에 100
맞는 100
▁온천 100
▁최고의 100
받으러 100
ᄐᄏ 100
▁메뉴가 100
와요 100
패스 100
▁찝찝 100
위가 100
씻고 100
▁아이들이 100
▁난리났 100
▁남자애 100
▁늘려 100
\ 100
▁요구르트 100
▁발가락 100
밥먹 100
▁^_^ 100
다님 100
▁왔으면 100
었어요 100
▁무슨색 100
혹 100
▁지인에게 100
▁미스터 100
▁나더 100
▁이쁘다고 100
▁휴식 100
▁옥상 100
▁있길래 100
▁잡았 100
▁춥지 100
▁형부 100
사람들은 100
▁괜찮았 100
▁둘중 100
▁결혼식에 100
▁중이야 100
▁과제가 100
▁흙 100
▁웃고 100
조사 100
▁하더니 100
▁앜ᄏᄏᄏᄏᄏᄏᄏᄏᄏ 100
▁이유에 100
▁가져갔 100
▁반값 100
드가 100
▁편도 100
▁만날지 100
점에서 100
▁다니기 100
▁흉 100
▁행복하 100
▁죽었 100
곱창 100
▁쌌 100
통이 100
▁야근데 100
▁있었으면 100
▁원으로 100
▁오줌 100
▁골드 100
하더니 100
하는구나 100
곳에서 100
하는건데 100
........... 100
▁점장 100
거리고 100
▁확진 100
▁간식을 100
▁캡슐 100
▁마이너스 100
▁식탁 100
▁무제한 100
▁예압 100
께요 100
▁하셔서 100
▁오이 100
ᄏᄀᄀᄀ 100
▁그런거야 100
하삼 100
▁그치그치 100
느낌이 100
▁밖이 100
▁분리 100
▁잇고 100
▁힘들었다 100
제로 100
질듯 100
▁샌 100
죽어 100
될걸 100
▁주문을 100
▁들어왔다 100
▁서로의 100
▁G 100
▁해놓 100
▁일어나야 100
▁반응이 100
아니라 100
▁가리 100
▁의미가 100
▁안경을 100
구여 100
▁이전 100
▁전용 100
▁웃기다고 100
못함 100
친구가 100
내역 100
▁수유 100
안먹 100
▁밥먹어 100
▁모으 100
잇네 100
▁남음 100
둬야 100
아웃 100
▁안하는 100
▁김밥을 100
줄래 100
▁태풍이 100
▁안팔 100
▁앜 100
쩍 100
조림 100
▁I 100
▁마르 100
▁운전면허 100
▁유산소 100
▁접촉 100
▁재미있 100
▁바쁠 100
▁근대 100
▁안부를 100
▁쪼금 100
날은 100
앜ᄏᄏ 100
하는곳 100
▁팔리 100
▁멋있어 100
자라 100
도됨 100
▁무거운 100
일인데 100
▁털어 100
▁쭈 100
▁느껴지 100
▁헤어지 100
복이 100
▁위에서 100
▁그러는거 100
▁화장대 100
▁들어가고 100
▁죄다 100
▁싸우고 100
▁가본 100
▁최저가 100
~~~~~~~ 100
▁적어도 100
▁기회가 100
▁귀여운데 100
▁저번주에 100
▁알바가 100
▁원이라고 100
생긴 100
▁정기 100
...^^ 100
일지 100
겄다 100
벌레 100
했니 100
▁조사 100
지게 100
▁생각난다 100
걔 100
▁속으로 100
▁만날까 100
▁넓은 100
▁실시간 100
▁최악 100
▁든든 100
기다 100
겠따 100
늦어 100
짘ᄏᄏᄏᄏ 100
▁니꺼 100
▁사람이랑 100
▁신한 100
▁빤 100
이어 100
▁바빴 100
▁샤브샤브 100
♂ 100
▁헿 100
▁롯데월드 100
▁스위치 100
번출구 100
햇는디 100
▁바란다 100
▁동갑 100
보러가 100
▁사고싶다 100
▁붙잡 100
▁불어 100
는거아냐 100
이었던 100
▁볶음 100
▁인식 100
▁48 100
▁문구 100
▁오븐 100
코드 100
사지 100
▁들어있는 100
▁룸메 100
▁생각만 100
하다니 100
▁코인 100
▁오뎅 100
▁연구실 100
▁붙어서 100
스러 100
▁밥이랑 100
▁책상에 100
주니까 100
아야 100
▁국제 100
따리 100
▁수습 100
▁탁 100
그랬어 100
써야 100
▁연고 100
▁공부해 100
쭈 100
▁에그 100
▁유통기한 100
맞음 100
▁검진 100
▁오프 100
▁공유하 100
▁모여서 100
▁아팠 100
생이 100
벌임 100
▁처럼 100
▁먹을거야 100
인데도 100
▁99 100
▁식비 100
먹으니까 100
톱 100
▁표정이 100
😆 100
▁캡처 100
▁김치볶음밥 100
옄ᄏᄏᄏᄏ 100
▁서현 100
▁후기가 100
▁안받아 100
▁물었더니 100
▁저때 100
▁타이 100
▁되긴 100
▁꺼져 100
번가 100
▁공포 100
▁공부하기 100
았다고 100
▁사람많 100
포기 100
▁그런말 100
▁많으니까 100
단지 100
▁기획 100
▁착용 100
▁자동으로 100
▁계좌로 100
▁어울리 100
한가 100
▁예뿌 100
▁픽 100
볼겡 100
얔ᄏᄏᄏ 100
▁저녁먹 100
▁운이 100
▁괜차 100
▁시설 100
K 100
▁떨어지는 100
넵 100
덩이 100
▁물리 100
▁없구 100
▁잠깐만 100
▁먹으니 100
주나 100
게찌 100
온데 100
▁같이가자 100
▁왜이래 100
겠냐고 100
선이 100
▁뽑는 100
▁야근을 100
▁여덟시 100
▁트레이더스 100
▁그나저나 100
▁해산물 100
▁핸드크림 100
▁픽업 100
▁갈듯 100
나온거 100
▁우짜 100
▁깔끔 100
건가봐 100
▁좋았다 100
▁반성 100
▁맞았 100
▁얼려 100
이었나 100
▁불안하 100
젤리 100
▁할로윈 100
▁화질 100
▁누구야 100
▁유튭 100
▁볼링 100
곳에 100
▁이혼 100
▁사무 100
▁위치를 100
량이 100
▁쉬다가 100
▁들러 100
▁따라서 100
▁할인이 100
되는지 100
▁발전 100
다면서 100
▁필요해서 100
▁케이스를 100
건가요 100
▁자전거를 100
▁ᅲᅳᅲ 100
▁그럴때 100
▁토할 100
피스 100
기에는 100
보는게 100
▁고른 100
▁괜찮은지 100
요새 100
▁다니면서 100
겠구나 100
▁생각했 100
▁가진 100
▁쉬어야 100
엇나 100
▁지갑을 100
▁막차 100
줬다 100
▁잡은 100
통에 100
했구나 100
▁파랑 100
퀴 100
▁약이 100
▁대박이지 100
피부 100
▁되지만 100
▁뜰 100
▁끌어 100
▁어후 100
▁회사는 100
▁알려줄 100
렬 100
얔ᄏᄏ 100
▁피로 100
▁커튼 100
하진 100
장님 100
▁몸을 100
▁꿀잼 100
조절 100
▁해놨 100
▁팔로우 100
▁없어진 100
채로 100
거같은뎅 100
지않음 100
많네 100
▁이득이 100
▁고민된다 100
침대 100
이뿌 100
▁T 100
▁답을 100
▁진정 100
하기가 100
▁게임이 100
▁해두 100
▁말했는데 100
▁저번에도 100
▁응응ᄒᄒ 100
ᄏᄀᄀᄏ 100
모르겠어 100
뎈ᄏᄏᄏ 100
▁담달 100
▁파워 100
▁한화 100
▁폴로 100
후기 100
▁이런것도 100
▁벗어 100
▁집이야 100
▁좋았는데 100
씬 100
▁그런것 100
▁무선 100
▁짱이다 100
▁빌라 100
줘도 100
벤 100
쫄 100
▁해보라고 100
▁이렇 100
▁토일 100
따로 100
▁초보 100
▁먹어봤는데 100
략 100
▁막혀서 100
▁염증 100
▁못받 100
뜩 100
▁37 100
▁하고싶어 100
▁신카 100
▁냠냠 100
먀 100
쥴 100
▁왜저래 100
▁라섹 100
▁진심으로 100
ᄒᄉᄒ 100
▁열쇠 100
▁불이 100
▁온거 100
나보 100
▁다양한 100
이유 100
▁내동생 100
▁실적 100
해놓 100
▁미술 100
▁일어났다 100
▁바쁘다 100
▁남이 100
▁복근 100
▁역사 100
▁다르다고 100
레스 100
▁잘라서 100
▁병원은 100
긴데 100
▁싶네 100
▁부작용 100
▁먹는중 100
▁했으니 100
▁매니저 100
▁맞는거 100
▁우리끼리 100
▁흐흐 100
긴하네 100
하징 100
▁봣어 100
▁아울렛 100
언니랑 100
킴 100
▁남자들 100
들만 100
평가 100
▁사용하는 100
▁오는지 100
▁고마워요 100
▁안과 100
in 100
▁볼수있 100
예쁘 100
는건지 100
▁부장님 100
▁내부 100
스테 100
능데 100
▁맞는지 100
주년 100
▁내리는 100
▁괴 100
티켓 100
할머니 100
▁원이라 100
반찬 100
▁보조 100
▁불편해서 100
▁올리면 100
쿠키 100
▁해물 100
껄로 100
▁배고픈 100
▁가져온 100
▁가능성 100
▁코코넛 100
▁되네 100
▁어깨가 100
▁같더라 100
▁자살 100
▁만든거 100
▁집밥 100
돌아가 100
이쁜 100
▁귀찮게 100
▁800 100
▁정장 100
올래 100
▁물어볼게 100
▁디자인이 100
얼른 100
~?? 100
하겠어 100
으셨 100
▁질러 100
▁기타 100
라궁 100
02 100
지갑 100
▁싸운 100
▁끝낫 100
▁밥먹구 100
▁햄버거를 100
▁왜죠 100
는뎁 100
▁/ 100
깜 100
무섭 100
해줬 100
▁학원을 100
거같아여 100
맞어 100
▁일본에 100
▁아니래 100
▁느리 100
▁소득 100
▁하냐 100
▁들여 100
서그런가 100
터져 100
▁델 100
줍 100
혓 100
🥰 100
▁보조배터리 100
▁캐나다 100
▁귀에 100
▁시리얼 100
▁?! 100
▁챙겨서 100
▁생겻 100
▁작품 100
▁응ᄏᄏᄏ 100
▁단기 100
들과 100
막히 100
▁날짜가 100
▁기출 100
▁받은거 100
▁뽑아서 100
▁체크카드 100
▁소세지 100
▁덮밥 100
드라고 100
▁돈주고 100
▁쑥 100
▁끓이 100
▁말로 100
▁음식에 100
마을 100
▁기엽 100
▁점검 100
카드로 100
▁노래도 100
▁시원하 100
벗 100
▁와씨 100
하트 100
▁방해 100
드러 100
보낸 100
▁누구한테 100
▁추웠 100
▁먹엇어 100
▁시켜야 100
뽕 100
쿨 100
있던데 100
▁어떻게든 100
▁이쁘고 100
▁순살 100
▁걷고 100
▁담당자 100
▁있구 100
▁팔면 100
것지 100
쿤 100
▁장만 100
▁되기 100
생겨서 100
▁대중교통 100
▁망했 100
▁껄껄 100
▁꼰대 100
▁팍팍 100
ᄏᄀᄀ 100
▁버블티 100
해봄 100
▁댐 100
돌리 100
▁실장님 100
▁180 100
▁여자애 100
한사람 100
▁심사 100
▁피우 100
▁귀엽게 100
▁마음대로 100
▁예전엔 100
햇오 100
▁은근히 100
▁ᄏᄏᄀ 100
▁가능한지 100
▁최저 100
▁천호 100
같고 100
자로 100
▁비슷할 100
여ᅮ 100
▁사실을 100
ᄀᄀᄏ 100
▁이러다가 100
▁전쟁 100
▁그쵸 100
데가 100
▁빙 100
몰랐 100
방울 100
▁ᄑ 100
▁이사님 100
▁화장실에서 100
▁귀찮다고 100
관이 100
▁빡세게 100
▁가짜 100
▁특이하 100
▁고백 100
▁말고는 100
▁저정도 100
년전 100
▁그저 100
▁매년 100
▁되잖아 100
▁이번에도 100
▁필요할 100
▁힘드네 100
씹 100
샀다 100
읍니다 100
▁놀랐다 100
▁포기하고 100
갈겡 100
쉴 100
핵 100
편이 100
▁하겠지 100
들려 100
▁딴데 100
▁엑스 100
▁나감 100
진이 100
▁구운 100
▁됏 100
▁가르쳐 100
▁과장이 100
▁통과 100
▁...... 100
▁뭐임 100
▁사전 100
렙 100
▁써보 100
▁에너지 100
▁뽕 100
먹으러가 100
아픔 100
▁가족끼리 100
주스 100
▁지났 100
▁돼지고기 100
▁대화하고 100
받았어 100
▁보내줄게 100
▁천사 100
▁오백 100
▁후리스 100
▁띠용 100
▁모르니 100
▁헤어질 100
▁기둘 100
▁독서 100
▁털이 100
▁없엇 100
▁빼서 100
는구만 100
▁몰겠 100
▁셔틀 100
▁전문가 100
▁소재 100
▁세게 100
댕기 100
▁생겼다고 100
흔 100
▁벌고 100
▁하얀색 100
드리고 100
왔어요 100
습니당 100
▁생일에 100
잘안 100
해따 100
자나요 100
▁모래 100
경기 100
엌 100
▁올라서 100
▁생각이다 100
▁개웃 100
▁놓은 100
▁화장을 100
▁울면서 100
셩 100
▁식당에 100
하우스 100
밑 100
픈 100
▁사이드 100
연습 100
▁왜요 100
떠서 100
▁되냐 100
▁바꿨다 100
ᄐᄏᄏᄏ 100
갯 100
▁돗자리 100
▁엊그제 100
인다 100
▁중간고사 100
▁핫팩 100
▁연인이 100
▁주고받는다 100
▁엑 100
잇엇어 100
아마 100
그러게 100
▁수강 100
시즌 100
▁배울 100
▁닥터 100
▁걘 100
▁좋아함 100
안하 100
▁무거워 100
▁2.5 100
녀석 100
와야지 100
마쟈 100
▁알겠다고 100
만하고 100
??! 100
▁썼어 100
▁챙길 100
▁한번더 100
▁귀여움 100
▁안되는거 100
▁캬캬 100
▁무난한 100
앜ᄏᄏᄏᄏ 100
백원 100
▁짱맛 100
있는게 100
▁성향 100
▁건강에 100
▁e 100
18 100
고파 100
▁보려 100
인간 100
시간씩 100
▁내기 100
▁책임 100
▁맴 100
▁어디꺼 100
▁좋겟 100
올걸 100
▁기다리는중 100
쇼핑 100
얍 100
앱 100
릴까 100
등이 100
야하는 100
패딩 100
▁안쓰고 100
▁아니잖아 100
둘다 100
▁먹다 100
▁서울역 100
▁돌리고 100
거같기도하고 100
야할텐데 100
▁내려갈 100
▁오버 100
다니까 100
랗 100
긴하더라 100
다음에 100
릅 100
▁꿔바로우 100
▁아디다스 100
▁포스터 100
▁비자 100
▁첫째 100
틱 100
▁야구장 100
이게 100
▁구롬 100
▁부족한 100
▁내돈 100
▁막혀 100
▁몰아 100
▁판단 100
▁성장 100
▁놓을 100
▁마블 100
는군 100
▁멋있다 100
▁빡쳐 100
▁K 100
▁라테 100
▁찾으면 100
원이야 100
▁해야되 100
▁비상 100
▁친절 100
▁마인드 100
▁논의 100
▁가위 100
▁비싸지만 100
▁외모 100
▁코가 100
▁들어왔는데 100
수도있어 100
▁아이디로 100
▁참고로 100
웃기다 100
▁연차를 100
▁부추 100
지않니 100
냈어 100
▁뿌듯 100
▁전화와서 100
▁쏟아 100
▁차서 100
사리 100
▁그때까지 100
▁술이 100
렸다고 100
▁분석 100
▁부정 100
▁잡는 100
▁못하겠다 100
옵 100
▁들어가야 100
깍 100
▁노래는 100
▁톤 100
입장 100
▁장을 100
▁깨지 100
파스타 100
▁언어 100
▁묻는 100
▁어쩌구 100
증이 100
▁껴서 100
⫬ 100
▁따릉이 100
▁된장찌개 100
▁흘러 100
▁준거 100
▁여름휴가 100
▁현관 100
▁휴일 100
라공 100
▁옆으로 100
~~~! 100
▁만들어야 100
▁소원 100
▁스쿼트 100
▁도시락을 100
27 100
▁알아봐야 100
ᄒᄒᄒᄒᄒ 100
인것 100
▁관리를 100
ᄏᄐᄐ 100
놀이 100
패드 100
▁올라갈 100
▁졸업식 100
▁해야돼 100
보장 100
▁웨딩 100
놓음 100
▁재미있는 100
난다고 100
이래서 100
▁시원하게 100
▁고추장 100
진대 100
었대 100
▁하나사 100
▁바삭 100
▁구치 100
▁조지 100
▁연속 100
수있는 100
▁목에 100
▁혼밥 100
▁쓰다가 100
▁뭘까 100
▁한박스 100
느끼 100
집을 100
햇대 100
곰 100
▁이별 100
F 100
X 100
썩 100
생각나 100
▁분식 100
▁빠지고 100
▁켰 100
▁지급 100
▁이거봐 100
▁당연한 100
▁마약 100
▁안들어가 100
▁집까지 100
못하고 100
한잔 100
▁아보카도 100
▁의정부 100
▁아푸 100
▁바르는 100
▁탈모 100
▁세차 100
▁쉬라고 100
하라는 100
들어간 100
▁말한거 100
▁알겠엉 100
쌍 100
▁코트를 100
혁 100
싶으면 100
이양 100
른거 100
좋겠다 100
지지 100
있는지 100
▁해먹을 100
▁배달비 100
시간동안 100
구야 100
▁어디냐 100
나감 100
니깤ᄏᄏ 100
계란 100
▁썼다 100
▁카톡을 100
▁개가 100
▁힘드러 100
▁일하면서 100
겠대 100
▁거실에 100
▁예배 100
▁공부하러 100
빠르 100
▁폭발 100
▁먹이 100
칼국수 100
▁에고 100
었잖아 100
▁위장 100
▁한약 100
대체 100
내려가 100
▁학교를 100
▁세워 100
▁엄청나 100
▁하체 100
냅 100
▁브라운 100
▁산부인과 100
▁인수인계 100
작업 100
▁받는거 100
맡 100
▁옆자리 100
▁우울증 100
▁폰을 100
▁꼬리 100
▁도착한 100
남아 100
▁!!!! 100
▁이뻐서 100
했으니까 100
▁고개 100
▁최고지 100
▁색깔이 100
▁꿈에 100
▁건조기 100
비번 100
▁못하겠 100
▁보일 100
▁살면서 100
▁여러가지 100
▁돌고 100
▁올라오는 100
▁핸드폰으로 100
▁조아해 100
▁표시 100
▁천둥 100
▁바로바로 100
▁느려 100
해줘야 100
▁견적 100
▁라이 100
▁다닌 100
렉스 100
▁찍은거 100
▁잡아야 100
▁힛 100
▁써보고 100
▁업뎃 100
▁살때 100
▁하느라 100
▁주름 100
갈지 100
▁잊어 100
▁멜 100
▁싸다고 100
▁코로나로 100
▁전화해보 100
봣다 100
▁흘리 100
▁한창 100
▁노원 100
▁심하다 100
▁걱정된다 100
낀 100
▁얼굴은 100
열어 100
넷 100
고나서 100
캣 100
칼로리 100
▁짬 100
토욜 100
잠깐 100
▁옮길 100
▁집도 100
▁뽑을 100
셨는데 100
▁여행은 100
▁정리를 100
▁엽기 100
▁메이크업 100
▁바퀴벌레 100
▁포켓몬 100
▁조개구이 100
▁나오라고 100
먹는중 100
모르게 100
▁단골 100
▁미련 100
많고 100
▁머것 100
앗다 100
▁예술 100
▁세탁소 100
▁스트 100
▁송도 100
▁꺅 100
터짐 100
▁부리 100
게써 100
▁홍삼 100
▁기준이 100
야된다 100
▁시세 100
▁남친이 100
ᅮᅮᅮᅮᅮᅮ 100
▁뭐냐고 100
쓰는데 100
▁올라가서 100
▁^ 100
▁깔끔하게 100
▁멀었 100
▁하고싶은 100
▁띄 100
넣었 100
▁무엇이 100
▁들려서 100
맞다 100
▁머냐 100
기능 100
충전 100
▁억울 100
ᄐᄐᄐ 100
한것 100
▁주말은 100
할꺼야 100
오빠가 100
▁만들어주 100
세상 100
▁당첨되 100
꺼가 100
끝날 100
▁알바생 100
▁집주인 100
어렵 100
▁개빡쳐 100
이사 100
▁뒤져 100
와야 100
▁물어보니까 100
상자 100
▁일어남 100
▁다름 100
점을 100
▁팬들 100
음료 100
긴하는데 100
▁내놔 100
▁비용이 100
▁현금으로 100
없대 100
▁살수있 100
위험 100
▁자극 100
서비스 100
▁걸리고 100
▁차량 100
▁지는 100
▁깊 100
뎈ᄏᄏᄏᄏ 100
▁겹치 100
▁애들한테 100
룡 100
▁멸치 100
▁놀자고 100
▁풍경 100
▁주택 100
▁티빙 100
나오는거 100
▁안된 100
▁가봤 100
▁g 100
용품 100
이었음 100
▁이거는 100
▁해봤는데 100
셨어요 100
쾌 100
▁탔다 100
▁안보고 100
▁정품 100
말을 100
▁같은디 100
인가바 100
▁아픈거 100
▁그랬지 100
or 100
▁마신 100
▁누나에게 100
▁받는데 100
만나서 100
껴서 100
프리 100
▁채소 100
▁뺀 100
▁이만원 100
▁드라마가 100
▁어렵지 100
앜 100
준데 100
▁쌉 100
▁어떰 100
▁예아 100
)( 100
▁빠지면 100
▁뽑고 100
▁아니요 100
트라 100
좋게 100
군여 100
눈물 100
▁쓴거 100
▁간거 100
꺼면 100
려구요 100
▁소화가 100
▁괜찮음 100
▁보고서 100
▁기상 100
▁천국 100
주네 100
▁걸어야 100
~~~? 100
폼 100
어차피 100
▁팁 100
▁놀면 100
썼어 100
지요 100
베리 100
야겟당 100
▁가평 100
ᅲᅲᅲᅲᅲᅲᅲᅲ 100
좋아하는 100
▁트렌치 100
뵈 100
쬬 100
▁재난지원금 100
▁블루베리 100
▁헌혈 100
덮밥 100
▁출국 100
▁핸폰 100
섴ᄏᄏ 100
▁뚝딱 100
▁곳도 100
모름 100
사님 100
▁단지 100
신가 100
▁댕겨 100
둘이 100
▁스파 100
▁삭 100
▁오빤 100
▁견 100
▁포토 100
▁줄어들 100
▁맛잇겟다 100
▁저리 100
▁세상에서 100
▁시험에 100
▁알러지 100
▁실버 100
▁골프 100
▁끌려 100
▁폰이 100
▁시험기간 100
▁뽀뽀 100
▁아르바이트를 100
▁말하라고 100
찍었 100
▁깎아 100
▁만나야 100
▁수다 100
▁별로다 100
▁미친거 100
것같음 100
봐야징 100
나랑 100
▁복권 100
▁매진 100
갘ᄏᄏᄏ 100
▁부를 100
▁되겠네 100
먹을게 100
▁애매해서 100
소식 100
▁보낸다 100
▁누나도 100
마시고 100
신분 100
▁좋으니 100
맞추 100
▁나는데 100
▁퇴근이 100
▁사람마다 100
해놨 100
뚝 100
▁인가 100
▁해줘서 100
햇다고 100
▁원본 100
짘ᄏᄏ 100
▁부어 100
났는데 100
짠 100
▁닫아 100
줘요 100
이후로 100
층이 100
화장실 100
사이트 100
▁가타 100
▁느꼈 100
😂 100
▁육개장 100
▁고등학생 100
▁매트리스 100
쩔 100
▁얼릉 100
체크 100
▁잃어버린 100
스프 100
▁정해진 100
축제 100
▁단톡 100
▁백팩 100
▁싸웠 100
▁말아야 100
▁모텔 100
▁저것도 100
가쟈 100
▁벌써부터 100
▁추워지 100
▁환율 100
!!!!!!!!!!! 100
▁웹 100
▁염색을 100
인지에 100
랰ᄏᄏᄏ 100
▁고르는 100
▁알겠오 100
▁놔두고 100
한다구 100
달아 100
▁우편 100
풀어 100
▁교대 100
보이네 100
▁괜츈 100
▁좋을까 100
▁어카지 100
▁장학금 100
도되고 100
볼라고 100
▁숨겨 100
▁몰랐네 100
▁몰아서 100
한걸 100
상으로 100
▁머여 100
줫는데 100
▁갈라고 100
▁에구 100
▁고민하자 100
수당 100
야되는거 100
▁뭔일 100
▁보호 100
일정 100
▁처음엔 100
▁알바를 100
으려면 100
쳤는데 100
▁안좋다 100
▁죽여 100
▁페이지 100
▁마음의 100
마이 100
▁모르겟다 100
없는거 100
벙 100
휘 100
샐러드 100
뭉 100
▁터진 100
▁가라앉 100
인사 100
▁대구에 100
▁아기가 100
▁ᄃᄃᄃ 100
▁빌려서 100
▁엌 100
▁스카 100
▁망한 100
▁골랐 100
▁으음 100
▁알았지 100
었다며 100
▁도로주행 100
▁마요네즈 100
▁고깃집 100
▁완죤 100
▁약먹고 100
▁립 100
▁클릭 100
▁설빙 100
재미 100
▁케이티 100
▁연애를 100
계산 100
▁입었는데 100
▁사이버 100
▁날리 100
3000 100
▁장바구니 100
▁돌았 100
▁사냥 100
▁나처럼 100
▁없어졌 100
▁오구 100
▁던져 100
▁배탈 100
▁세트로 100
▁공부가 100
▁자신감 100
▁가즈아 100
▁생각나는 100
▁2~3 100
줄수있 100
심이 100
▁해당 100
무시 100
▁외부 100
해용 100
보이더라 100
▁채용 100
▁올리는 100
▁알앗어 100
▁노트북을 100
할거면 100
▁ᅲᅲᅲᅲᅲᅲᅲᅲᅲ 100
▁어떡하지 100
▁해킹 100
아아아아 100
▁싼데 100
▁개통 100
▁이마트에서 100
시전에 100
▁퇴근하면 100
▁골목 100
▁안입 100
▁헤어졌 100
▁귀찮고 100
▁말이지 100
▁그러더라 100
▁힘들겠다 100
▁추억이 100
▁서울대 100
댄다 100
▁밥만 100
▁사람인 100
▁뮤 100
▁마스크가 100
말야 100
▁먹긴 100
겠노 100
▁f 100
▁개많 100
▁지성 100
왱 100
야겟네 100
우산 100
▁헐ᄏᄏ 100
▁싸울 100
▁핸드폰이 100
상관없 100
▁여유가 100
▁가발 100
것어 100
야하는디 100
감기 100
▁크레 100
▁문신 100
▁담요 100
▁낙지 100
▁배터리가 100
▁웃겨서 100
▁탄수화물 100
▁땅콩 100
▁원장 100
▁인생이 100
▁고민을 100
도서관 100
▁다신 100
ᄏᄐᄏᄏ 100
▁싸지 100
하려나 100
▁허억 100
그랭 100
▁살아서 100
▁컬 100
▁할리스 100
▁스탈 100
▁들어옴 100
▁끊을 100
해봤는데 100
▁답답하 100
부럽 100
▁추위 100
▁샀고 100
▁찾음 100
▁거리가 100
▁안타 100
▁잡혀 100
▁첨엔 100
발표 100
▁깜놀 100
놈이 100
비로 100
▁마셔야 100
▁ᄅ 100
낫다 100
▁살찌 100
었엉 100
▁배달의 100
뒀 100
▁무서웠 100
▁겪 100
▁닫고 100
▁이시간에 100
▁쉬워 100
▁서점 100
▁묻어 100
▁확률이 100
▁시켯 100
▁간단한 100
▁오른 100
대단 100
▁먹어라 100
▁이겨 100
보세요 100
▁쯤 100
알려 100
▁강화 100
급이 100
▁밤을 100
▁불쌍 100
는거라 100
잇오 100
▁모양이 100
시간만 100
▁들엇 100
하거 100
▁연락할게 100
▁타입 100
캬 100
▁잇으면 100
▁그정도는 100
수를 100
▁읽을 100
▁잊지 100
▁뜨면 100
▁가니 100
▁터치 100
▁고래 100
넛 100
▁눌러서 100
▁맘스터치 100
▁셋째 100
▁라이언 100
▁종합 100
했었어 100
▁얼굴도 100
▁베스트 100
▁대타 100
▁중복 100
▁계좌번호 100
▁심장이 100
▁맞게 100
▁계약직 100
▁안살 100
▁등록금 100
▁계획이 100
▁직무 100
▁난방 100
텐뎅 100
▁백업 100
▁맞앙 100
장에서 100
▁질문에 100
▁그말 100
▁사주고 100
▁대박이야 100
▁떡볶이가 100
▁싶은거 100
▁언제든 100
▁물품 100
이네요 100
▁도서관에서 100
▁찌개 100
▁옵션 100
▁알려줘서 100
▁공부도 100
▁무기 100
▁사진찍어 100
▁열나 100
만얼마 100
장난 100
안사 100
달라는 100
미터 100
수가없 100
▁n 100
▁신나게 100
있게 100
z 100
있으니 100
▁비벼 100
공기 100
▁살아있 100
탱이 100
▁운동복 100
일동안 100
▁사람들과 100
▁좋앙 100
을라나 100
▁점심시간에 100
▁되더라 100
▁챙겨먹 100
뚱 100
▁컨디션이 100
바르 100
랑같이 100
부분이 100
초딩 100
눌러 100
▁엘리베이터 100
왈 100
▁자연스럽게 100
▁가져가서 100
뜯 100
시키는 100
타서 100
▁사귄 100
▁종종 100
▁듯하다 100
년째 100
▁오바야 100
▁사탕 100
몰라서 100
♡♡♡ 100
▁소식을 100
▁맛에 100
▁사인 100
겠네요 100
on 100
달라해 100
▁도착했다 100
▁오셔서 100
▁가는건 100
사람도 100
▁ᄒᄅ 100
▁일자 100
▁주인이 100
비싼 100
▁잘햇 100
▁찾아봤는데 100
고르 100
▁도망가 100
니당 100
▁온다는 100
ar 100
▁아시아나 100
▁l 100
줫어 100
▁저렴 100
▁쿠폰이 100
▁이러니까 100
수있음 100
▁꽂아 100
▁일어났는데 100
쓴거 100
▁엄마를 100
▁생각에 100
▁집근처 100
▁1500 100
▁위주로 100
▁바디 100
▁때만 100
▁떳 100
밖에없 100
▁둘중에 100
일이라 100
▁약속한다 100
▁못봤 100
▁효 100
▁사줄까 100
▁두근 100
▁안되네 100
방금 100
▁층 100
▁도와줄 100
▁벌어서 100
겄 100
갠춘 100
중에서 100
▁운명 100
때문이 100
▁잠은 100
선택 100
것을 100
겠소 100
겠냐 100
▁이거야 100
U 100
▁클라이밍 100
뿜 100
드나 100
▁내시경 100
▁안할 100
▁판다고 100
▁파악 100
▁충분 100
해야되는데 100
집가 100
릴때 100
▁이뿌다 100
빠졌 100
♡♡ 100
▁않았지만 100
▁이런느낌 100
엇지 100
머글 100
▁세상이 100
▁준비해야 100
▁버틸 100
겠나 100
▁가래 100
▁쉬면 100
▁주부터 100
▁만나지 100
▁보태 100
▁귀찮은 100
초밥 100
경우 100
▁글게 100
▁첨부터 100
▁가까운데 100
▁텐 100
▁운전을 100
▁떨려 100
다보니 100
▁앞이 100
▁아빠에게 100
▁합쳐서 100
지기 100
거같던데 100
되잖아 100
▁에엥 100
울때 100
알겠어 100
▁일찍자 100
▁주사를 100
▁두피 100
에겐 100
해조 100
▁힘들면 100
치과 100
▁물어서 100
▁쇼핑을 100
지말지 100
재질 100
▁인제 100
는즁 100
▁15000 100
ᅮᅮᅮᅲ 100
상담 100
▁빌려줄 100
ᄂᄂ 100
회식 100
▁잘먹 100
컴활 100
▁정성 100
▁두배 100
냥이 100
관련 100
시나요 100
............ 100
멸 100
▁오리지널 100
▁왕십리 100
▁백종원 100
▁사투리 100
층에서 100
▁스케일링 100
▁정수기 100
보려 100
▁줬다고 100
▁전시 100
활동 100
한달 100
▁리필 100
보니깐 100
이ᅭ 100
▁황금 100
머겅 100
▁그만둘 100
▁분홍색 100
▁원피스를 100
한국 100
▁34 100
월달 100
나부다 100
절대 100
▁피씨방 100
▁결심 100
되냐 100
들었어 100
▁언니를 100
영어 100
▁지난번 100
▁도착하는 100
걸린 100
▁잘못된 100
려는데 100
▁퀸 100
▁최악이 100
▁수납 100
▁찜질방 100
성공 100
둔거 100
▁잘했다고 100
▁짭 100
맞네 100
지말래 100
내리 100
놀고 100
중요 100
크게 100
햇엇 100
▁무거 100
올거 100
자구 100
▁배달이 100
▁늙 100
시키면 100
▁씻었 100
▁비행기를 100
▁이랬는데 100
▁내용에 100
▁기억도 100
▁찍으면 100
▁모자라 100
▁자는데 100
▁구분 100
집으로 100
붙여 100
▁줬어 100
▁알게써 100
오자 100
▁따지 100
바퀴 100
▁라이트 100
상관 100
▁하니깐 100
▁잘생겼 100
▁따뜻해 100
▁해가 100
▁컴퓨터로 100
된당 100
▁한명이 100
해짐 100
▁담배를 100
▁토론 100
썰 100
겼어 100
▁,,,, 100
▁개안 100
▁좌 100
렌즈 100
▁점장님 100
▁친구야 100
▁안갈 100
저나 100
▁방탄소년단 100
▁그립톡 100
▁한마디 100
려궁 100
이여서 100
▁디스크 100
▁어딨 100
▁보냇 100
▁일어나는 100
프다 100
▁배에 100
▁잡채 100
알아서 100
▁몇달 100
엿나 100
그래두 100
▁" 100
▁성능 100
▁분명히 100
▁가긴 100
▁장미 100
▁중요해 100
거잖아 100
▁배추 100
줄겡 100
▁사정 100
입금 100
▁바람에 100
향이 100
▁반대로 100
▁이상해서 100
좋아해 100
자신 100
▁치킨은 100
▁의외로 100
▁샐러드를 100
▁날아가 100
▁복잡하 100
▁익숙해 100
▁없어지 100
▁샀던 100
▁250 100
알고 100
아닐 100
셔야 100
▁음식물 100
얔ᄏᄏᄏᄏ 100
부자 100
었더니 100
▁있을때 100
▁공부는 100
▁삿는데 100
마켓 100
▁유튜브를 100
아니구 100
이기 100
감사 100
더러 100
▁지네 100
아아아아아 100
▁듣는데 100
▁알고있 100
▁일하면 100
▁현지 100
달라구 100
▁들어갔다 100
▁러브 100
▁모가 100
인대 100
▁났는데 100
해주세요 100
▁남자는 100
같지 100
▁천장 100
므로 100
▁자매 100
▁특정 100
조차 100
▁갔을때 100
빗 100
뭇 100
▁켜고 100
▁보내라고 100
▁필요하다고 100
합격 100
▁식품 100
▁먹고싶은데 100
▁내렸 100
▁이가 100
▁노맛 100
무침 100
▁그러고보니 100
▁노량진 100
▁브런치 100
▁에어비앤비 100
▁오피스텔 100
▁뉴욕 100
▁탈퇴 100
▁살거야 100
▁법을 100
아퍼 100
먹었엉 100
▁보험료 100
끝내 100
▁전체적으로 100
▁헷 100
▁레이저 100
한당 100
▁웅ᄏᄏᄏᄏ 100
▁그러게요 100
▁잇는거 100
일어나서 100
▁가고싶은데 100
▁어색 100
▁쳇 100
전번 100
함이 100
▁먹었지 100
▁벗겨 100
▁색감 100
▁까미 100
받으 100
월말 100
▁들음 100
키고 100
▁수입 100
안먹어 100
▁벽에 100
▁둥 100
귀엽다 100
이번에 100
▁할라고 100
▁뚱뚱 100
▁유튜브로 100
▁깨우 100
뭐라 100
▁사원 100
겟군 100
▁봤을 100
들에 100
▁파는거 100
▁우리회사 100
▁찾은 100
▁홈플 100
아앙 100
▁몰라도 100
▁미쳣다 100
▁대리님 100
▁부산에서 100
▁순위 100
▁가볼 100
요금 100
겟음 100
타이 100
▁일반인 100
▁뭐하냐 100
▁채팅 100
▁아직두 100
▁다짐 100
첫 100
▁생기고 100
▁이쁘네 100
▁불안해서 100
▁시작하면 100
▁비워 100
것같아요 100
▁온니 100
▁해석 100
▁안가고 100
▁인싸 100
▁분홍 100
▁만한 100
▁광화문 100
▁쫓아 100
▁정확한 100
▁국민은행 100
▁청춘 100
▁롯데마트 100
▁핀 100
▁생긴거 100
▁지하철이 100
▁끼워 100
▁공기업 100
▁1+1 100
▁심각한 100
▁돌아가는 100
이상해 100
▁금욜날 100
당한 100
잇엉 100
▁지들 100
깝 100
▁ᄏᄃᄏᄃ 100
▁늘리 100
▁올게 100
▁될거 100
해진 100
▁걸림 100
▁잃어버리 100
▁잡히 100
▁할인받 100
▁남기 100
물어 100
▁시력 100
▁다르지 100
됏어 100
랬어 100
▁여러번 100
▁수준이 100
올거야 100
알았어 100
▁액 100
▁배우는 100
햇거든 100
1000 100
▁알어 100
▁가까워서 100
모으 100
▁안좋아서 100
인형 100
▁보석 100
잡았 100
▁찾아가 100
▁교수가 100
▁진동 100
▁가로 100
▁00 100
▁합의 100
▁찍었다 100
▁얘는 100
▁딜 100
▁구래서 100
▁걱정을 100
보내고 100
인건 100
못먹 100
에서만 100
▁출발해서 100
▁뜨고 100
신경 100
▁많으니 100
▁넓어 100
거같긴한데 100
▁알면 100
▁구워먹 100
따고 100
자세 100
▁길거리 100
위치 100
기차 100
▁잘한다 100
쌓 100
▁오킹 100
방은 100
▁고민하는 100
인실 100
▁합니다 100
긴다 100
할게요 100
봅시다 100
▁다래끼 100
▁주세요 100
필요없 100
▁되려나 100
▁연극 100
▁발랐 100
▁전원 100
▁남았다고 100
▁두근두근 100
▁z 100
0000 100
▁암거나 100
▁족 100
는뎈ᄏᄏᄏ 100
습니 100
▁유명해 100
▁안조아 100
약을 100
▁잇몸 100
▁뺏어 100
▁나어제 100
▁냉동실 100
▁쏙 100
▁애매해 100
▁섞어 100
▁사진만 100
▁친해지 100
▁덜덜 100
▁입양 100
▁크기가 100
했는뎅 100
▁테마 100
▁챙겨가 100
▁강아지들 100
매트 100
▁분장 100
▁밭 100
타워 100
사람한테 100
▁데가 100
깔아 100
▁해줬 100
▁지마켓 100
▁쳐다보 100
▁용인 100
▁이상하 100
보께 100
점수 100
▁빨대 100
▁순서 100
잎 100
▁메이 100
갚 100
펌 100
▁후보 100
▁기구 100
생겨 100
쯔 100
^-^ 100
▁한꺼번에 100
돔 100
▁마찬가지 100
▁라디오 100
▁깻잎 100
▁런닝 100
▁스트레스받 100
▁수하물 100
시반까지 100
▁의료 100
▁민폐 100
▁멈추 100
▁실수로 100
▁자기한테 100
드시 100
▁머쓱 100
▁로고 100
어어 100
이쁘다 100
▁오니 100
짧 100
표정 100
하는겨 100
▁배고픈데 100
▁멀쩡 100
▁볼지 100
▁ᅩ 100
했던거 100
▁이제부터 100
▁챙기고 100
▁녜 100
할껄 100
▁그럴수 100
▁누르고 100
▁고속도로 100
알려줘 100
▁부탁하 100
▁내려가서 100
▁애기가 100
▁조용 100
▁이름도 100
▁붕 100
금지 100
▁괜찮을듯 100
랬지 100
▁못봄 100
▁ᄏᄏᄏᄏᄏᄏᄏᄏ아 100
▁기운이 100
해야징 100
스탈 100
능력 100
대면 100
▁책읽 100
▁계란을 100
▁플레이 100
▁별로라 100
▁열정 100
▁얘기가 100
▁구로 100
하겟다 100
들면 100
그릇 100
가기전에 100
▁물티슈 100
▁없오 100
▁약속했다 100
잃어 100
▁받으려고 100
▁싸우는 100
▁어제보다 100
▁스프 100
▁똥싸 100
▁멀다 100
몇시에 100
▁식당에서 100
가야돼 100
▁민원 100
댔어 100
▁장바구니에 100
갖 100
사를 100
▁복도 100
빨라 100
▁꼬치 100
▁간대 100
팝 100
가봄 100
팍 100
▁그러는데 100
▁미세먼지가 100
▁나오기 100
▁퇴근해서 100
▁개웃기다 100
쓰레기 100
엌ᄏᄏᄏᄏᄏᄏᄏ 100
▁도서관에 100
▁아닌듯 100
눅 100
슥 100
잏 100
▁유부초밥 100
해놔 100
▁여의도 100
▁못했 100
▁빠르네 100
▁오처넌 100
작아 100
들엇 100
▁자를 100
▁시작한 100
▁꼬막 100
▁서운하 100
▁환상 100
오오오 100
▁뚱 100
네ᄏᄏ 100
▁조율 100
▁싶었던 100
읽어 100
스피 100
▁토욜날 100
▁알려주면 100
▁한방에 100
다니면서 100
▁안가져 100
▁잤다고 100
그러네 100
괜차나 100
▁보여줄게 100
나오는데 100
▁우리의 100
▁오라방 100
충격 100
피곤해 100
▁대비 100
뇽 100
▁욕먹 100
▁굴러 100
하다는 100
▁그런거같아 100
너도 100
▁민증 100
▁진주 100
은거야 100
▁체질 100
▁면세점에서 100
▁재생 100
▁아니에요 100
▁낫겠다 100
▁짜증난다 100
▁끊기 100
▁어때요 100
▁꽁 100
▁그사람이 100
45 100
자야 100
▁어딘가 100
놓을게 100
▁방역 100
이던데 100
▁쟤는 100
그것도 100
▁높아서 100
▁되었다고 100
▁풀렸 100
▁글로 100
▁생각할 100
▁야경 100
겠니 100
▁안뜨 100
▁번개 100
▁보여줬 100
▁책장 100
▁걔랑 100
봉지 100
▁알아야 100
었구나 100
▁마음은 100
과제 100
▁므 100
그러고 100
헷 100
▁제외 100
바뀌 100
주세여 100
저렇게 100
기름 100
클럽 100
▁자존심 100
끗 100
▁제육 100
▁기생충 100
▁단호박 100
▁유니클로 100
▁겨드랑이 100
롸 100
해준대 100
▁샤넬 100
▁쉰 100
▁말해야 100
▁예쁠 100
▁경험이 100
▁떠들 100
▁휴게소 100
▁어쩜 100
▁파주 100
▁튀어 100
ᄏᄏᄀᄏᄏ 100
▁자지 100
▁말했어 100
▁심각 100
▁엄지 100
▁잘어울리 100
▁헤이 100
의미 100
▁어뗘 100
▁쐬 100
▁금액을 100
▁앙대 100
▁어딜가 100
두대 100
▁좋아지 100
결과 100
미쳤 100
탔어 100
▁수령 100
▁노예 100
▁트리 100
머것 100
▁상의한다 100
▁어땠어 100
▁계신 100
댕겨 100
▁몰려 100
▁틀린 100
반지 100
▁가냐고 100
▁물어봐야 100
아예 100
▁올렸는데 100
▁쪼아 100
질러 100
▁운동하는 100
▁스펙 100
▁어떡하냐 100
▁조져 100
▁놀아주 100
머니 100
▁보내서 100
그대로 100
▁만들었는데 100
오니 100
▁옴마 100
▁몇분 100
돈데 100
▁갔다왔 100
▁장비 100
▁쉰다고 100
▁빨래를 100
햇던 100
▁내복 100
▁져 100
가니 100
▁생일선물로 100
때쯤 100
등급 100
선배 100
▁생일이라 100
▁남자애들 100
▁우리집에서 100
▁신을 100
▁버리는 100
인척 100
▁있긴한데 100
▁자른 100
▁뻔했다 100
분전 100
▁맞은 100
▁올라왔 100
▁버스는 100
▁안봐 100
▁화해 100
넉넉 100
▁없어져서 100
▁좋앗 100
멜 100
▁씻을 100
아플 100
▁병원비 100
차타고 100
▁키울 100
▁이놈 100
버린다 100
▁홧팅 100
꽈 100
켄 100
툼 100
▁레전드 100
▁놀랬 100
▁하는거지 100
▁베이글 100
▁말하니 100
▁겉옷 100
부터는 100
줬다고 100
▁없을듯 100
▁개웃김 100
▁할라 100
▁개오바 100
▁으앙 100
▁일정에 100
▁렉 100
걸음 100
▁했어요 100
빠진 100
심각 100
▁답답해서 100
▁94 100
▁사람들을 100
▁마지막날 100
▁재미있게 100
▁바라고 100
염색 100
▁나라면 100
▁넣어주 100
▁욱 100
..0 100
▁들어간다 100
▁원씩 100
▁하시는 100
▁식욕 100
▁성남 100
지니까 100
느껴 100
▁애를 100
기념 100
나왔다 100
▁증상이 100
고싶당 100
8000 100
▁느끼는 100
▁길러 100
▁앉은 100
즌 100
▁여보는 100
▁어두운 100
▁다이소에 100
▁찍어야 100
었는디 100
되겠네 100
▁구찌 100
수있을까 100
▁이번달에 100
▁컨 100
거아니가 100
▁가자는 100
햇엉 100
옄ᄏᄏᄏᄏᄏ 100
▁싸강 100
▁그렇지만 100
▁졸리다 100
▁언제오 100
▁궁금한 100
▁숙소에 100
닿 100
▁저기가 100
였고 100
주려고 100
올듯 100
▁160 100
▁서운해 100
전엔 100
▁그정도로 100
ᄁᄀ 100
▁언니꺼 100
라그래 100
분위기 100
▁나쁘지않 100
킷 100
▁광안리 100
▁사회생활 100
▁할꺼 100
당함 100
▁깨끗 100
▁복귀 100
▁미리미리 100
▁어디까지 100
▁으휴 100
▁향기 100
▁히잉 100
ᄏᄁ 100
▁i 100
▁읭 100
▁제로 100
ᅳᅮ 100
▁응모 100
고싶네 100
맞나 100
▁3-4 100
▁굵 100
방송 100
▁너를 100
..; 100
▁올라가는 100
▁하라는 100
▁사람들한테 100
▁고를 100
▁겹 100
▁쫄면 100
▁끝났다 100
른데 100
▁비싸긴 100
▁싫어해 100
▁가게에서 100
나오네 100
▁필테 100
▁우아 100
▁흐르 100
▁호빵 100
인건가 100
하고싶은데 100
▁피곤하지 100
▁엄청나게 100
입으면 100
▁일부 100
지니 100
▁대신에 100
편해 100
어떠 100
▁내장 100
▁푹자 100
아라 100
▁ᄏᄏᄏᄏᄏᄏ대박 100
▁들이 100
▁그쯤 100
아닐까 100
▁마장 100
▁날도 100
▁거를 100
▁뜸 100
▁관두 100
▁한국어 100
▁헉스 100
근처에 100
▁저걸로 100
▁까만 100
집도 100
주말 100
▁망했어 100
우동 100
▁돌리면 100
▁한우 100
▁있을거 100
▁지정 100
믿 100
▁애정 100
다섯 100
넥 100
▁야외 100
해졌 100
▁눌렀 100
▁심부름 100
밸 100
▁바닷가 100
▁낄낄 100
▁어쨌든 100
▁매일매일 100
욬ᄏᄏᄏᄏᄏ 100
▁있을거야 100
▁춤추 100
▁아니어서 100
▁대략 100
맘에 100
▁그러나 100
▁거지같 100
▁가이드 100
▁무한 100
오셈 100
▁바보야 100
▁스케쥴 100
▁오산 100
▁걱정하지 100
낰ᄏᄏᄏᄏᄏ 100
▁점이 100
▁없는게 100
상품 100
▁갔으면 100
▁생각해보 100
화면 100
▁이리 100
▁합정 100
▁난리남 100
▁녹아 100
살래 100
욜 100
▁개미 100
▁늦으면 100
싸게 100
라햇는데 100
▁그담 100
가까 100
▁덥다고 100
▁밖으로 100
갈아 100
▁재난 100
▁잘맞 100
▁나갈게 100
▁껍질 100
▁룰루 100
▁여기까지 100
졸라 100
싶음 100
▁이때 100
▁정지 100
▁최고다 100
았음 100
▁할걸 100
▁귀차나 100
▁왔다며 100
지않았 100
▁우정 100
▁ᄂᄂᄂ 100
리는거 100
▁재료를 100
했으나 100
▁추가로 100
보이고 100
▁놀리 100
▁고기는 100
▁생수 100
갔네 100
▁문제야 100
만드는 100
▁가족이 100
▁매콤 100
▁압 100
▁내리고 100
콕 100
▁자구 100
▁안했는데 100
▁잡았다 100
▁밥먹을 100
차를 100
텨 100
아줌마 100
▁퇴근해 100
쇄 100
▁말함 100
큰거 100
▁춘 100
▁유니폼 100
▁전자렌지 100
▁펭수 100
▁웨이브 100
▁곰돌이 100
▁감사감사 100
▁재킷 100
▁적혀있 100
▁벨트 100
▁징징 100
▁자신에게 100
하시네 100
▁그거야 100
시켰 100
들음 100
▁짱짱 100
▁유독 100
▁방수 100
네ᅲᅲ 100
▁내림 100
▁던지 100
송이 100
별루 100
▁열차 100
/// 100
냈다 100
▁낯 100
▁헌 100
해주는거 100
▁차도 100
▁조끼 100
거기서 100
▁시험은 100
핑크 100
묵어 100
갠 100
ᅥᄂ 100
▁하거나 100
?????????? 100
▁금토일 100
생겼어 100
엇네 100
▁요구 100
▁올라와서 100
맞고 100
▁????? 100
▁좋구 100
▁어디갔 100
▁팩트 100
▁기억력 100
▁생명 100
4000 100
다구요 100
▁육수 100
▁하루가 100
▁피곤할 100
사다 100
▁< 100
▁것이며 100
얔ᄏᄏᄏᄏᄏ 100
보내줘 100
때리 100
▁지루 100
소만 100
▁이쁨 100
▁삽 100
▁맛잇는거 100
▁강아지를 100
▁남친이랑 100
▁안타깝 100
▁95 100
▁해본 100
▁못하는데 100
▁무릎이 100
▁메뉴에 100
▁양쪽 100
▁안맞아 100
▁하나로 100
디야 100
▁비오면 100
▁부르고 100
당근 100
▁상해 100
▁다니는데 100
▁갔다오 100
달리 100
칫 100
▁먹어봤어 100
싳 100
😍 100
▁야무지게 100
▁애플리케이션 100
▁프렌즈 100
q 100
▁오케오케 100
▁차장님 100
▁스포츠 100
▁대한항공 100
▁에센스 100
잌 100
▁네시 100
▁맛있었다고 100
보네 100
▁싫음 100
▁허르 100
▁어려움 100
▁그랬었 100
▁지나가는 100
▁폭식 100
ᄏ큐ᅲᅲᅲ 100
▁쌓이 100
▁나온대 100
▁재워 100
▁깼 100
▁보는게 100
하군 100
▁다녀왔 100
공간 100
▁가끔씩 100
▁돌아오는 100
▁없는듯 100
▁분양 100
▁초딩때 100
▁할수잇 100
▁학과 100
화장 100
▁거품 100
▁집값 100
▁발송 100
없을 100
▁가다가 100
▁간식으로 100
넣어서 100
▁김포 100
▁분노 100
텐디 100
▁눈도 100
▁달린 100
▁잘하면 100
▁마을 100
곳으로 100
▁삘 100
▁벽지 100
였구나 100
하려는데 100
▁삶은 100
가는거야 100
낸다 100
▁바뀌었 100
불가 100
ᄏᄏᄐᄏ 100
▁피곤했 100
거고 100
▁담주부터 100
▁ᄁ 100
▁편해서 100
▁일어낫 100
▁쏠 100
색깔 100
갈수있 100
하네요 100
통화 100
만원인데 100
▁북한 100
▁모으는 100
▁주무 100
▁주스 100
▁세일을 100
▁어엉 100
델 100
실수 100
헝 100
▁가야하나 100
▁어렵고 100
▁이하 100
▁안했 100
나왔는데 100
▁아메 100
▁마지막이 100
▁쟤가 100
회에 100
▁니랑 100
▁화났 100
렷다 100
• 100
▁52 100
▁예민한 100
▁사람만 100
붓 100
▁마른 100
▁안가도 100
☺ 100
▁후다닥 100
▁스마일 100
▁놀이터 100
Y 100
▁러닝 100
ᅭ어 100
▁완결 100
▁외롭 100
왜안 100
▁런던 100
▁쇼파 100
▁히터 100
▁어이없네 100
▁음식은 100
▁중학생 100
▁제주도에서 100
▁어떨까 100
▁여유롭게 100
▁생각하지 100
▁넘기 100
앜ᄏᄏᄏᄏᄏ 100
▁기념으로 100
▁숙소가 100
는뎈ᄏᄏᄏᄏ 100
▁원주 100
▁어디다 100
▁벗고 100
▁옛날엔 100
▁추가해서 100
▁연금 100
▁초음파 100
▁장례식장 100
▁보아 100
▁좋겠당 100
▁나아지 100
먹으 100
▁정전 100
▁어늘 100
버릴까 100
▁쫙 100
오바 100
리스트 100
각이 100
눈이 100
▁어키 100
▁쉬지 100
는딩 100
표를 100
▁일한 100
▁통통 100
랰ᄏᄏᄏᄏ 100
~~?? 100
보이지 100
▁똑같은거 100
com 100
수잇어 100
▁깔끔하 100
▁간다며 100
ᄀᄀᄀ 100
▁전환 100
이라면 100
▁다담주 100
기계 100
▁템 100
▁왓어 100
▁쩜 100
▁감정이 100
성에 100
▁않앗 100
▁왜그러지 100
▁그때도 100
시티 100
▁받기로 100
하나만 100
해보여 100
구랭 100
못해서 100
▁오티 100
그림 100
▁듀 100
▁친구들은 100
▁늦지 100
하러가 100
▁저렴하 100
▁지니 100
춤 100
점은 100
헿 100
▁빠짐 100
겔 100
’ 100
▁싱가폴 100
▁임산부 100
인강 100
▁베이컨 100
▁비비큐 100
▁맥북 100
▁욜 100
만원은 100
▁기억에 100
▁서울로 100
시네요 100
▁저거는 100
▁엄마꺼 100
▁올만에 100
▁주간 100
금욜 100
▁망했다 100
▁읽어보 100
▁갔다와 100
▁제안한다 100
ᄑᄑ 100
▁내역 100
▁들으면서 100
▁나듀 100
뿐이야 100
▁세제 100
▁고양이는 100
블루 100
▁영하 100
봐여 100
▁자극적인 100
▁깍 100
뭐냐 100
자켓 100
▁하와이 100
▁공복 100
▁그랬다고 100
▁뭐더라 100
네ᅲ 100
분뒤 100
▁떨어짐 100
▁샷 100
▁ᄏᄏᄏᄏᄏ아니 100
▁얘기했 100
▁아닠ᄏᄏᄏ 100
▁감튀 100
대루 100
▁느껴진다 100
▁당일에 100
의사 100
▁어디에서 100
▁노리 100
▁핑크색 100
냐면서 100
▁사온 100
▁가지마 100
가능하 100
▁자막 100
▁낮아 100
▁재밌어서 100
것보다 100
▁벗어나 100
속에 100
▁수원역 100
▁뻗 100
다녀서 100
제대로 100
▁찜질 100
▁덧 100
없었 100
한테는 100
천원이 100
▁뽑기 100
▁반만 100
▁물어봣 100
▁어머님이 100
▁정도에 100
왔다고 100
갔나 100
오져 100
옄ᄏᄏᄏ 100
좋겠 100
▁안되겠다 100
▁날씨도 100
▁충격적이 100
▁한계 100
요오 100
느니 100
▁명의 100
▁늦어도 100
▁도깨비 100
▁튜브 100
▁연회비 100
좋은거 100
▁팔뚝 100
▁그램 100
▁안드 100
▁냈다 100
▁종교 100
년간 100
▁맑 100
▁타로 100
대충 100
▁붙을 100
▁혼내 100
▁주시 100
▁음료를 100
▁그렇긴한데 100
▁단거 100
비행기 100
▁거여 100
겟는데 100
▁저녁에는 100
▁도전해 100
쩐 100
▁색은 100
▁단계 100
▁말하지만 100
▁귀여 100
▁찾아보자 100
▁빼는 100
안에서 100
▁주문해서 100
▁읽었 100
▁붙으면 100
▁잘해서 100
수로 100
입음 100
▁캔들 100
잇냐 100
▁정해서 100
▁지출 100
▁쌓아 100
될거 100
▁모자를 100
▁한정 100
▁유행이 100
▁조교 100
▁눈으로 100
▁어떡하 100
▁호에 100
보이긴 100
▁그지 100
들리 100
▁배고프면 100
다행이다 100
▁해야하는 100
▁얼탱 100
적어 100
▁제품이 100
▁읽씹 100
▁마포 100
▁가겠다 100
라믄 100
▁대사 100
▁일본은 100
일인가 100
와따 100
잘했어 100
▁택배비 100
잔다 100
▁많지만 100
▁기능이 100
라는거 100
모드 100
▁보내주고 100
영이 100
점에 100
택시 100
▁사은품 100
▁따뜻하 100
▁신랑 100
▁부어서 100
▁짱이야 100
▁그니께 100
▁봤더니 100
▁ᄏᄏᄏᄀᄏ 100
▁안쓰는 100
찌개 100
얻 100
▁영화보고 100
▁미드 100
됭 100
얐 100
웜 100
▁안맞는 100
▁팬미팅 100
V 100
항공 100
꽂 100
증명서 100
다이어트 100
넓 100
하셧 100
▁워터 100
▁왕창 100
갈라 100
▁모지 100
▁초기 100
▁따라가 100
▁입기 100
▁부대 100
한겨 100
웃김 100
▁로제 100
▁보충 100
▁빌린 100
▁분들 100
▁서랍 100
봤지 100
중독 100
▁주먹 100
▁끔찍 100
될거같아 100
▁의도 100
어려워 100
▁빨개 100
▁잘지내 100
▁당근마켓 100
▁끊고 100
▁꼽 100
▁갓다가 100
▁쉰다 100
▁크면 100
플러스 100
왔음 100
▁바꾸자 100
▁위생 100
▁깬 100
▁빡쳐서 100
▁매워 100
▁넣었는데 100
▁윗집 100
물을 100
▁진한 100
▁직전 100
▁주말이라 100
노트 100
소리가 100
▁이중 100
▁어떨지 100
됐네 100
▁사와서 100
▁먹어야해 100
▁쟈 100
감동 100
▁한번은 100
▁면이 100
글고 100
수영 100
▁개많이 100
▁머신 100
주삼 100
▁게임에 100
로만 100
▁규 100
에프 100
▁확실한 100
▁모으고 100
계좌 100
▁알아볼 100
붙이 100
한것도 100
빌리 100
먹는다고 100
▁쉬어서 100
▁단종 100
▁뭐먹어 100
▁최고라고 100
▁닥 100
▁아니었어 100
▁술도 100
▁엄만 100
▁그랬음 100
▁주신 100
▁나오니까 100
▁물량 100
▁윙 100
채우 100
줄알아 100
개로 100
중간 100
▁인절미 100
탠 100
▁파리바게트 100
▁바뀔 100
돋 100
팜 100
카메라 100
▁없자나 100
답니다 100
잇으 100
▁뚝 100
▁질투 100
엄빠 100
▁씻는 100
▁땀나 100
▁편하긴 100
▁기가 100
▁느낌으로 100
▁전기세 100
선수 100
빠질 100
분도 100
뿌리 100
▁위험한 100
바꿀 100
▁입으라고 100
▁안한다 100
었을 100
으래 100
▁차에서 100
곸ᄏᄏᄏᄏᄏᄏ 100
▁섭웨 100
오픈 100
주머니 100
▁상한 100
닮 100
▁소화제 100
▁있었음 100
▁만들었다 100
▁다듬 100
▁몇살 100
▁팩스 100
▁봐달라고 100
도없어 100
눈거 100
▁가는거야 100
▁벌레가 100
거아니야 100
▁상대방도 100
▁팔이 100
▁결혼하고 100
질까 100
▁자기들 100
▁제공 100
해야할듯 100
▁나가려고 100
분의 100
먹냐 100
▁속상하 100
▁못하 100
오냐 100
▁시간되면 100
▁있을듯 100
왔더니 100
먹을때 100
▁깼다 100
ᄀᄁ 100
던거같은데 100
토리 100
있었다 100
없냐 100
▁ᄏᄒᄏᄒ 100
re 100
▁연말에 100
새로 100
▁쟁여 100
▁연락안 100
가구 100
▁등급 100
▁다음달 100
▁이랫 100
기위해 100
구가 100
▁가질 100
▁묻지 100
▁옶 100
▁쪘 100
▁유형 100
였는지 100
▁카페가서 100
이번주 100
되겟다 100
색으로 100
제를 100
▁일만 100
웟어 100
▁x 100
▁선글라스 100
❣ 100
꿍 100
▁엑스레이 100
▁https 100
되는거야 100
▁웃으면서 100
▁하셨다 100
숭 100
▁오리고기 100
▁설득 100
▁어떠케 100
▁스마트폰 100
▁일어나자마자 100
두되 100
▁내껀 100
▁올지 100
놓을 100
▁반말 100
▁괴롭히 100
▁미션 100
매운 100
할겡 100
원피스 100
▁스튜디오 100
이엿 100
▁돌아다녀 100
▁학생이 100
▁토너 100
▁아쉬운 100
렇 100
닐 100
▁무서움 100
22 100
▁본체 100
대고 100
▁계란말이 100
▁안간다 100
기싫 100
▁위치가 100
▁먹지마 100
▁뿌듯하 100
▁하하하 100
▁대답해 100
▁우리랑 100
▁사람들에게 100
▁성분 100
맞춰서 100
▁낀 100
▁강남에서 100
▁말하니까 100
욬ᄏᄏ 100
▁64 100
▁사당 100
▁하늘이 100
냉면 100
닼ᄏᄏᄏᄏᄏᄏ 100
▁딥 100
▁밥집 100
▁후우 100
▁알아봤 100
94 100
▁챙겨야 100
일껄 100
진데 100
▁할부로 100
한개 100
▁짜고 100
▁유치 100
▁삼만원 100
치를 100
진짴ᄏᄏ 100
할때도 100
고픈 100
주차 100
▁네개 100
▁먹어봄 100
▁결혼하면 100
▁힝구 100
▁미친놈 100
▁태우 100
▁얼마정도 100
것보단 100
▁똥을 100
▁잇지 100
▁임티 100
▁다친 100
▁도와줘 100
▁때문 100
줬더니 100
해주지 100
▁저랑 100
▁월화 100
▁한거야 100
▁앉을 100
꼈 100
▁시작이 100
▁말해도 100
▁간호 100
▁고민이야 100
쓱 100
▁보낼게 100
▁닌텐도 100
▁쉬엄쉬엄 100
▁정형외과 100
하는것 100
▁알차게 100
낰ᄏᄏ 100
▁방탈출 100
작은 100
윙 100
졌네 100
▁사상 100
▁호오 100
▁컴백 100
▁환급 100
▁감자탕 100
디자인 100
ᄆᄎ 100
▁개조아 100
▁전라도 100
▁불렀 100
엉엉 100
것같은 100
▁가는지 100
▁들고가 100
나가면 100
0% 100
▁o 100
▁사이트에서 100
▁우주 100
▁킬 100
쯤은 100
아팠 100
▁옙 100
▁65 100
▁훗 100
▁자격 100
▁퇴사하고 100
▁하루만에 100
▁> 100
게되면 100
▁저나해 100
피곤하 100
인지는 100
▁파우더 100
▁운동할 100
▁나올때 100
알겠 100
▁열시미 100
▁엿 100
ᄀᄏᄏᄏ 100
▁온수 100
▁쏴 100
커버 100
커서 100
▁전화도 100
▁힐 100
▁팔지 100
▁난리야 100
야겠군 100
달려 100
원은 100
▁넘으면 100
봐야겠어 100
▁39 100
▁오매 100
▁어딨어 100
▁옮겼 100
▁쌔 100
드랑 100
▁좋아하시 100
▁자기전에 100
▁살인 100
▁주식이 100
ᄏ큐ᅲ 100
▁결론 100
챙 100
▁무시하 100
에에에 100
▁해주지 100
▁카페도 100
▁부산은 100
▁나니 100
▁앜ᄏᄏᄏᄏᄏᄏᄏᄏᄏᄏ 100
학년때 100
▁줄을 100
▁사귀는 100
▁다섯개 100
▁이름으로 100
▁계산해 100
▁양보 100
▁창문을 100
▁보내줬 100
데서 100
▁궁금해한다 100
일거 100
▁지나갔 100
▁운동이 100
이용 100
▁요일 100
▁안먹음 100
▁장식 100
▁한두번 100
;;;;; 100
▁라면이 100
자식 100
해야한다 100
▁동네에서 100
▁대리점 100
▁시리 100
▁찾아야 100
▁이론 100
▁마미 100
줘야해 100
갔지 100
▁조타 100
▁불닭볶음면 100
▁스탠딩 100
둿 100
▁오트밀 100
흡 100
ᄐᄐ 100
생기면 100
▁계란찜 100
▁안올 100
자서 100
▁할인쿠폰 100
▁신메뉴 100
예쁜 100
▁별루야 100
자전거 100
강아지 100
▁사볼까 100
사도 100
햌ᄉ 100
버튼 100
스티 100
▁사갈게 100
들어와서 100
가야겠다 100
▁안부 100
그걸 100
구마 100
보려구 100
▁부탁했다 100
▁초콜렛 100
하겟지 100
안맞 100
▁넣어놨 100
▁얇 100
행사 100
▁찢어 100
▁주라고 100
마셨 100
나한테 100
야하니까 100
써요 100
의자 100
드립니다 100
▁된장 100
▁고생햇 100
▁졸귀탱 100
냐면 100
▁쪼끔 100
넘나 100
▁케이스가 100
▁목포 100
▁ᄏᄏᄏᄏᄏᄀ 100
▁못들어 100
두부 100
접수 100
▁올까 100
율이 100
), 100
카트 100
▁똑똑 100
▁출근하는 100
▁욕조 100
▁결제가 100
빤 100
웃기네 100
조음 100
me 100
▁의자에 100
▁떄 100
하려는 100
도아니고 100
▁선생님들 100
▁헤어지고 100
▁불안하다 100
▁혼자가 100
▁인지 100
▁붙은 100
▁완벽한 100
겠징 100
안주 100
엑스 100
사는게 100
▁살려고 100
▁목욜에 100
끝난 100
▁옷사 100
............. 100
시절 100
▁웃어 100
▁일기 100
볼거 100
몇시 100
▁깔끔하고 100
▁찍어주 100
▁뽑아야 100
산책 100
▁카페는 100
▁사고가 100
▁보스 100
▁바꿀까 100
▁쓰니까 100
볶음밥 100
-2 100
거같다고 100
있는거야 100
▁기대하고 100
많음 100
▁아무말 100
▁동전 100
▁사고싶은데 100
▁이해해 100
▁정부 100
▁쇠 100
▁많대 100
▁샤워하고 100
▁보여줄 100
잖니 100
길어 100
흐흑 100
늑 100
같은게 100
▁터졌 100
허다 100
▁사러가 100
▁더럽 100
▁두시에 100
ᄐᄐᄐᄐ 100
▁넣어두 100
▁없던 100
▁깐 100
조은 100
▁울었다 100
▁이상하다고 100
항상 100
▁가야되 100
▁푸는 100
퀘 100
▁노인 100
▁참내 100
▁항생제 100
햤 100
▁ᄀᄂᄁ 100
▁프리퀀시 100
▁메가박스 100
▁인바디 100
일본 100
글이 100
▁장판 100
할려고 100
지나면 100
▁언니들 100
| 100
▁본가 100
브라운 100
▁주문하고 100
▁때리고 100
▁그림을 100
▁액상 100
▁개쩐다 100
▁그럴리가 100
▁저사람 100
인당 100
▁후라이드 100
▁동탄 100
옷이 100
▁회식을 100
보냄 100
긴한디 100
비빔밥 100
그야 100
▁편하다고 100
그정도 100
쓰게 100
인데요 100
이였는데 100
햌ᄏᄏᄏᄏ 100
▁간편 100
▁자리에서 100
▁웃기고 100
▁소음 100
네용 100
칭구 100
▁피부에 100
수없 100
▁많았어 100
먹네 100
▁예약한 100
▁반은 100
▁말해줄게 100
▁배부르다 100
▁캐시 100
▁110 100
▁놓쳤 100
▁여기로 100
▁그롬 100
▁돌렸 100
▁일하러 100
▁놀라고 100
▁앉았 100
▁시위 100
▁올거야 100
언니도 100
ᄐᄏᄏᄏᄏ 100
▁호텔에서 100
▁아침은 100
▁시킬까 100
적금 100
▁포스 100
험 100
▁맘에들어 100
꺼지 100
▁해주세요 100
▁다욧 100
▁둬 100
▁갈수록 100
▁맞는다고 100
▁강제로 100
▁전화해봐 100
▁요번 100
버리면 100
▁갔더니 100
▁기억을 100
▁물어보지 100
▁비도 100
으셈 100
▁꿀잠 100
▁통해서 100
▁탄산 100
▁예민 100
▁용량이 100
법이 100
▁부지런하 100
▁오를 100
갑네 100
▁큰데 100
!!!!!!!!!!!! 100
는거랑 100
위로 100
▁건강을 100
▁t 100
눈디 100
▁무섭고 100
을거같 100
한명 100
가보다 100
▁예약하고 100
▁신경쓰이 100
▁저녁엔 100
해야겟다 100
▁집도착 100
▁쓱 100
씽 100
▁왤캐 100
▁면역력 100
▁분리수거 100
▁진통제 100
▁지코바 100
▁굿모닝 100
▁웬만하면 100
▁스마트 100
▁예뻤 100
시원 100
▁포스팅 100
안햇 100
ml 100
긁 100
▁눈치가 100
바빠 100
▁해보려고 100
▁바짝 100
▁리스트 100
▁적당 100
도시락 100
an 100
▁감기에 100
른다 100
▁집순이 100
▁괜찮더라 100
주일 100
▁존잼이 100
▁깔았 100
▁풍선 100
?!?!? 100
▁장소에 100
▁배고플 100
▁다행이지 100
▁이불을 100
▁개구리 100
▁체중 100
햇서 100
▁깡 100
▁카누 100
▁생산 100
금방 100
▁유아 100
▁준비중 100
▁살자 100
▁신림 100
▁건강하게 100
▁급행 100
▁ᄏᄏᄀᄏ 100
▁약한 100
▁경영 100
들어와 100
▁군인 100
▁출발했 100
▁아니구나 100
???????? 100
▁취소되 100
▁다니지 100
안경 100
▁피씨 100
▁물어봤어 100
▁재밋어 100
▁알겠어요 100
▁기여워 100
ᅡᄂ 100
해주라 100
▁있었고 100
제한 100
▁지원해 100
26 100
▁실장님이 100
▁먹엇는데 100
▁신선 100
시킨 100
솥 100
안감 100
▁하래 100
▁이쪽 100
가믄 100
▁먹을때 100
▁애매하다 100
▁지연 100
▁보내주면 100
▁오올 100
▁고파 100
▁오앙 100
뭐해 100
좋았 100
▁가게가 100
▁보낸거 100
▁신부 100
둡 100
▁나라에서 100
뱅기 100
▁프라이 100
▁꼈 100
▁문앞에 100
브랜드 100
▁소형 100
▁정규직 100
뒈 100
멕 100
울듯 100
▁서른 100
▁로즈 100
▁소스가 100
꼽 100
비도 100
▁시댁 100
▁특별 100
▁아라또 100
>_< 100
멈 100
▁후배 100
삶 100
▁수선 100
▁여주 100
▁ᄇᄅ 100
▁서운 100
▁떼잉 100
▁감탄 100
▁중딩 100
▁도배 100
근육 100
시계 100
▁치즈볼 100
했눈데 100
▁육회 100
▁넣었다 100
▁헤어져 100
대학교 100
▁써있 100
▁싶었다 100
▁나갔어 100
잘했 100
▁망해 100
안되서 100
▁조커 100
▁먹고싶어서 100
▁어색하 100
▁시술 100
▁그녀 100
▁매장이 100
▁다닌다 100
▁알고보니 100
지않을 100
▁파업 100
있을게 100
▁많아지 100
▁전주에 100
거가 100
▁그만둔다고 100
▁씻어야 100
▁누워있어 100
되자나 100
▁졸린 100
▁체육 100
해지는 100
▁주의 100
▁짧아서 100
▁잡지 100
▁있는거야 100
▁감이 100
▁고시 100
대출 100
어쩌 100
▁점장님이 100
될거같 100
려다 100
▁쳤 100
▁E 100
▁포함해서 100
▁보니깐 100
▁학생들 100
▁다닌다고 100
▁지켜보 100
▁왕따 100
▁마시지 100
는거같 100
~!!! 100
순없 100
운다 100
▁수욜에 100
▁바지는 100
▁화장품을 100
▁비추 100
▁잘못한 100
▁모기가 100
▁떨어지고 100
ᅲᅲᅲᅲᅲᅲᅲᅲᅲᅲᅲᅲᅲᅲᅲᅲ 100
근디 100
▁잘햇어 100
▁무려 100
▁가져와서 100
▁정문 100
도되나 100
▁있다면 100
▁사라진 100
▁못했어 100
중국 100
▁경찰서 100
하시고 100
▁앖 100
▁브이 100
오ᅥ 100
▁소개시켜 100
▁타기 100
▁복잡 100
▁얼만지 100
▁짱구 100
해지고 100
것은 100
▁태도 100
▁검색하면 100
친다고 100
▁정식 100
사건 100
▁갈아입 100
먹엇는데 100
▁정한다 100
하지않아 100
▁케이크가 100
신나 100
원인가 100
▁주사맞 100
꼇 100
사장 100
.............. 100
꼼 100
싸다 100
▁초에 100
▁리모델링 100
첸 100
쓰기 100
▁로켓 100
▁세월 100
▁언젠간 100
쁨 100
▁영화보 100
▁악몽 100
▁참기름 100
▁갈비탕 100
▁중식 100
▁당욘 100
뺏 100
▁출산 100
당연 100
넼ᄏᄏᄏᄏᄏ 100
▁떡국 100
▁얘들아 100
취향 100
▁네엥 100
▁또라이 100
불편 100
▁목금 100
▁F 100
슬퍼 100
기야 100
▁나타나 100
▁아빠와 100
▁신기하다고 100
▁밀린 100
▁할아버지가 100
▁수제 100
▁챙겨먹어 100
손님 100
▁나왔고 100
▁게장 100
▁매워서 100
▁맛있겠 100
▁들어갔는데 100
▁치과에 100
▁코피 100
잌ᄏᄏᄏᄏ 100
먹으면서 100
햇으면 100
▁누워잇 100
▁쓸데없는 100
깊 100
▁지인과 100
▁확실 100
▁O 100
▁외워 100
▁마시러 100
▁부족해서 100
이니깐 100
▁꺼지 100
아푸 100
▁삼촌이 100
깤ᄏᄏᄏ 100
▁어따 100
▁수제비 100
▁펄 100
▁목록 100
▁성형 100
▁쓰레기통 100
▁매물 100
▁보이면 100
▁되어야 100
▁취급 100
다음 100
때문인가 100
트로 100
▁건조해서 100
▁찾았어 100
▁죽고 100
▁오셨 100
▁이야기했다 100
~!~!~! 100
▁경험을 100
맛있겠다 100
그랬는데 100
▁웅앵 100
▁아주머니 100
줘라 100
▁R 100
▁반이 100
▁악마 100
웃곀 100
▁뭐하는 100
▁재미없어 100
거같긴 100
▁기분좋 100
▁타구 100
▁품절이라 100
▁예매해 100
이었다고 100
▁커피는 100
▁못살 100
믹 100
▁땡기는 100
주셨 100
▁갔고 100
브라 100
▁못하면 100
▁안옴 100
▁험 100
아프고 100
떳 100
▁머리감 100
자금 100
공주 100
▁난리나 100
••• 100
쥼 100
▁스위스 100
▁설렌다 100
▁상무님 100
▁예쁨 100
▁요샌 100
▁중국인 100
▁밑에서 100
▁체크인 100
▁본인의 100
▁인간이 100
▁당뇨 100
▁올려주 100
만든 100
▁이메일 100
▁에효 100
▁골반 100
짜장 100
블랙 100
▁거다 100
때려 100
▁재입고 100
엿음 100
▁발리 100
▁홈쇼핑 100
▁가능성이 100
▁괜찮겠지 100
먹었지 100
▁놀려 100
▁중요하지 100
▁열받아 100
▁개잘 100
봉투 100
긴했어 100
▁보긴 100
일어났 100
시라고 100
▁아닠ᄏᄏᄏᄏ 100
▁주민 100
▁받으라고 100
▁가난 100
햌ᄏᄏᄏ 100
▁점심먹 100
▁티켓팅을 100
at 100
사용 100
▁고집 100
▁아냥 100
▁선물해 100
공사 100
엌ᄏ 100
▁숙소는 100
시꺼 100
네ᄏᄏᄏ 100
▁바부 100
▁우리학교 100
장애 100
하면돼 100
▁된다면 100
▁났어 100
해야할 100
▁아이폰은 100
▁2500 100
▁다리에 100
▁얇아 100
어어어 100
▁확실하 100
▁월급날 100
▁남주 100
지않게 100
▁찼 100
▁좁은 100
▁쫌만 100
▁붙는 100
▁자도 100
갘ᄏᄏᄏᄏ 100
오기 100
조심해 100
▁임시 100
▁가을에 100
꺼라 100
▁안들고 100
▁쪽이 100
부럽다 100
한적 100
??!! 100
▁못본 100
▁놔두 100
▁회를 100
래여 100
▁사용해 100
▁흐엉 100
하기전에 100
이이이 100
▁발로 100
죽을 100
▁시집 100
고구마 100
기싫어 100
▁아니었 100
났네 100
란말 100
판에 100
앰 100
▁놀이기구 100
맣 100
쀼 100
쮸 100
▁킹덤 100
▁범죄 100
▁가벼워 100
▁울리 100
▁코디 100
▁재발급 100
▁손바닥 100
머지 100
▁답답하다 100
▁거기까지 100
네ᅮᅮ 100
플레이 100
뜰 100
분꺼 100
안되는 100
▁앉아잇 100
괜춘 100
▁잘챙겨 100
▁무한리필 100
만원이야 100
▁이전에 100
있는건 100
월욜 100
▁손절 100
▁왓는데 100
▁잇자나 100
▁뜻이 100
땜 100
▁나을지 100
28 100
▁다가오 100
▁신경써 100
▁아라써 100
▁지적 100
▁쓰자 100
▁껍데기 100
▁요약 100
▁주말엔 100
▁색으로 100
▁덤 100
▁그정돈 100
▁생각했다 100
▁찾아볼 100
▁갤 100
▁패턴 100
왔오 100
▁먹었엉 100
▁ᄏᄏᄏᄏᄏᄏᄏᄏᄏ아 100
▁심심하면 100
▁환자가 100
믄데 100
▁너구리 100
▁않기로 100
거아니냐 100
나봥 100
▁순수 100
센스 100
▁할텐데 100
▁지하에 100
메이트 100
축하 100
▁화장실을 100
▁무서 100
기회 100
▁그그 100
▁웃긴게 100
할줄 100
▁이것만 100
머리가 100
고민중 100
유로 100
친거 100
▁미역 100
▁사양 100
▁수액 100
▁낄 100
고추 100
적이야 100
▁기사가 100
▁배워서 100
▁그러던데 100
▁쉬는시간 100
▁붙이는 100
▁드라이기 100
떤 100
회의 100
▁받아주 100
▁되는거야 100
ᄅᄅ 100
관계 100
▁천안에 100
사는거 100
하늘 100
▁가려구 100
▁망햇 100
▁배아파 100
2000 100
▁남을 100
▁풀리면 100
▁다운받 100
▁문정 100
그르 100
▁생각남 100
▁않네 100
▁성수기 100
▁않겠 100
▁날씨는 100
쿄 100
죤 100
▁어마어마 100
▁누룽지 100
▁피크닉 100
▁호다닥 100
▁아무때나 100
▁아퍼 100
▁부담스러워 100
▁샤이니 100
해봐야 100
정해 100
▁백숙 100
지는데 100
▁사람들이랑 100
칼퇴 100
▁가야하는데 100
섞 100
▁ᄏᄏᄏᄏ나도 100
▁올려야 100
▁맘에드는 100
눈치 100
버리는 100
▁아쉬워한다 100
▁다녀왔는데 100
▁써봐 100
▁결혼할 100
▁보자마자 100
▁먹을꺼 100
▁스파오 100
▁이용하 100
▁아이디를 100
▁벤 100
▁선물은 100
▁틀리 100
▁이쁠 100
▁사야해 100
▁발레 100
▁도수 100
▁값이 100
▁아니얌 100
▁물어보며 100
▁대단하다고 100
▁범인 100
▁못했다고 100
분들 100
▁찾아봤 100
▁냥이 100
▁끝나구 100
이불 100
▁안보내 100
▁못갈 100
더라궁 100
▁속에 100
올랐 100
팠 100
끓 100
▁삼겹 100
해줬어 100
▁점수가 100
시에서 100
▁입주 100
구이 100
▁기준으로 100
▁입어서 100
▁시려 100
▁온몸이 100
▁삶이 100
셨나 100
▁주문했는데 100
▁햇더니 100
곸 100
▁생일을 100
▁결정했다 100
▁어르신들 100
▁무슨말 100
▁티를 100
했당 100
부를 100
남았어 100
▁오랜만이 100
▁보내준다고 100
타운 100
▁링크를 100
▁아니거든 100
가는길 100
▁쓸수있 100
▁무늬 100
▁이뿐 100
▁하모 100
▁하루는 100
설마 100
만원이래 100
▁놀러와 100
▁커피가 100
▁가셨 100
▁나오더라 100
▁고양이들 100
▁싫었 100
급은 100
▁불어서 100
할것같아 100
▁이백 100
▁역에서 100
갈꺼야 100
▁한적 100
35 100
했냐고 100
아까워 100
▁사라졌 100
▁피지 100
▁자기랑 100
▁웃는 100
▁넣으 100
▁몇백 100
식품 100
▁차고 100
▁ᅳᅮ 100
동은 100
갇 100
▁사줘야 100
▁군것질 100
▁근로장려금 100
▁칵테일 100
밨 100
▁카트라이더 100
▁어지럽 100
시포 100
▁손잡이 100
ᄐᄏᄏ 100
ing 100
▁커피도 100
▁특별한 100
▁달라지 100
▁밥솥 100
▁너무하네 100
▁말랐 100
▁빈티지 100
내로 100
해야될 100
▁꺼내서 100
분뒤에 100
▁터져 100
▁노려 100
▁놀기로 100
얄 100
▁걸렸다 100
▁위염 100
ᅮᅲᅲ 100
▁백만 100
▁방귀 100
▁유료 100
받는거 100
▁올영 100
▁문서 100
들아 100
▁약먹 100
랴고 100
▁먹을수 100
있거든 100
▁구런 100
아쉽 100
뻐 100
도ᅣ 100
같어 100
▁불편하다 100
▁무슨맛 100
▁치매 100
▁가족들이 100
▁바꾸려고 100
▁신문 100
▁결과를 100
▁들어왔어 100
시켯 100
적은 100
▁존잘 100
▁머리아파 100
소설 100
▁삶의 100
노답 100
▁은행에 100
▁알겠음 100
▁없었다고 100
▁오려고 100
하든 100
▁포장해서 100
▁사람이라 100
▁여섯시에 100
▁좋겠는데 100
교회 100
▁가고싶은 100
그린 100
잘라 100
▁수도권 100
▁입으 100
▁발에 100
▁없니 100
▁약도 100
▁웃긴다 100
▁마셨다 100
▁해봐야지 100
▁뮬 100
▁갓는데 100
▁이민 100
▁무리하지 100
▁구매해 100
▁w 100
힘드 100
드니 100
▁강남역 100
동으로 100
줄알았어 100
어ᅲ 100
▁설날 100
▁보수 100
▁어울려 100
▁재밌었어 100
▁지문 100
▁기관 100
▁말투가 100
▁출근해야 100
▁어른들 100
힘들다 100
년을 100
▁어떤게 100
습니까 100
▁공유기 100
▁덥지 100
했습니다 100
▁살림 100
말한 100
▁촌 100
▁이루 100
00 100
야쥐 100
▁놓치 100
입어야 100
쥰 100
▁횟집 100
▁특유의 100
▁슬펐 100
봤네 100
▁가르치 100
▁교통사고 100
겼는데 100
▁포켓 100
▁몬스터 100
▁나눠주 100
▁기억이안나 100
▁그런가보다 100
▁싸워 100
거림 100
▁여우 100
▁앞자리 100
▁촉 100
▁살찐 100
▁책도 100
▁있을게 100
주는게 100
불쌍 100
해봐야지 100
존잼 100
▁앞뒤 100
▁젓가락 100
▁상태로 100
▁있더라고 100
▁일해야 100
▁확률 100
한건가 100
ᄏᄏᄀᄀ 100
▁증명서 100
,,,,,,, 100
▁예쁘지 100
빠짐 100
▁예민하 100
▁다른사람들 100
▁대창 100
▁들어본 100
▁날씬 100
▁영상이 100
졋다 100
▁올래 100
▁아낰ᄏᄏ 100
주사 100
▁종료 100
올린 100
▁쩌네 100
셨네 100
배달 100
▁몇십 100
▁까먹었 100
서류 100
▁커트 100
▁4000 100
▁썬 100
▁태그 100
가능한 100
▁적금을 100
▁아앗 100
▁N 100
le 100
▁느린 100
▁학습 100
▁쌍수 100
공단 100
▁달고나 100
해죠 100
▁75 100
있구 100
▁와라 100
▁부르면 100
▁그때부터 100
참치 100
▁일찍일어나 100
원이라 100
▁그떄 100
▁ᄏᄒ 100
▁그라 100
▁먹었지만 100
▁여자는 100
다잉 100
▁생각하니까 100
▁문제집 100
받은거 100
▁싸인 100
▁썼다고 100
나유 100
첩 100
년대 100
▁사회적 100
▁귀여우 100
▁기저귀 100
▁애니메이션 100
쥔 100
▁트레이닝 100
▁미끄러 100
▁멈춰 100
쳐도 100
▁회원가입 100
▁탑텐 100
▁그것이 100
▁보드게임 100
▁감자튀김 100
시켜먹 100
▁요즘에는 100
▁했는디 100
▁약사 100
▁월차 100
▁열리 100
▁의식 100
웨어 100
바야지 100
▁휴우 100
라미 100
▁태연 100
하구만 100
▁알겠습니다 100
▁부들부들 100
▁이야기가 100
빅 100
뻥 100
돈까스 100
▁사랑하는 100
▁마중 100
▁인터넷이 100
▁정해야 100
년만 100
▁화목 100
▁먹겠다 100
▁벙 100
▁초과 100
▁멀티 100
있는곳 100
▁질질 100
▁백만원 100
▁팬들이 100
천에 100
▁베이 100
▁있으며 100
십분 100
▁다르네 100
▁찾았는데 100
▁있을걸 100
▁ᄏᄏᄏᄏ아니 100
▁알면서 100
스럽게 100
주택 100
마늘 100
▁하차 100
되징 100
▁조금이라도 100
▁하지말고 100
▁정작 100
▁기다린다 100
▁미치겠다 100
▁그쪽으로 100
▁같은뎅 100
▁시작해 100
▁번만 100
▁애는 100
물어봤 100
논거 100
▁좋으니까 100
는뎈ᄏᄏ 100
▁물어보려고 100
▁봄에 100
▁한옥 100
켰 100
▁결말 100
갈꺼 100
해보라고 100
▁판매하는 100
▁반까지 100
▁결혼한 100
갔음 100
▁잠들었 100
함ᄏᄏᄏ 100
▁그집 100
▁개시 100
팔리 100
닼 100
▁날인데 100
▁심각해 100
▁접시 100
겠고 100
▁딸은 100
▁끝나는데 100
줄알앗 100
▁부분을 100
번에 100
▁헐ᄏᄏᄏᄏᄏ 100
쩐다 100
▁미안해서 100
▁검색해보 100
▁지르 100
▁대본 100
▁별로안 100
▁권하고 100
▁사다줘 100
잇던데 100
▁구할 100
ᄉ어 100
아니여 100
▁가나 100
▁낼도 100
▁ᄏᄀᄏ 100
지않앗 100
▁들어간다고 100
▁비행기가 100
▁생일날 100
▁원장님이 100
거아님 100
거같으 100
귀찮아 100
▁옮기는 100
▁배도 100
▁그지같 100
▁다운받아 100
▁그니까요 100
알앗 100
원이면 100
▁전해 100
슝 100
▁왁싱 100
퀄 100
▁미숫가루 100
▁안타까워 100
젱 100
▁냅둬 100
해야해서 100
▁잡으면 100
▁부엌 100
거가튼데 100
▁괜찮아지 100
▁실력이 100
▁어둡 100
싸고 100
▁볼수 100
▁않기 100
▁앙앙 100
▁판매자 100
터질 100
일만 100
▁애니 100
▁빼빼로 100
보호 100
▁맞출 100
▁유전 100
▁좋긴한데 100
▁먹었나 100
만원만 100
어려 100
▁착해 100
해도되 100
▁됐지 100
▁뱀 100
▁당기 100
▁월요일부터 100
▁하우스 100
▁국물이 100
▁없는디 100
형은 100
▁먹어보고싶 100
▁우는 100
날때 100
▁세명 100
▁바뀜 100
▁직원들이 100
만하다 100
밥을 100
▁순삭 100
▁바르면 100
파크 100
▁나갔는데 100
▁안떠 100
▁섞어서 100
▁나쁘 100
▁승인 100
▁구멍이 100
▁지름 100
▁훈련 100
▁부족하 100
▁냄 100
▁아앙 100
▁업무를 100
▁고민되네 100
▁드립 100
▁나근데 100
...??? 100
밀리 100
▁마즘 100
줄거 100
짘ᄏᄏᄏᄏᄏ 100
으세요 100
▁적고 100
▁머니 100
맛이야 100
▁간지러 100
▁두끼 100
꺼내 100
▁데워 100
▁타려고 100
▁가기전에 100
▁시켜먹어 100
▁해여 100
▁가자마자 100
▁웃기지 100
▁헹 100
말은 100
▁영화관에서 100
▁나왔으면 100
모르고 100
▁빠를 100
▁병원가서 100
구해 100
것인가 100
▁이대로 100
▁오늘따라 100
▁비슷한거 100
▁어플을 100
▁렌즈를 100
오세요 100
▁아침을 100
▁하고싶은데 100
▁캠 100
들어갈 100
▁길에서 100
되는게 100
▁온라인으로 100
▁지퍼 100
낫지 100
▁들었다고 100
살면 100
놓으라고 100
▁흐리 100
환자 100
만남 100
잇다가 100
▁귀여웠 100
ᅲᅲᅲᅲᅲᅲᅲᅲᅲᅲᅲᅲ 100
▁알아보는 100
니트 100
하도록 100
▁높게 100
▁알뜰 100
▁멈 100
ᄊ어 100
▁우리한테 100
▁방어 100
▁이럴때 100
히면 100
▁밑으로 100
원이다 100
▁도미노 100
▁실리콘 100
▁자존감 100
▁콘센트 100
▁중간중간 100
▁플리스 100
▁자취방 100
▁씨제이 100
▁깔깔 100
▁도둑 100
가없어 100
▁안되니까 100
▁직거래 100
있어도 100
먹어봐 100
▁반전 100
▁투잡 100
▁볼펜 100
▁베이비 100
▁속은 100
웃음 100
▁가는길에 100
▁일욜날 100
▁처음이라 100
쇠 100
물에 100
▁부럽네 100
실에서 100
팁 100
얇 100
뺄 100
편의점 100
왤케 100
▁씹어 100
▁미안한데 100
▁정하 100
▁첨들어 100
플라 100
▁글자 100
▁이야기하다가 100
▁신났 100
▁앞으로는 100
▁뽐뿌 100
▁기차를 100
▁돌아올 100
으먄 100
▁느끼고 100
는거면 100
▁사이즈는 100
▁구매하기 100
▁상태에서 100
▁단식 100
▁갑분 100
▁한편 100
▁보냈다고 100
▁들어가기 100
▁드라마에 100
▁다행쓰 100
▁목살 100
▁토요일은 100
몇개 100
▁마을버스 100
?!?!?! 100
▁공부하면 100
▁콜라보 100
▁타코 100
▁형님 100
숙소 100
▁다이아 100
▁찬물 100
입니당 100
▁어디여 100
▁달글 100
▁여자친구가 100
▁너에게 100
▁질렀 100
▁구입한 100
▁취소해 100
▁메리 100
▁만났는데 100
▁십마넌 100
▁안읽 100
▁친구들한테 100
▁힘들지만 100
▁좀이따 100
일차 100
▁눈알 100
곳도 100
워크 100
▁ᄋᄋᄋᄋᄋᄋ 100
▁집중해서 100
▁건강이 100
잌ᄏᄏᄏ 100
▁1,2 100
드려야 100
▁스틱 100
나니까 100
세포 100
하당 100
뭐여 100
이라두 100
용ᄏᄏᄏ 100
안들어 100
▁다행인 100
▁능력이 100
▁눈은 100
없엉 100
불이 100
언니는 100
▁주말에는 100
▁물어보라고 100
민호 100
찾아보 100
▁보던 100
넼ᄏᄏᄏᄏᄏᄏ 100
안되면 100
▁퇴근했 100
직전 100
거가태 100
댔는데 100
▁보시 100
먼데 100
▁늙은 100
지말까 100
▁일할때 100
힘든 100
▁찾아보니 100
▁물려 100
▁낫지않 100
▁밥묵 100
▁시작할 100
▁물어볼까 100
▁맛집을 100
▁H 100
▁속상하다 100
▁가던 100
▁작업을 100
▁얄 100
떨어져 100
▁다르고 100
해야하는 100
▁집갈때 100
▁호텔에 100
▁뭔소리 100
▁너무좋아 100
함ᄏᄏᄏᄏ 100
▁이어폰을 100
▁받게 100
▁로맨스 100
▁오버워치 100
▁폼롤러 100
켘 100
▁CGV 100
▁비빔국수 100
▁따져 100
▁긍게 100
▁멤버십 100
▁안하는데 100
▁무료배송 100
▁관절 100
▁ᄏᄏᄏ아니 100
업무 100
▁끝에 100
▁곤약 100
▁소풍 100
▁팍 100
▁오겠다고 100
과정 100
▁버블 100
▁넉넉하게 100
▁역시나 100
줄은 100
▁못알아 100
닭발 100
▁말자 100
▁디자이너 100
▁길드 100
H 100
▁하드라 100
▁폼 100
▁간이 100
▁고프다 100
▁숟가락 100
▁상담을 100
▁컴터로 100
시간도 100
스토리 100
을꺼야 100
▁매매 100
▁리조트 100
거같더라 100
▁둘러 100
애서 100
▁날개 100
야될듯 100
끝남 100
▁대전에서 100
배민 100
▁체한 100
▁도전해보 100
▁응웅 100
▁연습을 100
▁싫지만 100
▁저정도면 100
▁말랑 100
야한대 100
▁평화 100
뿐이라 100
▁하루를 100
▁무인 100
야하지 100
▁펫 100
▁하나봐 100
▁가격대 100
▁여행이 100
걸려서 100
해놧 100
▁만오천원 100
▁이브 100
▁역전 100
▁주문하면 100
▁안와서 100
잇엇는데 100
▁잃어버렸 100
▁전화하면 100
▁안열 100
▁아미친 100
▁것이니 100
▁옮기고 100
▁동생한테 100
▁아줌마들 100
▁동물의 100
▁가져가라고 100
가튼 100
▁잘됐 100
어디야 100
▁칭찬해 100
▁좋은듯 100
▁전신 100
대학 100
▁물었다 100
달까 100
▁커리 100
▁다먹고 100
▁두껍 100
▁시간과 100
▁확인해봐 100
▁원작 100
▁에어컨이 100
자르 100
겼다 100
▁소름돋 100
다녓 100
▁햐 100
아아앙 100
▁부장님이 100
▁누워있다 100
되더라 100
보였 100
보시오 100
륙 100
밬 100
▁부드러운 100
▁경쟁률 100
▁함부로 100
▁안녕하세요 100
▁이러는데 100
▁건전지 100
▁신뢰 100
▁만화책 100
▁맞은편 100
▁연예인들 100
▁일해서 100
▁내거 100
▁선호 100
▁보여달라고 100
▁ᄀᄃ 100
자야지 100
▁양말을 100
▁실감 100
흐흐 100
▁잠자 100
▁사천 100
▁등교 100
드릴게요 100
▁문제지 100
할때마다 100
갓다왓 100
▁임대 100
▁굶어 100
▁심즈 100
▁똑똑하 100
몰랏 100
▁한명은 100
▁소방 100
▁알려줬 100
채워 100
▁미스트 100
▁쏘리 100
응께 100
▁일박 100
▁아무나 100
맞았 100
월드 100
▁케어 100
▁볼때 100
▁가을이 100
▁놀아야 100
▁정치 100
▁말햇 100
뭔지 100
볼게요 100
▁반으로 100
방으로 100
주셈 100
님한테 100
▁데서 100
하디 100
걸랑 100
▁괴롭 100
▁찍었는데 100
▁고칠 100
▁인나 100
ᄃᄃᄃ 100
▁고생했다 100
약이 100
이예요 100
▁잘해써 100
▁버릇 100
▁놀람 100
▁기다렸 100
서요 100
▁단추 100
▁별로인 100
▁기한 100
▁세시에 100
▁와파 100
속에서 100
▁맛있으면 100
▁아저씨들 100
▁끝났는데 100
▁하거든 100
두돼 100
7000 100
뛰어 100
▁남으면 100
웃곀ᄏᄏᄏᄏ 100
▁가보라고 100
▁차지 100
▁얼굴만 100
들어옴 100
▁정리해서 100
▁밀려 100
밥이 100
수밖에 100
실이 100
아무 100
▁코를 100
▁입어보고 100
▁생각했어 100
▁티나 100
▁샵 100
에있는 100
▁조아요 100
▁점을 100
▁취해서 100
드아 100
▁❤ 100
▁한달만 100
▁살수 100
걀 100
Q 100
▁비트코인 100
▁위약금 100
° 100
▁무신사 100
▁벅스 100
좋겟다 100
▁호구 100
들어가면 100
▁부끄럽 100
방향 100
▁너무해 100
▁알지알지 100
▁말해줬 100
▁배달음식 100
▁깨끗해 100
싶엇는데 100
▁담아서 100
냄새나 100
▁씨앗 100
▁시켜줘 100
▁개인적으로 100
▁행운 100
▁끼면 100
▁괌 100
▁절레절레 100
우울 100
▁튼튼하 100
▁토하고 100
▁시간만 100
▁진단 100
▁거래처 100
▁그정도야 100
▁리본 100
▁코로나땜에 100
뷔페 100
▁길다 100
고맙 100
▁아침마다 100
라두 100
▁수화물 100
받았는데 100
▁그제 100
▁묵을 100
▁카톡이 100
끊어 100
▁편하지 100
▁카카오페이 100
▁매형 100
▁괜찮으 100
▁여러분 100
▁발음 100
이라던데 100
▁본적 100
▁임용 100
거린다 100
▁정도만 100
▁만들려고 100
겠더라 100
▁싶당 100
부담 100
▁들어가지 100
▁풀었 100
아니다 100
ᄋᄌ 100
▁당황스럽 100
▁삼천 100
증말 100
따구 100
갔으면 100
넣으면 100
▁어땠 100
▁모아야 100
▁아닌가요 100
▁마음으로 100
▁봐줄 100
▁쓸거 100
▁앞으로도 100
▁비쌈 100
일이나 100
▁낫겟 100
▁겨울이라 100
▁평범 100
▁보여주자 100
▁빼고는 100
안써 100
생각없 100
▁태어나 100
없으니까 100
▁위험하다 100
▁자리는 100
▁그만둬 100
▁반도 100
▁원이고 100
▁구입하 100
▁이상하네 100
아니니 100
▁끝이야 100
▁않으 100
만들고 100
▁근데진짜 100
▁바꾸기 100
넣을 100
▁상관없이 100
월달에 100
▁님들 100
▁출근해 100
▁나쁘다 100
갰 100
▁도착했다고 100
▁배불 100
봤냐 100
덮 100
▁걸리지 100
▁달아서 100
▁44 100
ᅭ다 100
▁낮에는 100
▁준비가 100
▁별일 100
▁왔다가 100
▁쌍꺼풀 100
▁어쨋든 100
▁오랫동안 100
▁파인애플 100
셍 100
쌋 100
엏 100
▁감바스 100
▁그와중에 100
▁안아프 100
ᅮᅳᅮ 100
▁돌잔치 100
▁보너스 100
▁올라간 100
▁복싱 100
▁배우자에게 100
사업 100
▁며칠전에 100
▁마쟝 100
▁존귀 100
▁거실에서 100
잔치 100
해버려 100
잌ᄉ 100
새끼들 100
증상 100
▁제목이 100
▁시작했 100
▁미쳤나봐 100
▁후추 100
▁좋습니다 100
▁놀라서 100
▁맘터 100
▁딱봐도 100
▁선물이 100
▁복잡해 100
좁 100
인터넷 100
지하철 100
겟슴 100
▁평소보다 100
▁독감주사 100
▁지금이라도 100
우웅 100
▁시켜주 100
▁시작했다 100
▁어케해 100
▁실장 100
조타 100
부러워 100
▁기다려보 100
▁크지 100
▁편히 100
▁밀려서 100
라길래 100
주말에 100
▁기본이 100
▁난이제 100
▁명함 100
▁찝찝하 100
▁끊었 100
닼ᄏ 100
▁빡시게 100
▁괜찮냐고 100
▁보았다 100
▁돌리는 100
▁듣는다 100
▁물류 100
▁타오바오에서 100
▁와요 100
▁크림이 100
되려나 100
▁채식 100
없엇 100
▁떨린다 100
안남 100
▁지들이 100
▁문이 100
▁ᄏᄏᄏ나도 100
지랄 100
▁묘 100
라거 100
▁무러 100
왔을때 100
▁지짜 100
▁왔어요 100
▁이거랑 100
▁묶어 100
라이스 100
같은것도 100
랄까 100
가는건 100
을수있 100
▁확인을 100
봐써 100
▁잼써 100
▁넣기 100
기때문에 100
▁좋아하는지 100
붙어 100
▁보여준다 100
▁안쓰면 100
▁가야돼 100
▁물회 100
▁하다보면 100
▁당일치기 100
나간 100
▁사고싶은 100
▁연동 100
잇니 100
▁중요하다 100
▁넷플에 100
ᅲᅲᅮ 100
▁붓 100
하렴 100
▁느껴져 100
▁일일 100
▁얼마인지 100
전문 100
겤ᄏᄏᄏ 100
▁그르네 100
▁이모랑 100
▁무섭게 100
▁십만 100
▁할줄 100
군용 100
▁락 100
춥다 100
▁낫겠지 100
▁요양 100
▁약속있 100
기싫다 100
소득 100
▁수영을 100
▁스쿠터 100
▁중소기업 100
▁박지훈 100
▁로봇 100
▁페이스북 100
▁스프레이 100
▁이참에 100
벌어 100
▁헤엑 100
▁없나봐 100
▁크리스피 100
▁퇴직 100
▁여즘 100
▁쓰려 100
해지면 100
▁킹 100
▁쌉가능 100
랫어 100
만원인가 100
▁에어팟을 100
▁피자가 100
▁빌어 100
▁약국에 100
▁알콜 100
▁이러케 100
해ᅭ 100
다닐때 100
▁멀쩡한 100
▁대변 100
욬ᄏᄏᄏᄏᄏᄏ 100
▁길고 100
부산 100
짬 100
옶 100
가려 100
▁7000 100
...#@ 100
▁56 100
▁될걸 100
나본데 100
옛날 100
▁바게트 100
▁뭔소리야 100
배가 100
이어도 100
▁부스 100
으까 100
냨ᄏᄏᄏ 100
봐야겠 100
▁사용하지 100
▁낮잠을 100
▁많아져서 100
▁분량 100
▁날을 100
일거야 100
▁못나가 100
계시 100
찾기 100
▁그칭 100
▁응원해 100
끌고 100
▁남자친구랑 100
▁땡긴다 100
▁그생각 100
▁닫아서 100
▁화난다 100
하시면 100
잃 100
든디 100
▁앎 100
▁안먹을 100
~~~~~~~~ 100
▁많던데 100
놔야지 100
아들 100
▁비만 100
▁나가라고 100
▁불편할 100
▁걸레 100
▁부츠 100
▁당부 100
셔요 100
▁봤지 100
▁당첨된 100
▁말리고 100
▁됐네 100
▁볼일 100
▁안먹었 100
▁심야 100
▁덕후 100
▁지난주 100
▁아는사람 100
자료 100
▁ᅢ 100
▁노우 100
배고프 100
▁연예인이 100
▁노트북이 100
▁다크 100
알겟 100
년차 100
▁의외 100
▁소중한 100
▁쓰러 100
▁베란다에 100
안받 100
▁돋 100
▁메가 100
랰ᄏᄏᄏᄏᄏ 100
▁해야되는데 100
▁도착했는데 100
▁대전에 100
운다고 100
보고시퍼 100
품절 100
하는줄 100
살지 100
▁틀어놓고 100
▁개별 100
▁입학 100
자나여 100
▁체인 100
삿는데 100
▁조합이 100
우우우 100
▁할인해서 100
▁안사고 100
▁출근할 100
▁브레이크 100
깁 100
젓 100
롴 100
▁대통령 100
▁샤부샤부 100
괘 100
셰 100
▁대용량 100
👏 100
▁짭짤 100
▁러쉬 100
▁나머진 100
▁시원하다 100
▁죄송하다고 100
▁삶을 100
▁그러쿤 100
55 100
▁맞춘 100
▁시켰다고 100
▁울동네 100
▁나가는데 100
▁혹은 100
▁존경 100
▁조그만 100
▁전화했는데 100
▁호랑이 100
▁현금이 100
▁근가 100
짱이 100
합니 100
▁특징 100
▁같앙 100
▁언급 100
▁해바 100
▁크아 100
▁가져왔 100
▁배를 100
다녀오 100
랔ᄏᄏ 100
▁그람 100
▁깨끗하게 100
씌 100
깎 100
투썸 100
▁문장 100
▁확신 100
▁푹쉬 100
▁이상은 100
▁들고다니 100
▁성수 100
▁어뜨케 100
갘ᄏᄏ 100
▁담배피 100
봐야겠네 100
웨 100
▁남기고 100
▁다행이당 100
살거 100
▁아쉽지만 100
일도 100
▁홍대에서 100
▁에혀 100
▁코노 100
▁입어보 100
▁헐대박 100
갔다와 100
너네 100
커플 100
▁팔았다 100
줄수 100
삭제 100
▁바쁘고 100
▁있나요 100
▁건조해 100
▁시끄러 100
▁알려주는 100
재료 100
▁올레 100
▁구매하 100
▁모임에 100
▁시작하는 100
▁직장에서 100
▁샀지 100
찍어서 100
▁노트북으로 100
▁싹다 100
▁재밌지 100
▁세미나 100
먼가 100
▁공용 100
▁어려웠 100
엌ᄏᄏᄏᄏᄏᄏᄏᄏ 100
바보 100
▁모르는거 100
적이라 100
뜬 100
▁조기 100
▁막막 100
▁뚫어 100
▁삼성카드 100
▁줫 100
▁분야 100
▁해써 100
주자 100
소개 100
▁댄스 100
브레 100
똑 100
▁뛰고 100
▁액자 100
▁구하는 100
▁정말로 100
▁김천 100
▁간단 100
▁내생각 100
▁버렸다 100
29 100
▁치즈가 100
야것다 100
감성 100
▁생각하는데 100
▁하는구나 100
▁프로그램에 100
▁의지가 100
▁산타 100
▁마산 100
▁에잇 100
야겠어요 100
▁헷갈려 100
사기 100
사무실 100
이었으면 100
엿지 100
▁왜그런 100
▁구린 100
지않은 100
일욜 100
섴ᄏᄏᄏᄏᄏ 100
▁빌릴 100
▁이수 100
라는거야 100
일째 100
▁수는 100
▁신나서 100
입니까 100
▁시원하고 100
들어갔 100
겄네 100
전날 100
▁정리해 100
▁오냐 100
▁답장이 100
▁부담스럽 100
▁안남았 100
▁케이블 100
ᄈ 100
툴 100
▁유재석 100
꼼꼼 100
▁게스트하우스 100
▁생파 100
▁아이파크 100
▁흘려 100
▁놓쳐서 100
▁주기적으로 100
▁사우나 100
▁있는건 100
▁시트 100
▁고무줄 100
한거같아 100
간식 100
▁코끼리 100
▁단독 100
좋고 100
입은 100
▁마스터 100
▁머그 100
▁핸드 100
▁듣지 100
▁분식집 100
▁구워서 100
나왓어 100
▁낫고 100
▁조심히가 100
같았 100
▁없게 100
▁나갈때 100
라우 100
▁말했다고 100
모델 100
밴드 100
▁혼날 100
르트 100
▁겉에 100
릴듯 100
는데요 100
장님이 100
▁공간이 100
▁부끄러워 100
사게 100
▁마셨는데 100
내꺼 100
▁들으니까 100
십쇼 100
▁하나더 100
산역 100
구역 100
▁바루 100
▁런 100
▁어쩌다가 100
보여주 100
▁금토 100
▁단톡방 100
▁놀기 100
▁vs 100
▁난리가 100
▁안만나 100
싸서 100
▁이북 100
▁없기 100
갔다오 100
▁진도 100
▁하더라구 100
▁먹었어요 100
▁비슷하다 100
▁호수 100
▁필요한데 100
▁싫어한다 100
▁애매하게 100
칰 100
▁아니어도 100
▁못하겠어 100
▁골라봐 100
▁보네 100
▁걸을 100
▁연락해서 100
해본다 100
▁사랑이 100
카레 100
▁신용 100
만함 100
▁넣어도 100
▁지난주에 100
보일 100
버리자 100
▁1-2 100
▁스트레스가 100
▁그때가 100
▁통증 100
▁니한테 100
▁뀨 100
있을까 100
▁내라고 100
▁묵었 100
▁존좋 100
▁집중이 100
었다는 100
▁보험을 100
▁버림 100
아직안 100
뭐가 100
바르고 100
▁울었 100
▁동생도 100
▁보았 100
봐줘 100
해볼 100
듦 100
▁뒹굴 100
▁오조오억 100
▁크로플 100
▁테이크아웃 100
▁연남동 100
▁공모전 100
▁깁스 100
▁방치 100
▁나중엔 100
▁런데이 100
▁느낄 100
▁열려 100
▁만나도 100
▁보내지 100
▁침대에서 100
▁둘러보 100
▁현백 100
것이다 100
▁싫다는 100
▁소장 100
▁그래여 100
▁엔씨 100
▁제육볶음 100
▁못타 100
▁알겠지 100
▁재능 100
▁오랜만 100
▁불평 100
들었는데 100
하면되 100
스트레스 100
▁안먹어서 100
▁뮤비 100
▁나이트 100
▁재밌고 100
윽 100
▁움직이는 100
야근 100
▁아재 100
▁병원이 100
뇌 100
▁알씀 100
▁돈내 100
▁바뀌어서 100
▁얇게 100
▁어허 100
싼거 100
▁류 100
▁풀려 100
▁나오게 100
▁그칰ᄏᄏᄏ 100
▁오마넌 100
▁올라올 100
▁먹을수있 100
그만두 100
남은 100
▁이고 100
▁물로 100
▁ᄏᄀ 100
▁이천원 100
▁오진다 100
▁해야함 100
▁제시 100
▁롯백 100
/2 100
때만 100
▁키스 100
▁널널 100
단톡 100
▁안될듯 100
▁사놓고 100
신기해 100
▁준비하는 100
까진데 100
▁느낌은 100
노잼 100
▁상관이 100
▁올거 100
개짜리 100
▁했으니까 100
▁미미 100
▁폭탄 100
▁박스에 100
▁누구나 100
▁읽으 100
꼬리 100
얔ᄏᄏᄏᄏᄏᄏ 100
▁오ᅣ 100
우리집 100
▁후식 100
▁사야하나 100
▁지나간 100
▁힘듬 100
됐음 100
놀러가 100
▁문열 100
이건 100
▁성질 100
왔으면 100
▁자두 100
▁재고가 100
천원짜리 100
▁방학때 100
잇으니까 100
▁아니냐며 100
가는날 100
아래 100
기억이 100
▁질이 100
잨ᄏᄏ 100
사장님 100
▁어딧 100
▁맛잇게 100
▁안쓸 100
랄라 100
될거야 100
▁노력해 100
▁말하는데 100
끓여 100
질문 100
그러니까 100
▁오신 100
▁8000 100
안쓰 100
▁170 100
건너 100
▁금요일날 100
▁재우 100
▁스티커를 100
컹 100
▁롯데시네마 100
▁스탠드 100
▁애완동물 100
▁유효기간 100
▁크록스 100
▁퀘스트 100
▁배고픔 100
>.< 100
▁거리두기 100
▁에스케이 100
▁지겨워 100
▁공휴일 100
▁꿀팁 100
▁버스정류장 100
▁주머니에 100
▁공포영화 100
▁탑승 100
▁하여튼 100
을때도 100
▁900 100
▁매운탕 100
▁시키지 100
▁치맥 100
▁친절하 100
▁허얼 100
▁주변에서 100
▁브라우니 100
▁바뀌는 100
▁있도록 100
▁방식 100
귀여 100
▁정확하게 100
▁쉽다 100
것도아니고 100
▁당직 100
▁안그럼 100
▁영어를 100
공장 100
▁주위에 100
▁하핫 100
▁해놔 100
▁발열 100
▁피곤하고 100
그랴 100
합시다 100
▁두마리 100
해볼께 100
▁게하 100
일텐데 100
▁이열 100
어이없 100
컴터 100
▁놓으면 100
▁뱃 100
해준다고 100
나쁜 100
▁널어 100
▁이야기하면서 100
▁잠바 100
▁이해를 100
▁숙소에서 100
▁입지 100
넘어서 100
▁책은 100
▁전부다 100
애는 100
아픈데 100
▁햇다 100
▁생각해보면 100
셨나요 100
▁앜ᄏᄏᄏᄏᄏᄏᄏᄏᄏᄏᄏ 100
▁스킬 100
▁있어야지 100
▁같았 100
▁정거장 100
만한데 100
▁닮았다고 100
법을 100
했데 100
▁싫어해서 100
수없어 100
▁수당 100
▁떴다 100
사귀 100
▁자요 100
▁없을까 100
▁다니던 100
▁전해주 100
마져 100
묵고 100
▁입었다 100
▁줄여야 100
눔 100
▁오메가 100
박에 100
▁안해주 100
ᄏᄏᄀᄁ 100
▁상세 100
▁사갈 100
▁한통 100
네유 100
▁그렇소 100
겠디 100
▁장이 100
되는건가 100
▁술마시 100
▁힘내자 100
푸드 100
주세용 100
웃겼 100
▁캐릭터가 100
투자 100
▁부지런 100
란거 100
▁우리나라는 100
▁그친구 100
연휴 100
▁오빠와 100
▁공항에 100
해놨어 100
하고있다 100
지않으까 100
▁안아파 100
▁해줌 100
▁쉽지않 100
▁씻기 100
▁연락도 100
가야되는데 100
▁통화를 100
ᅡᅡ 100
▁줄이고 100
▁잘한다고 100
물로 100
딸기 100
▁다녀올 100
▁구매하는 100
해야겠어 100
▁붙여서 100
쏭 100
윰 100
귓 100
▁섭취 100
▁부위 100
^.^ 100
▁먹어볼 100
먹을듯 100
니깡 100
▁치료를 100
▁도안 100
라규 100
▁못봤어 100
▁티웨이 100
▁하믄 100
▁되구 100
▁근ᄃ 100
▁박아 100
▁추우니까 100
▁광주에 100
울까 100
▁아이패드로 100
▁공격 100
펑 100
▁미용실에서 100
▁하실 100
뎈ᄏᄏ 100
▁수상 100
▁레고 100
▁강쥐 100
물고 100
▁홈트 100
▁찬성 100
▁아깝다고 100
묶 100
▁아닐걸 100
▁만들었어 100
봤더니 100
▁갔다와서 100
▁깊은 100
▁깔끔한 100
▁난이도 100
아깝 100
▁바베큐 100
붐 100
▁지독 100
▁싶은지 100
촬영 100
▁봤고 100
▁태어나서 100
코로나 100
테이블 100
▁메뉴는 100
▁복학 100
▁아닠ᄏᄏᄏᄏᄏ 100
▁뜨는데 100
▁말자고 100
▁받아도 100
▁허허허허 100
▁보기엔 100
가본데 100
고딩 100
,,! 100
▁저번달 100
▁싸워서 100
▁사주면 100
▁이상한데 100
취업 100
▁처돌이 100
▁자궁 100
▁꾹 100
▁접때 100
에이드 100
▁올랐다 100
▁죽는줄 100
^^.... 100
받침 100
들어온 100
먹으라고 100
▁이른 100
▁사올 100
헤헤헤 100
▁생각해도 100
▁기다렸다가 100
▁경유 100
▁불리 100
라이프 100
▁알았음 100
▁계열 100
▁찾아봐야 100
▁전엔 100
▁귀여운거 100
▁밤에는 100
▁사람들의 100
▁앉아있어 100
연결 100
▁대답을 100
이유가 100
▁단톡에 100
▁이해할 100
쩔어 100
▁해봄 100
할라구 100
▁정도가 100
▁안봄 100
▁배송비가 100
흔들 100
▁나왔던 100
겤ᄏᄏ 100
▁연기를 100
▁경험에 100
갈건데 100
▁늦어지 100
▁지나가다 100
▁거에 100
빡세 100
마감 100
▁걱정돼 100
▁뒀 100
▁금식 100
▁신청할 100
안되나 100
▁감상 100
▁감기가 100
았으면 100
차리 100
남아서 100
▁전화할 100
기업 100
▁내린 100
모르는 100
미다 100
ᄏᄏᄏᄀᄏ 100
▁시선 100
▁흠냐 100
/3 100
▁출발하면 100
▁말걸 100
딧 100
▁찍음 100
▁가슴이 100
▁달리기 100
▁저것 100
랐어 100
▁더우면 100
▁삶아 100
싀 100
▁에어프라이기 100
▁이비인후과 100
▁클라우드 100
▁쨋든 100
▁뜨개질 100
▁변호사 100
▁슬라임 100
▁섹시 100
▁판타지 100
▁히트텍 100
▁천만원 100
될수도 100
▁기쁘 100
▁죄송합니다 100
▁관람 100
가아니라 100
▁탄탄 100
▁죽어도 100
▁심심하다 100
▁멀리서 100
▁능 100
▁아닙니다 100
▁엠티 100
문에 100
▁사용하고 100
▁옳 100
▁쇼핑백 100
▁치우고 100
▁쓰라 100
▁미소 100
▁숱 100
▁짜서 100
▁중고나라 100
▁바를 100
▁미국에서 100
▁이런식 100
▁일처리 100
▁무척 100
▁코앞 100
▁비율 100
엇던 100
없으니 100
▁먹으며 100
▁같았는데 100
▁많은거 100
씻어 100
▁허버 100
▁옷만 100
▁여름엔 100
뿌려 100
▁옮긴 100
▁곱창을 100
▁어쩌냐 100
▁주위 100
▁와이파이가 100
▁생긴다 100
가야대 100
▁손발 100
야되서 100
개웃기네 100
ᅲᅲᅲᅲᅲᅲᅲᅲᅲ 100
▁원서 100
▁뿌리고 100
되겟지 100
토익 100
▁이라고 100
가는즁 100
▁그럼그럼 100
명을 100
▁여자들 100
▁똑같다 100
▁맞아야 100
▁껐 100
거리면서 100
▁숨기 100
보여줘 100
분동안 100
▁한방 100
▁건강하 100
▁시내에 100
▁네이버에서 100
▁집사 100
외로 100
▁커피마시 100
▁추카 100
▁일이야 100
▁씻어서 100
????????? 100
한다는데 100
▁오빠의 100
었던거 100
맛있는거 100
▁파파 100
▁괜찮아서 100
월요일 100
▁날려 100
▁찾아본다 100
다행이 100
▁두면 100
▁등장 100
!?!? 100
거같앙 100
et 100
▁교사 100
▁고용 100
▁핏이 100
▁기념 100
한곳 100
▁ᄎ 100
앞으로 100
▁탈수 100
주변 100
▁한시에 100
▁그러치 100
▁자국 100
▁저녁도 100
▁미용실에 100
▁배신 100
하고잇 100
▁안될까 100
▁즐겁 100
야된대 100
~~!!! 100
ᄀᄀᄀᄀᄀ 100
▁소리야 100
보믄 100
▁네모 100
당황 100
▁걸고 100
▁아까운 100
월초 100
▁개맛있 100
▁해야할 100
블리 100
▁스크 100
▁강한 100
▁저러고 100
▁예비 100
▁운동하면 100
빵을 100
있었음 100
▁59 100
▁하고싶은거 100
주간 100
▁닫는 100
▁빠이 100
▁존댓말 100
럈 100
▁하오하오 100
▁헠헠 100
▁무사히 100
▁비둘기 100
▁디테일 100
▁립밤 100
기간이 100
▁열시에 100
▁크롬 100
▁쿠키런 100
▁주꾸미 100
▁와사비 100
갔었 100
▁개웃곀ᄏᄏᄏᄏᄏ 100
한시간 100
▁떡볶이는 100
▁공기가 100
▁계획에 100
▁큼 100
▁딱맞 100
▁글이 100
▁나도나도 100
▁부쳐 100
햇냐 100
▁스페셜 100
▁140 100
▁동창 100
큰일 100
▁내취향 100
▁뒤집 100
▁맞습니다 100
▁화욜에 100
▁ᅲᅮᅮ 100
재밌어 100
▁기아 100
▁헥 100
쩜 100
▁술자리 100
려니 100
▁동백 100
▁놋북 100
▁추천해주 100
▁비우 100
▁지리 100
▁구미 100
쿵 100
▁당첨되면 100
▁빡센 100
▁방은 100
어떡해 100
▁팔아야 100
▁안타깝다 100
▁오냐고 100
▁짐싸 100
▁입국 100
▁아숩 100
▁그중에 100
던게 100
▁캐리 100
▁콧 100
▁상영 100
이랑은 100
▁했자나 100
▁과식 100
▁갬성 100
▁헤에 100
▁느려서 100
▁구청 100
▁검색해봐 100
것같어 100
맞으면 100
▁못했는데 100
▁하지말 100
▁적당하 100
▁파전 100
▁신청하면 100
▁사라졌다 100
▁샐 100
▁쪽에서 100
▁필요없어 100
▁다리를 100
!!!!!!!!!!!!! 100
타입 100
▁-> 100
▁서류를 100
무료 100
▁포인트로 100
▁까페 100
▁좋던데 100
▁결제할 100
▁각질 100
나이트 100
구싶다 100
▁맞췄 100
▁안오면 100
온거야 100
▁착하 100
▁걸까 100
▁소름이 100
▁가방은 100
는거아녀 100
생리 100
▁훈 100
▁거기다 100
▁가고있어 100
▁스카이 100
닮았 100
하라구 100
ᄏᄒ 100
▁물었는데 100
▁꽃이 100
▁쉬면서 100
▁되었는데 100
▁사달라 100
▁않았고 100
▁맛있었는데 100
▁배치 100
수정 100
▁축하한다 100
▁그만둔 100
▁좋아하는거 100
▁드셔 100
무슨일 100
▁구매하고 100
분부터 100
해야겠네 100
▁안좋아해 100
▁초밥을 100
▁커피랑 100
▁프로필사진 100
▁ᅮᅮᅮᅮᅮᅮ 100
▁출근하고 100
야딩 100
▁밥값 100
▁엉ᄏᄏ 100
본듯 100
겟넹 100
▁사왔 100
줬음 100
▁껐다 100
al 100
달에 100
▁대구에서 100
▁정정 100
▁되는건가 100
▁어디루 100
▁타이레놀 100
▁프린터 100
앟 100
▁피드백 100
▁빕스 100
▁패밀리 100
▁배경화면 100
▁유툽 100
▁재활용 100
하더라구 100
▁ᄏᄏᄏᄏ근데 100
▁PC 100
▁안먹은지 100
▁집가는 100
▁없던데 100
▁유혹 100
▁꿀맛 100
▁드시고 100
▁추우면 100
▁미룰 100
▁눈빛 100
았던 100
▁고속버스 100
보이는거 100
드세요 100
▁ᅲᅲᅮ 100
▁초기화 100
던대 100
▁결석 100
▁얘기하자 100
▁물도 100
아아악 100
▁신비 100
▁같긴한데 100
깔고 100
▁이성 100
▁?????? 100
▁합성 100
▁한국은 100
▁오래돼서 100
▁들어감 100
▁결제하면 100
세유 100
▁밝아 100
▁아닌거같 100
▁딸에게 100
▁국산 100
▁금연 100
▁늙어서 100
▁예전부터 100
시리 100
▁그렇긴하지 100
하는걸로 100
▁싱기 100
거같지 100
햌ᄏᄏ 100
▁삼각대 100
▁했냐고 100
▁월요일이 100
▁붉은 100
▁잘어울려 100
▁받았고 100
▁오메 100
▁고르라고 100
할지도 100
23 100
▁유연 100
▁갈꺼 100
▁전복 100
▁혜 100
빠져서 100
▁오호라 100
▁출근하면 100
▁전화하고 100
▁머라고 100
받기 100
놨다고 100
▁넘비싸 100
▁안가봤 100
▁말했던 100
▁당구 100
댓어 100
오늘도 100
치워 100
자들이 100
▁내렸다 100
나가고 100
수없는 100
키키 100
▁비는 100
▁씻으 100
▁아빠의 100
▁유학 100
드라구 100
▁머머 100
▁힘내라 100
▁나가야지 100
▁감기약 100
그람 100
▁걸음 100
▁캡 100
▁조작 100
보이던데 100
▁갈겡 100
▁예쓰 100
▁괜찮대 100
소름 100
▁공방 100
▁뚫고 100
▁크다고 100
▁빌렸 100
▁쓰는게 100
▁단점이 100
???????????????? 100
안되는데 100
에따라 100
▁징그러 100
▁마라탕이 100
▁쓸까 100
▁놀러갈 100
▁이용해 100
조리 100
▁비슷해서 100
▁마신다 100
▁좀전에 100
▁돈벌어 100
▁뿐이 100
썼는데 100
▁선정 100
▁85 100
▁그렇더라 100
▁나음 100
▁모카 100
시켜주 100
가고있어 100
▁공동 100
보냐 100
더워서 100
시넘어서 100
▁먹엉 100
▁추천인 100
▁보험사 100
▁건조하 100
봨ᄏᄏᄏᄏ 100
▁맛없는 100
▁뽑은 100
▁단체로 100
자국 100
▁정돈 100
했옹 100
▁두분 100
▁하든 100
▁오글 100
▁다큐 100
▁먹겠 100
가고싶은데 100
▁12000 100
할때는 100
▁돌아와 100
미쳐 100
▁남자들이 100
걸린다 100
▁상상도 100
툰 100
▁꽈배기 100
▁배스킨라빈스 100
▁신서유기 100
▁징그럽 100
갗 100
뭄 100
▁애플워치 100
▁스노우 100
▁랜선 100
▁사물함 100
킬로그램 100
▁인증샷 100
족발 100
▁슈크림 100
▁괜찮았어 100
▁달걀 100
▁온갖 100
▁비공개 100
▁뒤질 100
▁중단 100
▁러시아 100
줄알 100
▁포인트가 100
▁커피빈 100
▁잃어버려서 100
▁신청한 100
▁해줄까 100
면허 100
▁막국수 100
시간째 100
▁인수 100
▁못봐 100
▁ᄏᄏᄏ난 100
▁네시에 100
▁어렵네 100
생각하고 100
한다면 100
▁누구지 100
▁다양하게 100
▁살아남 100
▁진로 100
▁세팅 100
▁코에 100
초에 100
▁로또를 100
▁죽는다 100
오셔 100
▁X 100
▁예쁜거 100
▁필러 100
▁포인트를 100
▁켜놓고 100
ᄄ 100
▁문어 100
▁안믿 100
▁야시장 100
는거니까 100
던곳 100
▁회식이 100
▁재미있어서 100
프로그램 100
바쁜 100
▁기사님 100
▁쎈 100
▁82 100
▁모시고 100
왔당 100
▁우울하다 100
▁교실 100
여유 100
잇대 100
결국 100
들러서 100
▁댓글에 100
▁뭐시기 100
겁니다 100
▁나눔 100
▁치사 100
▁소문이 100
▁덮고 100
▁열어서 100
내말이 100
▁피곤하겠다 100
▁만나려고 100
▁들었던 100
▁가성비가 100
▁조용한 100
▁저긴 100
긴했 100
▁사모 100
▁비슷한데 100
▁기다리면 100
어ᅥ 100
▁올라갔 100
▁왜캐 100
▁실밥 100
▁헤드 100
▁중요하다고 100
▁오때 100
▁만나는거 100
▁여행지 100
▁호텔이 100
번이나 100
▁가는길 100
▁조음 100
▁좋은곳 100
▁깔아서 100
데리고 100
▁너무많이 100
▁후기에 100
▁입장에서 100
▁고기만 100
▁근력 100
▁서울시 100
만큼은 100
▁통닭 100
졸리 100
겹쳐서 100
결정 100
▁어이없다 100
▁좁아 100
바디 100
살게 100
가져와 100
▁어카 100
천원에 100
▁옷입 100
▁잠수 100
▁김치전 100
▁해봐야겠다 100
▁보여주니 100
됐대 100
▁해동 100
다니면 100
▁이르 100
나가는 100
되는건 100
구멍 100
▁수원에서 100
▁좋아했는데 100
▁나니까 100
▁사람인데 100
▁좋았다고 100
▁동기들 100
▁영화보러 100
연애 100
▁않니 100
왔던 100
불어 100
어어엉 100
넬 100
▁kf 100
▁뚜레쥬르 100
▁공기청정기 100
▁글램핑 100
깽 100
▁양상추 100
▁즐거웠 100
▁장단점 100
▁상반기 100
▁시장에서 100
▁폭풍 100
▁외할머니 100
▁식혜 100
▁깜박 100
▁눈치를 100
▁얼어 100
되기 100
▁싱글 100
▁쑤 100
▁내말 100
▁다양하 100
겟지만 100
▁촉박 100
해놔서 100
▁벼 100
▁월화수 100
▁하나은행 100
▁간당 100
▁잤더니 100
▁고럼 100
야된다고 100
▁시험공부 100
▁수업은 100
▁뭐랄까 100
▁축축 100
왔거든 100
비싸네 100
▁델러 100
▁스키 100
▁저기에 100
▁되는거지 100
▁안먹으면 100
▁닳 100
▁그럴거면 100
▁주무시 100
▁불법 100
▁닦고 100
거둔 100
번으로 100
▁하악 100
▁불쌍한 100
▁거부 100
▁4-5 100
▁복구 100
▁보고있 100
▁우산이 100
윈 100
수고 100
픈거 100
꽁 100
▁한건 100
됩니다 100
스토어 100
명씩 100
▁어플이 100
▁어젯밤에 100
▁소리나 100
▁힘든거 100
▁개부럽다 100
할만한 100
▁아악 100
▁사가지고 100
▁가보려고 100
갔대 100
두번 100
▁쓰면서 100
난대 100
명의 100
▁개빡치 100
▁안늦 100
▁가든 100
▁개당 100
▁토요일날 100
▁!!!!! 100
▁사주는 100
▁머래 100
고든 100
옮기 100
▁팟 100
건조 100
마사지 100
▁♥ 100
▁삿다 100
▁턱이 100
▁극장 100
확정 100
▁안샀 100
▁드가 100
▁비오는데 100
먹다가 100
분이나 100
안했어 100
▁기다릴게 100
맛잇어 100
▁수분 100
▁물어봐봐 100
뻔했다 100
하지말구 100
팀이 100
▁삼마넌 100
▁어딘 100
밥은 100
올께 100
자노 100
▁시럽 100
드리면 100
▁응ᄏᄏᄏᄏ 100
▁식당이 100
▁해야한다 100
▁사업자 100
▁화사 100
자냐 100
▁다음달에 100
저도 100
토요일 100
▁맛있다는 100
▁억울해 100
▁많다는 100
용ᄒᄒ 100
▁둘만 100
놓구 100
입엇 100
▁일년에 100
겄어 100
▁키우면 100
▁갖다주 100
▁우우 100
마치 100
▁예방 100
내려서 100
버렸네 100
싸네 100
▁추석에 100
갠데 100
▁행복하게 100
줄이야 100
▁소개받 100
▁만낫 100
▁대게 100
▁몸도 100
▁지하철에 100
▁찾아봐야겠다 100
▁제조 100
쥬스 100
오디 100
▁않았나 100
인가여 100
봇 100
▁마일리지 100
▁마케팅 100
▁싱크대 100
잰 100
헣 100
▁브이앱 100
▁샹궈 100
▁쫄깃 100
▁콩국수 100
▁동사무소 100
▁환갑 100
▁땡땡 100
▁네이버페이 100
▁치즈스틱 100
▁왔네 100
▁노브랜드 100
▁죽으면 100
▁추첨 100
▁먹어보자 100
▁찍기 100
▁화학 100
▁가보자고 100
▁맞춤법 100
▁걸리는데 100
▁딴짓 100
▁조언을 100
닠ᄏᄏᄏᄏ 100
지않고 100
▁물어봤더니 100
것들이 100
▁더러운 100
▁당한 100
▁우유에 100
▁밀고 100
차려 100
▁안됐는데 100
▁쪼꼬 100
▁발령 100
▁배워야 100
분차 100
▁사줬 100
만원어치 100
▁이모네 100
▁맛있긴 100
▁골라줘 100
▁없겠지 100
▁퀵 100
▁코딩 100
▁바라는 100
잣어 100
▁잘하네 100
갔다왔 100
▁매력이 100
찍은거 100
▁쓰던거 100
▁매도 100
▁추천을 100
마라 100
▁이마트에 100
가야하는데 100
아ᅡ 100
▁상태를 100
▁으잉 100
단말이야 100
▁기억은 100
▁괜찮어 100
▁조별 100
▁몰랐음 100
▁품질 100
덩어리 100
콘서트 100
▁배고프다고 100
어딨 100
크고 100
▁1200 100
▁츄르 100
먹어요 100
▁와중에 100
갈랭 100
▁타이어 100
▁왔는지 100
▁알려줌 100
썻어 100
▁부러워한다 100
삿다 100
더라고요 100
▁맞았다 100
▁많으 100
안먹고 100
▁나갔다가 100
▁색도 100
▁왔음 100
▁느낌이다 100
하는걸 100
끼면 100
▁짚 100
▁많았는데 100
하장 100
▁무지개 100
▁먹었다는 100
▁치실 100
▁본인도 100
링크 100
▁한주 100
zzzz 100
▁멀지 100
▁안되더라 100
▁대표님 100
▁아련 100
맛은 100
▁끝냈 100
▁무배 100
모를 100
안내 100
▁되야 100
▁부장 100
가든 100
▁숙주 100
회원 100
▁연결해서 100
▁사랑의 100
▁팔려고 100
오랜만에 100
▁강요 100
▁예매를 100
▁요런 100
ᅮᅮᅮᅮᅮᅮᅮᅮᅮ 100
▁초장 100
▁한때 100
▁늦었다 100
▁끼우 100
▁안켜 100
▁많어 100
▁수고했어 100
▁하셈 100
단말 100
▁속도가 100
▁수밖에 100
▁당연한거 100
▁소심 100
▁두장 100
밥먹고 100
▁않어 100
▁베이지색 100
▁손도 100
먹기로 100
▁동생과 100
▁좋아하면 100
가격이 100
발로 100
▁추석때 100
하면되지 100
▁많잖아 100
▁가봤어 100
▁낸다 100
▁당신이 100
▁해야겟다 100
▁주라 100
▁탔다고 100
▁별말 100
테스트 100
▁팔로 100
단위로 100
하자너 100
▁육아 100
▁부족해 100
이었지 100
▁삼만 100
마셧 100
▁다시는 100
▁절대안 100
▁안머거 100
몫 100
▁숨이 100
▁죽을뻔 100
▁사과를 100
▁섭섭 100
오기전에 100
▁복수 100
▁보이게 100
왁 100
▁트리트먼트 100
뱌 100
▁거북목 100
▁린넨 100
지도않고 100
▁베이킹 100
▁엎드려 100
▁냅두 100
▁똑바로 100
▁오네 100
▁길고양이 100
▁스터디카페 100
▁누굴 100
줬던 100
배워 100
▁2018 100
▁성공한 100
잖앜ᄏᄏ 100
민이 100
▁두명이 100
▁,,? 100
▁ᄏᄏᄏᄏᄏ나도 100
▁사라짐 100
▁서비스로 100
같은걸 100
▁쪼매 100
▁지우고 100
▁누가봐도 100
스키 100
볼거야 100
▁타격 100
▁살쪄서 100
▁ᄃᄃᄃᄃ 100
▁좋을텐데 100
▁오래되서 100
▁봉투에 100
▁봐라 100
▁먹었네 100
▁한솥 100
▁사수 100
▁승리 100
▁과자가 100
두리 100
▁알았엉 100
▁주문하려고 100
씨는 100
▁안가면 100
▁집가는중 100
허네 100
▁안난다 100
관심 100
▁전남친 100
▁취한 100
ᅵᅵ 100
▁우리집도 100
신어 100
죠아 100
동생이 100
▁고기도 100
하겠습니다 100
▁짜증남 100
▁개운하 100
▁할일이 100
▁보여주면 100
▁보류 100
▁이길 100
덧 100
▁모으면 100
▁확장 100
▁장난치 100
연기 100
▁수목 100
▁구매하려고 100
▁ᄏᄐᄏᄏᄏᄏᄏ 100
불고기 100
▁얘기하면 100
▁그런거지 100
날라 100
▁때문인지 100
▁줄서 100
▁어려운데 100
었으나 100
달래서 100
▁물은 100
▁기본으로 100
▁깨진 100
먹을수있 100
▁숏 100
▁흡수 100
▁시킨다 100
▁비빔 100
▁알려주었다 100
▁충분하 100
▁쟈기 100
뿌듯 100
▁야스 100
▁훌쩍 100
▁그래용 100
▁못먹고 100
명이라 100
▁되자나 100
가야하나 100
▁겟 100
▁다녀왔다 100
줄거야 100
▁어지러워 100
▁올수 100
▁연결이 100
▁당첨이 100
▁찾아보면 100
▁미스 100
▁보내준다 100
▁사야되 100
▁숍 100
▁맞아여 100
▁얇은거 100
치는거 100
본적이 100
싸우 100
생각하면 100
했어여 100
▁작동 100
하는뎅 100
▁만난다 100
▁운동하러 100
▁엌ᄏᄏᄏ 100
찾았 100
▁청라 100
려했는데 100
왔나 100
없자나 100
▁입니다 100
▁물어보기 100
먹어써 100
국밥 100
▁냄새도 100
▁안고파 100
▁기름이 100
▁눈뜨 100
▁조은데 100
▁한국말 100
그러지 100
▁성의 100
▁큰일나 100
▁먹으러가 100
▁알쓰 100
아빠가 100
센티 100
싯 100
▁차가운 100
넣은 100
▁경우가 100
렷는데 100
해주께 100
보냇 100
숫 100
냔 100
펠 100
▁우연히 100
▁야스야스 100
▁클리어 100
▁수고해 100
▁배달을 100
▁후덜덜 100
▁배대지 100
▁친구들도 100
▁투룸 100
이자너 100
▁비쌌 100
▁잔액 100
▁가족여행 100
이럴 100
▁토핑 100
▁보안 100
▁갱신 100
▁뼈가 100
▁키고 100
▁개신기 100
▁바닥이 100
▁있었나 100
▁세번째 100
▁되도록 100
각이다 100
▁별로고 100
▁놀구 100
%3 100
▁낼까지 100
▁등기 100
▁사긴 100
▁신곡 100
수있다 100
▁모았 100
▁막힐 100
▁앓 100
▁호텔을 100
▁깔려 100
▁안전하게 100
▁갠톡 100
▁우앙 100
▁내인생 100
쌌 100
▁바쁜데 100
▁대박쓰 100
▁주인공이 100
젖 100
🤔 100
▁어필 100
뒷 100
▁꾸며 100
삽 100
▁빡침 100
▁허벌 100
▁풀려서 100
▁평범한 100
▁자는거 100
오께 100
판매 100
▁무서운데 100
▁언제야 100
교수 100
▁도착할듯 100
▁큰일이네 100
결혼식 100
앜ᄏᄏᄏᄏᄏᄏ 100
놀자 100
▁준비할 100
▁너네가 100
▁맞으 100
▁멘붕 100
원씩 100
▁믹스 100
▁퇴근할때 100
▁사주려고 100
▁바꿈 100
▁지내고 100
실패 100
▁표가 100
▁클래스 100
▁깻 100
▁남산 100
▁ᄏᄏᄏ진짜 100
▁저녁까지 100
▁싸니까 100
▁달콤 100
▁누구냐 100
▁입음 100
▁상상이 100
▁찾아봐야지 100
▁준비해서 100
▁빨랑 100
▁뭐하나 100
안되고 100
겠는걸 100
자녀 100
▁이번년도 100
▁손질 100
▁잡혔 100
▁동해 100
▁사거리 100
▁트레 100
▁민망하 100
▁뭐입 100
잡아서 100
▁아팠다 100
▁부담이 100
스푼 100
할수있어 100
▁고장났 100
▁빨라서 100
▁앞머리를 100
숩 100
▁머금 100
▁거잖아 100
▁넣음 100
힘내 100
▁알아듣 100
빼면 100
▁조직 100
천만 100
▁티비에서 100
▁반년 100
▁죽겠어 100
▁위메프 100
닠ᄏᄏᄏ 100
▁불려 100
▁맛있나 100
▁너무비싸 100
-! 100
▁비올 100
될거같은데 100
스카 100
▁잘잤 100
▁원장이 100
▁의자가 100
▁황당 100
▁머리카락이 100
▁마주치 100
▁자랑하고 100
▁없었던 100
▁않지 100
▁얼만 100
▁여행에 100
▁회사로 100
▁못봐서 100
엨 100
오려나 100
뎃 100
▁팜 100
꿧 100
▁기자 100
▁컨트롤 100
▁방충망 100
▁횡단보도 100
▁즐거워 100
▁보라카이 100
▁순두부찌개 100
▁신혼여행 100
▁인간관계 100
▁삼성전자 100
▁슬픔 100
▁바꿧 100
시간정도 100
▁말이오 100
▁목감기 100
▁그쳐 100
▁특별히 100
댔지 100
▁당당하게 100
▁똥이 100
▁생일파티 100
▁의무 100
티콘 100
▁논란 100
▁끊어야 100
▁아쉽다고 100
▁들어온다 100
▁메론 100
▁학원은 100
미쳣 100
▁파김치 100
대리 100
▁바뿌 100
▁자가 100
이라면서 100
▁별론 100
▁두통이 100
▁2019 100
▁누군데 100
▁많긴 100
▁싸구려 100
▁교통카드 100
▁안나네 100
▁관종 100
▁특이한 100
▁맘에들 100
▁사놓 100
합니당 100
▁엉망이 100
▁거짓말을 100
▁유령 100
▁저번처럼 100
▁박사 100
▁주니 100
▁내스탈 100
▁해야겠 100
만나면 100
▁빵은 100
▁힘드니까 100
▁자극적이 100
언니한테 100
▁죽겠다 100
▁든든하게 100
▁열은 100
▁믿음 100
▁하나밖에 100
▁아녔 100
▁끼는 100
▁언제끝나 100
만듬 100
동물 100
▁이모부 100
▁내용은 100
▁어려서 100
▁밥먹는 100
▁왔었 100
▁떴는데 100
▁출첵 100
▁박람회 100
손가락 100
이벤트 100
화이팅 100
움직이 100
확률 100
일어남 100
떨어졌 100
▁개망 100
▁하려구 100
▁낮아서 100
▁다녀오라고 100
▁인스타에서 100
▁교육을 100
it 100
파트 100
▁영통 100
▁차장님이 100
▁선임 100
▁시체 100
무조건 100
▁재밋게 100
▁가능하고 100
▁말했더니 100
ᄒᄒᄒᄒᄒᄒ 100
있길래 100
▁담주는 100
▁좋은건 100
▁괜찮은듯 100
머그 100
▁지쳐 100
▁후반 100
▁그래라 100
주냐 100
양반 100
▁원어치 100
▁씌 100
▁염색약 100
▁대회 100
었오 100
▁늘어난 100
▁늘었 100
▁가능한데 100
▁위에꺼 100
할수없 100
조합 100
아픈거 100
▁나이거 100
▁ᄏᄏᄏ근데 100
▁별걸 100
▁외국에서 100
oo 100
▁바늘 100
▁기다리라고 100
▁닮았다 100
▁좁아서 100
▁별명 100
▁핸 100
크기 100
▁어떤데 100
▁쇼핑몰에서 100
시켰어 100
▁트레이너 100
▁식이 100
▁끓여먹 100
▁빠르면 100
▁사리 100
▁뭔지알 100
▁닭발을 100
기분이 100
▁취업을 100
▁추천좀 100
계절 100
능거 100
▁많았다 100
▁바쁘면 100
▁퀄리티 100
▁함정 100
직장 100
▁망함 100
▁일등 100
▁댕댕이 100
31 100
▁걸으면 100
▁아트 100
▁알았지만 100
랙 100
▁의욕 100
▁입으로 100
▁최선 100
▁버스에 100
올라오 100
▁드는데 100
ᄀᄏᄀᄏ 100
▁문제로 100
▁돈많이 100
▁뭐하지 100
▁먹는지 100
▁자기소개 100
▁잘하구 100
▁기계가 100
▁비오는 100
▁바다가 100
▁붙였 100
설정 100
▁괜찮지만 100
▁않아요 100
▁졸업하고 100
했넹 100
보통 100
갈수도 100
▁글두 100
▁출근하기 100
▁츄 100
뻤 100
쿼 100
맠 100
▁박보검 100
▁셜록 100
▁횟수 100
쨩 100
▁압구정 100
▁이래저래 100
▁소고기를 100
▁암때나 100
▁태어난 100
▁스킨푸드 100
▁도수치료 100
▁유모차 100
▁욕심이 100
▁아무데나 100
그날 100
▁헤헷 100
▁미쳤나 100
▁경로 100
▁그만두면 100
▁빌려줘 100
▁할수있어 100
푹 100
야말로 100
▁실컷 100
랔 100
▁영어공부 100
▁밀크 100
▁팬싸 100
레알 100
없오 100
불렀 100
▁반차를 100
▁다른애들 100
▁옛 100
▁만드는거 100
거같긴해 100
▁오면서 100
▁재수없 100
야할지 100
하고싶은 100
▁식초 100
해야되나 100
▁틀렸 100
▁엉ᄏᄏᄏ 100
▁귀찮은데 100
뎈ᄏᄏᄏᄏᄏ 100
부딪 100
▁동생아 100
▁겁내 100
▁ᄅᄅ 100
▁김치를 100
▁진라면 100
21 100
▁길이가 100
엄마랑 100
▁안나옴 100
▁잃어 100
먹엉 100
▁있습니다 100
▁기름값 100
▁땄 100
♡♡♡♡ 100
▁한병 100
▁드려야 100
,,,,,,,, 100
▁필통 100
▁확실하게 100
▁까먹음 100
▁절약 100
▁엌ᄏᄏᄏᄏ 100
해놓으면 100
▁시작한다 100
▁발라야 100
▁나눠먹 100
▁차별 100
부려 100
W 100
껌 100
핸드폰 100
괜히 100
▁부분에 100
▁어디가서 100
▁어카냐 100
▁파도 100
▁깔끔해 100
만족 100
어쩔수없 100
▁기차표 100
▁작다 100
▁잘했오 100
▁지쳐서 100
▁커지 100
크크 100
▁맞추기 100
▁닮 100
▁돌릴 100
▁했었어 100
▁갔었는데 100
▁그럴거 100
▁ᄐᄐ 100
▁가능하면 100
▁중고차 100
▁사주기로 100
▁기대하 100
간거야 100
▁쓰러지 100
▁ᄏᄏᄏᄏᄀᄏ 100
댜리 100
하구나 100
드린 100
교환 100
우와 100
▁없긴 100
▁계절이 100
▁대우 100
▁닫았 100
▁결혼하는 100
배경 100
▁시퍼 100
보내면 100
▁42 100
▁유명한데 100
▁늦게자 100
이엇어 100
왘 100
찍은 100
ic 100
▁받아들이 100
었으니까 100
▁오열 100
사회 100
▁쪽지 100
▁탄다고 100
▁예약해야 100
곤데 100
▁강사님 100
설명 100
▁건강해 100
▁집에와서 100
▁퇴근길에 100
▁찌는 100
▁정우 100
▁물어바 100
▁맞추고 100
▁충격이 100
▁일요일은 100
▁상관없는데 100
▁그건그래 100
▁심하다고 100
▁매미 100
▁했던거 100
▁치킨과 100
▁피곤하면 100
모고 100
▁권유 100
분전에 100
해야겠 100
실듯 100
▁갈치 100
▁반려동물이 100
▁넣엇 100
놓을까 100
▁사이가 100
꺼랑 100
느거 100
▁티몬 100
▁제주도는 100
ᅳᄂ 100
▁점심시간이 100
슷 100
▁물어본거 100
가끔 100
▁좋아졌 100
▁상황에서 100
▁바쁘다고 100
쎀ᄏᄏᄏ 100
▁헬스를 100
▁상처받 100
▁그리워 100
▁마냥 100
옮 100
넉 100
▁오마이갓 100
▁외장하드 100
▁인터파크 100
귱 100
▁동그라미 100
▁건들 100
▁인공눈물 100
▁가계부 100
▁데일리 100
▁바람막이 100
▁사직서 100
▁해물찜 100
▁밤낮 100
▁내생각엔 100
내림 100
▁복습 100
▁로망 100
났음 100
나름 100
업서 100
▁그런느낌 100
▁내과 100
▁강변 100
▁잠들어 100
▁어떻냐고 100
걸릴듯 100
되는거지 100
▁지하철역 100
▁프로그램이 100
▁모르면 100
▁귀를 100
▁휠 100
▁짜증나서 100
뿐인데 100
올수있 100
들으면 100
줄알앗는데 100
▁부품 100
▁디자인은 100
▁담양 100
▁피곤한데 100
뒀다 100
▁읽으면 100
봤는디 100
▁존내 100
티슈 100
▁유용하 100
▁갈비찜 100
▁안되겠 100
러워 100
▁알랴 100
▁그얘기 100
▁벌면 100
▁저축 100
▁온제 100
띄 100
엎 100
밟 100
▁소스를 100
그룹 100
▁ᄐᄏᄏᄏ 100
풀고 100
▁푸들 100
▁먹어보라고 100
전자 100
먹을라고 100
지원금 100
ᄏᄒᄏᄒ 100
▁등에 100
ᅭ는데 100
▁쉼 100
▁등산을 100
▁할인해 100
▁맞춤 100
▁재산 100
▁정가 100
▁팔렸 100
▁최선을 100
사고싶 100
▁진정한 100
▁모르게써 100
▁조용하 100
해졌어 100
▁물건들 100
▁이런걸 100
추억 100
▁비밀의 100
▁맛있지만 100
▁부채 100
▁깔아야 100
해야하지 100
몸이 100
▁무서울 100
▁박수 100
▁전자레인지 100
월엔 100
▁발등 100
점으로 100
▁들릴 100
▁폴더 100
니꺼 100
▁산업 100
▁돌려주 100
신가요 100
주변에 100
오는거야 100
▁사진관 100
▁흔들리 100
▁안걸리 100
세상에 100
▁이름만 100
있겠지 100
▁구해서 100
▁좋은생각 100
▁예민해 100
생겻어 100
▁큰일이 100
되는뎅 100
▁먹었을 100
▁개그 100
지나가 100
당첨 100
6000 100
팀장님 100
무러 100
!!!!!!!!!!!!!!! 100
▁말할게 100
생각은 100
▁의자를 100
▁짜증내 100
▁화면이 100
▁여드름이 100
ᄒᄏᄒᄏ 100
엿다 100
년전에 100
라이트 100
되는듯 100
▁신경을 100
▁선거 100
▁일하다가 100
묵자 100
▁합쳐 100
보고싶은데 100
▁쉬게 100
ᄁᄏ 100
▁백화점에서 100
▁반미 100
ch 100
▁맛잇엇 100
▁가볍고 100
▁컨텐츠 100
▁허버허버 100
쓔 100
줏 100
▁모의고사 100
▁일로 100
▁구내식당 100
▁내일모레 100
▁유일하게 100
▁극단적 100
▁롯데백화점 100
▁하리보 100
▁왓다 100
▁기뻐 100
▁무기력 100
그런건 100
▁만났다 100
▁배꼽 100
▁느낌인데 100
▁그저께 100
▁있는디 100
▁튼 100
▁개선 100
▁면담 100
▁나가게 100
▁졸린데 100
초반 100
▁상승 100
▁지웠 100
▁좋아졌다 100
▁얘들 100
안나와 100
▁골라야 100
원이고 100
▁부인 100
셨다고 100
▁이대 100
보스 100
▁밥버거 100
-3 100
▁내방에 100
▁심정 100
▁어땨 100
▁지치 100
▁수고했 100
▁아가씨 100
▁요정 100
▁그래픽 100
중임 100
뿔 100
▁바꿨는데 100
▁뭐먹을 100
▁먹었냐고 100
▁통일 100
▁하는건데 100
캄 100
지않어 100
국물 100
▁칩 100
Z 100
▁숨쉬 100
뻘 100
밝 100
▁겨울옷 100
샴푸 100
타러 100
▁갔는지 100
저리 100
▁비싸더라 100
▁깸 100
▁ᄏᄏᄏᄏᄏ근데 100
▁사먹을 100
▁장르 100
▁응ᄒᄒ 100
▁기억난다 100
갔다고 100
블럭 100
▁사이에서 100
샤워 100
▁빨리빨리 100
▁알겠옹 100
▁자리도 100
▁아니라며 100
▁큰일이다 100
▁생활을 100
무섭다 100
▁이러는 100
▁와이드 100
▁문법 100
▁힘들다는 100
▁추억의 100
▁그립 100
▁굽네 100
▁반스 100
보겟 100
▁떨어 100
해줫 100
전공 100
▁많다며 100
▁그러시 100
▁홈페이지에서 100
▁ᅳᅳᅮ 100
잖앙 100
보리 100
들어오면 100
▁테니스 100
▁샀음 100
주셔서 100
▁어디지 100
나눠 100
주차장 100
▁개많아 100
▁고르기 100
▁경비실에 100
팬츠 100
▁취미로 100
▁ᄒᄃᄃ 100
▁얇아서 100
감독 100
~~~!! 100
사람이랑 100
방구 100
▁아주머니가 100
주동안 100
▁130 100
▁생각하면서 100
▁정신을 100
▁3~4 100
봤다고 100
▁대학로 100
▁도착한다 100
▁그랫어 100
▁궁금해하고 100
일이면 100
드릴까 100
▁얘도 100
▁정해져있 100
en 100
▁준다는 100
왴 100
싶엉 100
▁본전 100
▁가져간 100
▁그거말고 100
도잇고 100
하기엔 100
▁개부럽 100
▁접어 100
이상한 100
▁울언니 100
▁볶음밥을 100
▁열었 100
▁맡겼 100
▁신발장 100
▁댄 100
밖에없어 100
에에엥 100
▁찡 100
▁보이지만 100
▁그릴 100
▁ᄏᄃ 100
▁빠진다 100
▁봤었 100
▁치즈를 100
젼 100
▁기묘한 100
삔 100
▁겨울왕국 100
▁향신료 100
눼 100
듭 100
씅 100
▁넉넉히 100
▁더부룩 100
▁후라이팬 100
▁활용능력 100
▁어금니 100
▁지훈이 100
▁쓸데없이 100
봤엉 100
▁스크린 100
된듯 100
▁폐렴 100
▁넘어지 100
▁물음에 100
▁뜨겁 100
▁애매하네 100
넘어가 100
▁ᄌᄉ 100
▁강화도 100
▁그렇구낭 100
▁언닝 100
▁슈가 100
▁와이프 100
▁어캄 100
▁미룬 100
▁흐름 100
▁쏟아지 100
▁양고기 100
▁마련 100
속도 100
▁좋아하지만 100
▁오늘저녁 100
얼마안 100
들어왔 100
되겠지 100
겠네여 100
싶고 100
▁여자분 100
▁아래에 100
▁산에 100
있는디 100
▁뭐하니 100
만원이상 100
▁기념일 100
▁다섯시에 100
▁했엉 100
▁볼때마다 100
싶었 100
▁들어왓 100
▁헬스장에서 100
▁여자들이 100
▁연속으로 100
▁할말이 100
만들었 100
ᄏᄀᄏᄀᄏᄀᄏ 100
▁실행 100
▁초코맛 100
▁가실 100
▁대화가 100
▁왜자꾸 100
▁만든다 100
먹어라 100
▁중국에 100
ᄏᄏᄁ 100
▁티비보 100
솜 100
무늬 100
▁고기랑 100
▁놀러가자 100
웃긴 100
▁두번이나 100
폭발 100
▁이때까지 100
지않았어 100
▁구렇 100
▁케잌 100
▁재미있었다 100
▁학식 100
옹ᄒ 100
▁이상형 100
▁걸어오 100
▁안봐서 100
회사에서 100
▁그렇구 100
▁관련해서 100
검정 100
▁사이트에 100
▁기간에 100
겠엉 100
▁읎 100
▁신으면 100
▁화난 100
▁편한데 100
▁재밌음 100
낸거 100
됏다 100
혔어 100
오케 100
▁쓸수 100
▁개싸 100
오삼 100
인가보네 100
▁늦잠자 100
▁회장 100
될텐데 100
▁실물이 100
▁난다는 100
이엇는데 100
갈려 100
▁정색 100
▁숙박비 100
잇거든 100
▁알바비 100
▁샤프 100
그런듯 100
된거야 100
▁사다가 100
본대 100
▁나오나 100
모해 100
▁부끄러 100
▁결과는 100
▁팔자 100
▁혼났 100
▁받아야지 100
하눈데 100
▁조하 100
▁팔에 100
광고 100
▁재미있고 100
▁자기를 100
▁알았오 100
▁강진 100
▁넘어갔 100
겠으 100
▁아닌디 100
답답 100
▁못참 100
▁직전에 100
▁구하고 100
▁붐 100
▁잘잤어 100
설치 100
▁관심없 100
▁게임에서 100
뒤로 100
▁죽고싶 100
이션 100
기본 100
ᄂᄂᄂ 100
▁사연 100
▁주가 100
개웃 100
▁오라는 100
▁사진좀 100
▁올렸다 100
▁맞는듯 100
▁이건가 100
▁내려와 100
▁추리 100
원정도 100
▁나오긴 100
▁이층 100
진않았 100
봤음 100
▁숭 100
으셔 100
▁쿄쿄 100
뿡 100
▁송년회 100
▁티라미수 100
▁간신히 100
▁윈도우 100
▁놀이공원 100
▁인적성 100
▁쫓겨 100
▁측정 100
▁큰일날뻔 100
▁슬쩍 100
▁찜찜 100
naver 100
▁정신차리 100
▁으이구 100
▁식겁 100
▁그려그려 100
▁소나기 100
▁거미 100
▁공기계 100
▁망설 100
▁격려 100
▁애들을 100
▁지하철타 100
▁케케 100
겠오 100
▁체온 100
▁헛소리 100
▁생각만해도 100
▁노선 100
▁추워져서 100
▁여행가서 100
▁내한테 100
이얏 100
▁연락할 100
▁마스크팩 100
▁교재 100
▁소품 100
▁강력 100
▁익산 100
▁그돈 100
▁릴 100
마루 100
▁사봐 100
▁밀면 100
▁보험이 100
▁58 100
시청 100
문화 100
이었고 100
▁미치겠네 100
▁해주라 100
▁이유로 100
▁시식 100
부림 100
상태로 100
키워 100
어디가 100
포트 100
▁겨울엔 100
던듯 100
▁까먹어서 100
▁설명을 100
▁환영 100
있을거 100
되었다고 100
월말에 100
▁25000 100
▁뭔일이 100
▁호옹 100
▁깊게 100
▁막혔 100
물건 100
▁파데 100
▁잠들어서 100
분거리 100
▁주문이 100
아메 100
햇어요 100
있데 100
▁마법 100
▁소울 100
▁보내기 100
퉁 100
흉 100
▁조치 100
▁꿔 100
▁들구 100
▁찐으로 100
암튼 100
▁바래 100
▁장점이 100
▁버스로 100
▁별로였 100
▁굽는 100
▁오세요 100
▁ᅲᅲᅲᅲᅲᅲᅲᅲᅲᅲ 100
▁1~2 100
▁야나 100
▁아침엔 100
▁개웃기 100
▁고모가 100
▁보증 100
▁귀여울 100
맥날 100
환불 100
▁중심 100
기록 100
▁광주에서 100
▁실장이 100
▁짱이지 100
형으로 100
▁마셨어 100
▁결정한다 100
원이래 100
그런가봐 100
와우 100
▁풀면 100
▁응원한다 100
▁따고 100
저게 100
▁써야겠다 100
▁설거지를 100
▁잘랐 100
▁군자 100
▁어떨 100
방탄 100
집앞 100
▁가야할 100
▁수수료가 100
▁불쌍하 100
▁빅스 100
▁그래야겠어 100
▁기다려서 100
오오옹 100
▁폰트 100
심심 100
▁말라는 100
▁시티 100
▁슬프네 100
▁벌어야 100
▁좋은게 100
냐구요 100
▁됩니다 100
▁공공 100
해야하는거 100
▁기내 100
▁동화 100
테크 100
▁ᄏᄏᄏᄏ난 100
▁생리가 100
▁초밥집 100
햌 100
해야겟 100
▁오겠지 100
▁농구 100
▁공강 100
▁괜찮아졌 100
▁남자를 100
두라 100
어어어어 100
▁자니 100
▁알지만 100
만원으로 100
늘어 100
▁사준다 100
▁치과가 100
▁구독자 100
봣나 100
뜯어 100
▁하던가 100
▁신청해서 100
▁예약했다 100
▁자랑하 100
▁예쁘네 100
▁화나서 100
살거야 100
▁배구 100
▁알람을 100
▁남긴 100
샴 100
▁답장을 100
▁고스톱 100
▁트라우마 100
▁트러블 100
씁 100
쪗 100
▁유에스비 100
▁파운데이션 100
▁자동이체 100
▁배고푸 100
▁업로드 100
▁미뤘 100
▁헤헿 100
▁사전예약 100
▁게시판 100
▁그거라도 100
▁유일한 100
▁안쓰럽 100
▁순대국 100
▁쿠쿠 100
▁사기꾼 100
▁가져간다 100
▁위로해 100
▁혹쉬 100
▁나은지 100
▁압박 100
▁먹냐고 100
▁진작에 100
▁핫플 100
▁들어오고 100
▁목숨 100
없었어 100
▁조켓 100
온김에 100
▁놓는 100
▁시험이라 100
▁우짤 100
▁분류 100
▁하기싫 100
▁경계 100
▁못만나 100
잘알 100
▁나이에 100
▁증명사진 100
님이랑 100
차나 100
▁염증이 100
필요해 100
▁놔둬 100
▁돌체 100
▁스키니 100
▁요청한다 100
▁소모 100
▁매수 100
▁아아아아 100
▁웬만한 100
ᅮᅮᅮᅮᅮᅮᅮᅮ 100
정도만 100
▁대고 100
▁빌려달라고 100
▁드리고 100
▁마녀 100
애애 100
▁화질이 100
▁버리지 100
딬 100
▁삼김 100
▁귀차 100
나보넹 100
▁결제하고 100
하는날 100
▁봐요 100
▁될거같아 100
▁수업에 100
▁서랍장 100
▁어떠니 100
시퇴근 100
▁갖고싶어 100
▁행정 100
극혐 100
▁출고 100
▁싸긴 100
▁모른 100
맛있게 100
화까지 100
▁놀지 100
▁교회에서 100
▁알약 100
▁가보기로 100
▁쟁 100
▁수술하고 100
▁나가도 100
▁개판 100
▁도움을 100
▁짧고 100
경험 100
▁찾아보라고 100
양념 100
비슷하 100
린대 100
▁고민되 100
▁말해달라고 100
▁후회한다 100
▁해장국 100
▁텀 100
오자마자 100
해도돼 100
▁축하한다고 100
▁번호로 100
▁있던거 100
오후 100
좋대 100
▁바꾸라고 100
쓰니까 100
▁원대 100
▁샀는지 100
▁조선 100
되는겨 100
▁됐고 100
볶이 100
왓네 100
▁좋아보이 100
▁성적이 100
▁꼬마 100
▁요고 100
▁샀다며 100
▁해봤어 100
끝나서 100
▁물집 100
레드 100
▁뭐하러 100
▁새삼 100
더라구여 100
곸ᄏ 100
해야되는거 100
▁가져갈게 100
▁시험장 100
긋다 100
▁~~~~ 100
▁유자 100
▁무릎에 100
▁다니라고 100
아저씨가 100
▁내려가는 100
▁미워 100
▁사귀고 100
▁정원 100
▁베이스 100
느낌이야 100
올꺼 100
브러 100
안나오 100
▁많나 100
▁홍차 100
▁추측 100
난데 100
잘햇 100
진료 100
센터에서 100
▁이분 100
▁발을 100
▁못믿 100
할거임 100
▁밥먹자 100
했구만 100
멤버 100
하나사 100
셧어 100
안될 100
▁배달시켜 100
▁나왓어 100
▁....... 100
▁넓고 100
되길 100
▁소통 100
▁산다는 100
▁청소하고 100
폰으로 100
▁맞추는 100
있나봐 100
깤 100
▁하신다 100
▁잘까 100
▁고마우 100
아아ᅡ 100
면세점 100
▁업서 100
▁가보고싶 100
▁큰돈 100
▁시키자 100
ᄏᄁᄏ 100
것좀 100
담당 100
▁자체를 100
▁ᄐᄏᄏᄏᄏᄏ 100
빠른 100
▁솔직 100
👍 100
▁넣지 100
▁ᄀᄉᄀᄉ 100
▁견과류 100
▁경복궁 100
▁발사믹 100
댑 100
믈 100
▁쒸익 100
▁콘셉트 100
핼 100
▁스피닝 100
▁영원히 100
▁낼모레 100
▁레이어드 100
▁멘토 100
▁GS 100
▁폰에 100
▁오레오 100
▁스타킹 100
추어 100
▁쏘쏘 100
댘ᄏᄏᄏ 100
▁김치찜 100
▁인증번호 100
▁날짜는 100
▁메밀 100
▁직항 100
▁쏘카 100
▁넣어놓 100
▁가져다주 100
▁퇴사를 100
으셔서 100
▁당분간은 100
▁물어보았다 100
도될듯 100
▁창업 100
순대 100
▁추우니 100
▁싶었지만 100
▁105 100
▁출발하는 100
▁패딩입 100
▁매진이 100
▁가봐야겠다 100
▁오래걸려 100
▁쬐 100
▁정해져 100
▁햇지 100
▁기다렸는데 100
▁꽉차 100
▁자료를 100
▁개피곤 100
▁매콤한 100
▁면회 100
장판 100
▁도라이 100
▁두시반 100
▁덮어 100
▁사장님한테 100
추워서 100
▁여시 100
▁끓인 100
▁감사하다고 100
▁신입이 100
▁상체 100
▁어떄 100
해쏘 100
▁내렸어 100
▁k 100
거양 100
캠 100
▁잡기 100
▁습기 100
▁실천 100
잨ᄏᄏᄏᄏ 100
브이 100
▁안뽑 100
▁남지 100
백화점 100
▁이웃 100
떨어진 100
케어 100
화장품 100
▁나그거 100
▁몬데 100
▁여자애들 100
▁개좋 100
▁갚을 100
가야되 100
▁바구니 100
좌석 100
▁다른데서 100
▁체감 100
▁좋군 100
▁우울하 100
▁고양 100
▁한개만 100
언능 100
▁버스타면 100
▁열무 100
▁전나 100
▁이겼 100
▁더욱 100
▁습하 100
▁고속 100
우린 100
님은 100
▁보내려고 100
성격 100
▁9900 100
▁면접보러 100
연속 100
는것보다 100
기시작 100
▁캐리어를 100
▁일러 100
놀라 100
수없지 100
태워 100
▁안뇽 100
▁찍자 100
▁타이밍이 100
살라고 100
▁짜증나네 100
일꺼 100
▁중독성 100
▁비말 100
▁증거 100
▁생각해볼게 100
▁빼기 100
▁다행이고 100
▁자취하면 100
▁벌었다 100
▁아침으로 100
시발 100
▁침대가 100
▁나올지 100
했었지 100
목소리 100
조용 100
▁될거야 100
갔던 100
참아 100
▁^^... 100
▁자야겠다 100
수잇는 100
쓸거 100
추움 100
▁하얗 100
좋겟 100
▁리더 100
▁모공 100
터져서 100
날뻔 100
▁고무 100
▁넘었 100
▁질문을 100
기로했어 100
▁걸어갈 100
▁걱정말 100
▁얘기하는 100
시켜야 100
▁음식도 100
알못 100
▁치킨집 100
기전까지 100
▁가로수길 100
▁루미큐브 100
▁슬기로운 100
▁이탈리아 100
밈 100
▁스위트 100
▁태권도 100
▁무화과 100
▁하루이틀 100
▁곱창전골 100
▁무시무시 100
▁왠만하면 100
▁하세요 100
▁상가 100
▁sk 100
▁코딱지 100
▁아픈건 100
▁나오니 100
ᄐᄐᄏᄏ 100
▁징짜 100
▁내놓 100
▁그렇겠다 100
과외 100
▁막장 100
▁못먹겠 100
▁고장나서 100
▁평점 100
다닌 100
세권 100
ro 100
▁극복 100
▁소변 100
▁찾아보기로 100
오셨 100
▁바지락 100
▁출근했 100
▁안한다고 100
▁스벅에서 100
▁푸짐 100
려낭 100
남은거 100
▁좋다좋다 100
못하는 100
예여 100
▁김치가 100
▁말씀드려 100
내는거 100
▁모루 100
▁그뒤로 100
▁코로나때매 100
▁린스 100
▁알려주기로 100
▁더웠 100
▁스무 100
▁우리은행 100
▁하객 100
▁몰랔ᄏᄏᄏ 100
▁와진짜 100
▁좋은디 100
▁임마 100
갔다와서 100
▁춤을 100
▁기다리다가 100
날이라 100
▁자면서 100
▁해주기로 100
▁남성 100
▁존중 100
기운 100
미쳤다 100
▁편지를 100
시킨다 100
▁분실 100
불럿 100
▁해가지고 100
질뻔 100
마신 100
▁어쩌라고 100
▁이제와서 100
▁왔지만 100
▁진리 100
▁마잨ᄏᄏᄏᄏ 100
▁친하게 100
▁에잉 100
▁사례 100
▁특수 100
▁바지에 100
▁라면에 100
안가고 100
▁아기들 100
탭 100
샹 100
핰 100
헹 100
맴 100
▁식장 100
솔직히 100
ᄏᄀᄀᄀᄀ 100
▁안올라 100
▁집주인이 100
얔 100
▁노을 100
전이라 100
▁구석 100
▁껴입 100
▁마나 100
▁개똥 100
▁이십분 100
피티 100
먹었네 100
▁피자는 100
▁안먹었어 100
▁부모님께 100
▁알아본다 100
다음카페 100
▁맛있겠네 100
▁실수를 100
▁듣던 100
▁쌈장 100
적립 100
터졌 100
돈은 100
▁김볶 100
▁좋을거 100
시픈데 100
▁힣 100
멋있 100
힌다 100
동기 100
▁흐려 100
만들어서 100
생각중 100
▁검사받 100
구럼 100
▁ᄒᄏ 100
▁버정 100
▁입을지 100
▁대기중 100
▁허어 100
▁바쁘게 100
사람들도 100
▁아르바이트생 100
같은곳 100
썼다 100
▁무난하 100
우리가 100
먹으래 100
▁댈 100
▁다다음 100
빨래 100
▁없넹 100
였거든 100
▁타인 100
▁이쁘긴 100
▁맡기고 100
▁월급은 100
▁안온다 100
해보께 100
▁왜이러 100
▁용서 100
찾아봐 100
▁맞았어 100
▁막힌다 100
▁카드는 100
▁41 100
▁자러 100
▁엄청많 100
▁많아졌 100
해야된다 100
▁돌아갈 100
▁많이들 100
같다고 100
▁일과 100
▁번호가 100
▁재방 100
▁안사도 100
▁잇네 100
▁않는다는 100
▁보고싶은데 100
▁먹고싶네 100
▁돼요 100
▁묵자 100
꺼얌 100
▁뜬다 100
▁쉬었다 100
▁사먹고 100
▁재미없다 100
▁조아하는 100
▁콘텐츠 100
▁필리핀 100
듸 100
▁꼬박꼬박 100
▁스타트업 100
▁어벤져스 100
벳 100
▁환절기 100
▁계좌이체 100
▁지하상가 100
▁부침개 100
▁동그란 100
겠어여 100
▁화성 100
▁플랜 100
▁낭비 100
▁몽골 100
▁휘핑 100
만오처넌 100
▁라벨 100
78 100
는게낫 100
▁본점 100
▁코어 100
▁팝업 100
려공 100
▁대리가 100
▁글렀 100
▁없어져 100
▁바람도 100
▁봤음 100
▁안간지 100
▁어떠냐 100
▁뷰티 100
▁강습 100
▁돈아까워 100
▁참으면 100
학번 100
▁상하이 100
▁유미 100
기술 100
▁연구소 100
▁받으려 100
▁긴급 100
▁요가를 100
▁일리 100
▁선물하기 100
▁보임 100
▁평이 100
십니까 100
▁홀랭 100
▁그럴껄 100
전용 100
▁비오는날 100
▁그런가벼 100
▁보습 100
▁나같은 100
▁체인점 100
▁이내 100
▁ᄒᄒᄒᄒᄒᄒᄒ 100
▁100% 100
▁출입 100
모르겠다 100
▁있는듯 100
▁누우면 100
글치 100
▁무시하고 100
시길 100
존맛탱 100
▁떨어졌다 100
▁깰 100
갠가 100
▁당근이지 100
겠슴다 100
▁상관없지 100
▁그렇게까지 100
▁거기다가 100
▁마심 100
▁유통기한이 100
▁해야겠어 100
▁못하니까 100
▁인중 100
었자나 100
끄고 100
퀴즈 100
터치 100
▁후식으로 100
▁경고 100
스킨 100
대보험 100
▁얘기하다가 100
아무도 100
▁ᄏᄏᄏᄏ진짜 100
88 100
후드 100
▁불금 100
그런데 100
겉 100
쏠 100
컸 100
▁출근길에 100
친구랑 100
마시면 100
▁와인을 100
파는데 100
가깝 100
▁삼백 100
세탁 100
변경 100
▁사랑니를 100
▁작가가 100
▁형식 100
▁재질이 100
덥다 100
▁내년에는 100
▁무섭네 100
▁먹나 100
▁썩어 100
▁무급 100
▁갈려고 100
▁맛있는지 100
▁먹네 100
▁그게뭐 100
갈땐 100
살짝 100
겤ᄏᄏᄏᄏ 100
았나 100
▁350 100
▁감아 100
▁떡을 100
한거임 100
▁샹 100
^^* 100
▁탭 100
▁깼어 100
발견 100
▁인천에서 100
▁좋구만 100
▁챙겨줘 100
▁공시 100
할겨 100
닼ᄏᄏᄏᄏᄏᄏᄏ 100
▁없어졌다 100
▁광어 100
장사 100
▁중간에서 100
넼 100
코노 100
▁습관이 100
▁쉬자 100
▁저두요 100
▁해주시 100
▁팔까 100
▁어디로가 100
하던지 100
▁딱이다 100
기보단 100
▁짜증을 100
▁자세가 100
▁했어야 100
너랑 100
시엔 100
새벽에 100
안된대 100
▁쉬어야지 100
▁담임 100
▁결혼은 100
▁봤을때 100
▁됫 100
는거아니냐 100
▁걸어가는 100
▁신발은 100
▁되겟 100
▁이미지가 100
됐으면 100
▁보쟈 100
▁행거 100
▁연락하고 100
▁이번주말 100
▁안씻 100
밴 100
끝났어 100
표가 100
▁사진보내 100
엇거든 100
갈걸 100
하지마라 100
▁떨어진다 100
▁깨고 100
▁잡음 100
▁얘기해서 100
찾아서 100
▁누군 100
▁http 100
▁나한텐 100
🏻 100
▁아슬아슬 100
빽 100
▁루이비통 100
▁스타필드 100
▁월남쌈 100
▁핼러윈 100
▁허니콤보 100
★ 100
쫘 100
▁멍멍이 100
증후군 100
▁을매나 100
▁그닝까 100
▁김지영 100
▁매니저가 100
▁앉는 100
▁부가세 100
▁팬클럽 100
▁노놉 100
▁위아래 100
졌으면 100
▁컴퓨터가 100
▁액체 100
▁흘렸 100
는중이야 100
루루 100
ᅮᅮᅮᅮᅮᅮᅮ 100
▁수험생 100
▁종류별로 100
▁봤나 100
▁글씨체 100
▁재수강 100
▁뱉 100
▁형부가 100
▁하루하루 100
▁대청소 100
▁상처가 100
이런데 100
▁먹는다는 100
안옴 100
▁결혼식장 100
▁현대카드 100
어찌 100
해야할지 100
▁들어갓 100
▁찾다가 100
▁가깝고 100
▁욕실 100
▁66 100
▁맛있어보여 100
▁50% 100
▁주니까 100
▁리퍼 100
▁노래방에 100
▁기다리는데 100
▁즐겁게 100
▁쫀 100
뎈ᄏᄏᄏᄏᄏᄏ 100
▁잘됐다 100
▁먹냐 100
▁허브 100
▁답은 100
▁경우도 100
▁부족하다 100
▁정책 100
▁후회할 100
▁실시간으로 100
▁시킨거 100
▁깨져서 100
▁방으로 100
▁괜찮았는데 100
▁출발할때 100
하지않나 100
▁터키 100
▁고민해보 100
▁ᄏᄏᄏᄏᄏ난 100
▁서면에 100
▁해야징 100
▁생각하자 100
존웃 100
▁열면 100
질까봐 100
▁한강에 100
모르지 100
입어도 100
여기서 100
자격증 100
앨범 100
▁중임 100
▁제습기 100
다음주 100
▁흐아 100
▁퇴근하는 100
▁메뉴로 100
제주도 100
▁생각난 100
▁보리 100
뒀는데 100
▁일식 100
통닭 100
려고했는데 100
송금 100
▁상점 100
되겠 100
▁신경이 100
▁살꺼 100
▁맛있다며 100
▁적응이 100
▁해보고싶 100
▁댕기 100
▁잡자 100
▁호흡 100
▁쎄게 100
▁메이커 100
입었 100
아아아악 100
▁튀겨 100
▁생일인데 100
하세여 100
되니깐 100
▁못하겟 100
▁청소년 100
▁안에는 100
▁소식이 100
집중 100
-10 100
거같네 100
▁읽은 100
▁방석 100
▁돈없어서 100
▁먹는건 100
▁46 100
해결 100
오길 100
세계 100
놓았 100
▁중딩때 100
ᄏᄏ큐ᅲ 100
▁바뀌었다 100
▁사십 100
▁반려 100
▁주식은 100
▁파마를 100
▁대답하고 100
▁두개나 100
▁믿지 100
▁합치 100
il 100
▁알려준다고 100
일주일 100
▁갈게요 100
왔으 100
장면 100
▁하나두 100
▁먄 100
메일 100
▁덜어 100
▁그날은 100
옄ᄏᄏ 100
▁상품이 100
라운드 100
잇다고 100
▁인화 100
▁쿠키를 100
▁답답한 100
▁고쳐야 100
▁건강식 100
▁잡아주 100
▁유부 100
내기 100
▁건성 100
▁음식들 100
봅 100
▁구매할지 100
▁인기많 100
만원이라 100
잘하고 100
그럴까 100
건줄 100
해달래 100
▁알잖아 100
셋트 100
먹나 100
수도있지 100
▁어색해 100
▁분해 100
▁다단계 100
▁뭐얔ᄏᄏᄏ 100
찹 100
🤣 100
▁파리바게뜨 100
읶 100
▁레터링 100
▁말레이시아 100
▁제넥신 100
뮨 100
뵤 100
💫 100
▁메신저 100
▁블라인드 100
▁시금치 100
▁던킨 100
▁알람이 100
▁kt 100
▁수세미 100
▁신한은행 100
▁갯수 100
▁엽기떡볶이 100
▁풀빌라 100
▁낯설 100
▁그니깤ᄏᄏᄏ 100
▁해결해 100
잌ᄏᄏ 100
▁트럭 100
▁부지런히 100
▁바코드 100
▁주황색 100
▁숨을 100
▁내맘 100
▁뛰는 100
▁솔직하게 100
빠름 100
▁서초 100
역까지 100
▁문젠 100
돈주고 100
드렸 100
▁올라가면 100
▁나갈까 100
인감 100
▁신축 100
▁몰랐다고 100
주식 100
▁외투 100
▁별론데 100
▁남았네 100
야게써 100
ct 100
▁올라오면 100
▁남녀 100
▁현질 100
▁와달라고 100
안되지 100
▁파트너 100
▁혜택이 100
▁출신 100
▁정상이 100
▁금요일은 100
▁이만큼 100
▁레스토랑 100
해주는데 100
▁짰 100
▁깼는데 100
싶은거 100
▁쓸어 100
▁컵밥 100
▁깜 100
가야징 100
▁아랏오 100
▁입에서 100
▁경남 100
▁싶었어 100
▁미칠 100
범벅 100
잨 100
▁마마 100
찬스 100
▁까매 100
▁피고 100
조아해 100
섴ᄏᄏᄏᄏᄏᄏ 100
▁끼어 100
부럿 100
▁성공했 100
▁53 100
▁흰색이 100
▁시키려고 100
마심 100
▁주면서 100
▁안나왔 100
▁긍가 100
▁그곳 100
▁대단하네 100
인줄알고 100
▁장소가 100
▁강의실 100
▁오자고 100
▁가기싫 100
▁꼬셔 100
올때까지 100
적이다 100
84 100
같기도 100
숍 100
물어보고 100
ᅡᄅ 100
▁뭐였지 100
▁그렇다며 100
▁근처로 100
단위 100
다른거 100
천천히 100
▁괜찮을거야 100
▁맛으로 100
▁한건데 100
▁괜찮았다 100
믄서 100
▁걸었 100
필름 100
▁디스 100
▁있으려나 100
▁흡입 100
▁넣어놔 100
▁시계를 100
글쿤 100
▁올라간다 100
천국 100
▁연락와서 100
▁ᄏᄏᄏᄏᄏᄏ아니 100
끝낫 100
ᄏᄀᄏᄀᄀ 100
▁안자고 100
▁현상 100
▁안붙 100
▁선생 100
▁게스트 100
▁대가리 100
▁중형 100
일줄 100
알람 100
>? 100
오케이 100
▁할거면 100
▁온몸 100
▁꾼 100
▁취향에 100
담아 100
둬서 100
▁안봐도 100
▁빌려준 100
▁팀플 100
▁석사 100
▁놀고싶 100
▁붙인 100
하진않 100
▁우울한 100
▁어색한 100
▁집중력 100
▁울집에 100
앉아있 100
▁바꿨어 100
▁가사가 100
▁포카 100
▁헤어졌다 100
▁친구집 100
▁여름이라 100
▁모종 100
떨어져서 100
▁높다 100
▁가거나 100
▁무셔 100
▁핫한 100
됐나 100
괜찮은 100
▁회화 100
▁언제든지 100
해줭 100
▁무겁다 100
러간다 100
▁라면은 100
든거 100
▁세우 100
▁스토어 100
▁위치에 100
하눈 100
놧는데 100
▁봐볼게 100
지금은 100
▁할까봐 100
▁채워야 100
▁ᄐᄏᄏᄏᄏ 100
▁언니들이 100
▁반영 100
▁왓챠에 100
▁제때 100
▁없어짐 100
심해서 100
▁맛이야 100
▁만나는데 100
▁부러워하고 100
귀여운 100
▁머리아프 100
하는거라 100
딱지 100
▁욕하고 100
▁어디냐고 100
▁식감이 100
▁얹어 100
팀장 100
사러가 100
▁보다는 100
▁만들어줘 100
▁바껴 100
▁만날때 100
좋더라 100
것만으로도 100
맡기 100
▁집오면 100
▁쌤들 100
있긴 100
제출 100
▁인사하고 100
올렸 100
▁ᄏᄏᄏᄏᄏ진짜 100
▁ᄐᄏᄏᄏᄏᄏᄏ 100
▁스테 100
뤠 100
▁잇어야 100
뢰 100
져써 100
▁씁쓸 100
▁글쿠낭 100
▁까다롭 100
▁꼬북칩 100
▁올림픽 100
딕 100
쨈 100
킄 100
▁샤오미 100
^~^ 100
▁교과서 100
▁기다림 100
▁깨달았 100
▁포맷 100
▁파스텔 100
▁크리 100
▁긍정적으로 100
▁체크아웃 100
▁넵넵 100
▁인천공항 100
▁영상통화 100
▁데려와 100
▁공룡 100
▁사귈 100
▁가봤는데 100
▁진짠 100
▁노상관 100
▁너무웃겨 100
▁히익 100
▁머그러 100
▁진쨔 100
▁여섯시반 100
▁살쪘 100
옷은 100
하는애 100
저장 100
▁무이자 100
냨ᄏᄏ 100
▁매니저님 100
▁파견 100
틀고 100
▁심해져서 100
▁사촌동생 100
▁재료가 100
▁언니두 100
▁우승 100
▁접종 100
▁못생긴 100
잇는지 100
▁대패 100
써야지 100
▁갈릭 100
갓을때 100
▁스팀 100
▁바가지 100
▁기다린 100
▁세척 100
▁여태까지 100
▁가입해서 100
넹ᄏᄏ 100
▁옷이랑 100
▁할께 100
▁앉았다 100
안드 100
▁보내봐 100
75 100
▁캣 100
간장 100
랰ᄏᄏ 100
▁교수님한테 100
▁인연 100
▁시골에 100
▁고향 100
되어있어서 100
▁대리님이 100
없더라 100
할거같아서 100
▁살만한 100
냐능 100
▁동작 100
▁연락하기로 100
▁정부에서 100
▁여름에는 100
되지않 100
가부다 100
▁생각나네 100
으믄 100
베라 100
43 100
▁회사사람들 100
▁될거같 100
▁사십분 100
ᅭᅥ 100
시간이면 100
▁다녀오고 100
▁않겠지 100
▁소매 100
▁취준 100
▁탄다 100
▁좋아하니까 100
▁따르 100
세욤 100
▁사용해서 100
▁먹거나 100
뺐 100
▁붙이면 100
수수료 100
[ 100
▁하나라도 100
올지 100
▁가치가 100
▁해변 100
는뎀 100
인천 100
▁받구 100
번가에서 100
넣는 100
▁전화할게 100
엇는디 100
였지만 100
▁되징 100
하지않을까 100
시구려 100
헬스 100
▁이벤트에 100
▁다녀올게 100
▁알앗는데 100
하느 100
▁십년 100
▁웅우 100
갈겨 100
▁기종 100
▁세시반 100
갔거든 100
잇서 100
장씩 100
▁형제 100
지옥 100
어색 100
바꾼 100
▁있었지만 100
▁큰일이야 100
공구 100
▁만난다고 100
찍엇 100
▁인생은 100
슴돠 100
▁당신은 100
오키오키 100
▁백화점에 100
알어 100
▁어플에서 100
▁생각좀 100
안했는데 100
토스 100
▁걸렸다고 100
▁그립다 100
후회 100
▁Z 100
▁지내는 100
▁세무사 100
▁개쩔 100
▁비치 100
^^;; 100
▁물어봐야지 100
▁입금해 100
▁미세 100
▁일층 100
▁멀쩡하 100
하네여 100
▁익스 100
▁오르고 100
▁약해 100
▁만드는데 100
▁계획은 100
▁장례식 100
▁산지 100
▁조앙 100
▁그니가 100
▁사놨 100
▁재미있을 100
는거죠 100
▁차가워 100
해줄까 100
너스 100
▁돌아온 100
▁외국인이 100
▁하였고 100
▁먼지가 100
▁감시 100
뉴스 100
불쾌 100
▁무섭지 100
▁모집 100
▁못할듯 100
왔대 100
금요일 100
▁페이스 100
부담스러 100
받는데 100
▁광장 100
란테 100
▁칭찬한다 100
co 100
하궁 100
하셨다 100
▁못하지 100
▁중고나라에 100
사고싶어 100
왔는디 100
▁웅응 100
▁장수 100
앉아 100
▁놓아 100
▁예약할 100
▁치킨먹 100
▁찍으 100
봨ᄏᄏᄏᄏᄏ 100
▁시야 100
▁아니였어 100
▁안되니 100
▁보내며 100
췄 100
슉 100
▁펑펑 100
뚠 100
퍽 100
햏 100
▁고춧가루 100
▁뒹굴뒹굴 100
▁쉬익쉬익 100
▁에피소드 100
▁죄책감 100
▁텔레비전 100
▁푸라닭 100
엡 100
켕 100
▁시그널 100
▁납작 100
▁그냥저냥 100
▁마피아 100
스커트 100
▁쌀쌀하 100
▁완젼 100
▁기념품 100
▁상큼 100
▁서핑 100
▁덩치 100
▁근황 100
▁그러려니 100
돜ᄏᄏᄏ 100
▁일억 100
보관 100
▁똑똑한 100
▁살아야지 100
▁했오 100
에대한 100
▁데이터를 100
▁땡기네 100
흰 100
▁엄마께 100
건대 100
▁때문인 100
햇다가 100
▁사료를 100
옼 100
▁신라면 100
▁전통 100
속으로 100
번씩 100
볼려고 100
▁커피사 100
▁들으 100
직구 100
▁놀란다 100
봤나 100
▁나왓는데 100
▁칼로리가 100
▁놀란 100
▁메세지 100
▁터지는 100
▁아팟 100
▁창가 100
▁우유랑 100
했군 100
▁뭔말 100
ᅲᅳᅲ 100
▁줄서서 100
우우 100
▁들어갔어 100
트랙 100
▁깊티 100
말하면 100
▁가져오라고 100
예상 100
▁알쥐 100
▁마셔도 100
▁240 100
▁이모한테 100
▁한시간반 100
나갓 100
햌ᄏᄏᄏᄏᄏ 100
▁졸았 100
▁내스타일 100
▁사옴 100
큐ᅲᅲᅲᅲ 100
▁흑발 100
▁줄거리 100
▁보통은 100
짘ᄏᄏᄏᄏᄏᄏ 100
▁ᄏᄏᄏ웅 100
▁싶더라 100
았네 100
먹고싶어서 100
곀ᄏᄏᄏ 100
▁할수있는 100
▁미루고 100
▁한두개 100
봣자 100
ed 100
▁꺼냈 100
▁본사에서 100
▁따뜻해서 100
▁가족들이랑 100
팽 100
▁똑같은데 100
▁웰 100
▁보여주기 100
드디어 100
▁학부모 100
졸업 100
▁그게머 100
▁한군데 100
▁걱정했는데 100
이득 100
무서운 100
▁공대 100
지몰라 100
▁별일없 100
▁송장 100
▁하까 100
...☆ 100
빡쳐 100
해놨는데 100
▁깨끗한 100
▁갓어 100
▁정했다 100
▁낫나 100
▁별로면 100
나간다 100
암동 100
▁채로 100
▁젠 100
▁맛남 100
씨랑 100
▁남편은 100
햇으 100
켯 100
▁좋았던 100
인가보다 100
▁메일이 100
▁고민하다 100
▁큐브 100
잖여 100
▁죽었다 100
▁인간들 100
렇게 100
▁마시라고 100
땡김 100
▁키위 100
▁나왔대 100
▁퉁 100
▁골라주 100
어쩌고 100
▁캄 100
버리네 100
연차 100
슬프 100
담배 100
▁예쁘긴 100
▁잇겟 100
▁아니에여 100
▁누나랑 100
▁고민돼 100
▁좌석이 100
드린다고 100
필요한 100
닮음 100
오십 100
▁라이프 100
▁마쳐 100
▁연애는 100
▁심심한 100
있냐고 100
▁폐기 100
▁구역 100
▁같으 100
▁빠졌다 100
▁확대 100
▁무겁고 100
▁세일해서 100
▁고맙고 100
▁시비 100
남았다 100
하신다 100
▁드려 100
개념 100
▁끊었다 100
▁댕 100
▁안먹는다 100
치곤 100
▁갈건데 100
▁그만두는 100
▁괜찮을까 100
▁보느라 100
▁손목이 100
▁달렸 100
▁먹이고 100
쫓 100
됩 100
구워 100
맬 100
꼰 100
▁디퓨저 100
▁머릿결 100
▁킥보드 100
▁트렁크 100
샛 100
쨰 100
챔 100
촤 100
홋 100
ᆢ 100
▁드럽게 100
▁처갓집 100
▁쾌변 100
▁답정너 100
▁사마귀 100
▁상여금 100
▁퉁퉁 100
▁불면증 100
▁워터파크 100
▁청포도 100
▁경상도 100
▁두려워 100
▁도토리 100
▁부른다 100
▁할무니 100
▁을지로 100
▁정신차려 100
▁산거야 100
▁햄스터 100
▁다닐때 100
▁어땟 100
▁출처 100
▁얼룩 100
▁카뱅 100
▁늦는다고 100
▁웃겼다 100
음악 100
▁닭다리 100
▁소용없 100
겤ᄉ 100
기로함 100
▁사왔어 100
▁비교해 100
▁서산 100
▁갖고싶 100
▁그래놓고 100
▁스몰 100
이라는게 100
▁사려는 100
▁안챙겨 100
▁연출 100
▁왜저러 100
▁취업하면 100
▁아메리 100
ᄀᄀᄀᄏ 100
▁버티고 100
▁잘먹고 100
막혀 100
단발 100
▁맞으러 100
▁생각해보고 100
▁입덕 100
마크 100
느라고 100
▁한줄 100
수가없어 100
▁세우고 100
▁톰 100
▁보람이 100
▁가져올 100
▁망치 100
뜨면 100
▁128 100
▁전동 100
▁위치는 100
▁짐은 100
이쁨 100
▁해야겠네 100
지나서 100
▁재밌는데 100
흘리 100
▁깨끗하 100
▁바뀌어 100
긋네 100
▁넘넘 100
▁권유하고 100
보냈어 100
▁신체 100
▁스님 100
▁캡쳐해서 100
▁귀찮지만 100
▁워홀 100
▁샀었 100
▁쫌따 100
▁공부하다가 100
봤지만 100
▁빼박 100
▁카메라를 100
▁국민카드 100
▁녹화 100
그렇다 100
뭐얔ᄏᄏᄏᄏ 100
살인데 100
▁조심히와 100
꾸미 100
▁따른 100
▁내려와서 100
▁정도의 100
▁비행기표 100
▁몸무게가 100
▁동래 100
안댐 100
▁끝난다 100
▁울아빠 100
▁밀렸 100
오오오오 100
뮬 100
찼 100
짖 100
▁엉ᄏᄏᄏᄏ 100
▁기다리면서 100
노트북 100
깜짝 100
비싼거 100
▁귀찮음 100
ma 100
▁자기얌 100
쿠션 100
▁사려면 100
-5 100
▁불편하고 100
▁그러더니 100
▁오픽 100
존예 100
▁갈아입고 100
같으면 100
▁이건데 100
댓글 100
티브 100
▁싫으면 100
▁잡는다 100
다니다가 100
▁보겠다 100
거가터 100
▁부피 100
말씀 100
▁채우고 100
▁슬프다고 100
▁박살 100
▁멜로 100
▁그딴 100
▁기대되 100
▁삼천원 100
올림 100
▁짜증나게 100
▁사랑을 100
▁싸면 100
▁안나서 100
말대로 100
약국 100
▁~^^ 100
▁빡시 100
하필 100
▁반죽 100
^^; 100
▁결제한 100
▁저렴하고 100
비밀 100
▁참아야 100
엄마한테 100
▁참았 100
▁끓여서 100
떨어뜨 100
▁오지마 100
▁위기 100
▁미래에 100
~~~!!! 100
▁가깝다 100
▁쪼리 100
▁아고다 100
▁누나한테 100
▁비하면 100
▁오옷 100
▁정하자 100
대표 100
준비중 100
▁필요는 100
분씩 100
▁걔네가 100
▁누워만 100
▁안춥 100
▁허용 100
혔다 100
▁고려해 100
▁쉬니까 100
년뒤 100
▁아프네 100
주는거야 100
▁통에 100
선생 100
하구와 100
▁민초 100
미니 100
~7 100
싶긴한데 100
▁스트레스받아 100
▁울산에 100
뉸 100
▁아헐 100
▁대표가 100
맙 100
주시면 100
밋 100
▁천만 100
▁두가지 100
▁47 100
권한다 100
▁보람 100
mm 100
▁MBTI 100
▁마켓컬리 100
▁박효신 100
▁업그레이드 100
▁오므라이스 100
▁후드집업 100
롷 100
샜 100
쑴 100
퉤 100
▁대한통운 100
▁청국장 100
▁배고팡 100
▁클래식 100
▁청양고추 100
▁마카오 100
▁아쉬움 100
▁캣타워 100
▁체지방 100
▁폐쇄 100
▁휴양지 100
▁귀여웡 100
▁오께 100
▁모른척 100
▁빈속에 100
▁잠잠해 100
▁쓸모없 100
왓엉 100
▁질문이 100
▁중고거래 100
▁쓰긴 100
▁돌돌 100
▁이럴수가 100
▁떠오르 100
▁재촉 100
▁소소하게 100
▁뒤늦게 100
▁2021 100
▁훈제 100
▁기억하고 100
▁앵간 100
▁스케줄이 100
▁생리통이 100
▁조낸 100
▁다녀오면 100
▁애인에게 100
▁얼추 100
봅세 100
아놔 100
▁면봉 100
▁알려주자 100
▁알파 100
▁나오는지 100
▁그러겡 100
▁누어 100
▁승질 100
▁배에서 100
▁찢 100
▁두군데 100
▁그니깤ᄏᄏᄏᄏ 100
▁재현 100
▁넘길 100
▁헬스장에 100
▁풀어서 100
▁난오늘 100
▁있었지 100
▁큽 100
▁듣다가 100
▁안왔어 100
te 100
▁싸가지 100
▁월요일은 100
층으로 100
▁쉅 100
▁공통 100
▁헤어지면 100
없니 100
▁입는다 100
▁전해줘 100
그레이 100
▁어렸을때 100
▁너므 100
▁카라 100
▁지났는데 100
▁술마시고 100
올라와 100
소리야 100
쓴다고 100
곸ᄏᄏᄏᄏᄏᄏᄏ 100
▁대천 100
▁쓰기로 100
▁입으려고 100
시간반 100
▁중이라며 100
▁근까 100
▁젛 100
▁만들지 100
▁양양 100
▁유전자 100
▁금요일까지 100
▁주문했어 100
▁귤을 100
좋으 100
▁예시 100
▁수시로 100
▁썰어 100
▁삐진 100
▁놔뒀 100
기엽 100
▁마루 100
▁지하철타고 100
나오지 100
쳣어 100
헛 100
▁그랬으면 100
▁대구는 100
젛 100
: 100
앖 100
쩝 100
▁남겼 100
▁캐리어에 100
시리즈 100
엘베 100
놔라 100
버섯 100
▁고작 100
▁물린 100
하듯이 100
▁신청했는데 100
▁아닠ᄏᄏᄏᄏᄏᄏ 100
▁달라진 100
▁열라 100
일어낫 100
개정도 100
▁알았으 100
▁심심할 100
▁정보가 100
겟니 100
▁키트 100
▁공유해 100
▁연하 100
덕후 100
▁콧물이 100
봐야겟 100
▁창문이 100
▁타는데 100
먹었나 100
멀리 100
▁영문 100
▁잘됐네 100
▁보내자 100
▁재미있어 100
▁ᄐᄏᄏ 100
질때 100
▁저장해 100
▁후회하고 100
내놔 100
▁입술이 100
줄수있어 100
▁사진들 100
반응 100
하는사람들 100
▁할매 100
▁보호자 100
▁똑같다고 100
▁물어본다고 100
▁전구 100
아팟 100
▁이따봐 100
이네여 100
▁샀지만 100
▁똑같네 100
▁팔더라 100
▁뭐먹었어 100
니깤ᄏᄏᄏᄏ 100
▁지겹 100
걸수도 100
▁사야할 100
▁사다주 100
▁서운한 100
▁풀릴 100
바께 100
▁엎 100
▁만든다고 100
▁안맞아서 100
▁참는다 100
▁신청하고 100
▁읽기 100
▁돌아가셨 100
▁넓어서 100
해놔야 100
▁앱을 100
▁신기하고 100
▁신경쓰여 100
▁우등 100
▁취해 100
▁운동장 100
▁레이드 100
맞은 100
▁내려갔 100
해졌다 100
▁정말루 100
▁소진 100
▁맞는말 100
▁뭔디 100
주셨어 100
▁되는게 100
▁브리 100
버렷어 100
▁V 100
▁투썸플레이스 100
▁프로모션 100
읔 100
▁보이스피싱 100
▁순식간에 100
▁유투버 100
▁허겁지겁 100
궜 100
젝 100
▁결혼기념일 100
▁카니발 100
▁편두통 100
▁구애인 100
▁버텼 100
▁재난문자 100
▁무의식 100
▁룸메이트 100
▁삼성페이 100
▁생일축하 100
▁등의 100
▁살리 100
먹지말고 100
▁돌아다닐 100
▁하반기 100
▁카드지갑 100
▁양념치킨 100
▁커피한잔 100
▁따듯한 100
▁낭만 100
▁단호하 100
겠찌 100
한척 100
▁헤어지는 100
▁섬세 100
했겠지 100
제작 100
▁생존 100
적인거 100
대전 100
▁월드 100
▁광대 100
▁잎 100
▁골라달라고 100
▁가는거지 100
▁속에서 100
▁권유한다 100
▁혼란 100
▁화려하 100
▁외에 100
▁플래 100
▁미정 100
▁구경해 100
▁가져가야 100
▁들린다 100
▁임원 100
▁그래그랭 100
▁기엽다 100
놧어 100
식사 100
꿈꿨 100
▁마쳤 100
글씨 100
▁귀차나서 100
▁즐기는 100
▁사용하면 100
웠던 100
본적없 100
▁비건 100
▁드셨 100
▁잼께 100
▁티비로 100
볼수있 100
▁툭 100
▁위메프에서 100
▁야호 100
▁친구들에게 100
▁올림 100
▁ᄋᄉ 100
▁부러운 100
▁오이도 100
▁월루 100
▁케이크는 100
▁그러겠지 100
잠그고 100
▁제약 100
▁풀리는 100
했었다 100
▁피디 100
▁링거 100
▁이뽀 100
질않 100
▁느리다 100
▁장애 100
▁채점 100
▁운전해서 100
▁여름옷 100
▁놈들 100
▁느리게 100
▁강의가 100
▁사야하는데 100
▁헐진짜 100
▁심각하 100
하라는데 100
▁동행 100
웃경 100
▁편함 100
쁘 100
▁너희집 100
▁장사가 100
잘자 100
▁다쳤 100
냨ᄏᄏᄏᄏ 100
▁생강 100
머해 100
미안해 100
낰ᄏ 100
▁받을수있 100
▁없어지는 100
▁벌었 100
저러 100
쪘 100
ᄋᄏ 100
▁부업 100
맘대로 100
될때 100
▁어른들이 100
▁간지나 100
캡 100
▁과천 100
▁락스 100
▁습도 100
꽉 100
딥 100
잇을때 100
▁사촌언니 100
삼겹살 100
▁맛있네 100
▁걔한테 100
▁언젠 100
▁마신다고 100
레인 100
▁더러워서 100
▁J 100
앉아서 100
77 100
▁커플이 100
짘 100
찍음 100
▁문제라고 100
▁수염 100
▁배우들 100
▁땡겨서 100
비쌈 100
▁잘해떠 100
토스트 100
▁필요한지 100
입은거 100
더랔ᄏᄏᄏ 100
▁볼라고 100
▁봐써 100
▁오늘하루 100
▁식욕이 100
▁시장에 100
▁시작했는데 100
야되는디 100
건아닌데 100
낫는데 100
▁맛있어보이 100
▁이율 100
▁알리에서 100
검진 100
▁재밌는거 100
귀신 100
아잉 100
▁죽겠 100
▁안나와서 100
▁돈내고 100
심하게 100
남편 100
▁나을까 100
▁난다며 100
▁자전거타 100
ᅡᄋ 100
▁남부 100
깨서 100
▁잇대 100
▁니네집 100
▁잘찍 100
▁수프 100
▁나이스 100
원이라고 100
▁발급받 100
▁강추 100
일정도 100
▁사치 100
▁남한테 100
하던거 100
불러서 100
▁나왔네 100
필요하 100
▁울었어 100
5% 100
▁그러냐 100
▁잠든 100
▁줬으면 100
좋앙 100
잇더라 100
▁우리나라에서 100
▁챙기는 100
먹으려 100
대화 100
▁있겠어 100
어캐 100
보내준 100
아니라고 100
▁치료받 100
할거라 100
후반 100
코코 100
는거보다 100
▁생각하니 100
번호로 100
▁삐졌 100
▁의견이 100
웩 100
컥 100
가는길에 100
섹 100
낑 100
▁닉네임 100
▁드레싱 100
▁뾰루지 100
▁시무룩 100
▁주택청약 100
궤 100
낵 100
▁바리스타 100
▁식은땀 100
▁인스턴트 100
▁토이스토리 100
▁병문안 100
▁꽃다발 100
▁귀요미 100
▁아구찜 100
▁원플원 100
▁ktx 100
▁수분크림 100
▁요플레 100
▁일러스트 100
▁불륜 100
인줄알았 100
▁건강보험 100
▁신경치료 100
▁논술 100
▁할만하 100
▁얜 100
▁정확하 100
▁필기시험 100
▁잠이안와 100
▁새마을 100
댘ᄏᄏᄏᄏ 100
▁머리자르 100
▁소득세 100
▁신호등 100
▁감자를 100
▁꺾 100
▁어디갈지 100
난당 100
▁웃곀ᄏᄏᄏ 100
▁말하는게 100
▁r 100
▁일주일동안 100
▁직빵 100
▁기달려 100
▁나올거 100
▁안간다고 100
공연 100
▁영웅 100
허리 100
▁으른 100
엊ᄉ 100
▁운행 100
▁넣었어 100
▁눈감고 100
▁스트레 100
▁퇴근하구 100
▁건물주 100
▁녹여 100
▁뛸 100
▁해본다 100
▁봐야해 100
▁쓸데 100
갈거임 100
▁사무직 100
갓나 100
▁낮엔 100
▁떼어 100
▁시끄러워서 100
잤는데 100
▁즉 100
▁병행 100
맥스 100
▁맛잇다 100
▁신청해야 100
안하는데 100
▁제외하고 100
▁공제 100
갔다왔어 100
▁혜리 100
멤버쉽 100
▁하는디 100
▁저럴 100
▁감성이 100
▁보내줌 100
▁삼전 100
수없다 100
▁무난하게 100
▁이야기하는 100
물어볼 100
▁딱이네 100
▁누난 100
먹구싶 100
▁그것은 100
일요일 100
▁30% 100
▁떙 100
치우 100
해줘야지 100
▁삭제된 100
▁안되어 100
졸귀 100
ᄀᄀᄏᄀ 100
▁선반 100
비치 100
만이라도 100
▁흥분 100
▁않다는 100
차단 100
▁개존맛 100
▁맘마 100
▁불러야 100
▁클라 100
▁장거리 100
편한 100
수원 100
진짴ᄏᄏᄏᄏᄏ 100
▁상금 100
▁급해서 100
▁쌩얼 100
▁저금 100
▁먹고시퍼 100
비빔 100
▁램 100
▁안나는데 100
▁안먹는 100
▁연락옴 100
간단 100
▁교수님들 100
아이스크림 100
▁잘못해서 100
▁상식 100
▁먹고싶음 100
아무것도 100
▁오른다 100
큐브 100
▁키키키 100
▁예정인데 100
▁재밌더라 100
라이브 100
알려줄 100
세개 100
▁서양 100
없잖아 100
▁충전이 100
맛난거 100
▁회전 100
▁어제오늘 100
▁그렇긴해 100
▁어른이 100
갈수 100
▁있겠네 100
▁끌리 100
▁신나는 100
그랫어 100
▁해외에서 100
읽씹 100
▁애기때 100
예전에 100
▁강하게 100
앜ᄏ 100
▁산책하고 100
울려 100
▁목표는 100
▁까비 100
ᄀᄀᄀᄀᄏ 100
▁뱅 100
최애 100
느냐고 100
대답 100
치우고 100
▁줄었 100
이러고 100
▁안들어오 100
▁사야겠어 100
▁따뜻하고 100
▁막말 100
들려서 100
▁성당 100
▁망했다고 100
▁받을수 100
장갑 100
▁시동 100
▁근무시간 100
▁곳인데 100
▁궁금하다고 100
▁쪘다 100
▁한곳 100
▁통으로 100
ᄋᄋᄋ 100
샀지 100
▁안할래 100
다닌다 100
▁마시면서 100
▁켜지 100
▁뜯어서 100
▁뽑는다 100
▁깨졌 100
▁할거없 100
▁버렸어 100
▁글킨 100
▁없을걸 100
▁도착함 100
▁멋있다고 100
으니께 100
레기 100
▁모드 100
욬ᄏᄏᄏᄏᄏᄏᄏ 100
▁패치 100
▁6000 100
▁햇빛이 100
그랬나 100
▁구슬 100
▁앜ᄏᄏᄏᄏᄏᄏᄏᄏᄏᄏᄏᄏ 100
▁키운 100
▁이러는거 100
▁힘들었어 100
수도있고 100
▁금주 100
▁즐기고 100
▁넘어가는 100
▁해먹고 100
스팅 100
▁외국인들 100
▁넣어줘 100
만나고 100
▁소유 100
앨 100
!!!!!!!!!!!!!! 100
되거든 100
▁가냐 100
▁방울토마토 100
🥺 100
▁괘아나 100
▁오래간만에 100
▁카카오뱅크 100
▁펭귄 100
▁홈런볼 100
뻑 100
솟 100
▁디카페인 100
▁진ᄆ자 100
▁ᄏᄏᄏᄏ웅 100
▁두드러기 100
▁젤라또 100
▁재채기 100
▁틴트 100
▁예식장 100
▁별로였어 100
▁히힣 100
▁익숙하 100
▁줘야지 100
▁플렉스 100
▁레포트 100
느려 100
▁학자금 100
▁크흡 100
▁데려오 100
▁캐롤 100
▁롯시 100
▁연달아 100
▁홀리데이 100
▁블투 100
▁포샵 100
▁생리컵 100
▁긴바지 100
▁아홉 100
▁모델이 100
▁너무너무너무 100
▁준비물 100
▁온다는데 100
▁맥스 100
▁쉬어요 100
거같기두 100
▁뉴스에서 100
▁돌아다니는 100
▁5-6 100
아니냐고 100
▁외주 100
▁늙어 100
▁목욜날 100
▁애착 100
▁살까말까 100
▁힘들텐데 100
▁내맘대로 100
▁찾으 100
▁계약금 100
필수 100
▁악플 100
▁오르는 100
▁4~5 100
심사 100
▁저번엔 100
▁대접 100
돌림 100
▁왼 100
▁가넝 100
▁만료 100
▁잦 100
▁군대에서 100
▁봤지만 100
수있나 100
▁양성 100
▁상담받 100
▁들으러 100
▁백원 100
▁수저 100
▁그럴게 100
▁개소리 100
▁난리네 100
▁고마어 100
▁보고있어 100
▁다른것도 100
어른 100
하묜 100
부끄 100
사갈까 100
잔데 100
▁이재 100
▁쉬는데 100
▁사모님 100
▁것들이 100
▁보이네 100
▁주셨다 100
▁당일치기로 100
▁않으니 100
알리 100
▁고장난 100
▁챙기라고 100
▁원피스가 100
마치고 100
봨ᄏᄏ 100
▁ᄏᄏᄏᄏᄏᄏ나도 100
▁보내달라 100
▁발표가 100
▁다섯시반 100
했더 100
▁동반 100
▁잘못하면 100
▁내려놓 100
▁일한다 100
▁윌 100
▁상관없다고 100
▁잘몰라 100
▁청담 100
마잨ᄏᄏᄏ 100
▁정자 100
▁산소 100
다른데 100
▁몇년전 100
▁심한데 100
▁말까지 100
▁우리아빠 100
▁껴야 100
▁가능해서 100
▁식대 100
▁외워야 100
▁습해서 100
▁동숲 100
슨데 100
▁얼마주고 100
▁머리색 100
▁프듀 100
▁오눌 100
한티 100
▁까먹었다 100
▁과일을 100
윗 100
▁잃었 100
썸 100
▁이번달은 100
안보고 100
▁먹었니 100
토마토 100
야되니까 100
알아봐 100
▁열려있 100
바꿨 100
▁즙 100
▁생각하며 100
쓰리 100
▁기다린다고 100
▁지르고 100
알아보 100
▁탈까 100
업ᄀ 100
싶은뎅 100
학습 100
▁h 100
ss 100
▁사려는데 100
▁열개 100
▁올려놓 100
▁톨 100
햇잖아 100
▁자체는 100
▁토르 100
▁궁금하네 100
수잇음 100
할수록 100
▁호불호 100
▁일어나니까 100
▁고생했네 100
웃곀ᄏᄏ 100
▁알았어요 100
아니에요 100
▁사용한 100
▁인구 100
탓어 100
▁해야할듯 100
▁센터에 100
꾸나 100
▁드렸 100
▁갖고싶다 100
▁해줘야지 100
▁히히히 100
▁필요함 100
▁네비 100
▁옛날에는 100
▁대출을 100
▁축구를 100
▁바스 100
▁사진이랑 100
▁안주는 100
▁만들었다고 100
▁설날에 100
짧아 100
▁저런건 100
▁야구를 100
▁집단 100
▁놀랐다고 100
▁누나의 100
▁가고있 100
정두 100
▁내려올 100
▁아침까지 100
▁세대주 100
▁안먹어도 100
냄새가 100
책상 100
▁안보여서 100
▁떡볶이랑 100
▁남자들은 100
겟구만 100
▁겪어 100
▁다와가 100
▁방식이 100
▁사드리 100
▁엌ᄏᄏᄏᄏᄏ 100
▁오디야 100
제안하고 100
들었다 100
▁불안한 100
얔ᄏᄏᄏᄏᄏᄏᄏ 100
▁기름진 100
▁| 100
붙어서 100
힌거 100
▁왔을 100
▁공부해서 100
갈색 100
▁같았다 100
팸 100
▁무상 100
하던가 100
▁마그네슘 100
▁슈프림 100
▁아리따움 100
▁폴라로이드 100
▁호르몬 100
꿰 100
렐 100
뷴 100
첼 100
▁수련회 100
▁이삭토스트 100
▁컵누들 100
▁설문조사 100
▁삼각김밥 100
▁현대백화점 100
▁끊어서 100
▁뛰쳐나 100
▁김밥천국 100
▁멍때리 100
▁코스프레 100
누워 100
하는거같아 100
▁초코우유 100
▁도와달라고 100
▁예측 100
땈 100
▁의논하고 100
▁평창 100
▁폭염 100
▁뒷자리 100
▁다음부터는 100
단계로 100
▁닭고기 100
▁반띵 100
뉸데 100
▁커플링 100
▁바뀌고 100
▁검토 100
▁우짜노 100
▁족보 100
▁보세 100
소주 100
▁않았냐 100
▁단품 100
▁잘햇다 100
마셔서 100
많지 100
하셨어 100
뚝뚝 100
▁넣으라고 100
햇당 100
▁집어넣 100
하공 100
▁포크 100
▁컬리 100
▁업어 100
▁낳아 100
▁후후후 100
▁끓 100
▁남자친구와 100
▁신청했 100
▁만들어준 100
▁평가한다 100
▁점프 100
▁미쏘 100
▁돈좀 100
▁약해서 100
▁동태 100
▁나이를 100
▁작은데 100
▁출발해야 100
▁봤냐고 100
▁그랫는데 100
▁그런식으로 100
▁때문이라고 100
▁키즈 100
▁버스탔 100
▁미치겠어 100
▁축가 100
▁아무렇지 100
뻔뻔 100
꿔 100
▁숙성 100
▁충분해 100
▁언젠가는 100
▁다녀왔어 100
▁아메리카노를 100
짘ᄏ 100
ᄐᄏᄏᄏᄏᄏ 100
▁갔네 100
▁밥먹을때 100
▁단톡방에 100
지않았나 100
▁주문했 100
▁신사 100
▁코너 100
▁사소한 100
▁알려주며 100
우리여보 100
▁놈이 100
▁잇냐 100
공감 100
▁개쩌 100
시켜줘 100
▁멘트 100
가득 100
▁공부방 100
고얌 100
날리 100
▁당해서 100
▁신의 100
▁없었음 100
▁3500 100
겈ᄏᄏᄏ 100
과장님 100
▁추진 100
헬 100
▁맑은 100
▁뺴 100
▁눈감 100
▁살걸 100
▁닦았 100
귤 100
▁편이야 100
▁됬 100
뺀 100
펄 100
에어컨 100
▁각오 100
체험 100
▁어쩌면 100
도착했 100
커리 100
남겨 100
야겠따 100
으몀 100
▁칭 100
▁삐져 100
▁아맞네 100
▁조으 100
▁결혼해서 100
셀카 100
▁알려달라 100
▁조용해 100
▁마다 100
러버 100
갔다옴 100
나온대 100
볼듯 100
▁동원 100
▁낫겠 100
▁출근길 100
피트 100
▁좋네요 100
▁비오고 100
▁말해보 100
▁감사해 100
▁연관 100
▁긴거 100
한대서 100
▁정리해야 100
안돼서 100
볼땐 100
▁잘했엉 100
????????????? 100
▁매너 100
찢어 100
▁좋냐 100
▁콘서트를 100
챙겨먹 100
▁그것두 100
▁가야징 100
▁뭐먹을까 100
▁* 100
▁풀린 100
분들이 100
▁고문 100
▁바쁘네 100
말이지 100
현실 100
줄테니까 100
쓰는게 100
▁좋아하나 100
▁길면 100
먹으려구 100
겟소 100
먹으려면 100
▁배우면 100
▁그것을 100
끄럽 100
▁뿌려서 100
,500 100
듣는데 100
착해 100
낰ᄏᄏᄏᄏᄏᄏᄏ 100
▁집에있는 100
조은데 100
▁공부중 100
순환 100
잠옷 100
▁우려 100
▁붙고 100
▁얻었 100
▁쿵 100
▁생겼네 100
▁사설 100
한거같은데 100
먹고싶은데 100
▁우한 100
방법이 100
▁냈는데 100
▁유명하다 100
▁가튼 100
공개 100
에엥 100
었을때 100
쎀ᄏᄏᄏᄏ 100
되냐고 100
▁걸어가면 100
넼ᄏ 100
큰데 100
▁실내에서 100
힣 100
▁팔릴 100
▁풀어야 100
ᄋᄅ 100
▁있었거든 100
버티 100
▁됐으면 100
싳다 100
테일 100
▁엎어 100
먹었니 100
▁학원비 100
해야되서 100
▁놓으라고 100
▁붙일 100
ri 100
▁그늘 100
▁주유 100
▁갚아 100
▁줄여서 100
고싶은거 100
▁페인트 100
▁찹쌀 100
▁mbti 100
▁연금복권 100
▁윷놀이 100
▁차근차근 100
괄 100
릐 100
▁등장인물 100
▁프로듀스 100
▁데릴러 100
▁충무로 100
▁간헐적 100
▁공동구매 100
▁나훈아 100
▁찡찡 100
▁뽀글이 100
▁태어났 100
▁지팡이 100
▁쪼꼼 100
▁경주월드 100
▁디즈니랜드 100
▁스냅 100
▁떡갈비 100
▁슬푸 100
▁비상금 100
▁아니었다 100
▁면세에서 100
▁드라이버 100
▁찬열 100
▁홍대에 100
ᄉ다 100
크리 100
▁쟨 100
▁흡연 100
▁피부과에 100
▁귀욥 100
▁줄넘기 100
▁도착예정 100
▁효도 100
▁밥그릇 100
▁변태 100
▁시흥 100
▁미틴 100
▁소액 100
▁아는척 100
▁나내일 100
▁사려구 100
▁내려가면 100
▁저한테 100
▁오케잉 100
▁거슬리 100
▁좋았을 100
▁예방접종 100
▁따숩게 100
▁머시기 100
넘기 100
▁머리띠 100
오뎅 100
▁돌아가면서 100
뱅이 100
터진 100
▁닥스 100
▁시켜먹을 100
▁마늘빵 100
▁옷들 100
▁돌려받 100
년이나 100
▁알아보려고 100
▁책임감 100
▁잘어울릴 100
▁만보 100
▁아이린 100
▁나가니까 100
▁맺 100
▁두께 100
싶은디 100
▁신한카드 100
▁지난달 100
▁오로라 100
▁나가는거 100
▁이자식 100
월말까지 100
사줄게 100
▁어린이날 100
▁혈관 100
나보지 100
▁떠올리 100
▁가격으로 100
▁있을텐데 100
▁특정인 100
▁왜이러지 100
놓는다 100
▁사줌 100
도착하면 100
버터 100
▁밤엔 100
▁애용 100
켜서 100
▁느껴지는 100
▁참았다 100
▁떨고 100
▁회의를 100
▁고기집 100
해준거 100
되믄 100
▁힘들긴 100
허허 100
▁징그러워 100
▁루트 100
▁발라드 100
궁금해 100
▁같으니까 100
먹었어요 100
▁다녔는데 100
▁다쳐서 100
▁쪼개 100
▁해리 100
▁질릴 100
체력 100
▁보내줘야 100
하규 100
▁강조 100
▁쉐이크 100
▁식감 100
주셔 100
▁얹 100
op 100
▁이런말 100
▁마음만 100
▁미쳐따 100
▁조건이 100
▁앜ᄏᄏᄏᄏᄏᄏᄏᄏᄏᄏᄏᄏᄏ 100
하루종일 100
▁셀프로 100
▁멍이 100
도없는데 100
▁끝난다고 100
,900 100
▁내년부터 100
▁너뮤 100
▁as 100
▁추천해준 100
▁대강 100
▁괜찮게 100
▁팩을 100
▁가봐야지 100
▁잡으려 100
▁화정 100
될것같아 100
▁먹어줘야 100
빨간 100
▁지불 100
▁걸러 100
하긴해 100
▁몰랏어 100
▁만기 100
▁없었고 100
▁현실은 100
▁쉬려고 100
있구나 100
요금제 100
▁행복할 100
▁범위 100
말곤 100
▁일곱 100
▁당당 100
ᄐᄏᄏᄏᄏᄏᄏ 100
▁이상함 100
간다구 100
▁다른날 100
▁맛없어서 100
▁흔한 100
되낭 100
▁확실해 100
▁들르 100
▁윈 100
테이션 100
▁스키장 100
▁당근마켓에 100
▁가입하면 100
▁ᄋᄋᄋᄋᄋᄋᄋ 100
▁13000 100
▁새벽까지 100
매일 100
는뎈ᄏᄏᄏᄏᄏ 100
▁시름 100
마주 100
▁못살아 100
해가지구 100
▁월급받 100
▁젊어 100
▁찾는데 100
조앙 100
▁하고있다 100
다녀야지 100
을꺼같 100
▁개힘들 100
▁설계 100
▁노후 100
깈 100
▁얘기했는데 100
월이면 100
▁겹쳐 100
아아아앙 100
▁설에 100
먹어야겠다 100
러브 100
안조아 100
▁수료 100
하는거아냐 100
▁푹쉬어 100
▁77 100
▁연대 100
하악 100
▁엄빠가 100
빠졋 100
▁시점 100
▁말해줘서 100
▁같대 100
▁베리 100
젴 100
쨋 100
캉 100
ᅪ 100
▁구구절절 100
▁싱가포르 100
▁오돌뼈 100
▁오마카세 100
▁짜파구리 100
삥 100
▁태블릿 100
▁보톡스 100
▁커피머신 100
▁탕슉 100
▁선약 100
▁기분이야 100
▁반려견 100
▁숏컷 100
▁캐스팅 100
▁거꾸로 100
▁이잉 100
▁뻐근 100
▁돌아다녔 100
▁효녀 100
▁기출문제 100
▁스윗 100
▁트롯 100
▁퍼즐 100
▁바쁨 100
▁꼬르륵 100
▁상관은 100
▁타르트 100
▁말랑말랑 100
▁자영업 100
▁벤티 100
▁첨삭 100
▁분짜 100
▁장조림 100
▁괜차너 100
낮에 100
ᄐᄐᄐᄐᄐ 100
▁비슷하네 100
▁연필 100
겟삼 100
▁안해봐서 100
모르는데 100
월쯤 100
de 100
-!! 100
▁일하는거 100
▁교보 100
준대서 100
▁읽어봐 100
▁문득 100
▁이딴 100
▁퍼플 100
▁칼퇴근 100
보렴 100
버리게 100
▁아닠ᄏᄏ 100
보낸거 100
▁여유있게 100
▁한달동안 100
▁걷다가 100
▁친해져 100
▁́ 100
▁머리끈 100
▁목표로 100
▁없구나 100
▁회피 100
▁다행이군 100
▁지식 100
▁하얗게 100
▁오르면 100
▁못가고 100
▁치열 100
▁내년엔 100
▁첫날에 100
▁먼소리 100
▁학회 100
▁등본 100
▁마시는데 100
▁오시면 100
▁소송 100
건아니지 100
ᅮᅮᅮᅮᅲ 100
▁보풀 100
▁멋잇 100
▁아까부터 100
▁조화 100
갓다오 100
▁먹을라고 100
었는뎅 100
▁미술관 100
으묜 100
▁하기엔 100
▁있엇 100
▁모든걸 100
빠지면 100
▁도보 100
▁곳이라 100
해준데 100
교정 100
▁그러케 100
▁범계에서 100
▁오래됐다 100
잠시 100
▁다르니까 100
▁괜찮아졌다 100
가까이 100
▁말씀드렸 100
하능 100
▁청정 100
▁잠자리 100
▁@ 100
▁그런곳 100
▁모르겠어요 100
▁감싸 100
▁근로자 100
볼라구 100
▁남자랑 100
▁안써서 100
▁우씨 100
▁해야할지 100
싶기도하고 100
▁진해 100
양말 100
시름 100
▁나은데 100
▁시기에 100
▁종류를 100
▁구직 100
섰 100
냉장고 100
톨 100
쌔 100
ᄀᄀᄀᄀ 100
▁구매해서 100
귀차나 100
차라리 100
힘듬 100
가젤 100
▁나요즘 100
▁발라서 100
골목 100
호호 100
▁당황했 100
▁미쳣네 100
신디 100
▁봤는지 100
▁운다 100
▁가야겠네 100
▁잡힌 100
▁조심하고 100
▁깨질 100
였나봐 100
▁힘들듯 100
▁부여 100
닼ᄏᄏᄏᄏᄏᄏᄏᄏ 100
질거같아 100
▁느낀다 100
▁잔디 100
▁뜬금없이 100
어쩔 100
뒤집 100
▁개편 100
▁카디건 100
아깝다 100
개밖에 100
▁따지면 100
찾고 100
▁마비 100
▁부었 100
머그면 100
▁쓸게 100
▁도마 100
새벽 100
데이트 100
▁잠실에서 100
였군 100
▁연유 100
언니야 100
표현 100
▁맞앜ᄏᄏᄏᄏᄏ 100
생각보다 100
▁부실 100
리얼 100
▁건물에 100
▁바쁘지 100
▁우비 100
▁굶고 100
▁다르더라 100
▁차피 100
▁남들이 100
지는않 100
▁열두시에 100
포카 100
▁ᄏᄏᄏᄏᄏᄏᄏ아니 100
▁달았 100
먼트 100
▁생각하기 100
봐야알 100
▁뺐다 100
▁그시간에 100
갔냐 100
▁늦게오 100
▁들어봤 100
▁말린 100
▁먹어야징 100
▁전달해 100
▁번이나 100
▁막내가 100
▁열시반 100
▁연봉이 100
▁풀로 100
▁어렵게 100
▁안된데 100
▁골랐다 100
봐야할듯 100
는뎈ᄏᄏᄏᄏᄏᄏ 100
▁백일 100
어디로 100
심리 100
빠르네 100
륜 100
▁지나갈 100
웁 100
▁남방 100
끝나구 100
▁까르보 100
▁듬뿍 100
▁렌터카 100
▁본격적으로 100
▁서프라이즈 100
▁세븐일레븐 100
▁주휴수당 100
▁터미네이터 100
꺽 100
맀 100
먿 100
뻣 100
젯 100
▁스릴러 100
▁안어울리 100
겧 100
해수욕장 100
▁골고루 100
▁추카추카 100
▁멈췄 100
▁익숙한 100
스퀘어 100
▁기말고사 100
▁안썼 100
▁키우기 100
▁피자헛 100
▁합리적 100
▁허세 100
▁외로워 100
▁꽁짜 100
▁게시물 100
▁에라이 100
▁쫄보 100
▁뜨거워 100
▁그럴지도 100
▁출출 100
▁괜찮을거 100
부모님 100
▁치즈케이크 100
▁반드시 100
▁다음번에 100
▁청량리 100
▁쓰러져 100
▁가족이랑 100
▁ᄆᄅ 100
▁슬플 100
▁좋잖아 100
▁피로가 100
▁니트를 100
▁미치겠 100
▁최소한 100
사거리 100
▁빠꾸 100
▁아이콘 100
▁특강 100
▁김제 100
놔야겠다 100
▁성별 100
▁ᅲᅲᅲᅲᅲᅲᅲᅲᅲᅲᅲ 100
▁낮추 100
▁칼같이 100
▁삐지 100
▁종각 100
▁개막 100
▁반숙 100
▁ᄏᄏᄏᄏᄏ웅 100
▁튀긴 100
▁하는건가 100
궄ᄏᄏᄏ 100
▁김치랑 100
▁월요일날 100
▁뽑았다 100
▁세일한다 100
하지말라고 100
▁런치 100
▁싶긴 100
▁하는거라 100
▁물어보는데 100
▁하려나 100
~~~~~~~~~~~ 100
▁넷플릭스에서 100
▁언젠데 100
▁문구점 100
▁우렁 100
▁선호하는 100
▁심란 100
▁총무 100
인거같 100
▁넘어갈 100
▁자신과 100
▁오류가 100
▁옮겨야 100
▁걱정하는 100
▁오피스 100
▁지루하 100
▁기다렸다 100
금액이 100
▁개고생 100
엌ᄏᄏᄏᄏᄏᄏᄏᄏᄏᄏ 100
▁빠지지 100
▁똥꼬 100
▁의논 100
구냥 100
▁파운드 100
부부 100
▁가야함 100
군산 100
됐는지 100
▁스무디 100
인거같은데 100
하지않았 100
▁놀아서 100
▁모르나 100
▁이기적이 100
▁비슷하고 100
▁반송 100
보는건 100
▁팔앗 100
▁256 100
매워 100
▁인공 100
▁생각중이야 100
▁목적 100
▁재미있었 100
▁안되냐 100
▁들어가라고 100
▁이용할 100
▁비웃 100
▁끊은 100
▁알겟다 100
▁호호호 100
▁49 100
▁빌리고 100
▁같았어 100
괜 100
▁폈 100
▁볼만한 100
냨ᄏᄏᄏᄏᄏ 100
주셨는데 100
▁궁금하긴 100
▁찾지 100
▁통관 100
깼 100
될까봐 100
눕 100
컨셉 100
▁힘듦 100
▁주며 100
▁울어서 100
스티커 100
하먄 100
▁구입할 100
주제에 100
▁우수 100
▁영역 100
낫나 100
▁치마를 100
▁퀄리티가 100
▁이벤트로 100
▁신청했다 100
▁처먹 100
안봐 100
▁복층 100
▁배고프지 100
▁그런다고 100
▁절라 100
▁자라는 100
▁올랏 100
냈는데 100
▁감사함 100
▁어디갔어 100
▁졸리다고 100
일쯤 100
하려다가 100
진않은데 100
올영 100
머라 100
▁타일 100
▁터미널에서 100
하지말라 100
▁가야해서 100
▁살던 100
▁18000 100
▁나쁘진 100
▁잡혀서 100
먹방 100
가져갈 100
할부 100
갓엇 100
시원해 100
▁꽝 100
라는거지 100
질거야 100
▁도착한다고 100
▁도와주고 100
▁좋더라고 100
▁넷이 100
▁하셔 100
▁정리할 100
천재 100
하누 100
▁보낼까 100
옼ᄏᄏᄏ 100
▁써야해 100
▁본적이 100
▁머사 100
▁직업이 100
▁물어보는거 100
▁담았 100
맘에들 100
▁할만한 100
~~♡♡ 100
▁하겠지만 100
조끼 100
▁차장 100
기다리고 100
▁일어났다고 100
없을때 100
나왓다 100
▁버려서 100
▁별로없 100
▁배정 100
▁가져가면 100
엊 100
겤 100
▁질린다 100
오른다 100
▁말해주면 100
▁기회를 100
갈수잇 100
▁우리팀 100
▁서랍에 100
▁이모들 100
▁잠들었다 100
▁리더기 100
▁해줬다 100
▁ᄏᄀᄀ 100
껍 100
캠프 100
▁오브 100
랔ᄏᄏᄏᄏ 100
떻 100
▁치석 100
▁이상하지 100
성적 100
▁설렁탕 100
▁손흥민 100
곘 100
귯 100
띡 100
쟌 100
쭐 100
톳 100
▁ᄋᄏᄃᄏ 100
▁현수막 100
꺠 100
딤 100
▁테슬라 100
▁현기증 100
▁안마의자 100
▁웁스 100
▁숯불 100
▁사춘기 100
▁뉴스에 100
▁김포공항 100
▁오뚜기 100
▁시국에 100
▁납부 100
▁단무지 100
▁페이스톡 100
는거아니야 100
하기싫 100
▁추리닝 100
▁쭉쭉 100
▁재개봉 100
▁착샷 100
▁안되게 100
▁뮤직 100
▁찍어준 100
▁옷걸이 100
드레 100
▁시사회 100
맞앗 100
ᅲᅲᅲᅲᅲᅲᅲᅲᅲᅲ 100
▁면허증 100
▁폰케이스 100
▁단풍 100
으으으 100
▁모이는 100
▁ᄌ금 100
▁개발자 100
▁존맛이야 100
▁귀찬 100
▁보였다 100
▁맛없을 100
▁든든하 100
▁해준대 100
▁내자리 100
▁누락 100
▁감사링 100
바꾸고 100
▁가더라 100
▁햇엇 100
▁모르겟네 100
▁대단쓰 100
▁충전기를 100
▁감기걸리 100
▁맛있겠당 100
▁뿅 100
▁주륵 100
▁사야겠 100
▁서치 100
되겟 100
▁태리 100
▁들어가니까 100
▁규모 100
▁괜찮니 100
▁놓치면 100
▁가져왔는데 100
▁잉잉 100
▁통보 100
▁개더워 100
▁기냥 100
▁비혼 100
▁만났어 100
ᄒᄒᄒᄒᄒᄒᄒᄒᄒᄒ 100
▁-_- 100
▁호감 100
▁자르면 100
▁설명해주 100
▁열정적 100
▁몇장 100
▁학생회 100
▁샤인 100
▁좋겠지만 100
▁잡았어 100
드립 100
▁우리가족 100
▁감각 100
갔다올 100
▁잘생겼다 100
▁고마운 100
▁말하는거지 100
▁예금 100
갈라구 100
▁성실 100
▁멀쩡해 100
닮앗 100
부렀 100
▁샀냐고 100
▁풋 100
▁생각없이 100
▁다녔다 100
보던 100
▁엉덩이가 100
▁앉으면 100
풀려 100
▁새벽부터 100
▁다음주부터 100
▁힘들더라 100
갔더니 100
▁들렀다 100
▁열받아서 100
구시퍼 100
▁곰탕 100
▁관심을 100
▁쫑 100
▁부사장 100
▁돌아왔 100
▁맵다 100
▁단타 100
글자 100
시럽 100
▁듣는거 100
▁세달 100
▁사진찍어서 100
아버지 100
▁선배가 100
▁결론은 100
▁바뀌면 100
왓오 100
▁안전한 100
낫네 100
문닫 100
였대 100
▁모르것 100
▁괜찮다며 100
▁몇시부터 100
▁코치 100
시설 100
뷔 100
J 100
찻 100
썬 100
읎 100
실까 100
샌드위치 100
▁모르겠어서 100
버릇 100
▁돌아서 100
무거워 100
깨끗 100
었으니 100
▁잇서 100
▁남아있는 100
▁풀어주 100
페북 100
▁간판 100
▁제출해야 100
부른 100
말해줘 100
▁매웠 100
▁했었다 100
▁진급 100
필터 100
▁찾는다 100
▁알았으면 100
▁현장에서 100
▁고픈데 100
▁잘해따 100
▁힘들엇 100
▁미안해요 100
모르겟어 100
▁온다며 100
▁기미 100
▁살찌는 100
▁나방금 100
▁꿨 100
그렇구나 100
반팔 100
▁한학기 100
애들이랑 100
ms 100
페이스 100
▁진하게 100
못먹어 100
먹고싶은 100
▁컴으로 100
▁아침일찍 100
아아아ᅡ 100
▁편입 100
▁구해야 100
▁안좋은데 100
▁아구래 100
만나러 100
년도에 100
▁아직까진 100
▁팔기 100
▁입혀 100
▁놀랍 100
억울 100
볼랭 100
잇는디 100
▁낮잠자 100
▁제니 100
▁어디어디 100
▁약속시간 100
햇엇는데 100
▁크니까 100
갓다와서 100
▁맡길 100
가고있 100
속상 100
▁들어왔다고 100
말하는거 100
65 100
▁올린거 100
센트 100
가고잇 100
▁갈라구 100
▁시끄러워 100
할때까지 100
▁발주 100
▁읽지 100
▁좋아져서 100
몰래 100
뤄 100
▁살다가 100
▁비안오 100
시펑 100
▁조언해 100
▁바비 100
할떄 100
추천해달라고 100
으류 100
냨 100
▁애한테 100
▁막힌 100
▁값을 100
칵 100
▁미스터트롯 100
▁삼시세끼 100
▁주민등록증 100
▁토피넛 100
쿰 100
▁단단히 100
▁포장마차 100
▁움직일 100
▁남양주 100
▁어피치 100
▁영화표 100
▁간당간당 100
▁병아리 100
▁간장게장 100
▁봉사활동 100
▁원숭이 100
▁스트랩 100
랍니다 100
▁아웃렛 100
벗어 100
▁컨버스 100
▁아이맥스 100
▁런닝맨 100
▁지원동기 100
▁뜨끈한 100
▁해본적 100
▁캐시백 100
▁단둘이 100
▁날라가 100
▁비키니 100
▁광광 100
크네 100
갔엉 100
▁3.5 100
▁배아프 100
▁광교 100
▁인하대 100
▁하수구 100
▁세븐 100
▁얼만디 100
▁신세 100
▁알로에 100
▁종목 100
▁플래너 100
▁재밌네 100
생길 100
▁ᄂᄂᄂᄂ 100
▁혜화 100
▁당긴다 100
▁콜센터 100
싫음 100
▁도착햇 100
▁의상 100
▁쫀득 100
▁재발 100
▁정했어 100
▁끝낼 100
했더라 100
▁로드 100
▁그렇담 100
150 100
▁이욜 100
▁얼큰 100
▁관세 100
▁검색어 100
지켜 100
▁룰 100
▁비온대 100
▁쌀국수를 100
쓸때 100
▁퇴근했어 100
분째 100
▁하는것도 100
ᅲᅮᅲ 100
▁노출 100
▁내려야 100
▁녹번 100
▁카톡방 100
▁개짜증나 100
▁있는거지 100
▁그랬나봐 100
▁어땡 100
▁같긴해 100
▁냉장 100
▁술술 100
▁깨어 100
봤으 100
▁돌아다니고 100
봨ᄏᄏᄏ 100
▁고민이라고 100
▁갬 100
▁긴머리 100
월초에 100
먹는건 100
되긴 100
▁용품 100
겟대 100
▁터짐 100
▁아놬ᄏᄏᄏᄏ 100
▁중요한거 100
▁빠졋 100
일뿐 100
▁입히 100
거같으면 100
▁도와준 100
ᄏᄀᄀᄀᄏ 100
▁명단 100
하긴한데 100
▁되나요 100
▁좋겠고 100
벼락 100
▁갑시다 100
개월동안 100
▁알수 100
▁마싯어 100
▁57 100
잡혀 100
▁찍어줘 100
▁오백원 100
▁말로는 100
▁사각 100
▁시키라고 100
▁부장이 100
웅앵 100
▁보건소에서 100
▁오랜 100
▁하기싫어 100
▁죽전 100
나보군 100
▁지속 100
▁다다음주 100
▁보냐 100
양식 100
▁아프니까 100
▁일요일날 100
▁큰집 100
달달 100
받으면서 100
쌩 100
블로그 100
▁하루라도 100
▁생각한다고 100
가까운 100
▁당황스럽다 100
▁분유 100
했나보네 100
보고있어 100
▁먹어용 100
▁공문 100
할아버지 100
입력 100
힘드러 100
▁귀리 100
수욜 100
기다리는중 100
▁네시반 100
▁정신없이 100
햐서 100
▁한가해 100
댔나 100
▁고쳤 100
▁67 100
▁놀랐어 100
▁회장님 100
겄지 100
▁카키 100
삼촌 100
▁만점 100
많어 100
▁고민해봐 100
▁감자전 100
▁쓸때 100
▁따뜻 100
▁전날에 100
휴무 100
▁궁금한게 100
▁장인 100
▁인생의 100
▁왴ᄏᄏᄏᄏ 100
넼ᄏᄏᄏᄏᄏᄏᄏ 100
~// 100
▁부작용이 100
▁부모님은 100
다니는데 100
▁W 100
▁어색해서 100
▁신기하게 100
▁명랑 100
▁출근시간 100
▁나오던데 100
▁사오라고 100
▁보더니 100
▁구석에 100
▁자기에게 100
▁오디서 100
▁아홉시에 100
▁수량 100
▁출근하는데 100
▁갔나 100
챙겼 100
▁어댜 100
하나바 100
▁하락 100
▁54 100
선물로 100
적응 100
▁생긴다고 100
튼데 100
▁짜증났 100
ᅲᅮᅲᅮ 100
▁치과에서 100
분석 100
섴 100
시원하 100
안되네 100
▁고른다 100
주고싶다 100
▁급한거 100
일만에 100
▁아닌가봐 100
▁맛있겠지 100
▁답답하고 100
없지만 100
▁좋나 100
갈거면 100
야대는데 100
▁같은건 100
▁가야한다 100
▁원단 100
접시 100
닙 100
찝 100
븜 100
쥭 100
쫒 100
▁기독교 100
▁스트리밍 100
▁에그타르트 100
▁콜드브루 100
▁텅텅 100
늉 100
😘 100
▁스누피 100
▁월수금 100
▁익선동 100
▁촉촉하 100
▁와장창 100
▁KTX 100
▁중국당면 100
▁남포동 100
▁짝퉁 100
▁케찹 100
▁얼그레이 100
▁세면대 100
▁걱정이야 100
▁개인정보 100
▁평촌 100
▁수목금 100
▁종이컵 100
▁이럴거면 100
▁강렬 100
▁통제 100
▁셀카봉 100
▁부산역 100
▁볼거야 100
▁버틴 100
▁누구누구 100
▁아쉬웠 100
▁핫도그를 100
▁항목 100
▁콱 100
▁기회되면 100
▁디엠 100
▁않도록 100
▁출발한다 100
듣는중 100
잇던 100
▁푸른 100
▁실검 100
▁놀랄 100
▁진료를 100
▁노래부르 100
▁잘자고 100
▁크리스 100
▁체계 100
▁개좋다 100
▁고민즁 100
▁장보고 100
▁살거면 100
▁월욜날 100
▁스카프 100
▁그놈의 100
▁ᄏᄏᄏᄏᄏᄏᄀ 100
▁와닿 100
▁잘랐는데 100
▁놀아줘 100
▁포터 100
▁통계 100
▁화낼 100
▁덜렁 100
▁오오오오오 100
생파 100
▁오키나와 100
▁먹는거야 100
▁푸드 100
▁네명 100
▁기대중 100
▁가자가자 100
▁좋을거같아 100
▁동선이 100
▁죽어서 100
▁없었으면 100
▁과거에 100
▁여행사 100
▁설계사 100
▁그런걸로 100
▁한봉지 100
▁하남 100
많았 100
▁중국산 100
할까바 100
▁사오면 100
드리려고 100
왔나봐 100
▁써봤는데 100
▁지루해 100
▁인간은 100
▁명작 100
▁똘 100
▁추천한 100
▁고름 100
스러움 100
▁비행 100
셨대 100
▁샀네 100
▁특이해 100
▁여봉이 100
▁쓰여있 100
▁괜찮던데 100
▁시작해야 100
▁서명 100
▁기스 100
▁폭주 100
▁공채 100
▁않겠다고 100
▁봤으면 100
▁해주겠다고 100
▁찍었어 100
▁뛰어서 100
▁칼국수를 100
▁소소한 100
▁전송 100
질환 100
▁부부의 100
▁그만둔다 100
▁있으신 100
▁냄시 100
▁무서웠다 100
드려요 100
▁용어 100
▁보려면 100
▁그만뒀 100
다행이네 100
▁개웃긴 100
건아니고 100
▁그게뭐야 100
▁좋아하잖아 100
보쟝 100
떨어질 100
▁이휴 100
▁고냥 100
멍청 100
▁내생일 100
▁되지않을까 100
목록 100
불닭 100
개이득 100
들어올 100
▁얼굴보고 100
▁전후 100
▁없거든 100
업떠 100
▁돌아가고 100
79 100
▁나올까 100
뒀어 100
떨어졋 100
말려 100
믿어 100
▁넷 100
긴햇는데 100
이쁜데 100
미치겠 100
▁그것보다 100
▁자석 100
롯데 100
▁없을때 100
▁뿔 100
▁치워야 100
▁피해자 100
갔다오면 100
불편하 100
하셨어요 100
▁직장인들 100
▁사이비 100
▁이런날 100
▁1.2 100
▁늙었 100
바늘 100
▁사용법 100
마르 100
캬캬캬캬 100
▁낫긴 100
▁금욜은 100
▁기온 100
▁홍시 100
▁끝났다고 100
마넌짜리 100
▁네일을 100
갈려고 100
▁들어오는데 100
욕심 100
▁하려다가 100
▁익혀 100
▁만들라고 100
너무많아 100
▁싫어하는데 100
비비 100
~!~!~!~! 100
▁소바 100
▁뜨거 100
▁내년까지 100
걸리면 100
목표 100
레이드 100
나쁘 100
▁어두워 100
▁고생많았 100
는거아님 100
▁튀기 100
베이스 100
▁인한 100
아니래 100
▁팔라고 100
▁높고 100
▁할배 100
▁>_< 100
▁당첨됐 100
튼튼 100
▁긍정 100
▁다행이라 100
▁배부른 100
▁보내줘서 100
용돈 100
▁개씩 100
▁삼각 100
▁얘기해주 100
홧 100
5,000 100
▁cgv 100
▁라벤더 100
▁바디로션 100
▁브로콜리 100
▁아이언맨 100
▁오락가락 100
▁이니스프리 100
▁일기예보 100
▁카운터 100
깟 100
냬 100
앳 100
윳 100
▁텍스트 100
▁기다료 100
▁유니크 100
▁식도염 100
▁부드러워 100
▁연옌 100
만원이나 100
▁가믄 100
▁추어탕 100
▁계절학기 100
▁한라산 100
▁즐길 100
▁하이마트 100
▁질문하고 100
▁일어나기 100
▁될거같은데 100
▁7-8 100
▁뭥미 100
▁확인할 100
▁생각해보자 100
▁• 100
▁나같아도 100
▁뿌염 100
▁위안 100
▁돌아가서 100
▁렌트카 100
▁느아니 100
▁갈거면 100
▁저러면 100
▁전략 100
햌ᄏᄏᄏᄏᄏᄏ 100
▁튼튼해 100
▁기다려바 100
▁얌얌 100
▁집콕 100
▁불편하지 100
챙겻 100
▁이것들 100
말리 100
▁들어오지 100
▁해주는데 100
;;;;;; 100
▁72 100
▁꼭꼭 100
없으 100
▁원샷 100
돜ᄏᄏ 100
▁굽고 100
▁마지막까지 100
▁사진찍고 100
보였어 100
▁텀블러를 100
▁새로나온 100
▁어두워서 100
할거라고 100
▁에궁 100
▁잘생겨 100
연구 100
▁어제밤에 100
제목 100
미디어 100
▁안전하 100
▁소감 100
▁잇엇는데 100
▁심각하게 100
▁천천히와 100
▁데려다주 100
▁하동 100
▁해놔서 100
▁명란 100
▁카드사 100
▁찾아봄 100
▁쨍쨍 100
▁소장님 100
▁찾아바 100
려규 100
▁몸매 100
가능성 100
ᄃᄃᄃᄃ 100
▁잇슴 100
▁나왔지만 100
피셜 100
▁크긴 100
▁씬 100
▁쓰겠다고 100
배그 100
▁닥치 100
▁꺄아 100
가도돼 100
▁자율 100
▁잠금 100
▁한자리 100
▁시벌 100
정상 100
▁돌아와서 100
▁갈아서 100
▁또르르 100
오름 100
▁통증이 100
▁것이지만 100
▁망해서 100
▁낳고 100
▁입는거 100
▁갈아타야 100
▁박사님 100
▁될것 100
▁전산 100
▁연락왔 100
▁할수도 100
▁쉬울 100
▁여동생 100
야할거같아 100
▁알아보라고 100
▁되겠어 100
▁몇개월 100
▁좋은거야 100
▁이야기하니 100
▁싫다며 100
▁채우면 100
메이커 100
힙 100
펜션 100
껍질 100
▁잡앗 100
▁까먹어 100
▁변동 100
▁해주는거 100
슬리 100
실력 100
▁앜ᄏ 100
낸다고 100
있긴한데 100
데려가 100
▁들어보고 100
▁뽑으면 100
▁계셔 100
▁계획이다 100
▁걸렷 100
▁체력을 100
▁코스트코에서 100
▁ᅮᅮᅮᅮᅮᅮᅮ 100
▁걸린대 100
▁문신을 100
취급 100
고데기 100
as 100
▁덩어리 100
▁아늬 100
▁평일은 100
▁68 100
모아서 100
▁변명 100
▁개설 100
▁없는거야 100
▁말인지 100
슈퍼 100
▁자신감이 100
▁부탁할 100
▁말해줄 100
추울 100
발급 100
기관 100
론데 100
▁쳐봐 100
▁좋드라 100
▁정석 100
중딩 100
빙수 100
▁무음 100
ᄐᄏᄐᄏ 100
▁차트 100
▁생각했던 100
▁타투를 100
▁입을까 100
▁만족해 100
햇던거 100
▁낚 100
야겟군 100
▁st 100
공유 100
넫 100
외워 100
▁독해 100
▁ᄋᄂ 100
나갔어 100
▁등록하고 100
올겡 100
수있는거 100
▁가능하지 100
▁아프지만 100
▁청첩장을 100
▁쓰시 100
▁잘했어요 100
▁낸다고 100
▁부드럽고 100
▁아이허브 100
▁에어비엔비 100
▁자궁경부암 100
▁쿠우쿠우 100
깉 100
▁댑악 100
▁츄리닝 100
▁트럼프 100
▁프리랜서 100
핥 100
▁앰플 100
▁이자카야 100
▁순한맛 100
▁트로트 100
▁같기두 100
▁피규어 100
▁오페라 100
▁월드컵 100
▁히힛 100
▁뼈해장국 100
▁트렌치코트 100
▁라운지 100
▁예고편 100
▁골뱅이 100
▁훈훈 100
▁외삼촌 100
졋네 100
▁화장솜 100
▁뮤슨 100
떨려 100
▁기분나빠 100
▁까먹을 100
▁수학여행 100
▁옥희 100
▁허거덩 100
▁어디갓 100
▁식탐 100
▁번갈아 100
▁알아보자 100
▁아침밥 100
▁형광 100
▁퇴근길 100
▁고객센터 100
▁안본지 100
▁기분탓 100
▁짜릿 100
▁말도안돼 100
▁꾸덕 100
▁끊는 100
▁올라옴 100
▁대학병원 100
▁스테이 100
표시 100
▁ᄂᄃ 100
▁썩은 100
▁굿잡 100
▁안가봐서 100
▁색칠 100
짧은 100
▁홈피 100
▁노숙 100
▁쥐포 100
▁놓칠 100
먹었다고 100
▁폭력 100
▁구라치 100
▁궁금해하자 100
는거같던데 100
아ᅡᅡ 100
▁배변 100
▁옵 100
▁프라푸치노 100
▁잉크 100
▁무슨소리야 100
▁생각났어 100
▁도매 100
▁뒤쪽 100
있을듯 100
볼게여 100
태우 100
▁월요일까지 100
▁관상 100
▁1300 100
잇겟 100
▁생생 100
▁고치고 100
▁방법은 100
▁아이들은 100
▁애쉬 100
▁버텨야 100
▁섞인 100
▁한바퀴 100
▁한결같 100
▁우편으로 100
▁음원 100
▁보호대 100
쎀 100
▁심어 100
▁대처 100
▁아깝지 100
▁대량 100
▁내폰 100
▁명절에 100
▁묶어서 100
▁새로운거 100
▁돈받 100
생겻다 100
▁했나봐 100
하다보면 100
자낰ᄏᄏᄏ 100
▁일하느라 100
▁제본 100
▁안경점 100
▁불편함 100
▁마싯겟다 100
이에용 100
▁목티 100
▁수면제 100
▁추억을 100
▁부탁해서 100
파스 100
▁장보러 100
▁맞앜ᄏᄏᄏᄏ 100
파바 100
▁저렴하다 100
▁망원 100
녔 100
▁명치 100
▁불렀다 100
먹쟈 100
▁반짝이 100
▁난리치 100
▁뛰면 100
거가틈 100
엇으면 100
빠진다 100
▁소개팅을 100
해줬는데 100
▁웃긴거 100
▁얇고 100
▁여신 100
고시픈 100
하지말래 100
하지않냐 100
▁없는뎅 100
▁없길래 100
훌쩍 100
아울렛 100
복숭아 100
옥수수 100
힘듦 100
위주로 100
▁못먹음 100
▁괜찮은거같아 100
▁잊을 100
잔뜩 100
▁저녁시간 100
호흡 100
▁셋다 100
▁먹으러가자 100
갈거같아 100
레벨 100
▁아닌것 100
준거야 100
▁앱으로 100
삼겹 100
오래걸리 100
추운데 100
▁팽 100
▁본인들 100
▁불편하다고 100
▁욕구 100
▁잃어버렸다 100
힘든데 100
▁빌리는 100
▁시기가 100
▁천안에서 100
▁세일하는 100
▁야식으로 100
▁갚아야 100
평일 100
누워있 100
허허허 100
하슈 100
▁빵이랑 100
▁연락줘 100
▁말로만 100
▁났고 100
▁뻘 100
▁전골 100
▁목동 100
▁키워드 100
▁분들이 100
▁조지고 100
토끼 100
것같기도 100
메달 100
▁매점 100
▁주려 100
▁버스비 100
뻔했어 100
▁ᅲᅮᅲ 100
▁바로앞 100
▁틀어놓 100
생겼는데 100
▁동시 100
▁업체에서 100
왘ᄏᄏᄏ 100
팔찌 100
▁없당 100
▁연상 100
▁한팩 100
▁해야하는거 100
▁무심 100
흐규 100
▁모바일로 100
햇눈데 100
39 100
식빵 100
▁빠져나가 100
아니니까 100
▁저녁때 100
▁비비고 100
마취 100
▁중반 100
▁떠나서 100
댘ᄏᄏᄏᄏᄏ 100
▁쓰여 100
▁해줬는데 100
▁먹쟈 100
으으 100
▁얼집 100
놓으라 100
맞앜ᄏᄏᄏ 100
지말어 100
▁따숩 100
볼걸 100
안난다 100
▁왜그러냐 100
▁예매했다 100
▁등갈비 100
▁학사 100
짘ᄏᄏᄏᄏᄏᄏᄏᄏ 100
▁루머 100
버스타 100
릴까봐 100
▁예뿌다 100
지않아여 100
▁너네랑 100
▁오름 100
▁입었어 100
다니니까 100
▁관리자 100
▁찢어진 100
▁ᄍᄍ 100
▁느긋하게 100
▁씨씨티비 100
▁주구장창 100
▁커뮤니티 100
▁혼잣말 100
놐 100
솨 100
▁sns 100
뾰 100
▁교보문고 100
▁닭꼬치 100
▁번거롭 100
▁부직포 100
▁트렌드 100
▁최저시급 100
▁팔꿈치 100
▁뒤통수 100
▁극세사 100
▁스피드 100
▁겅부 100
▁흑임자 100
▁현금영수증 100
크래커 100
▁호두과자 100
▁계란후라이 100
▁개그맨 100
▁긍정적인 100
▁바빳 100
▁기분나쁘 100
웃곀ᄏᄏᄏᄏᄏ 100
▁커피숍 100
▁머먹지 100
▁체중계 100
▁튼튼한 100
▁화려한 100
▁땅땅 100
▁예비군 100
▁비어있 100
▁데스크 100
▁누리 100
▁처음봐 100
▁페이코 100
▁허접 100
▁로퍼 100
▁신제품 100
▁안좋대 100
갖다 100
▁않으려고 100
▁미니언 100
▁교직 100
▁넉넉하 100
▁작곡 100
▁출금 100
▁최초 100
▁수플레 100
▁자유롭게 100
랬더니 100
▁끓이는 100
▁생일때 100
잡음 100
▁시키기로 100
▁모든게 100
▁주는거야 100
▁이번학기 100
▁임금 100
▁아마존 100
▁누웠다 100
▁성공하면 100
▁어디인지 100
▁첫날부터 100
▁풉 100
▁몰카 100
웟는데 100
▁밉 100
뜬거 100
▁넣어달라고 100
▁있으니깐 100
▁그라운드 100
싳어 100
▁돕 100
걸어서 100
▁하다니 100
▁곱창집 100
▁무언가를 100
▁내려간다 100
▁그럴거같아 100
▁사은품으로 100
궄 100
그랰ᄏᄏ 100
수도없고 100
사람많 100
▁더럽게 100
▁제안하 100
▁63 100
▁브로 100
▁빠르고 100
기억나 100
▁마시기로 100
내리는 100
▁또륵 100
▁받았지만 100
많더라 100
▁대표님이 100
웤ᄏᄏᄏ 100
▁비싼건 100
ᅧᄂ 100
▁강아지랑 100
▁안나올 100
낰 100
▁그놈 100
▁양치하고 100
신카 100
▁버리라고 100
▁말해준 100
신기하다 100
▁이거저거 100
▁금리 100
▁알았네 100
▁경보 100
▁짤리 100
▁나같으면 100
▁암말 100
▁아니냐구 100
▁딱딱한 100
걸렷 100
모르겠네 100
▁끈적 100
골랐 100
▁좋아보여 100
▁바꾸러 100
ᄋᄀ 100
▁부모님과 100
▁넓게 100
▁방영 100
그럴수 100
▁들은거 100
가야해서 100
▁자취를 100
연수 100
보겠어 100
개욱 100
▁좋아하니 100
▁아빤 100
▁쉬고싶 100
▁파는곳 100
천얼마 100
▁환자들 100
▁언니들이랑 100
▁몇시야 100
십오분 100
ᅵᄂ 100
만오천원 100
▁놀라운 100
시픔 100
▁남동생 100
▁느꼈다 100
▁동물들 100
나온다고 100
겈ᄏᄏᄏᄏ 100
▁방법으로 100
피방 100
▁빠진다고 100
ᅮᅲᅮᅲ 100
87 100
올까봐 100
▁기력 100
▁쩔지 100
어렵다 100
캐리어 100
▁조용하고 100
느리 100
▁미쳤냐 100
왓당 100
▁채워서 100
거얔ᄏᄏᄏ 100
패션 100
▁들어온다고 100
테이프 100
▁깨워서 100
04 100
▁똑똑해 100
▁농장 100
nt 100
▁ᄏᄏᄏᄏ마자 100
▁늦음 100
▁사귀면 100
먹으니 100
▁올듯 100
봤거든 100
가야겠네 100
▁못생겨 100
▁궁금한거 100
▁썼던 100
▁갈수잇 100
▁이것두 100
34 100
먹던 100
▁끝나기 100
▁얘기하면서 100
옮겨 100
▁할인되는 100
아니었 100
갈때마다 100
▁반짝 100
▁몰랐지 100
▁잘랐다 100
이런건 100
▁보건 100
▁230 100
▁취소됐 100
▁미안한 100
~_~ 100
넣음 100
▁참아야지 100
▁뭐먹을지 100
▁미쳣어 100
보내줄게 100
▁믿는다 100
▁합시다 100
▁사야겟다 100
▁밥안먹 100
▁친구만나 100
▁위쪽 100
▁보까 100
▁나은듯 100
▁만사 100
얔ᄏᄏᄏᄏᄏᄏᄏᄏ 100
앜ᄏᄏᄏᄏᄏᄏᄏ 100
빡치 100
하하하 100
나왓는데 100
▁농사 100
▁뚫려 100
빠지고 100
ᄏᄏᄀᄀᄏ 100
한끼 100
되는구나 100
▁말씀드리 100
올게요 100
입맛 100
▁먹어봣 100
▁취소표 100
ay 100
▁다양해 100
사려고 100
돌아다니 100
올리고 100
말투 100
땃 100
혐 100
렄 100
▁겸사겸사 100
▁벼락치기 100
▁유니버셜 100
▁지오다노 100
▁프랜차이즈 100
▁히피펌 100
뇸 100
짼 100
쩨 100
핍 100
▁vip 100
▁대한민국 100
핮 100
▁천둥번개 100
▁호로록 100
봅시당 100
▁득템 100
▁디지털 100
▁잘자요 100
▁더더욱 100
▁쾌적 100
▁뚜벅이 100
▁옷갈아입 100
▁공공기관 100
▁하소연 100
행동 100
▁머그컵 100
▁씨지비 100
▁비린내 100
▁쌍둥이 100
▁깜찍 100
▁아쿠아 100
▁수다떨 100
▁앙버터 100
▁크로스백 100
▁즉석 100
끝까지 100
▁일상생활 100
▁리터치 100
▁언눙 100
등등 100
세영 100
▁비율이 100
대가리 100
▁재방송 100
▁주임님 100
▁소멸 100
▁여럿 100
▁롯데몰 100
▁비디오 100
▁헐킈 100
▁맛탱이 100
▁팝 100
▁써본 100
▁동묘 100
어어어어어 100
▁반대편 100
▁멀다고 100
▁만지면 100
▁틀려 100
▁내용물 100
▁평소엔 100
▁이제서야 100
▁통합 100
▁지저분해 100
▁두꺼워 100
▁형태 100
▁지들끼리 100
▁말안해 100
▁드실 100
▁갓다오 100
▁몇몇 100
▁유성 100
▁고민좀 100
▁주황 100
햇을때 100
오오오오오오오 100
▁코골 100
▁직관 100
▁가져감 100
/4 100
▁찍으러 100
▁꾸미는 100
▁쿨하게 100
▁괴물 100
▁이러길래 100
▁비슷비슷 100
▁아닐거야 100
99 100
▁제자리 100
▁0.5 100
막힘 100
죽는줄 100
▁진열 100
만으로도 100
▁뵙 100
▁끓이면 100
▁초등 100
▁맛나겠다 100
▁나쁘게 100
▁무얼 100
▁데꼬 100
▁실업 100
▁살쪄 100
▁열리는 100
▁내린다 100
▁그때쯤 100
웤 100
▁처음들어 100
▁아래로 100
▁문의해 100
▁상주 100
잇엇음 100
되겟네 100
▁매복 100
▁시간나면 100
▁육걸 100
야게땅 100
▁못자서 100
-7 100
▁보내기로 100
분안에 100
어머니 100
하냐구 100
▁쑤셔 100
▁쯧 100
있는듯 100
▁저렴해서 100
▁크네 100
노릇 100
▁치웠 100
▁뛰었 100
▁놀랍다 100
▁보고있는데 100
▁휴게소에서 100
▁ᄐᄏᄏᄏᄏᄏᄏᄏ 100
▁고마오 100
▁갔지만 100
▁마당에 100
▁우리집앞 100
▁안좋으면 100
했을텐데 100
이랄까 100
▁안되겠지 100
▁갖구 100
▁서로에게 100
▁감량 100
▁한여름 100
▁보여조 100
▁잼나게 100
▁죽일 100
먹을꺼 100
▁팔린 100
▁두산 100
쓸수있 100
▁인나서 100
▁생각햇 100
▁고치는 100
▁유행하는 100
▁좋죠 100
▁금정 100
될것 100
▁조아용 100
▁괜찮아질 100
▁번호표 100
▁가볼게 100
햇옹 100
▁꿨다 100
▁항의 100
▁작은방 100
강사 100
▁우디 100
맄 100
▁묻는데 100
▁섰 100
뎈ᄏᄏᄏᄏᄏᄏᄏ 100
▁철수 100
갖고싶 100
쏴 100
굶 100
▁미니멀 100
해놓은거 100
▁수욜날 100
▁이런곳 100
마라탕 100
▁비슷하다고 100
드라이브 100
▁걱정하지마 100
▁성공했다 100
▁그분이 100
▁봤니 100
설탕 100
ᄀᄎ 100
탈출 100
▁ᄏᄏᄏᄀᄏᄏ 100
▁홈페이지에 100
▁감동적이 100
쓸듯 100
읽고 100
▁놀았다 100
▁추어 100
먹어야징 100
먹으까 100
▁하냐며 100
▁시행 100
구욧 100
쯤이면 100
▁녀석 100
▁시원해서 100
쓸게 100
중이래 100
▁연한 100
▁제습 100
엇대 100
생긴거 100
이엇나 100
▁끝나니까 100
가디건 100
겠닼ᄏᄏ 100
▁따뜻하다 100
수이써 100
▁그럴거야 100
▁해놓은 100
있던거 100
베개 100
▁쏟 100
▁낫네 100
▁안해봤 100
었으 100
▁따갑 100
섴ᄏᄏᄏᄏᄏᄏᄏ 100
▁아이디랑 100
▁끝내야 100
같앜ᄏᄏ 100
▁주연 100
사고싶다 100
▁타다가 100
▁좋은거같아 100
가지곸ᄏᄏᄏ 100
▁있더라구 100
▁햇던 100
환전 100
▁홍콩에서 100
▁씻으면 100
▁되나봐 100
생각함 100
오세여 100
듣기 100
▁문과 100
ᄏᄏᄏᄏᄏᄏᄏᄏᄏᄏᄏᄏᄏᄏᄏ아 100
▁맞춰주 100
▁뿌렸 100
▁없어지고 100
중이에요 100
▁그러냐고 100
▁갤러리 100
▁좋겟어 100
빵빵 100
▁되니깐 100
▁결제했다 100
▁회의실 100
▁기대돼 100
싶었어 100
▁갈때마다 100
올릴 100
▁단축 100
▁열공하 100
▁넘어가면 100
알랴 100
웃기넼ᄏᄏ 100
▁나왔나 100
렘 100
▁십오 100
돗 100
▁SNS 100
▁래쉬가드 100
▁어몽어스 100
▁오랫만에 100
▁틈틈히 100
곶 100
끽 100
럇 100
지긋지긋 100
켁 100
▁스킨로션 100
▁자괴감 100
▁챙김 100
▁바디워시 100
▁여러모로 100
▁알아본 100
▁형광펜 100
▁아랫배 100
▁타임스퀘어 100
▁뚝섬 100
0,000 100
▁게시글 100
▁정수리 100
▁잔잔한 100
▁불구하고 100
▁여름방학 100
▁일박이일 100
▁트윈 100
▁엽서 100
▁기쁜 100
▁터널 100
▁싹싹 100
▁은퇴 100
▁맘대루 100
▁갑갑 100
▁35000 100
▁멋쟁이 100
▁묵은지 100
▁바뻐 100
▁맞다맞다 100
▁피부과에서 100
최고야 100
▁판도라 100
▁손소독제 100
▁깔면 100
▁입장료 100
합시당 100
▁소속사 100
▁칫 100
경력 100
▁저금통 100
▁맵고 100
▁복합 100
▁압축 100
▁쌓여 100
▁서브 100
▁날아갔 100
▁전세로 100
▁어떡할 100
▁텐동 100
▁예약했 100
▁반팔입 100
▁눈물난다 100
봉사 100
작은거 100
▁피검사 100
가져오 100
▁다녀옴 100
[...]
