<unk>	0
<s>	0
</s>	0
.	-4.09379
?	-4.23899
#	-4.58377
▁	-4.79427
▁#@	-4.86854
도	-4.91672
이	-4.96944
가	-5.04862
는	-5.11232
..	-5.11432
에	-5.20637
을	-5.31302
▁안	-5.32256
...	-5.34977
이름	-5.40933
▁나	-5.43708
고	-5.50427
를	-5.56743
지	-5.58683
은	-5.60403
▁한다	-5.61843
▁아	-5.65279
만	-5.7591
▁근데	-5.83945
▁다	-5.87913
▁있다	-5.89851
로	-5.95866
▁진짜	-5.99937
다	-6.00276
!	-6.03257
서	-6.03677
??	-6.04746
나	-6.0577
▁잘	-6.09524
▁너무	-6.11587
▁오늘	-6.14426
야	-6.17655
시스템	-6.17997
에서	-6.23425
▁그	-6.26243
▁난	-6.2659
요	-6.26621
~	-6.27869
게	-6.27964
사진	-6.28687
▁ᄏᄏᄏ	-6.31652
▁내가	-6.32405
▁더	-6.33123
▁아니	-6.34981
해	-6.36375
네	-6.37707
▁왜	-6.38797
의	-6.38896
▁하고	-6.39544
어	-6.39562
▁그냥	-6.41615
)	-6.44139
▁지금	-6.46144
▁좀	-6.4692
▁ᄏᄏᄏᄏ	-6.47259
으로	-6.47664
▁한	-6.47923
▁거	-6.48301
▁나도	-6.48518
시	-6.49386
▁오	-6.4988
(	-6.51444
▁응	-6.53008
하고	-6.53285
▁ᄏᄏ	-6.54004
▁그럼	-6.5528
ᄏᄏᄏ	-6.56194
▁뭐	-6.56988
▁못	-6.57079
▁웅	-6.5715
아	-6.58115
,	-6.58746
ᄏᄏ	-6.58949
는데	-6.5983
라	-6.6033
▁이야기한다	-6.60846
랑	-6.62075
면	-6.64314
여	-6.65069
▁것	-6.65919
대	-6.66828
▁많이	-6.67376
▁대해	-6.68601
▁내	-6.68875
▁ᅲᅲ	-6.71111
▁ᄏᄏᄏᄏᄏ	-6.72099
이모티콘	-6.72305
구	-6.73148
▁수	-6.74017
▁그거	-6.74784
!!	-6.74975
해서	-6.77073
▁1	-6.77324
거	-6.77744
▁ᄒᄒ	-6.79119
▁너	-6.79288
▁2	-6.79734
한	-6.80476
▁사	-6.81555
기	-6.82231
오	-6.82825
니	-6.83866
▁헐	-6.85376
ᅲ	-6.86418
일	-6.87154
▁이제	-6.87228
▁같이	-6.87633
와	-6.88016
▁내일	-6.88555
▁또	-6.89134
인데	-6.90293
▁나는	-6.90437
ᄏᄏᄏᄏ	-6.91837
▁ᅲ	-6.93333
▁해서	-6.95318
자	-6.95334
▁ᄏᄏᄏᄏᄏᄏ	-6.95512
....	-6.95728
▁우리	-6.96053
인	-6.96106
▁3	-6.96763
ᅲᅲ	-6.97521
▁ᄏ	-6.99249
안	-6.99976
▁먹고	-7.01208
사	-7.01234
▁이	-7.02008
▁그래서	-7.02169
,,	-7.04771
이랑	-7.08984
이야	-7.09401
라고	-7.0996
▁때	-7.11101
~~	-7.11933
과	-7.12211
임	-7.12779
▁이거	-7.14081
▁개	-7.14726
▁했다	-7.15698
▁와	-7.15714
▁그래	-7.15732
▁이야기하고	-7.15864
▁집에	-7.17061
ᄏᄏᄏᄏᄏᄏᄏᄏᄏᄏᄏᄏᄏᄏᄏᄏ	-7.17122
▁어제	-7.17771
까지	-7.18631
▁ᄋᄋ	-7.19952
▁가	-7.20288
▁ᄏᄏᄏᄏᄏᄏᄏ	-7.21398
▁넘	-7.22316
▁하	-7.22768
▁해	-7.23226
▁할	-7.23499
▁하자	-7.24411
▁저	-7.25101
하면	-7.26518
▁다시	-7.27443
▁아직	-7.27522
▁있는	-7.27548
함	-7.27909
▁5	-7.29326
리	-7.2942
▁일	-7.2979
데	-7.30113
개	-7.30322
음	-7.30603
▁걍	-7.31026
▁다른	-7.31069
용	-7.31181
할	-7.31516
스	-7.32375
▁보고	-7.3239
니까	-7.33751
하는	-7.33974
▁엄청	-7.35468
당	-7.36315
▁10	-7.36797
분	-7.37271
▁하는	-7.37366
▁집	-7.37792
ᅮᅮ	-7.38644
들	-7.39519
▁언니	-7.3953
▁가서	-7.40026
이라	-7.40566
▁4	-7.41152
래	-7.41216
주	-7.41307
???	-7.41367
▁엄마	-7.41496
ᄏᄏᄏᄏᄏ	-7.41696
냐	-7.41902
▁그래도	-7.42535
ᄏ	-7.43641
▁계속	-7.43833
▁일단	-7.45432
,,,	-7.4556
다고	-7.45731
▁어	-7.46126
..?	-7.46557
▁맞아	-7.46656
▁돈	-7.46779
▁게	-7.46911
▁말	-7.47804
▁빨리	-7.49198
▁응응	-7.49447
!!!	-7.50521
▁ᄏᄏᄏᄏᄏᄏᄏᄏ	-7.51325
▁하나	-7.51379
ᅮ	-7.51716
두	-7.53144
디	-7.53257
▁사람이	-7.53542
하	-7.54222
▁야	-7.54559
ᄒ	-7.54839
수	-7.562
▁ᄒ	-7.56731
▁웅웅	-7.56809
▁바로	-7.57781
유	-7.57976
▁좋아	-7.59495
▁갈	-7.60057
더	-7.60437
원	-7.6049
▁6	-7.60675
▁그런	-7.6158
▁밥	-7.62062
▁ᅮᅮ	-7.62658
ᄒᄒ	-7.62823
장	-7.6357
▁것에	-7.6393
▁막	-7.6429
▁엄마가	-7.64309
까	-7.64556
월	-7.64587
더라	-7.648
▁언제	-7.64808
진	-7.65303
▁요즘	-7.65447
▁주	-7.66894
▁ᄏᄏᄏᄏᄏᄏᄏᄏᄏ	-7.67236
▁있어	-7.67692
▁사람	-7.67739
▁살	-7.6979
비	-7.70238
▁원래	-7.70475
▁하니	-7.70919
인가	-7.71714
▁음	-7.71945
▁이야기를	-7.71998
좀	-7.72397
▁두	-7.72468
▁무슨	-7.72636
▁전	-7.72936
▁그게	-7.73096
보다	-7.73572
지만	-7.73906
바	-7.74859
▁비	-7.74933
보	-7.75353
러	-7.75459
▁혼자	-7.75462
▁완전	-7.75721
▁하면	-7.76231
▁했는데	-7.76264
소	-7.76293
▁하는데	-7.76409
▁갑자기	-7.76411
한다	-7.76468
▁말한다	-7.76785
▁7	-7.76867
이나	-7.7734
▁그렇게	-7.77365
▁줄	-7.78068
듯	-7.78814
하게	-7.78822
▁저거	-7.78984
며	-7.79233
마	-7.79728
▁원	-7.79767
▁8	-7.79918
▁머	-7.79978
는거	-7.80788
치	-7.80925
시에	-7.81417
▁낼	-7.825
건	-7.82562
봐	-7.8288
내	-7.84008
▁그건	-7.84162
잖아	-7.84503
으면	-7.84738
▁없어	-7.8513
▁거기	-7.8547
이다	-7.85691
▁그리고	-7.85994
ᄏᄏᄏᄏᄏᄏ	-7.86407
제	-7.87452
▁시간	-7.87784
쓰	-7.88222
이라고	-7.88251
▁후	-7.88267
▁ᄏᄏᄏᄏᄏᄏᄏᄏᄏᄏ	-7.88823
▁한번	-7.8918
차	-7.89473
부터	-7.89622
▁그니까	-7.90124
그	-7.90286
▁중	-7.90578
긴	-7.9075
노	-7.91069
걸	-7.91255
▁어떻게	-7.91444
우	-7.91603
▁ᅮ	-7.91812
한테	-7.91969
년	-7.92058
▁없어서	-7.92305
▁일찍	-7.92746
줄	-7.92827
▁존나	-7.9293
▁때문에	-7.93191
▁지	-7.93353
부	-7.9342
▁차	-7.93721
▁자	-7.94194
꺼	-7.94206
보고	-7.94235
▁9	-7.94809
써	-7.94932
▁같아	-7.95253
가서	-7.95312
시간	-7.95873
#@	-7.9595
때	-7.96081
▁30	-7.96114
▁여기	-7.9637
하지	-7.96408
▁같다고	-7.96409
중	-7.96729
드	-7.96953
▁자기	-7.97073
집	-7.97446
따	-7.97637
▁물	-7.97751
▁나중에	-7.97761
▁같다	-7.98113
▁먹을	-7.98197
던데	-7.9838
▁아냐	-7.984
▁오늘은	-7.98805
져	-7.98917
▁있는데	-7.98925
▁딱	-8.00335
▁좋은	-8.00589
▁같은	-8.0076
미	-8.01284
▁있어서	-8.01361
▁뭔가	-8.01549
▁네	-8.01618
자나	-8.01725
▁12	-8.01757
▁헉	-8.01947
▁것을	-8.02107
진짜	-8.02515
▁ᄏᄏᄏᄏᄏᄏᄏᄏᄏᄏᄏ	-8.02539
▁사진	-8.02857
▁모	-8.03013
말	-8.03354
▁어디	-8.03641
살	-8.03701
▁집에서	-8.04165
다가	-8.04213
▁맨날	-8.0459
잘	-8.04763
▁와서	-8.04836
동	-8.04953
▁그치	-8.05317
신	-8.05354
전	-8.05546
처럼	-8.05959
성	-8.06077
▁전에	-8.06475
감	-8.06804
▁가는	-8.07108
냐고	-8.07231
상	-8.07917
▁건	-8.07941
던	-8.0809
만원	-8.08131
겠다	-8.08753
▁20	-8.08925
▁이런	-8.09401
했어	-8.09507
▁거의	-8.0951
▁몰라	-8.09577
▁꼭	-8.09739
명	-8.10073
▁엥	-8.10151
하는데	-8.10325
거야	-8.10614
정	-8.11115
▁엉	-8.11243
▁올	-8.11282
겨	-8.11348
했는데	-8.11404
▁함	-8.11469
면서	-8.11486
▁정말	-8.11549
▁이렇게	-8.12031
번	-8.12201
있어	-8.12287
타	-8.12297
▁생각	-8.12365
▁아니면	-8.12548
▁걸	-8.12601
▁아님	-8.13034
▁11	-8.13133
조	-8.13164
▁대해서	-8.13467
▁니	-8.13597
▁구	-8.13786
▁언니가	-8.13893
▁그때	-8.14012
▁고	-8.14162
▁어떤	-8.14193
방	-8.14736
엉	-8.15111
▁저녁	-8.15255
~~~	-8.15426
▁전화	-8.15708
모	-8.15787
▁있다고	-8.16359
ᄋ	-8.16868
거든	-8.1735
▁날	-8.17578
화	-8.17733
삼	-8.17766
▁별로	-8.17825
▁해야	-8.17956
▁회사	-8.18326
▁머리	-8.18491
.....	-8.18779
▁ᅲᅲᅲ	-8.19346
▁대	-8.19347
▁ᄏᄏᄏᄏᄏᄏᄏᄏᄏᄏᄏᄏ	-8.19516
세	-8.20097
▁한다고	-8.20108
▁대박	-8.20506
▁약간	-8.21124
질	-8.21136
▁친구	-8.21642
▁운동	-8.21725
▁이미	-8.21934
죠	-8.21957
▁가고	-8.22071
들이	-8.22788
▁몇	-8.22925
▁제일	-8.23521
▁알	-8.23603
구나	-8.23995
^^	-8.24095
▁얼마	-8.24759
엔	-8.24877
▁것이	-8.25484
▁아까	-8.25599
라서	-8.25737
려	-8.25864
▁시	-8.25913
▁정	-8.26186
▁너가	-8.26784
▁보	-8.27096
▁흠	-8.27258
▁조금	-8.27547
못	-8.27582
야지	-8.27688
이면	-8.2819
▁ᄒᄒᄒ	-8.28197
넹	-8.28209
▁봐	-8.28266
▁다들	-8.28327
▁가면	-8.28347
길	-8.2843
1	-8.28459
남	-8.28646
▁먹어	-8.28709
▁옷	-8.28768
▁아침에	-8.28879
▁영화	-8.28985
산	-8.29034
ᄏᄏᄏᄏᄏᄏᄏ	-8.29313
려고	-8.29574
으	-8.29908
적	-8.30003
날	-8.30265
ᅲᅲᅲ	-8.30281
트	-8.3035
▁산	-8.30471
루	-8.3074
너	-8.3079
했다	-8.30798
무	-8.31411
군	-8.31629
단	-8.32412
하나	-8.32464
▁오래	-8.32602
것	-8.33063
▁여행	-8.33703
이네	-8.33991
!!!!	-8.3416
...?	-8.34627
▁마	-8.34741
검색	-8.34867
실	-8.35195
▁배	-8.35303
는게	-8.35533
?!	-8.35719
▁ᅳᅳ	-8.35723
▁저번에	-8.35752
▁코로나	-8.36005
물	-8.36167
박	-8.36213
▁사고	-8.36432
▁벌써	-8.36571
천	-8.36601
▁없다	-8.36603
더니	-8.36665
줘	-8.36806
2	-8.36849
▁볼	-8.36876
징	-8.372
▁눈	-8.37393
▁좋다	-8.37399
▁다음	-8.37427
▁세	-8.37669
▁점심	-8.37753
▁열심히	-8.38163
▁어케	-8.38172
애	-8.38513
3	-8.38702
▁누가	-8.3896
난	-8.39153
▁없	-8.39342
▁ᄏᄏᄏᄏᄏᄏᄏᄏᄏᄏᄏᄏᄏ	-8.39543
▁그런거	-8.39606
파	-8.39635
간	-8.39897
▁반	-8.40006
▁큰	-8.40035
▁..	-8.4022
▁이게	-8.40576
▁겁나	-8.41019
공	-8.4121
▁부	-8.41487
▁무	-8.41525
▁술	-8.41692
▁있고	-8.41741
▁마자	-8.41783
▁같은데	-8.41818
하다	-8.42026
식	-8.42258
▁아하	-8.42782
먹고	-8.43027
께	-8.43092
▁오빠	-8.43101
▁알아	-8.43164
왜	-8.43229
한거	-8.4323
▁먹는	-8.4324
▁사실	-8.43293
▁사진을	-8.43544
겠지	-8.43705
▁있	-8.43781
▁본	-8.43961
히	-8.44226
▁시간이	-8.44366
또	-8.44444
▁먼저	-8.44723
▁아빠	-8.45417
▁늦게	-8.4543
▁번	-8.45467
▁말하고	-8.45609
▁돼	-8.46545
▁카페	-8.46644
▁이번	-8.47049
심	-8.4709
▁뭐야	-8.47092
해야	-8.47665
▁신	-8.47757
▁뭘	-8.47849
뭐	-8.47863
▁약	-8.48081
▁아주	-8.48166
▁미	-8.48693
▁정도	-8.48978
티	-8.49135
▁혹시	-8.49302
▁없는	-8.49303
▁보면	-8.49448
인지	-8.49472
저	-8.4959
▁:	-8.49696
▁말고	-8.497
▁참	-8.49716
▁위해	-8.49752
▁자꾸	-8.49833
이고	-8.49917
옹	-8.50109
▁얼마나	-8.5046
▁시험	-8.50476
하는거	-8.50716
▁연락	-8.50828
▁병원	-8.50833
선	-8.51325
▁방금	-8.51325
▁마스크	-8.51779
▁우	-8.51793
있	-8.52153
▁하지만	-8.52204
▁버스	-8.52228
;;	-8.52644
▁하루	-8.52689
▁아아	-8.52723
▁ᄏᄏᄏᄏᄏᄏᄏᄏᄏᄏᄏᄏᄏᄏ	-8.52947
▁싶다	-8.53041
▁있으면	-8.53185
▁되	-8.53242
▁저녁에	-8.53253
▁아니야	-8.53321
나봐	-8.53427
▁고민	-8.53679
▁넌	-8.53864
▁조	-8.53924
카	-8.54081
▁젤	-8.54145
행	-8.54215
라도	-8.55087
▁될	-8.55125
▁어때	-8.55391
양	-8.55481
▁어차피	-8.55493
▁것이다	-8.55495
▁하지	-8.55663
포	-8.55838
피	-8.55915
▁타고	-8.55999
▁역시	-8.56096
▁얘기	-8.56121
한다고	-8.56166
▁달	-8.56272
▁간	-8.56295
▁사서	-8.56579
하자	-8.56592
하네	-8.57022
;	-8.5717
밖에	-8.57487
재	-8.57726
갈	-8.57758
▁타	-8.57779
▁피	-8.57798
▁들어	-8.57879
▁어디서	-8.57909
▁아니고	-8.58192
매	-8.58241
점	-8.5839
▁먹	-8.58506
▁...	-8.58711
▁하면서	-8.58724
▁울	-8.58734
▁학교	-8.58751
없어	-8.58855
▁서울	-8.58874
▁나랑	-8.58945
반	-8.58985
▁니가	-8.59029
▁싶어	-8.59033
어서	-8.59198
▁퇴근	-8.59205
건데	-8.59243
▁보내	-8.59413
▁곧	-8.59444
▁괜찮아	-8.59597
기타	-8.59667
▁유	-8.59892
회	-8.60012
▁출근	-8.60045
▁지금은	-8.60202
▁써	-8.60221
▁팔	-8.60293
맛	-8.6067
이래	-8.60684
길래	-8.60931
▁가야	-8.61317
▁싶다고	-8.6145
▁아니라	-8.6152
▁자주	-8.61674
▁상	-8.61812
▁입	-8.61828
르	-8.62062
▁불	-8.62108
움	-8.6238
▁치킨	-8.62389
▁알바	-8.62464
▁옹	-8.62561
▁싸	-8.62595
하니까	-8.62602
▁공부	-8.62707
▁이번에	-8.62824
가면	-8.62842
▁온	-8.62843
▁처음	-8.63014
▁하며	-8.63032
는지	-8.63081
▁넹	-8.63242
머	-8.63397
▁ᄏᄏᄏᄏᄏᄏᄏᄏᄏᄏᄏᄏᄏᄏᄏ	-8.63457
이지	-8.63691
▁그런가	-8.6374
▁맛	-8.64003
하기	-8.64026
▁방	-8.64093
된	-8.64653
울	-8.64723
와서	-8.64935
잇	-8.6499
발	-8.65139
▁그러면	-8.65143
ᅦ	-8.65254
▁새로	-8.65395
▁안돼	-8.65403
월에	-8.6545
▁친구가	-8.65622
찌	-8.65632
이가	-8.65639
▁오키	-8.65804
ᄏᄏᄏᄏᄏᄏᄏᄏ	-8.66238
입	-8.66292
▁카톡	-8.66522
▁커피	-8.66664
▁나두	-8.66672
되	-8.66822
호	-8.67161
▁ᄅᄋ	-8.67166
▁노래	-8.673
▁밖에	-8.6739
▁미리	-8.67641
가지고	-8.6768
▁같아서	-8.67817
었는데	-8.67917
키	-8.67968
▁사람들이	-8.68018
이라서	-8.68155
잉	-8.68161
▁먹으면	-8.68201
▁없다고	-8.68232
옴	-8.68296
▁아빠가	-8.68418
▁있을	-8.68502
는디	-8.68541
▁이런거	-8.68684
일에	-8.68781
▁뭐가	-8.68912
▁듯	-8.68925
너무	-8.69103
▁돈을	-8.69185
사람	-8.70055
▁제	-8.70101
배	-8.70175
▁미친	-8.70381
▁만	-8.70462
정도	-8.70505
▁??	-8.70549
란	-8.70701
▁하였다	-8.70988
▁두개	-8.71231
짐	-8.7136
▁그러게	-8.71422
겠다고	-8.71481
▁것도	-8.71523
▁이야기	-8.71531
거나	-8.71766
씨	-8.71809
에게	-8.7186
금	-8.72052
떠	-8.72076
먹어	-8.72168
▁된다	-8.72207
▁너도	-8.72239
▁기	-8.72331
▁받아	-8.72341
▁예약	-8.7235
없	-8.72401
▁많아서	-8.7277
▁새	-8.72789
▁없고	-8.72817
▁자고	-8.72904
▁돈이	-8.72966
쥬	-8.73099
▁사람들	-8.73174
▁나한테	-8.73185
할때	-8.732
▁애들	-8.73223
▁그러	-8.73233
케	-8.73282
버	-8.73312
▁얼른	-8.73319
▁느낌	-8.73416
거같아	-8.73496
통	-8.73877
▁주고	-8.74092
▁책	-8.74103
▁거라고	-8.74167
▁삼	-8.74227
5	-8.74232
▁15	-8.74342
역	-8.74357
▁사람은	-8.74685
▁장	-8.74789
림	-8.74815
▁많아	-8.74881
▁된다고	-8.74977
▁발	-8.75125
구만	-8.75128
▁쓰고	-8.75251
▁열	-8.75368
린	-8.75383
퍼	-8.75541
▁맛이	-8.75643
으니까	-8.75773
그래	-8.75833
▁아마	-8.75873
????	-8.75937
▁맞	-8.76015
▁진심	-8.76057
▁서로	-8.76197
▁않아	-8.76371
달	-8.7646
알	-8.76488
▁애	-8.76536
아니	-8.76689
근데	-8.76833
URL	-8.77023
▁일이	-8.7704
▁먹으러	-8.77075
▁수업	-8.77156
▁마니	-8.7728
것도	-8.77491
▁비싸	-8.77751
▁간다	-8.77847
▁다음에	-8.77922
▁쓸	-8.77928
▁들고	-8.77956
하면서	-8.77989
터	-8.78187
▁말을	-8.78262
문	-8.78301
▁아직도	-8.78389
운	-8.78713
▁싫어	-8.79029
▁금방	-8.79037
다며	-8.79338
▁잠	-8.79423
▁만들어	-8.79474
▁노	-8.7954
햇	-8.79546
본	-8.79565
▁좋다고	-8.79575
었어	-8.79586
▁가자고	-8.79736
▁수도	-8.79786
▁밥을	-8.79808
▁싶은	-8.79953
라는	-8.80119
▁적	-8.80133
먹	-8.80208
▁잘못	-8.80212
▁감	-8.80275
▁되는	-8.80325
▁다이어트	-8.80401
영	-8.80508
▁소	-8.80833
위	-8.81071
▁간다고	-8.81071
시까지	-8.81107
▁해도	-8.81196
하구	-8.8123
▁폰	-8.81356
▁오면	-8.81395
보면	-8.81579
▁문제	-8.81637
▁입고	-8.81872
▁요새	-8.81881
▁ᅲᅲᅲᅲ	-8.81989
코	-8.81997
온	-8.82311
색	-8.82421
ᅲᅲᅲᅲ	-8.82449
강	-8.82519
크	-8.82527
같이	-8.82781
▁둘	-8.82963
겠네	-8.82994
급	-8.8328
프	-8.83302
▁그럴	-8.8337
▁100	-8.83444
▁님	-8.83451
혀	-8.8395
▁50	-8.84017
▁배가	-8.84088
▁이따	-8.8418
▁시켜	-8.84233
▁좋지	-8.84379
▁나서	-8.84512
한데	-8.84628
업	-8.84711
▁가기로	-8.84757
▁일을	-8.84801
▁데	-8.84918
슈	-8.85081
▁들	-8.85105
기로	-8.85136
▁남자	-8.85204
▁손	-8.85411
됨	-8.85689
▁만나	-8.85779
▁뭔	-8.85879
▁아침	-8.85975
▁좋겠다	-8.86129
▁아예	-8.86151
돈	-8.86156
▁보는	-8.86292
▁코	-8.86297
▁취소	-8.86432
좋아	-8.86696
▁거기서	-8.86697
즈	-8.86698
▁글	-8.86918
▁고기	-8.87167
져서	-8.87283
봄	-8.8733
▁주말에	-8.87409
▁(	-8.87423
넘	-8.87592
8	-8.87718
▁기분	-8.87726
▁ᄋᄏ	-8.87837
워	-8.87891
▁오오	-8.88001
▁않고	-8.88074
▁스	-8.88104
▁문	-8.88181
▁ᄋ	-8.8836
▁가자	-8.8847
-	-8.88513
▁동생이	-8.88576
형	-8.88651
▁목	-8.88728
글	-8.88759
있는데	-8.88772
▁비가	-8.88852
▁싶은데	-8.88856
▁나와	-8.88915
씩	-8.88957
▁중에	-8.88964
▁쓰	-8.88971
▁면접	-8.89111
생	-8.89112
드라	-8.89191
▁파	-8.89218
▁조아	-8.89266
▁따로	-8.8932
했	-8.8936
▁이건	-8.89393
▁대화한다	-8.89606
▁준비	-8.89727
다니	-8.89737
ᄏᄏᄏᄏᄏᄏᄏᄏᄏ	-8.90009
레	-8.90011
연	-8.90136
/	-8.90188
▁선물	-8.9022
▁되게	-8.90259
생각	-8.90392
▁남	-8.90523
▁게임	-8.90557
할까	-8.91018
▁양	-8.91141
▁이상	-8.91335
▁들어가	-8.91381
▁챙겨	-8.91383
▁묻고	-8.91433
그럼	-8.91458
▁김	-8.91469
▁나와서	-8.91639
편	-8.91881
▁빵	-8.91895
▁그것도	-8.92093
▁선	-8.92174
▁둘이	-8.92222
▁동	-8.9265
▁40	-8.9271
망	-8.92738
약	-8.92784
근	-8.93044
볼	-8.9316
▁하니까	-8.93203
지도	-8.93229
▁인	-8.93291
▁화	-8.93411
쳐	-8.93451
같은	-8.93455
해도	-8.93479
든	-8.9348
토	-8.93695
돼	-8.9412
중에	-8.94369
ᅳᅳ	-8.94565
▁도착	-8.94595
많이	-8.94628
ᄂ	-8.9464
▁카드	-8.94824
▁누나	-8.94873
▁저기	-8.94874
▁항상	-8.9488
▁너는	-8.9491
후	-8.94972
관	-8.95021
하라고	-8.95066
▁보러	-8.95069
▁생각보다	-8.95108
ᄀ	-8.95142
▁재	-8.95243
▁좋아하는	-8.95286
님	-8.95332
▁토	-8.9542
규	-8.95502
▁있는지	-8.95547
▁되면	-8.95581
▁^^	-8.95618
▁둘다	-8.9576
▁대화	-8.95894
왕	-8.9599
▁달라고	-8.96178
▁봤는데	-8.96321
▁소리	-8.96368
같은거	-8.96403
▁휴	-8.96439
초	-8.96567
으니	-8.96574
▁별	-8.9658
지는	-8.9661
▁누구	-8.96771
하려고	-8.96836
▁맛있는	-8.96852
주고	-8.96972
▁왔는데	-8.96999
▁약속	-8.97012
국	-8.97123
▁좋	-8.97311
하니	-8.97348
▁덜	-8.97496
▁시작	-8.97563
▁사는	-8.97691
해야지	-8.9774
▁얼굴	-8.97943
ᄒᄒᄒ	-8.97973
등	-8.98095
들은	-8.98172
6	-8.98188
4	-8.98233
▁만나서	-8.98262
▁무조건	-8.98266
쯤	-8.98287
▁곳	-8.98404
▁걱정	-8.9845
직	-8.98511
▁없는데	-8.98661
▁대신	-8.98661
쪽	-8.98773
는건	-8.98782
▁바	-8.98791
▁대한	-8.9903
기가	-8.99202
▁진	-8.99283
▁가지	-8.99324
겟다	-8.99352
▁할인	-8.99391
잇어	-8.99682
말고	-8.99772
▁저런	-8.9991
▁나온	-8.99952
있는	-8.99965
▁결제	-9.00136
▁담에	-9.00242
▁알고	-9.0046
막	-9.00535
거같은데	-9.00575
복	-9.00581
▁오늘도	-9.00678
▁스트레스	-9.00795
▁먹은	-9.00808
걸로	-9.00812
니깐	-9.00917
▁일본	-9.00955
▁놀러	-9.00992
▁예	-9.01124
▁언니는	-9.01128
▁찾아	-9.01541
▁오라고	-9.01591
ᅳ	-9.01903
는거야	-9.01915
싸	-9.02213
되면	-9.02329
▁가능	-9.02402
판	-9.0279
▁했다고	-9.03048
▁날씨	-9.03234
백	-9.03298
낭	-9.03342
불	-9.03357
억	-9.034
▁앗	-9.03433
▁마지막	-9.0348
▁생각해	-9.03488
▁주문	-9.03504
▁치	-9.03565
자고	-9.03613
▁한국	-9.0364
▁했더니	-9.03695
대로	-9.03864
간다	-9.03978
▁핸드폰	-9.03988
▁그걸	-9.04084
▁추천	-9.04192
▁아녀	-9.04223
▁있음	-9.04234
▁이사	-9.04287
▁나오는	-9.04367
▁맛있어	-9.04561
누	-9.04605
눈	-9.04647
▁가격	-9.04718
▁여자	-9.0475
▁드라마	-9.04767
햇어	-9.04886
밥	-9.04901
오늘	-9.05014
▁좋은데	-9.05044
각	-9.0512
▁많은	-9.05174
▁고마워	-9.0526
▁죽	-9.05441
작	-9.05448
▁물어보고	-9.05486
▁나가	-9.05518
▁쓰는	-9.05709
▁제발	-9.05767
분에	-9.05887
▁사람에게	-9.06065
▁보통	-9.06096
▁말이	-9.06154
▁티	-9.06197
▁된	-9.06226
▁ᄒᄒᄒᄒ	-9.06411
......	-9.0645
▁ᄂᄂ	-9.06513
▁힘들	-9.06549
▁초	-9.06552
병	-9.06883
▁잠깐	-9.07101
▁일주일	-9.07206
▁배달	-9.07216
0	-9.07262
▁했어	-9.07298
9	-9.07388
그냥	-9.07403
▁예전에	-9.07438
▁가지고	-9.07539
시쯤	-9.07545
했다고	-9.07576
이여	-9.0785
알바	-9.07913
▁애기	-9.08155
▁오랜만에	-9.08218
▁잇	-9.08332
▁오빠가	-9.08423
팔	-9.08529
~!	-9.0856
었다	-9.08565
달라고	-9.08648
▁으	-9.08663
▁제대로	-9.08715
▁안에	-9.08763
▁하기	-9.08763
▁앞에	-9.09058
응	-9.09196
ᄉ	-9.09292
▁짐	-9.09297
▁저렇게	-9.09356
▁이모티콘	-9.09362
지금	-9.09391
▁피자	-9.09465
▁실	-9.09526
하러	-9.09533
▁여	-9.09561
놓고	-9.09631
▁가려고	-9.09671
▁아닌데	-9.09976
개월	-9.10002
짜	-9.10049
▁동생	-9.10132
▁따	-9.10255
▁밤에	-9.10296
댜	-9.10307
▁함께	-9.10336
릴	-9.1042
▁!	-9.10447
계	-9.10656
라구	-9.10783
▁매일	-9.10803
▁빼	-9.10854
경	-9.11103
▁ᄋᄋᄋ	-9.11157
!!!!!	-9.11207
▁대충	-9.11286
▁끝나고	-9.11291
▁학원	-9.1139
준	-9.11407
▁가게	-9.1141
▁먹어서	-9.11519
▁속	-9.11531
마다	-9.11757
▁봄	-9.11794
▁ᄋᄉᄋ	-9.11912
있음	-9.12034
▁받고	-9.12158
▁고양이	-9.12341
같	-9.12358
꼬	-9.12491
적으로	-9.12492
교	-9.12545
▁짱	-9.12548
▁흑흑	-9.12642
▁연	-9.12648
내가	-9.1266
▁솔직히	-9.12743
▁강	-9.12884
▁결국	-9.12949
▁아닌	-9.13216
▁먹어야	-9.13259
겟	-9.13259
빵	-9.1331
▁보니까	-9.13317
▁이번주	-9.13621
이라도	-9.1366
▁떡볶이	-9.13698
▁인정	-9.13706
▁작은	-9.13936
▁생	-9.13946
있다	-9.14001
▁엄마랑	-9.14111
느	-9.143
▁가기	-9.14321
링	-9.1444
▁신청	-9.14526
라면	-9.14527
▁생일	-9.14617
담	-9.1462
▁차라리	-9.14681
▁되고	-9.14757
▁오는	-9.14783
▁따라	-9.14831
▁키	-9.14916
열	-9.15051
보니까	-9.1516
▁많	-9.15162
▁화장실	-9.15209
▁호	-9.15256
ᄅ	-9.15302
▁제주도	-9.15398
얌	-9.1544
▁하려고	-9.15449
체	-9.15576
마넌	-9.15672
▁우리가	-9.15698
보내	-9.15742
▁말라고	-9.15771
때문에	-9.15829
이니까	-9.15888
▁공	-9.15936
~~~~	-9.16089
▁끝	-9.16183
할게	-9.16369
염	-9.16392
▁오호	-9.16529
기도	-9.16596
▁택배	-9.16608
▁갔다	-9.16621
권	-9.16638
▁같고	-9.1665
▁옆에	-9.16659
▁절대	-9.1676
▁결혼	-9.16792
▁그러니까	-9.16799
ᅡ	-9.1685
▁주는	-9.1687
▁먹었는데	-9.16981
있어서	-9.17021
▁에	-9.17111
▁단	-9.1713
겠어	-9.17162
▁정리	-9.17233
▁짜	-9.17283
▁편	-9.17293
뎅	-9.17362
▁준	-9.17414
▁위에	-9.17423
오면	-9.17443
▁엄마는	-9.17467
▁듣고	-9.17475
▁ᄀ	-9.17836
▁쉬	-9.17882
▁휴가	-9.17898
플	-9.18024
하다가	-9.18416
야해	-9.18426
▁그렇지	-9.18439
▁사야	-9.18467
죽	-9.18544
겠	-9.18633
▁너네	-9.18755
▁왔다	-9.18774
▁할지	-9.18945
언니	-9.19145
▁글고	-9.19152
▁자기가	-9.19211
▁놀	-9.19232
▁라면	-9.19555
▁금	-9.19925
▁같	-9.20006
▁자리	-9.2002
▁우린	-9.20095
▁직접	-9.20106
▁옷을	-9.20113
메	-9.20217
예	-9.20276
▁길	-9.20309
▁부산	-9.20417
끼	-9.20421
태	-9.20443
▁저는	-9.20464
청	-9.20506
더라고	-9.2051
쉬	-9.20568
▁다행이다	-9.20665
셔	-9.20745
▁것과	-9.20789
에는	-9.20961
▁싶어서	-9.21154
▁심	-9.21209
▁지하철	-9.21309
▁왜케	-9.21351
▁알아서	-9.21355
▁동안	-9.21387
▁강아지	-9.21569
▁여보	-9.21611
햇는데	-9.21696
▁크	-9.21743
▁힘들어	-9.21756
ᅮᅮᅮ	-9.21809
▁만나기로	-9.21879
ᄏᄏᄏᄏᄏᄏᄏᄏᄏᄏ	-9.21899
▁있지	-9.21914
▁백	-9.22065
▁허	-9.22146
▁가끔	-9.22234
종	-9.22277
▁몸	-9.22315
올	-9.2235
앙	-9.22404
▁없이	-9.22531
▁가방	-9.22589
▁사면	-9.22652
▁엄마한테	-9.22658
그거	-9.22899
▁담주	-9.23104
▁맥주	-9.23128
▁제가	-9.23158
을때	-9.2319
▁알겠어	-9.2327
,,,,	-9.23398
▁아이폰	-9.2343
▁기분이	-9.23519
하며	-9.23615
▁샀는데	-9.23761
천원	-9.23823
▁앞	-9.2386
▁그려	-9.24092
▁맞다	-9.24108
▁배송	-9.24148
▁인터넷	-9.24358
▁되지	-9.24501
️	-9.2457
▁명	-9.24643
▁생각이	-9.24652
7	-9.24804
▁~	-9.24851
▁사려고	-9.24856
▁주말	-9.24919
▁넣어	-9.24953
▁이에	-9.25125
곳	-9.25136
키로	-9.25136
▁어어	-9.25211
학	-9.25475
▁출발	-9.25564
▁알았어	-9.25666
▁등	-9.25753
석	-9.25833
는중	-9.25899
가자	-9.2596
얘기	-9.2608
층	-9.26124
▁암튼	-9.26312
일이	-9.26343
지마	-9.26371
목	-9.26373
▁급	-9.26455
줌	-9.2673
소리	-9.26752
추	-9.26798
옷	-9.27116
▁졸라	-9.27122
▁토요일	-9.27153
▁하라고	-9.27243
▁말에	-9.27408
할듯	-9.27409
잔	-9.27483
▁영상	-9.27618
▁뒤에	-9.2769
▁아파서	-9.27712
이제	-9.27796
▁까	-9.27838
▁한달	-9.27889
여서	-9.28039
▁,,	-9.28043
랭	-9.28077
댕	-9.28079
▁난리	-9.28261
벌	-9.28288
▁없으면	-9.28398
▁가격이	-9.28398
▁홀	-9.2843
보자	-9.28531
▁파는	-9.28637
▁씻고	-9.28888
▁기억	-9.28949
▁밤	-9.28997
▁문자	-9.29004
▁과제	-9.29025
꾸	-9.29041
나도	-9.29183
증	-9.29261
▁거야	-9.29461
하기로	-9.29491
▁찍어	-9.29514
락	-9.29519
들어	-9.29531
▁받을	-9.29538
▁하긴	-9.29916
▁와우	-9.30162
셈	-9.30465
▁확인	-9.30604
▁당	-9.30621
갈까	-9.30894
▁계란	-9.30917
네요	-9.31012
능	-9.31045
▁천천히	-9.31165
잠	-9.31251
▁풀	-9.31271
▁금요일	-9.31457
잡	-9.31507
▁아르바이트	-9.31596
▁여기서	-9.31638
▁첫	-9.3169
였어	-9.31718
▁욕	-9.31743
▁통	-9.31788
▁먹었다	-9.31852
▁꽃	-9.32129
▁내일은	-9.32279
▁상대방이	-9.32295
같아	-9.32394
▁산책	-9.32485
참	-9.32505
▁운전	-9.32695
▁묻자	-9.32709
▁이해	-9.32735
▁갈까	-9.32787
프로	-9.32796
겟지	-9.32864
▁옹옹	-9.33075
▁음식	-9.33086
없어서	-9.33138
이는	-9.33164
▁괜히	-9.33175
ᄏᄏᄏᄏᄏᄏᄏᄏᄏᄏᄏ	-9.33178
▁그만	-9.33182
▁마쟈	-9.33331
▁먹기로	-9.33443
▁우리집	-9.33583
▁되는데	-9.33614
왔어	-9.33714
▁맛있	-9.33823
적인	-9.33956
절	-9.33988
좋	-9.34108
건가	-9.34126
언	-9.34153
▁가는데	-9.34239
▁위	-9.34266
▁뭐지	-9.34342
민	-9.34558
▁영어	-9.34587
▁회사에서	-9.34594
였	-9.34609
전에	-9.34618
쥐	-9.34643
10	-9.34787
▁눈이	-9.34788
▁끝나	-9.34859
▁말해	-9.35005
▁수술	-9.35052
▁달라	-9.35152
▁구래	-9.35308
▁알지	-9.35317
▁천	-9.3532
▁비싼	-9.35475
▁보니	-9.35561
▁박	-9.35616
커	-9.35679
▁귀	-9.3568
친	-9.35682
▁갔는데	-9.35846
느낌	-9.35898
▁괜찮	-9.35906
새	-9.36094
▁있나	-9.36174
테	-9.36198
▁토요일에	-9.36292
▁돌	-9.36366
▁좋고	-9.36461
려면	-9.36481
▁성	-9.36494
맞아	-9.36614
▁그렇	-9.36726
▁아는	-9.36769
▁아진짜	-9.3684
▁했	-9.3693
▁말했다	-9.36971
▁호텔	-9.37016
▁느낌이	-9.37065
▁첨	-9.37184
력	-9.37322
▁귀여워	-9.37325
▁컴퓨터	-9.37437
닝	-9.37438
되는	-9.3744
▁추가	-9.37467
▁바람	-9.37517
▁영	-9.37532
▁바지	-9.37595
입니다	-9.37626
▁사주	-9.37676
▁먹지	-9.37786
▁구경	-9.37786
해줘	-9.378
엇	-9.37812
▁우선	-9.37853
현	-9.37906
그러	-9.37958
출	-9.37964
봉	-9.37994
▁생리	-9.38042
▁구매	-9.38068
▁올해	-9.38094
▁날씨가	-9.38103
는뎅	-9.38125
속	-9.38137
▁한시간	-9.38147
보여	-9.38229
탈	-9.38318
▁과	-9.38533
▁몇시에	-9.38583
▁깨	-9.38758
▁최고	-9.38761
하는게	-9.38768
▁나오	-9.38784
▁드	-9.38791
▁만날	-9.38845
한대	-9.38854
▁마음	-9.38913
나서	-9.38939
▁신발	-9.38952
▁커	-9.39041
▁치즈	-9.39143
▁매	-9.3916
려나	-9.39199
▁사이즈	-9.3935
▁맛있게	-9.39449
고싶다	-9.39461
랴	-9.39472
▁아파	-9.39487
창	-9.39519
▁먹자고	-9.39524
▁앞으로	-9.39563
야겠다	-9.39816
▁살까	-9.3984
투	-9.39981
론	-9.39994
봤어	-9.40009
▁신고	-9.40124
없이	-9.40206
믄	-9.40349
브	-9.4036
+	-9.4043
언제	-9.40601
▁이상한	-9.40787
▁가입	-9.40809
▁통화	-9.40914
을듯	-9.4095
▁몸이	-9.40963
▁크게	-9.41004
▁담	-9.41075
봤는데	-9.41165
▁떠	-9.41168
▁마음에	-9.41203
▁아닌가	-9.41296
▁ᅲᅲᅲᅲᅲ	-9.41625
▁마라탕	-9.41632
▁살짝	-9.41636
▁잔	-9.4166
▁걔	-9.41755
▁흑	-9.41821
▁후기	-9.41834
아냐	-9.41881
렁	-9.41906
▁청소	-9.4194
~?	-9.41951
었	-9.41952
▁먹었어	-9.42018
세요	-9.42021
▁월급	-9.42033
까진	-9.42044
인거	-9.42056
류	-9.42062
▁벌	-9.42102
앗	-9.42246
▁야근	-9.42279
을까	-9.42289
▁새벽에	-9.42319
▁것은	-9.42392
▁운동을	-9.42395
▁편의점	-9.42403
▁걸어	-9.42415
칠	-9.4245
탕	-9.42522
쿠	-9.42528
▁중국	-9.4256
▁선생님	-9.42569
▁하다가	-9.42582
▁히히	-9.42822
한번	-9.42917
▁너랑	-9.43007
▁초코	-9.43082
▁나가서	-9.43199
▁좋아서	-9.43337
▁먹자	-9.43337
달라	-9.43468
▁없을	-9.4347
▁우웅	-9.43483
이라는	-9.43499
▁앙	-9.43502
▁해야지	-9.4379
먹으면	-9.43794
▁악	-9.43838
▁동네	-9.44022
▁머리가	-9.44224
▁암	-9.44322
▁집이	-9.44342
▁네이버	-9.44447
▁검사	-9.44447
궁	-9.44506
▁당근	-9.44556
놀	-9.44656
긴한데	-9.44732
▁않을까	-9.44763
▁좋을	-9.44797
▁병원에	-9.44868
▁선택	-9.449
될	-9.4492
▁똥	-9.44924
▁딸	-9.45024
▁했지만	-9.4513
▁아닝	-9.45147
▁쳐	-9.45166
▁괜찮은	-9.45178
슴	-9.45234
름	-9.45312
▁모르겠다	-9.45353
뜨	-9.4537
▁인생	-9.45376
▁저게	-9.45395
ᄃ	-9.45405
▁ᅳ	-9.45414
▁기대	-9.45492
▁할머니	-9.45506
▁스벅	-9.45751
▁모르겠어	-9.45865
쟈	-9.4591
그래서	-9.4594
▁아무도	-9.46002
▁회	-9.4612
▁분	-9.46126
▁봐야	-9.46131
▁지원	-9.46173
▁뭐라	-9.46182
▁아무것도	-9.46282
볼까	-9.46306
머리	-9.46366
▁하는거	-9.46406
▁맞는	-9.46414
▁내꺼	-9.46458
▁만들	-9.46478
딩	-9.4659
주면	-9.46688
된다	-9.46955
▁저도	-9.46965
▁카	-9.46968
▁사용	-9.46975
거리	-9.47
▁것이라고	-9.47025
▁짜증	-9.471
▁아나	-9.47132
▁하나도	-9.47141
해요	-9.47162
▁디	-9.4717
▁돼서	-9.4721
▁그날	-9.47293
;;;	-9.47298
카드	-9.4733
▁갔다가	-9.47333
순	-9.47345
▁엉엉	-9.47362
주소	-9.47369
▁갖고	-9.47586
▁때는	-9.47712
▁보는데	-9.47785
낼	-9.4783
▁입을	-9.47888
만큼	-9.47901
악	-9.47951
깨	-9.47993
았	-9.48056
거지	-9.48088
▁맘	-9.48154
▁아무	-9.48332
자너	-9.48343
▁비행기	-9.4859
냥	-9.48699
▁쿠폰	-9.48701
▁취업	-9.48739
보단	-9.48797
▁얘기하고	-9.48846
▁샀다	-9.48868
▁샀	-9.48882
▁온다고	-9.48895
▁빼고	-9.48906
▁없음	-9.48962
▁하루에	-9.49071
▁카카오톡	-9.49073
▁탈	-9.49144
▁모르는	-9.49196
▁대화를	-9.49278
30	-9.49291
▁예매	-9.49342
▁중이다	-9.49462
▁받은	-9.49464
▁힘	-9.49489
폰	-9.49527
▁점	-9.49579
습니다	-9.49612
인듯	-9.49649
먹음	-9.49721
에도	-9.49727
▁먼가	-9.49752
▁떡	-9.49861
김	-9.49879
채	-9.49951
▁곳이	-9.49958
침	-9.50011
인디	-9.50032
우리	-9.5008
허	-9.50165
▁않아서	-9.50198
▁되어	-9.50255
▁그래두	-9.50257
둘	-9.50384
욤	-9.50511
ᄆ	-9.5065
▁리	-9.50714
줄게	-9.50795
▁요	-9.50873
▁내말이	-9.50877
가봐	-9.50953
▁사러	-9.51182
▁밑에	-9.51233
▁택시	-9.51366
웅	-9.51379
▁과자	-9.51477
▁잉	-9.51523
▁당장	-9.51529
▁굳이	-9.51757
▁우와	-9.5177
▁아이스크림	-9.51813
병원	-9.51846
버려	-9.51888
▁아니다	-9.51912
ᄏᄏᄏᄏᄏᄏᄏᄏᄏᄏᄏᄏᄏᄏᄏ	-9.5194
했지	-9.51966
▁나올	-9.51978
▁내려	-9.52071
▁고구마	-9.52074
▁13	-9.52101
▁사랑	-9.52129
안에	-9.52241
▁아이	-9.52249
▁우유	-9.52286
▁유튜브	-9.52417
▁털	-9.52432
▁망	-9.52466
▁가족	-9.52579
▁알았는데	-9.52634
▁한데	-9.52648
▁할까	-9.52654
▁기억이	-9.52681
ᅵ	-9.52709
▁힝	-9.52749
▁뭔데	-9.52757
▁싼	-9.52785
얼	-9.5282
▁냄새	-9.52858
주는	-9.52866
▁쫌	-9.52869
▁무서워	-9.52919
는거지	-9.5292
▁여름	-9.52987
▁24	-9.53112
아서	-9.53134
▁겨울	-9.53169
▁애들이	-9.53184
ᅲᅲᅲᅲᅲ	-9.53385
암	-9.53412
떡	-9.53421
▁못해	-9.53444
▁노트북	-9.53527
▁에어컨	-9.53538
▁봤어	-9.53563
때마다	-9.53634
▁마음이	-9.53698
놔	-9.53701
▁기본	-9.53771
조아	-9.53801
▁먹기	-9.54048
돌	-9.54066
▁늦	-9.54072
짱	-9.54155
▁오후	-9.54163
▁맞나	-9.54216
맞	-9.54247
▁주에	-9.54273
▁확실히	-9.5435
▁숙소	-9.54398
▁근처	-9.54413
마니	-9.54444
거같애	-9.54464
▁그대로	-9.54697
▁걸로	-9.54757
가지	-9.54868
▁됨	-9.54916
짜리	-9.54975
▁늘	-9.54991
▁병	-9.55032
하다고	-9.55041
▁바꿔	-9.55103
책	-9.55232
캐	-9.55238
▁ᄋᄏᄋᄏ	-9.5524
▁안나	-9.55366
다는	-9.554
▁없지	-9.55435
▁25	-9.55593
▁찐	-9.55642
▁엄마에게	-9.55696
했던	-9.55733
▁교육	-9.55816
▁들어가서	-9.55855
기를	-9.56031
왔	-9.56032
소속	-9.56143
꺼야	-9.5615
▁가장	-9.56302
▁다리	-9.56368
인줄	-9.56368
▁넣고	-9.56397
▁맞지	-9.56423
▁먹으라고	-9.56443
▁인스타	-9.56563
▁미안	-9.5662
▁왤케	-9.56676
▁미국	-9.56682
알아	-9.56721
이니	-9.56733
▁오케이	-9.56752
집에	-9.56835
▁받아서	-9.56866
▁일어나	-9.56873
▁멀	-9.56899
▁하나만	-9.56922
처	-9.56962
▁답	-9.57022
▁않	-9.57052
❤	-9.57147
평	-9.57182
▁이불	-9.57299
슬	-9.57314
사람이	-9.57319
.......	-9.5739
▁금요일에	-9.57439
▁않은	-9.57441
▁이틀	-9.57452
▁나만	-9.57454
▁보기	-9.57479
▁나갈	-9.57524
▁날이	-9.5753
▁감기	-9.57537
▁포기	-9.57573
값	-9.57623
▁새로운	-9.57677
향	-9.5768
친구	-9.57741
갔	-9.57768
▁하기로	-9.57795
▁보자	-9.57901
▁먼	-9.57905
▁봐서	-9.5792
있으면	-9.57986
▁맘에	-9.58008
▁외	-9.58009
▁케이크	-9.58021
도착	-9.58056
술	-9.58083
▁왕	-9.581
▁짜증나	-9.58148
▁역	-9.58153
▁색	-9.58198
였는데	-9.58199
▁그렇군	-9.58547
▁먹었	-9.58578
▁언니에게	-9.58591
▁그나마	-9.58599
야돼	-9.58617
▁새우	-9.58676
▁싫다	-9.58685
▁새벽	-9.58709
▁잠이	-9.58754
나와	-9.58843
▁샐러드	-9.58892
▁예쁜	-9.5892
▁닭	-9.58998
어요	-9.59023
카톡	-9.59039
▁일반	-9.5909
지않아	-9.59091
▁받는	-9.59104
ᄏᄏᄏᄏᄏᄏᄏᄏᄏᄏᄏᄏ	-9.59128
▁몇개	-9.59143
▁총	-9.59184
▁표	-9.59217
▁넘나	-9.59251
합니다	-9.59309
기는	-9.59355
▁배고파	-9.59423
▁있으니	-9.59458
없는	-9.59508
▁싸게	-9.59539
▁먹음	-9.59636
할거	-9.59713
..!	-9.59752
덕	-9.59794
해주	-9.59874
왔는데	-9.59892
표	-9.59907
▁옴	-9.5993
▁환불	-9.59941
팅	-9.5996
▁아파트	-9.60008
▁헤헤	-9.60038
▁건데	-9.60046
▁업	-9.60051
▁식	-9.60116
▁16	-9.60304
자리	-9.60316
▁꼬	-9.60375
▁결정	-9.60376
▁공부를	-9.60513
곡	-9.6053
진다	-9.60542
▁ᄀᄎ	-9.60619
▁고민하고	-9.60669
▁당연히	-9.60736
느라	-9.60796
▁일어나서	-9.60828
▁관리	-9.60901
▁회식	-9.60994
스트	-9.60995
▁시간을	-9.61036
▁많다	-9.61043
▁밥먹고	-9.61045
풀	-9.61127
라며	-9.61171
▁샀어	-9.61218
▁꽤	-9.6122
취	-9.61314
▁아픈	-9.61364
▁사람을	-9.6157
▁두고	-9.61683
나는	-9.61699
안돼	-9.61745
가능	-9.61753
!!!!!!	-9.61804
하더라	-9.61854
블	-9.61863
것같아	-9.61954
▁웃겨	-9.62011
▁어쩔	-9.62016
▁일하는	-9.62064
▁만두	-9.62112
▁살이	-9.62199
▁드디어	-9.62328
▁그런데	-9.62339
봤	-9.62343
별	-9.62386
▁바다	-9.62422
라니	-9.62481
야하는데	-9.62496
▁준다고	-9.62555
▁강의	-9.62642
▁푹	-9.62651
탄	-9.62805
_	-9.62853
▁딱히	-9.62909
▁술을	-9.62933
▁김치	-9.62943
▁사람도	-9.62999
▁안되	-9.63026
▁남은	-9.63198
▁받	-9.63381
▁결혼식	-9.63484
려서	-9.63532
햐	-9.63542
아님	-9.63565
이상	-9.6363
▁이따가	-9.63655
▁ᄉᄇ	-9.63777
클	-9.6387
받	-9.63941
▁스타벅스	-9.63975
▁그랬	-9.64028
갓	-9.64032
▁했고	-9.64046
▁추	-9.641
▁우리는	-9.64145
▁좋아해	-9.64228
외	-9.64254
법	-9.64266
애들	-9.64353
▁간식	-9.6445
졌	-9.64467
냐며	-9.64478
▁못하고	-9.64549
▁맛있다고	-9.64815
것같	-9.64823
거라	-9.64843
▁재밌	-9.64989
▁티비	-9.65041
▁오잉	-9.65119
▁쓴	-9.65131
▁아이패드	-9.65214
▁뜨	-9.65265
품	-9.65273
▁흐	-9.65391
▁생긴	-9.654
갈게	-9.65413
▁돼지	-9.65424
▁퇴사	-9.65468
텐데	-9.65507
▁다른거	-9.65525
▁오키오키	-9.65527
▁많고	-9.65534
▁요리	-9.6554
▁포장	-9.6555
▁포	-9.65564
▁아항	-9.65571
▁다행	-9.6559
들고	-9.65632
▁연애	-9.65648
씀	-9.6569
ᅥ	-9.65707
▁집가서	-9.65744
▁뒤	-9.65749
▁심지어	-9.65769
▁보면서	-9.65781
▁행복	-9.65795
▁싫	-9.65813
▁오고	-9.6584
▁그렇구나	-9.6585
▁....	-9.65971
▁삼겹살	-9.66055
▁맛있겠다	-9.66113
받고	-9.66166
▁대체	-9.66176
항	-9.66181
▁머야	-9.66198
▁글구	-9.66217
▁가져가	-9.66324
많	-9.66386
▁순	-9.66451
눈데	-9.66456
▁허리	-9.66457
▁보여	-9.66637
▁나름	-9.66728
▁에이	-9.66763
명이	-9.6684
▁보험	-9.66948
▁충전	-9.66973
▁신경	-9.66988
▁분위기	-9.66994
▁우산	-9.6708
▁먹으려고	-9.67087
▁하는지	-9.67104
▁맨	-9.67112
▁감자	-9.67222
▁만든	-9.67234
▁등록	-9.67272
▁먹어도	-9.67281
▁필요	-9.67338
▁톡	-9.67353
▁14	-9.67447
▁김밥	-9.67459
▁블랙	-9.67488
▁파스타	-9.6756
▁나오면	-9.67571
▁쓰면	-9.67593
비싸	-9.67615
▁얘	-9.67619
시부터	-9.67638
▁해주	-9.67642
20	-9.67674
▁각	-9.67682
▁추워서	-9.67698
▁꿀	-9.67723
▁이름이	-9.67734
▁절	-9.67743
▁옛날	-9.67746
엇어	-9.67753
쓰고	-9.67777
치고	-9.67782
빠	-9.67786
▁거지	-9.67799
찍	-9.67867
▁토익	-9.67872
려구	-9.67882
▁장난	-9.67918
쌤	-9.6792
▁각자	-9.68005
렸	-9.6806
▁오픈	-9.68187
▁부탁	-9.68192
▁괜찮다고	-9.68202
▁꿈	-9.68236
▁어디가	-9.68278
▁왱	-9.68296
▁언니도	-9.68311
▁17	-9.68316
▁굿	-9.68385
지말고	-9.68424
▁눈치	-9.68481
▁않을	-9.68542
▁18	-9.68548
▁물어봐	-9.6864
▁먹을지	-9.68652
해봐	-9.68653
입고	-9.68764
▁맞춰	-9.68769
▁맛집	-9.6881
료	-9.68823
준비	-9.68851
▁퇴근하고	-9.6886
▁ᄂ	-9.69002
▁있었는데	-9.69058
▁먹었다고	-9.69136
▁준다	-9.69259
손	-9.6939
이라니	-9.69436
충	-9.69527
보니	-9.69534
카페	-9.69536
▁경	-9.69538
▁아니라고	-9.69539
▁친구랑	-9.69547
▁여긴	-9.69596
▁먹는다고	-9.6962
▁칠	-9.69718
ᄐ	-9.6973
베	-9.69783
▁자기는	-9.69849
▁청	-9.69884
▁부럽다	-9.69931
들을	-9.7003
▁라	-9.70109
량	-9.70111
나요	-9.70136
녀	-9.70212
수도	-9.70259
줘서	-9.70271
▁뭔지	-9.70289
왓	-9.70289
▁졸	-9.70456
▁사과	-9.70503
▁맛있다	-9.70548
답	-9.70577
▁모든	-9.7059
▁영화를	-9.70623
없다	-9.70628
▁쇼핑	-9.70681
▁힘들다	-9.70718
뿐	-9.70732
▁친	-9.70829
학년	-9.70838
▁정신	-9.70912
▁올려	-9.71039
▁세일	-9.71042
볼게	-9.71053
봣	-9.71064
▁뭐라고	-9.71076
람	-9.71141
▁무료	-9.71156
ᄏᄏᄏᄏᄏᄏᄏᄏᄏᄏᄏᄏᄏ	-9.71334
?????	-9.71372
▁어플	-9.71439
▁저녁은	-9.71454
척	-9.71486
▁만원	-9.71505
별로	-9.71509
'	-9.71545
▁알게	-9.71584
▁잼	-9.716
▁줘	-9.71602
▁있어야	-9.7163
▁계획	-9.71633
번호	-9.7164
▁있지만	-9.71708
▁일요일	-9.71782
▁아침부터	-9.71786
▁세상	-9.71789
▁않는다	-9.7179
▁버	-9.71806
▁블로그	-9.71891
지고	-9.71943
나보네	-9.71961
익	-9.71985
▁점심에	-9.72016
있지	-9.72106
▁가도	-9.72112
▁골라	-9.72134
쪄	-9.72304
▁마시고	-9.72349
▁너한테	-9.72364
▁괜찮을	-9.72391
▁배우	-9.7241
뭐야	-9.72426
빨리	-9.72428
▁화장	-9.72581
엿	-9.72666
▁먹고싶다	-9.72668
▁머리를	-9.72671
▁상대방	-9.72686
른	-9.72699
▁스타일	-9.72708
봐서	-9.72719
이거	-9.72757
놓	-9.72769
까봐	-9.72843
▁주식	-9.72908
▁써야	-9.72939
▁물어보	-9.72958
▁작	-9.73014
▁끼	-9.7304
▁맛잇	-9.73058
▁보기로	-9.73081
났	-9.73151
껄	-9.73155
하냐	-9.73285
▁침대	-9.73315
▁싶	-9.73479
땜에	-9.73509
▁맞어	-9.73548
▁딸기	-9.73627
귀	-9.737
▁않는	-9.73702
▁한번도	-9.73725
s	-9.73747
▁졸업	-9.73796
▁여행을	-9.73803
▁피부	-9.73812
광	-9.73898
수가	-9.73949
▁월	-9.73987
▁안그래도	-9.74017
▁건지	-9.74039
받아	-9.74091
▁오홍	-9.74092
했네	-9.74102
▁잡	-9.74159
▁강남	-9.74164
▁은근	-9.74256
둥	-9.74286
▁무리	-9.74302
▁검정	-9.74346
▁대구	-9.7443
▁땀	-9.74458
▁식사	-9.74459
▁아프	-9.74559
▁차가	-9.74621
▁그런지	-9.74672
▁ᅮᅮᅮ	-9.74801
빼	-9.74822
▁없네	-9.74907
있고	-9.74961
▁!!	-9.74995
던가	-9.75037
▁검색	-9.75103
놈	-9.75121
▁재미	-9.75146
▁힘든	-9.75189
▁누	-9.75198
나바	-9.752
▁베	-9.75283
합	-9.75447
▁살아	-9.75463
▁아니냐	-9.75464
낫	-9.75476
있는거	-9.75478
▁마저	-9.7557
아직	-9.75595
▁더워	-9.75596
▁밖에서	-9.75615
▁언니랑	-9.75635
자마자	-9.75681
▁200	-9.75706
▁근무	-9.75734
▁그러고	-9.75805
▁놀고	-9.75838
문제	-9.75845
듀	-9.75903
운동	-9.75935
▁쪽	-9.75983
▁쉬고	-9.76058
▁있는거	-9.76232
▁그래야	-9.76324
▁마시	-9.76469
▁기사	-9.7649
건지	-9.76651
▁먹구	-9.76673
계정	-9.76687
▁인사	-9.76726
▁햇	-9.76742
▁약을	-9.76748
▁나이	-9.76813
▁다니	-9.76813
▁귀엽	-9.76855
▁설마	-9.7694
▁마감	-9.76992
▁안된다	-9.77058
▁몰라서	-9.77107
▁회사에	-9.77124
맨	-9.7717
▁씨	-9.77195
전화	-9.77234
▁0	-9.77281
▁ᄒᄉᄒ	-9.77376
시험	-9.77389
▁모르	-9.77446
▁차를	-9.77485
▁쉬는	-9.77492
▁개웃겨	-9.77547
▁사기	-9.77568
처넌	-9.77608
시켜	-9.77614
▁시즌	-9.77658
때매	-9.77662
ᄏᄏᄏᄏᄏᄏᄏᄏᄏᄏᄏᄏᄏᄏ	-9.7771
▁목요일	-9.77727
▁어느	-9.77754
긔	-9.77763
▁시간에	-9.77825
▁주소	-9.77842
▁번호	-9.77855
▁패딩	-9.77857
땅	-9.77899
▁집으로	-9.77919
쏘	-9.77928
▁점점	-9.77965
틀	-9.78064
되고	-9.781
▁세상에	-9.78153
▁쌤	-9.78154
▁월요일에	-9.78184
▁수가	-9.78186
▁면	-9.7819
는것도	-9.78199
엄청	-9.78382
땐	-9.78391
▁하루종일	-9.78409
령	-9.78442
긴해	-9.78477
▁잡아	-9.78521
▁정보	-9.78542
하여	-9.78544
격	-9.78708
▁안경	-9.78724
▁합격	-9.78779
▁반찬	-9.78826
어때	-9.78827
▁사다	-9.78891
골	-9.78913
그런	-9.78974
먹을	-9.79005
▁화가	-9.79083
▁눈물	-9.79157
▁웃	-9.79187
▁써서	-9.79221
▁샌드위치	-9.79268
▁빠	-9.79362
▁이러	-9.79398
▁꺼	-9.79432
ᅢ	-9.7947
▁보내주	-9.79488
▁사진이	-9.79561
▁귀엽다	-9.79585
▁투	-9.79607
▁딴	-9.79611
런	-9.79669
▁변	-9.79681
▁크림	-9.79698
되어	-9.7977
▁미안해	-9.79852
는걸	-9.79856
▁추워	-9.79867
▁괜찮다	-9.79874
▁형	-9.79914
▁떼	-9.79924
▁나옴	-9.79947
▁기다려	-9.7996
▁고생	-9.79963
짓	-9.79964
▁60	-9.79982
분이	-9.8003
던거	-9.80064
▁과일	-9.80065
▁어디로	-9.80091
대박	-9.80137
▁보자고	-9.8014
맘	-9.80163
하지만	-9.80297
▁안해	-9.8036
▁돌려	-9.80377
▁모두	-9.8056
▁하구	-9.80593
▁전화를	-9.80594
▁그걸로	-9.80616
희	-9.80658
▁얌	-9.80733
▁누나가	-9.80739
▁해보	-9.80746
있나	-9.80752
▁햄버거	-9.80759
▁싫다고	-9.80782
▁그러네	-9.80798
▁최대한	-9.80872
▁좋네	-9.80877
▁자전거	-9.80889
▁남자친구	-9.80894
▁했던	-9.80948
회사	-9.80976
거래	-9.81008
▁거리	-9.81015
▁마트	-9.81046
▁대학	-9.81052
▁왔다고	-9.81167
원이	-9.81218
안해	-9.81229
▁기다리	-9.81241
▁몇시	-9.81243
▁꾸	-9.81247
▁필요한	-9.81332
▁왔어	-9.81344
▁알려주	-9.8136
엄	-9.81369
▁연습	-9.81372
바지	-9.81386
▁콘서트	-9.81399
▁침	-9.81436
다녀	-9.81526
▁여러	-9.81538
▁19	-9.81565
▁은행	-9.81573
▁갈게	-9.8159
▁우리도	-9.81592
▁오전에	-9.81617
거임	-9.81625
▁브랜드	-9.81667
▁버스를	-9.81744
몰	-9.81762
▁왔	-9.81763
롱	-9.81814
▁말하자	-9.81868
▁많은데	-9.81941
▁더워서	-9.81951
▁하자고	-9.81985
▁효과	-9.81998
d	-9.82024
▁괜춘	-9.82107
대서	-9.82108
갈때	-9.82126
▁중간에	-9.82147
ᄌ	-9.82184
많아	-9.82202
▁ᄋᄋᄋᄋ	-9.82236
▁오전	-9.82294
▁다음주	-9.82298
▁저건	-9.82368
▁조심히	-9.82418
▁빨래	-9.82463
했음	-9.82498
▁케이스	-9.82505
▁고민중	-9.82559
▁국	-9.82602
▁마스크를	-9.82638
▁밥은	-9.82656
내일	-9.82714
샀	-9.82716
▁무엇을	-9.82734
쇼	-9.82736
▁그런가봐	-9.8277
▁옆	-9.8279
졌어	-9.82862
▁기다리고	-9.82912
▁인천	-9.82972
▁며칠	-9.83003
▁귀찮아서	-9.83045
집에서	-9.83088
니다	-9.8313
설	-9.83154
▁일요일에	-9.83181
▁삼성	-9.83196
▁오늘부터	-9.83284
▁아이고	-9.83299
은거	-9.83318
▁날짜	-9.83348
ᅮᅮᅮᅮ	-9.83392
▁보라고	-9.83441
▁치과	-9.83497
▁발표	-9.83533
▁조금만	-9.8354
▁만드는	-9.8356
▁오지	-9.83599
▁요즘은	-9.83622
▁근	-9.83677
▁추천해	-9.83692
▁학	-9.8373
빼고	-9.83756
하긴	-9.83764
▁보다	-9.83771
▁도전	-9.83776
▁취	-9.83814
▁법	-9.83853
▁두번	-9.83982
▁비싸서	-9.84017
고싶어	-9.84064
▁연차	-9.84087
▁갈지	-9.84155
▁입금	-9.84185
▁용	-9.84194
타고	-9.84246
▁갔	-9.84274
▁아저씨	-9.84314
▁친구들	-9.84319
▁물건	-9.84343
몰라	-9.84441
▁하게	-9.84517
▁귀찮	-9.8453
▁음식을	-9.84591
▁성공	-9.84617
▁설명	-9.84626
자가	-9.84644
▁곱창	-9.84665
▁-	-9.84691
▁고고	-9.84718
▁생각하고	-9.84723
▁먹는다	-9.84793
콘	-9.84895
▁다닐	-9.84927
다리	-9.85004
▁주차	-9.85005
▁잠만	-9.8514
준다	-9.85145
시간이	-9.85195
밤	-9.85203
▁같음	-9.8525
▁중인데	-9.85293
▁얘기를	-9.85304
▁귀여운	-9.85382
▁알았	-9.85408
▁복	-9.85409
돼서	-9.85435
▁그리	-9.85482
지에	-9.85509
▁잇어	-9.85527
▁찍은	-9.85539
▁오옹	-9.85564
▁토스	-9.85629
▁500	-9.85645
▁거기에	-9.85682
▁연기	-9.85693
▁프사	-9.85766
▁내년	-9.85785
승	-9.85806
▁싶지만	-9.85847
▁해봐	-9.85869
▁체	-9.85871
츠	-9.85885
▁사무실	-9.85911
오래	-9.85959
▁낮에	-9.86018
보다는	-9.86034
▁상담	-9.86061
갔어	-9.86078
▁속이	-9.86154
온다	-9.86189
▁온다	-9.86244
▁푸	-9.86254
▁당연하지	-9.86278
지않	-9.86317
적이	-9.86387
▁거라	-9.86396
▁쉬어	-9.86401
시반	-9.86417
▁직원	-9.86462
갈래	-9.86499
▁광고	-9.86547
▁않았다	-9.86569
나가	-9.86602
▁지금도	-9.86678
▁근처에	-9.86715
▁서류	-9.86743
▁모기	-9.86779
걍	-9.86792
▁옷이	-9.86799
▁감사	-9.86825
었다고	-9.86838
▁철	-9.86847
▁얼	-9.86854
▁숨	-9.86858
호선	-9.86887
▁알려준다	-9.86909
렴	-9.86932
▁안하고	-9.86962
먹자	-9.86987
▁앞에서	-9.87057
▁태	-9.87097
▁어떡해	-9.87108
지면	-9.87108
이지만	-9.87125
▁계산	-9.87185
▁잘해	-9.87194
▁해결	-9.87218
▁잠을	-9.87339
▁이마트	-9.87409
▁시러	-9.87465
▁염색	-9.87536
▁비슷한	-9.87573
▁확진자	-9.87574
공부	-9.87681
▁위해서	-9.87822
밀	-9.87838
샤	-9.87885
▁도시락	-9.87899
▁흰색	-9.87935
~^^	-9.87954
▁어깨	-9.88006
▁식당	-9.88026
다시	-9.88086
▁자신이	-9.88186
▁카페에서	-9.88245
먼	-9.88267
▁근디	-9.88288
페	-9.88309
랏	-9.88502
▁카페에	-9.88557
▁육	-9.88639
▁먹는데	-9.88662
▁잘했어	-9.88696
▁물어본다	-9.88748
지않나	-9.8876
▁먹을까	-9.88996
겡	-9.89091
▁업무	-9.89143
▁질	-9.89158
▁구냥	-9.89164
▁노력	-9.89184
을텐데	-9.89185
아니고	-9.89273
▁있었	-9.89284
야겠다고	-9.89313
▁우리나라	-9.89321
▁할게	-9.89329
▁전화해서	-9.89348
았어	-9.8941
▁갓	-9.89421
▁선물로	-9.89495
▁가야지	-9.89515
먹었어	-9.89521
▁봐도	-9.89569
▁아무리	-9.89571
▁글쿤	-9.89615
결	-9.89655
▁쓰레기	-9.89753
▁난다	-9.89813
▁알려주고	-9.89938
▁ᄆᄌ	-9.90002
▁에어팟	-9.90023
▁그랭	-9.90051
▁이모	-9.90095
▁매우	-9.90101
끝	-9.90157
▁넵	-9.90201
▁나왔는데	-9.90234
▁허허	-9.90248
▁이번엔	-9.90318
▁설	-9.90335
하자고	-9.9035
▁책상	-9.90414
▁화이팅	-9.90429
▁모르고	-9.90445
g	-9.90451
햇다	-9.90468
▁말도	-9.90473
▁맛나	-9.90525
▁글쎄	-9.90532
▁붙	-9.90578
▁주면	-9.90588
▁살지	-9.90588
▁계약	-9.90607
먹는	-9.9064
a	-9.9069
▁그림	-9.90802
십	-9.90824
▁가려	-9.90846
킹	-9.90859
사람들	-9.90946
겟네	-9.9097
▁말한	-9.90973
▁이쁜	-9.9101
▁핵	-9.91089
쓸	-9.91135
딱	-9.91206
e	-9.91245
어디	-9.91288
▁넘어	-9.91295
왔다	-9.91413
▁죽을	-9.91444
▁샀다고	-9.9151
립	-9.91525
일까지	-9.91526
되서	-9.91595
영화	-9.91611
▁예상	-9.91655
가고	-9.91658
▁이유가	-9.91697
도안	-9.91722
나옴	-9.9174
원에	-9.91744
▁모자	-9.91794
▁됐	-9.91797
▁아니지	-9.91812
거면	-9.91845
▁연어	-9.91848
▁그랫	-9.91862
▁받으면	-9.91863
들어가	-9.9189
▁티켓	-9.91984
▁적당히	-9.91992
▁지각	-9.91995
찬	-9.92156
▁일정	-9.92172
ᅮᅲ	-9.92184
▁상대자	-9.92193
▁차이	-9.92198
▁본인	-9.92218
▁편하게	-9.92299
▁마카롱	-9.92311
치킨	-9.92312
▁물론	-9.92328
▁쟤	-9.92414
p	-9.92426
▁결과	-9.92509
▁카메라	-9.92541
▁수영	-9.92659
팀	-9.92677
▁찌	-9.92686
먹었	-9.92702
융	-9.9274
하시	-9.92797
▁전혀	-9.92963
▁개인	-9.9299
철	-9.9303
▁작년에	-9.93036
묵	-9.9308
▁엄	-9.93093
▁안가	-9.931
▁좋겠다고	-9.93191
▁하러	-9.93204
▁퍼	-9.93268
▁봐봐	-9.93284
▁후회	-9.93306
▁회의	-9.93307
▁그니깐	-9.93311
버리	-9.93315
졌다	-9.93361
여행	-9.93385
▁자는	-9.93393
역에서	-9.93462
▁방에	-9.93514
▁확	-9.93558
껴	-9.93606
않	-9.93625
아파	-9.9363
▁있으니까	-9.93631
더라구	-9.93656
▁크리스마스	-9.93796
▁말하는	-9.93804
▁추석	-9.93857
해라	-9.93907
으며	-9.93912
▁오후에	-9.93928
수업	-9.93931
했고	-9.93933
됐	-9.94006
시작	-9.94014
▁존맛	-9.94026
m	-9.94041
기만	-9.94062
장이	-9.94117
없음	-9.94257
▁판	-9.94296
일듯	-9.94318
노래	-9.94343
존	-9.94352
▁이벤트	-9.94376
▁유명한	-9.94385
▁지나	-9.94438
▁매장	-9.94488
▁쌀	-9.94522
▁직	-9.94559
▁되나	-9.94578
▁월요일	-9.94603
▁팬	-9.94703
▁내용	-9.94704
▁소스	-9.94789
▁방송	-9.94795
놨	-9.94809
▁오빠는	-9.94809
▁예정이다	-9.94869
▁넣어서	-9.94928
▁이것도	-9.94959
▁설치	-9.94979
▁홍	-9.94984
▁당연	-9.95031
▁디자인	-9.95169
사고	-9.95221
▁재밌어	-9.95227
머거	-9.95368
▁쿠팡	-9.95459
보는	-9.95461
▁팔아	-9.95467
▁일부러	-9.95485
▁곳에	-9.95526
거같아서	-9.95594
▁춥	-9.95647
▁해외	-9.95737
▁옛날에	-9.95748
▁몰	-9.95756
푸	-9.95808
야겟다	-9.95855
▁맛있는거	-9.95865
▁카카오	-9.95902
▁수요일	-9.95917
▁;;	-9.95946
▁ᄋᄆᄋ	-9.95999
동영상	-9.96001
▁사라고	-9.96066
▁대기	-9.96072
▁샤워	-9.96095
▁문제가	-9.96137
독	-9.96154
▁다행이네	-9.96158
▁난다고	-9.9622
▁안좋아	-9.96251
▁메	-9.96277
▁카레	-9.96285
라는데	-9.9636
▁박스	-9.9638
엄마	-9.96404
▁몇번	-9.96412
~~~~~	-9.96424
▁직장	-9.96466
셨	-9.96497
▁작업	-9.96537
▁놓고	-9.96643
구먼	-9.96646
▁트	-9.9667
▁매운	-9.96673
버림	-9.96735
같은데	-9.9677
▁아이디	-9.96789
▁건강	-9.96809
시키	-9.96832
했더니	-9.96838
싫어	-9.96863
▁끝나면	-9.96867
▁못해서	-9.96905
▁돌아	-9.9693
▁넘게	-9.96963
▁나왔	-9.96974
▁걸리	-9.96975
▁힘들어서	-9.97022
▁사람들은	-9.97059
▁신기	-9.9708
가야지	-9.97153
▁인형	-9.9716
▁상태	-9.97176
▁슬슬	-9.97229
두고	-9.97255
▁광주	-9.97269
50	-9.97282
▁포인트	-9.97303
▁저녁을	-9.97434
야징	-9.97519
▁ᅲᅲᅲᅲᅲᅲ	-9.9754
▁밀	-9.97584
▁지갑	-9.97599
▁나왔다	-9.97627
▁아쉽	-9.97669
▁기차	-9.97748
할거야	-9.97789
▁낫	-9.9781
쩌	-9.97885
▁공연	-9.97903
▁구랭	-9.97919
▁접수	-9.97955
........	-9.97998
▁만나면	-9.97999
▁교수님	-9.98005
인가봐	-9.98029
▁거긴	-9.98034
▁얼굴이	-9.9805
▁바꾸	-9.98056
▁자신의	-9.98098
▁ᄋᄌ	-9.98167
▁로또	-9.98168
렌	-9.98173
▁참고	-9.98174
덜	-9.98178
▁있잖아	-9.98189
▁토론한다	-9.98205
▁콜	-9.98257
▁부르	-9.98266
▁나아	-9.98267
으러	-9.98305
다구	-9.98339
오빠	-9.9838
▁초밥	-9.98386
털	-9.98386
사서	-9.98429
버스	-9.98457
▁존	-9.98463
빨	-9.98652
▁댓글	-9.98683
▁코트	-9.98734
▁롯데	-9.98749
했지만	-9.98771
▁하다	-9.98794
▁맞네	-9.98825
할인	-9.98826
▁교환	-9.98841
▁인기	-9.98849
▁넷플릭스	-9.98861
▁교회	-9.98866
아니야	-9.98969
나면	-9.98984
▁나눈다	-9.9899
봐야	-9.99075
▁웹툰	-9.99144
▁책을	-9.99211
▁만약	-9.99286
▁아프다	-9.99306
본다	-9.99327
▁찍	-9.99408
지않을까	-9.9942
▁치킨을	-9.99426
▁어디야	-9.99469
▁평생	-9.99498
거같음	-9.99524
▁신기해	-9.99554
▁28	-9.99699
▁???	-9.99705
▁느끼	-9.99754
▁내년에	-9.99796
▁알려줘	-9.99864
▁중이라고	-9.99955
보이	-9.99966
▁종이	-10.0002
▁만나는	-10.0003
되지	-10.0007
삿	-10.0009
▁칼	-10.0013
▁웃기다	-10.0015
▁장소	-10.0018
c	-10.0023
▁못가	-10.0024
▁휴대폰	-10.0031
▁받았	-10.0038
▁상관없	-10.0041
▁자격증	-10.0042
▁적이	-10.0044
가게	-10.0046
▁특히	-10.005
▁뛰어	-10.0054
=	-10.0057
▁창	-10.0064
▁정도로	-10.0067
▁엄마도	-10.007
덩	-10.0076
▁좋은거	-10.0079
▁힘내	-10.0082
▁얘기한다	-10.0088
▁독	-10.0095
곤	-10.0115
▁자기도	-10.0117
잼	-10.0119
똥	-10.012
▁산다	-10.0125
준다고	-10.0129
▁냉장고	-10.0129
▁연락이	-10.0137
▁없나	-10.0148
▁파티	-10.0153
▁괜차나	-10.0153
▁담주에	-10.0159
착	-10.0165
▁창문	-10.0165
헐	-10.0173
▁다이어리	-10.018
▁과외	-10.0187
▁다른데	-10.0189
먹엇	-10.019
▁애가	-10.0192
▁썼	-10.0194
잇는데	-10.0194
▁혼	-10.0194
할지	-10.0196
바로	-10.0205
▁괜찮은데	-10.0214
▁교	-10.0215
▁가라고	-10.0216
주세요	-10.022
▁다니는	-10.0223
▁보다가	-10.0223
▁재밋	-10.0225
▁토욜	-10.0225
▁네가	-10.023
짝	-10.0234
▁싫어서	-10.0234
▁봤	-10.0237
▁원피스	-10.024
▁이동	-10.0241
껀	-10.0245
▁자랑	-10.0249
보는데	-10.025
괜찮	-10.025
▁무섭다	-10.025
하던데	-10.0252
▁네네	-10.0257
혼자	-10.0257
▁반지	-10.026
▁오케	-10.0262
▁아니아니	-10.0265
▁생각을	-10.0266
▁들어서	-10.0269
변	-10.0274
▁해줘	-10.0283
▁음료	-10.0284
나오	-10.0284
닥	-10.0284
▁눈썹	-10.0289
▁롤	-10.0292
▁탄	-10.0293
럽	-10.0297
▁체크	-10.0301
▁그정도	-10.0304
휴	-10.0305
▁물으니	-10.0311
엥	-10.0318
▁소주	-10.0322
▁낮	-10.0322
고싶	-10.0324
한게	-10.0333
들도	-10.0335
▁커서	-10.0335
▁노래를	-10.0341
▁내일부터	-10.0342
▁캐	-10.0343
▁하나씩	-10.0346
▁동영상	-10.0354
었음	-10.0356
▁현금	-10.0358
▁공항	-10.0363
▁후에	-10.0366
▁클	-10.0372
▁듣	-10.0374
▁오히려	-10.0379
째	-10.038
▁비교	-10.0383
야되는데	-10.0389
▁안된다고	-10.0391
▁궁금	-10.0397
▁보이는	-10.0398
였다	-10.0403
▁똑같	-10.0404
그래도	-10.0413
▁태풍	-10.0421
▁전부	-10.0422
▁엄마와	-10.0424
붙	-10.0424
▁보려고	-10.0427
저녁	-10.043
▁같다며	-10.043
▁움	-10.0435
지뭐	-10.0436
▁쭉	-10.0437
난다	-10.0448
▁아무래도	-10.0453
몬	-10.0453
▁왼쪽	-10.0453
했나	-10.0454
▁냄새가	-10.0455
▁목소리	-10.0456
▁대출	-10.046
▁성격	-10.0469
▁끼고	-10.047
▁메뉴	-10.0474
▁하더라	-10.0475
▁용돈	-10.0476
▁어려워	-10.0481
▁사장	-10.0483
보러	-10.0484
▁바보	-10.0491
▁궁금해	-10.0491
계속	-10.0495
봐야지	-10.0496
▁몸에	-10.0497
넣어	-10.0498
▁맞춰서	-10.0502
우면	-10.0502
𐨛	-10.0505
▁부분	-10.0508
▁그렇다	-10.0515
▁계	-10.0518
가지구	-10.052
▁것이고	-10.052
▁실패	-10.052
몇	-10.0524
톡	-10.0525
▁미니	-10.0525
▁요가	-10.0527
▁23	-10.0528
▁기름	-10.053
겟어	-10.0532
▁핫	-10.0533
▁지인	-10.0537
▁어머니	-10.0538
▁기계	-10.0539
▁이래서	-10.0539
일은	-10.0541
줬	-10.0548
싱	-10.0549
▁ᄌᄂ	-10.0551
▁것인지	-10.0551
할래	-10.0557
동안	-10.0561
▁데이터	-10.0568
♡	-10.0576
▁니트	-10.0579
▁닭발	-10.0587
이얌	-10.0588
ᅭ	-10.0595
▁막상	-10.0596
액	-10.0596
▁화장품	-10.06
▁80	-10.0605
어제	-10.0613
▁게임을	-10.0624
▁만들어서	-10.0625
▁프로	-10.0633
▁너의	-10.0634
▁생겨서	-10.0638
육	-10.0641
일날	-10.0643
어케	-10.0645
▁보낸	-10.0647
▁친구에게	-10.0648
마리	-10.065
▁그렇다고	-10.0652
득	-10.0654
▁남친	-10.0656
엇는데	-10.0659
▁자서	-10.0664
▁갈래	-10.0666
단계	-10.0667
넴	-10.0668
▁이상해	-10.0681
▁가을	-10.0687
▁영업	-10.0705
▁데리고	-10.0709
돌아	-10.0715
▁싹	-10.0718
▁모르겠	-10.0718
극	-10.0719
굴	-10.0723
▁종	-10.0727
닷	-10.0731
효	-10.0736
는건가	-10.0736
▁있냐고	-10.0741
좋다	-10.0747
▁훨씬	-10.0754
▁치료	-10.0755
패	-10.0756
욕	-10.0757
▁다녀	-10.0757
▁이러고	-10.0759
▁내고	-10.0771
해여	-10.0775
▁홍대	-10.0778
깡	-10.0783
▁척	-10.0786
▁상품	-10.0788
먹어서	-10.079
▁소고기	-10.0791
쪽으로	-10.0791
▁여름에	-10.0812
▁뽑	-10.0818
▁널	-10.0823
▁보여주	-10.0824
▁남았	-10.0828
▁월세	-10.0832
해보	-10.0839
▁눈에	-10.0841
▁노노	-10.0842
!!!!!!!	-10.0846
▁향	-10.0846
은데	-10.0846
간다고	-10.0848
숙	-10.0852
▁자리가	-10.0856
▁바쁘	-10.0856
을걸	-10.0857
기전에	-10.0863
▁행사	-10.0869
▁언	-10.0875
▁스티커	-10.0877
▁핑크	-10.0877
▁묵	-10.0879
일찍	-10.0883
북	-10.0887
▁겨울에	-10.0891
맛있	-10.0896
▁순간	-10.0897
▁마싯	-10.091
▁얘기해	-10.0918
▁지역	-10.092
쪽에	-10.0926
둔	-10.093
▁좀만	-10.093
▁받았다	-10.0938
▁29	-10.0938
▁팀	-10.0939
▁족발	-10.0939
았는데	-10.0945
▁모야	-10.0948
▁오바	-10.095
▁집을	-10.0952
▁하는게	-10.0954
▁22	-10.0956
▁적금	-10.0958
집이	-10.096
▁같은거	-10.096
▁좀더	-10.0962
▁먹고싶어	-10.0964
▁있대	-10.0965
▁이것저것	-10.0967
이라며	-10.097
이어서	-10.0974
▁경주	-10.0974
▁나쁜	-10.0977
썽	-10.098
▁대답	-10.0981
▁놀아	-10.0982
▁이래	-10.0983
▁안되면	-10.0985
린다	-10.0985
거기	-10.0994
군요	-10.0997
▁접	-10.0999
ᅩ	-10.0999
리가	-10.1002
▁연장	-10.1005
▁멍	-10.1005
▁왜냐면	-10.1007
▁있던	-10.1012
▁데이트	-10.1015
흑흑	-10.1016
▁들어갈	-10.102
하지마	-10.1023
▁수정	-10.1027
▁십	-10.1028
%	-10.1035
▁사지	-10.1039
▁헬스	-10.1042
▁불러	-10.1045
안하고	-10.1047
리는	-10.1047
▁그런건	-10.1049
▁시험을	-10.105
습	-10.1053
▁필수	-10.1054
▁확인하고	-10.1059
▁전주	-10.1063
야하나	-10.1065
▁신기하다	-10.1069
팩	-10.1076
▁본다	-10.108
▁슬퍼	-10.1081
▁이젠	-10.1087
▁별루	-10.1089
랫	-10.1092
▁색깔	-10.1098
안나	-10.1099
500	-10.11
▁공유	-10.1101
▁햇는데	-10.1103
▁진짜로	-10.1109
▁초대	-10.1117
▁ᄃ	-10.1118
오고	-10.1122
▁레	-10.1125
사이즈	-10.1126
▁독서실	-10.1129
▁달려	-10.1139
▁가구	-10.114
▁점심을	-10.1142
▁처	-10.1145
▁중간	-10.1146
가는데	-10.1149
▁해보고	-10.1152
아녀	-10.1153
존나	-10.1159
▁한잔	-10.1166
▁개이득	-10.1172
▁베트남	-10.1181
~~!	-10.1182
▁테니	-10.1183
리고	-10.1185
▁천안	-10.1185
▁300	-10.1189
▁산거	-10.1191
▁토마토	-10.1192
▁최소	-10.1204
▁야채	-10.1213
▁파일	-10.1217
▁다르	-10.1217
일까	-10.1227
▁올라가	-10.1229
는듯	-10.1241
▁내리	-10.1247
뻔	-10.1253
▁약속을	-10.1257
▁알겠	-10.1259
▁한명	-10.1261
월까지	-10.1265
▁아기	-10.1266
긋	-10.1271
구요	-10.1274
네여	-10.1275
앤	-10.1275
t	-10.1278
▁되는지	-10.1278
뷰	-10.1279
▁거기가	-10.1281
▁취향	-10.1284
▁여부	-10.1306
있네	-10.1307
야함	-10.1308
션	-10.1308
▁앉아서	-10.1313
▁안되는	-10.1314
부분	-10.1322
▁뽑아	-10.1322
필	-10.1323
늘	-10.1328
▁21	-10.133
댐	-10.1334
도록	-10.1337
▁양이	-10.1339
송	-10.1339
▁원에	-10.1343
좋은	-10.1346
▁머거	-10.1346
▁먹는거	-10.1348
▁흰	-10.1351
잇음	-10.1351
하였다	-10.1355
▁연결	-10.1357
흐	-10.1361
가야	-10.1364
▁켜	-10.1367
완전	-10.1367
▁한거	-10.1367
셔서	-10.1377
내려	-10.1378
▁도서관	-10.1379
하잖아	-10.1382
욥	-10.1382
▁공무원	-10.1389
▁뭐해	-10.1391
▁낫지	-10.1392
▁외국	-10.1394
신청	-10.1395
▁사장님	-10.1396
▁반팔	-10.1396
▁돈은	-10.1397
▁대만	-10.14
▁확정	-10.1404
▁감동	-10.1407
▁오른쪽	-10.1417
▁언능	-10.1417
으루	-10.1422
▁한강	-10.1425
▁무서워서	-10.1427
▁쉴	-10.1433
▁등산	-10.1433
ᄒᄒᄒᄒ	-10.1434
▁부자	-10.1436
▁생활	-10.1438
▁웃기	-10.1441
ᅲᅮ	-10.1444
딸	-10.1449
찾아	-10.1469
▁방문	-10.1471
▁왠지	-10.1471
▁다이소	-10.1475
▁쿠키	-10.1475
▁먹을거	-10.148
▁강릉	-10.1486
▁갤럭시	-10.1488
▁한개	-10.149
▁예뻐	-10.1493
▁운	-10.1493
록	-10.1494
▁이용	-10.1494
▁건물	-10.1496
▁바꿀	-10.1498
없는데	-10.1499
▁담배	-10.1506
▁달에	-10.1507
뇨	-10.1511
▁뒷	-10.1522
▁보이	-10.1524
▁내려서	-10.1525
▁충격	-10.1525
▁시킬	-10.1527
▁곳에서	-10.1529
을거야	-10.153
▁화요일	-10.153
였나	-10.1532
▁민	-10.1532
▁온라인	-10.1533
▁않나	-10.1533
▁노트	-10.154
샀어	-10.1542
ᄇ	-10.1542
룸	-10.1549
▁걸려	-10.155
쳐서	-10.1553
▁상상	-10.1557
▁병원에서	-10.1559
▁쪼	-10.1561
▁본다고	-10.1562
농	-10.1569
11	-10.1571
▁저나	-10.1573
아닌	-10.1573
▁채	-10.1578
▁나무	-10.1585
▁똑같은	-10.1587
▁ᄆᄎ	-10.1588
▁26	-10.1593
▁나온다	-10.1599
▁같다는	-10.1602
▁나오고	-10.1602
▁귀찮아	-10.1604
겠지만	-10.1606
▁맛있어서	-10.1608
곳이	-10.1609
해달라고	-10.1615
▁와인	-10.1619
끝나	-10.1629
▁들었	-10.1635
일부터	-10.1636
▁향수	-10.1638
갔다가	-10.1638
▁목이	-10.164
▁처리	-10.164
얼마	-10.164
일단	-10.1653
에선	-10.1653
▁작년	-10.1654
가는거	-10.1656
▁내내	-10.1658
▁비싸다	-10.1659
▁개꿀	-10.1663
▁시키	-10.1669
▁방학	-10.1673
이었는데	-10.1673
▁빈	-10.1674
▁않다	-10.1675
▁커피를	-10.1676
▁분명	-10.1677
▁아니냐고	-10.1678
▁하네	-10.1678
▁바나나	-10.168
▁어우	-10.1685
주라	-10.1691
▁해달라고	-10.1692
▁유행	-10.1693
▁높	-10.1697
▁커플	-10.1698
▁이뻐	-10.1703
▁안대	-10.1703
▁보여줘	-10.1709
▁뼈	-10.1709
▁후후	-10.1713
▁증말	-10.1713
출근	-10.1718
▁귤	-10.1718
▁공주	-10.1719
▁훔	-10.1721
환	-10.1722
▁싶고	-10.1728
▁마사지	-10.1731
▁맛난거	-10.1734
▁잤	-10.1734
헤	-10.1748
▁관심	-10.1749
원을	-10.175
▁한달에	-10.1754
것만	-10.1757
끄	-10.1759
▁반에	-10.1761
▁꾸준히	-10.1761
마자	-10.1763
사면	-10.1765
먹구	-10.1768
▁드는	-10.177
▁원이	-10.1773
▁금욜	-10.1773
▁국물	-10.1774
▁어디에	-10.1775
수록	-10.1777
슨	-10.1777
늠	-10.1778
▁언니야	-10.1779
▁다같이	-10.1781
▁우체국	-10.1785
듬	-10.1785
▁엽떡	-10.1788
▁부럽	-10.1792
어야	-10.1798
된거	-10.1799
▁놀러가	-10.1807
먄	-10.1808
원래	-10.1814
하라	-10.1818
만나	-10.1818
▁27	-10.1818
▁색이	-10.1819
▁극	-10.1821
▁미쳤다	-10.1825
힘들	-10.1832
▁지가	-10.1841
내고	-10.1841
▁나가면	-10.1849
이런	-10.1851
▁여기는	-10.1856
▁하여	-10.1857
▁피곤해서	-10.1857
▁전체	-10.1861
▁마실	-10.1862
😊	-10.1863
▁손님	-10.1863
웠	-10.1864
▁의자	-10.1867
▁무섭	-10.1867
▁본인이	-10.1873
출발	-10.1878
▁인터넷으로	-10.1881
무슨	-10.1886
겁나	-10.1887
안가	-10.189
힘	-10.1892
▁라고	-10.1895
▁군대	-10.1896
▁앨범	-10.1898
났어	-10.1899
▁만들고	-10.19
▁서울에	-10.1902
▁어찌	-10.1904
▁일하고	-10.1905
▁보인다	-10.1908
▁대박이다	-10.1911
개를	-10.1912
▁평일	-10.1912
▁있어요	-10.1913
▁이쁘다	-10.1915
봥	-10.1919
▁지금까지	-10.1924
▁간장	-10.1927
▁프로필	-10.1931
▁보냈	-10.1931
▁슈	-10.1939
되는거	-10.1942
▁제출	-10.1947
갔는데	-10.1956
▁보며	-10.1956
▁배터리	-10.1956
▁슬	-10.1958
있었	-10.1963
▁상대	-10.1963
▁상황	-10.1963
▁넹넹	-10.1966
▁틀	-10.1967
▁재밌게	-10.1971
▁먹엇	-10.1976
▁70	-10.1977
커피	-10.1979
홍	-10.1981
▁좋아요	-10.1981
하느라	-10.1984
올라	-10.1989
▁프로그램	-10.199
▁살고	-10.1998
▁볼까	-10.2001
구려	-10.2002
▁알아보고	-10.2005
웃겨	-10.2009
▁어머님	-10.2011
▁편해	-10.2013
▁티켓팅	-10.2017
▁많다고	-10.2017
▁셔츠	-10.2022
했대	-10.2026
▁알려	-10.2026
▁컴터	-10.2028
▁촬영	-10.2031
뽑	-10.2032
▁처음에	-10.2033
쟁이	-10.2036
▁고민한다	-10.2038
▁예정	-10.2038
f	-10.2041
▁만족	-10.2047
▁대전	-10.2049
▁피곤	-10.205
▁백수	-10.2052
▁관	-10.2055
하던	-10.2059
켜	-10.2059
▁되니까	-10.2061
하는지	-10.2061
▁해야겠다	-10.2062
고야	-10.2063
▁어렵	-10.2069
▁빨간	-10.2071
▁기억나	-10.2071
▁주변에	-10.2072
하는거야	-10.2072
▁덥	-10.2074
▁한국사	-10.2075
는겨	-10.2077
▁물건을	-10.2085
맥	-10.2087
▁삿	-10.2087
▁세트	-10.2088
▁계정	-10.209
되는데	-10.2091
▁포함	-10.2091
렷	-10.2092
크림	-10.2097
남친	-10.2101
▁피티	-10.2104
▁가는거	-10.2104
▁갔어	-10.2105
▁잘자	-10.2113
▁생각하면	-10.2114
▁원하는	-10.2114
정리	-10.2122
ᅲᅲᅲᅲᅲᅲ	-10.2124
▁반품	-10.2127
▁ᅡ	-10.213
▁루	-10.2134
▁좋음	-10.2134
▁땐	-10.214
▁왓	-10.2143
▁안사	-10.2145
▁얘기했다	-10.2148
큰	-10.2158
▁누워서	-10.2159
▁예쁘다	-10.216
▁레알	-10.2162
자기	-10.2163
이구나	-10.2165
▁먹고싶	-10.2166
룩	-10.2166
▁애플	-10.2171
▁나의	-10.2171
▁헐랭	-10.2172
맛이	-10.2175
▁할거	-10.2182
그렇	-10.2185
퇴근	-10.219
▁'	-10.2192
▁대하여	-10.2194
▁공감	-10.2194
될듯	-10.22
▁글케	-10.2204
▁경기	-10.2206
▁사와	-10.2206
▁부모님	-10.2206
미친	-10.2207
▁재료	-10.2212
젤	-10.2216
▁찾아서	-10.2217
▁헬스장	-10.2221
앞에	-10.2222
▁양념	-10.2226
▁먹게	-10.2226
▁ᅲᅮ	-10.2228
▁맥	-10.2237
입어	-10.2238
는건데	-10.2238
▁파마	-10.2239
▁학교에서	-10.2239
▁미세먼지	-10.2241
방에	-10.2249
▁물을	-10.2256
▁줘서	-10.2257
템	-10.2262
▁긁	-10.2263
▁입어	-10.2263
만해	-10.2264
해야해	-10.2267
▁연예인	-10.2269
▁말하며	-10.2273
▁넘어서	-10.2276
▁턱	-10.2278
범	-10.2279
성이	-10.2284
▁이걸	-10.2284
▁오는데	-10.2285
▁옆에서	-10.2288
▁헤	-10.2288
^	-10.2292
▁바빠서	-10.2294
잇는	-10.2297
▁꺼내	-10.2297
▁완	-10.2299
▁여튼	-10.2301
▁임	-10.2301
거아냐	-10.2304
▁찾고	-10.2304
▁길이	-10.2304
▁적어	-10.2307
▁이해가	-10.2313
▁고장	-10.2317
▁한번에	-10.232
▁끄	-10.2323
것같은데	-10.2331
▁잡고	-10.2333
스벅	-10.2334
▁생기	-10.2337
▁방법을	-10.2339
▁몬	-10.2339
안되	-10.2341
▁큰거	-10.2343
▁주변	-10.2344
흑	-10.235
▁굴	-10.235
▁로그인	-10.2352
없네	-10.2354
▁나왔어	-10.2355
▁사장님이	-10.2356
▁최	-10.2368
▁발견	-10.2369
▁에휴	-10.2369
▁대리	-10.2369
▁언니한테	-10.2373
▁렌즈	-10.2377
싶	-10.2392
▁잠옷	-10.2393
뿌	-10.2397
▁사랑해	-10.2398
▁없지만	-10.2402
세트	-10.2406
▁문의	-10.2408
뮤	-10.2409
▁뭐냐	-10.2409
▁마무리	-10.2414
▁ᄒᄒᄒᄒᄒ	-10.2416
▁다행히	-10.2416
▁하시	-10.2417
니께	-10.2421
시러	-10.2424
▁의사	-10.2424
▁컴	-10.2426
▁저번	-10.2427
견	-10.243
▁언제까지	-10.2431
▁못하는	-10.2436
▁괜찮지	-10.2438
▁맞고	-10.244
▁그렇고	-10.2441
▁면세	-10.2441
D	-10.2444
><	-10.2444
▁연락을	-10.2444
▁되는거	-10.2445
위에	-10.245
▁90	-10.2453
12	-10.2458
됐어	-10.2467
▁아래	-10.2469
▁학생	-10.247
▁금액	-10.247
▁사이	-10.2473
▁어렵다	-10.2474
시간에	-10.2475
▁인증	-10.2479
▁사이트	-10.248
지가	-10.2481
▁음악	-10.2481
▁나보고	-10.2481
▁걸릴	-10.2485
▁있네	-10.2491
▁열어	-10.2493
i	-10.2498
▁맛은	-10.25
에서는	-10.25
▁걔네	-10.2501
▁아닐	-10.2502
▁이쁘	-10.2505
▁받아야	-10.2519
▁아이돌	-10.2519
박스	-10.2523
▁앞머리	-10.2524
▁저장	-10.2528
▁생겼	-10.2529
받아서	-10.253
▁컵	-10.2534
▁야구	-10.254
▁했지	-10.2541
▁특	-10.2545
▁설정	-10.2556
▁선물을	-10.2557
▁지인이	-10.2557
줘야	-10.2558
▁조금씩	-10.2559
뒤	-10.256
▁갖다	-10.2562
▁부담	-10.257
하자나	-10.2571
▁~~	-10.2571
▁화이트	-10.2573
▁돈도	-10.2575
까지는	-10.2576
갑자기	-10.2582
▁산다고	-10.2584
비가	-10.2596
▁메일	-10.2597
▁타면	-10.26
▁평소에	-10.26
▁되었다	-10.2601
▁멀리	-10.2606
▁돈가스	-10.2606
▁점심은	-10.2607
그건	-10.2608
▁사람과	-10.261
▁최대	-10.2611
▁목표	-10.2613
못해	-10.2613
▁하나는	-10.2613
▁듣는	-10.2614
▁긍까	-10.2618
▁그래그래	-10.262
▁가겠다고	-10.2621
▁진행	-10.2622
▁저녁으로	-10.263
▁들을	-10.2633
▁아저씨가	-10.2639
▁봤다	-10.2642
▁빠지	-10.2643
▁이야기하며	-10.2646
▁힐링	-10.2648
꿈	-10.2649
진않	-10.2651
▁한참	-10.2657
▁현실	-10.2658
▁울집	-10.2659
▁예전	-10.266
▁데리러	-10.2664
▁아오	-10.2667
▁축구	-10.267
잖	-10.2674
떄	-10.2674
시는	-10.2677
던지	-10.2677
인분	-10.268
했으면	-10.2682
▁당신	-10.2687
▁보내고	-10.2688
▁거짓말	-10.269
▁마자마자	-10.2694
▁골	-10.2696
랄	-10.2697
▁짤	-10.2698
▁흥	-10.2699
거같다	-10.2699
▁알써	-10.27
▁바람이	-10.2702
▁기능	-10.2703
▁올리	-10.2704
▁자소서	-10.2706
▁A	-10.2708
▁시골	-10.271
▁배고파서	-10.2712
▁링크	-10.2713
웃	-10.2715
▁밥도	-10.2721
하래	-10.2722
▁끝났	-10.2723
▁모임	-10.2724
▁캐릭터	-10.2724
▁타는	-10.2728
▁좋았	-10.2736
b	-10.2736
이에요	-10.2737
▁아이스	-10.2742
왓어	-10.2743
▁알았다	-10.2744
▁아프다고	-10.2751
▁쥐	-10.2753
▁길에	-10.2756
▁같애	-10.2759
나보다	-10.2761
관리	-10.2762
끝나고	-10.2764
▁먹어야지	-10.2775
시장	-10.278
▁않았	-10.2787
▁먼지	-10.2787
▁히	-10.2788
▁ᄆ	-10.2792
▁일주일에	-10.2799
▁사달라고	-10.2802
▁자세	-10.2804
▁없으니	-10.2805
검사	-10.2808
▁판매	-10.2809
▁젤리	-10.2809
▁긴	-10.281
▁알겟	-10.281
▁들어와서	-10.2811
o	-10.2819
▁전공	-10.2819
▁될듯	-10.2821
▁스터디	-10.2827
▁마라	-10.2829
▁들어가면	-10.2829
▁거래	-10.2835
끈	-10.2837
▁첨에	-10.2837
▁셤	-10.284
▁전기	-10.2841
▁찍어서	-10.2843
▁남편	-10.2844
▁걔가	-10.2845
▁앜ᄏᄏᄏᄏ	-10.2845
련	-10.2856
▁냉장고에	-10.2858
ᄑ	-10.2858
아프	-10.2859
학원	-10.2861
▁검	-10.2861
▁설거지	-10.2862
▁북	-10.2865
▁안됨	-10.2866
▁편의점에서	-10.2866
▁있었어	-10.2868
▁수요일에	-10.2868
촌	-10.2869
▁말이야	-10.2875
▁뭐여	-10.2882
▁녹	-10.2884
탐	-10.2884
▁행	-10.2886
▁씻	-10.2889
▁알아보	-10.2891
▁탔	-10.2895
▁칼퇴	-10.2895
▁몰래	-10.2895
▁깔	-10.2896
▁됐어	-10.29
봐도	-10.29
▁거면	-10.2901
▁떨	-10.2902
▁보낼	-10.2902
▁사이에	-10.2903
▁송	-10.2907
▁나눠	-10.2911
▁캐리어	-10.2913
▁집중	-10.2913
찾	-10.292
보라고	-10.292
▁팀장님	-10.2923
▁발라	-10.2925
▁양말	-10.2925
힐	-10.293
▁꺄	-10.2932
▁그치만	-10.2936
▁실제로	-10.2936
ᅣ	-10.2938
▁되겠다	-10.2943
▁답이	-10.2948
▁같기도	-10.2949
▁만에	-10.295
▁그런듯	-10.2951
▁모양	-10.2953
▁어휴	-10.2954
▁안좋	-10.2954
끼리	-10.2957
▁나지금	-10.2958
▁뿌리	-10.2968
▁아쉽다	-10.297
으라고	-10.297
엌ᄏᄏᄏ	-10.2971
▁유럽	-10.2972
▁봣	-10.2974
그게	-10.298
▁쓰지	-10.2986
▁바빠	-10.2987
▁못할	-10.2988
▁그랬어	-10.2993
갑	-10.3005
▁추천한다	-10.3009
▁약국	-10.3011
▁검은색	-10.3014
▁노래방	-10.3015
멀	-10.3016
그렇게	-10.3018
프사	-10.3026
▁마셔	-10.303
▁서비스	-10.3038
▁졸려	-10.3049
▁무튼	-10.3051
해써	-10.3055
▁예쁘	-10.3057
▁45	-10.3057
▁이유	-10.3062
▁세개	-10.3062
말이	-10.3066
▁인스타그램	-10.3067
▁읽어	-10.307
▁구워	-10.3072
▁생각한다	-10.3075
겠는데	-10.3078
▁출장	-10.3079
▁확인해	-10.3084
분까지	-10.3086
릿	-10.3088
▁수원	-10.3089
▁서브웨이	-10.309
▁들어오	-10.3091
가방	-10.3091
▁눌러	-10.3094
접	-10.3098
▁싶지	-10.3109
▁소리가	-10.3113
▁맛있는데	-10.3114
▁가만히	-10.3115
▁의심	-10.3117
▁ᄀᄀ	-10.3119
▁필기	-10.3123
▁빠져	-10.3125
▁끝날	-10.3125
사랑	-10.3128
▁입원	-10.3128
▁안될	-10.3135
▁일은	-10.3137
,,?	-10.3137
▁마이	-10.314
▁버스가	-10.3145
닭	-10.3145
▁펜	-10.3145
▁머가	-10.3146
준대	-10.3146
▁물어볼	-10.3147
▁도착해서	-10.3148
뉘	-10.3152
▁많을	-10.3153
뚜	-10.3154
시면	-10.316
▁햄	-10.3165
▁홈	-10.3175
점이	-10.3175
▁관련	-10.3178
▁나면	-10.3178
있을	-10.3181
▁따뜻한	-10.3184
▁위로	-10.3185
▁안돼서	-10.3186
▁아프고	-10.3187
𐌅	-10.3188
▁충	-10.3192
뉴	-10.3192
▁보지	-10.3194
▁됐다	-10.3194
▁들어간	-10.3196
▁모르겠다고	-10.3197
▁최근에	-10.3198
▁맞음	-10.3202
▁도착할	-10.321
결제	-10.3213
▁큰일	-10.3215
▁31	-10.3217
오는	-10.3217
▁사기로	-10.3218
▁걸려서	-10.3218
▁안되고	-10.3218
▁초콜릿	-10.322
▁다음날	-10.3222
▁목요일에	-10.3222
▁축하	-10.3225
▁종일	-10.3226
▁있었다	-10.3227
이냐	-10.3228
▁사자	-10.3228
아니냐	-10.323
예약	-10.3239
▁부동산	-10.3241
▁주사	-10.3244
▁언니와	-10.3248
▁아빠랑	-10.3251
▁편한	-10.3255
▁사야지	-10.3256
그니까	-10.3257
연락	-10.3257
▁돈까스	-10.3258
▁싫은	-10.326
▁자연	-10.3262
탱	-10.3267
든데	-10.3268
타임	-10.3271
드리	-10.3271
겠당	-10.3278
살까	-10.3281
▁났	-10.3283
▁좋겠어	-10.3291
▁일욜	-10.3291
▁끝내	-10.3294
▁줌	-10.33
▁스토리	-10.3307
학기	-10.3313
k	-10.3317
▁,,,	-10.3318
▁버스타고	-10.3323
▁담아	-10.3324
떼	-10.3326
봐봐	-10.3327
먼저	-10.3331
▁+	-10.3332
워서	-10.3337
▁귀엽다고	-10.3341
식당	-10.3343
▁아니라서	-10.335
▁앜ᄏᄏᄏ	-10.3357
던뎅	-10.3358
웡	-10.336
▁샵검색	-10.3361
기에	-10.3362
고민	-10.3364
깔	-10.3365
▁실습	-10.3367
▁끝나서	-10.3369
좋지	-10.3372
컷	-10.3376
었던	-10.3382
스터	-10.3392
지를	-10.3392
님이	-10.3393
하려	-10.3399
▁봐야지	-10.3401
▁아놔	-10.3403
▁어서	-10.3403
그런거	-10.341
이었어	-10.3412
▁지방	-10.3414
▁내려가	-10.3415
▁있긴	-10.3416
▁제품	-10.3416
▁모아	-10.3416
▁콜라	-10.3419
▁답장	-10.3425
핑	-10.3425
▁두시간	-10.3426
▁품절	-10.3428
ᄋᄋ	-10.343
▁계좌	-10.3432
사가	-10.3436
▁일에	-10.3443
▁튀김	-10.3446
▁봉	-10.3447
▁이어폰	-10.3447
▁겨우	-10.3449
정말	-10.345
▁많네	-10.3453
▁좋게	-10.3455
▁알람	-10.3456
▁빠른	-10.3456
▁뉴스	-10.3457
▁필	-10.3458
▁신세계	-10.3467
▁넷플	-10.3468
▁가능한	-10.3468
졋	-10.3468
▁이직	-10.3473
▁친한	-10.3473
늦게	-10.3475
띠	-10.3476
▁시험이	-10.3476
▁사람의	-10.3477
랜	-10.3479
▁다녀와	-10.3483
▁이상하게	-10.3483
▁찍고	-10.349
▁닭가슴살	-10.349
월부터	-10.3493
▁냉면	-10.3495
분쯤	-10.3496
족	-10.3498
▁치마	-10.3501
예정	-10.3501
되나	-10.3503
▁행동	-10.3513
요ᅲᅲ	-10.3516
▁가는중	-10.3519
봣는데	-10.3521
챙겨	-10.3523
▁두부	-10.3525
할걸	-10.3526
가는중	-10.3528
▁유지	-10.3532
잇다	-10.3533
으니깐	-10.3533
▁수영장	-10.3533
▁조심	-10.3537
900	-10.3539
▁앉아	-10.3539
▁좋아해서	-10.3539
▁약속이	-10.3541
,,,,,	-10.3543
▁오징어	-10.3546
▁한대	-10.3547
거에요	-10.3553
빈	-10.3553
▁질문	-10.3553
▁비번	-10.3559
▁빨	-10.356
▁나오는데	-10.356
▁부러워	-10.3561
▁노답	-10.3561
▁합	-10.3564
▁안먹	-10.3565
▁나머지	-10.3565
하믄	-10.3568
▁버려	-10.3569
김치	-10.3571
라나	-10.3575
년에	-10.3582
▁마늘	-10.3582
▁아빠는	-10.3584
▁긍데	-10.3586
냉	-10.359
▁밤새	-10.3591
▁현	-10.3592
▁어떤거	-10.3593
▁훨	-10.3597
풍	-10.3597
아니면	-10.3599
▁실망	-10.3601
▁넣	-10.3602
▁찾아보	-10.3603
짤	-10.3604
▁전세	-10.3609
▁하늘	-10.3614
맨날	-10.3616
▁아빠한테	-10.3617
▁허허허	-10.3618
▁선생님이	-10.3624
▁땅	-10.363
걸까	-10.3638
먹어야지	-10.3639
하냐고	-10.3639
더만	-10.3642
ᄏᄀᄏ	-10.3645
보험	-10.365
▁말해주	-10.3652
▁리얼	-10.3652
▁><	-10.3653
▁삭제	-10.3654
콜	-10.3655
▁변경	-10.3655
▁고맙	-10.3655
▁뭐래	-10.3656
시고	-10.3658
▁똑같이	-10.3663
나라	-10.3664
나와서	-10.3668
▁비타민	-10.367
▁올때	-10.3674
▁있을까	-10.3679
▁크기	-10.3679
▁차단	-10.3679
학교	-10.368
▁가보	-10.3681
▁평일에	-10.3682
▁표정	-10.3682
일걸	-10.3685
▁피곤해	-10.3688
▁풀어	-10.3691
▁잘안	-10.3694
▁붙여	-10.3695
▁다녀오	-10.3696
▁지도	-10.3701
그랬	-10.3704
▁이번달	-10.3706
▁해줄	-10.3712
▁있다는	-10.3716
▁힘이	-10.3722
▁근육	-10.3722
댓	-10.3725
먹어야	-10.3726
꼭	-10.3732
▁힘들다고	-10.3738
진다고	-10.3738
▁고기를	-10.3739
▁선풍기	-10.3747
▁남자가	-10.3747
▁잠시	-10.3749
▁보여서	-10.3749
▁그럴까	-10.3751
이란	-10.3753
▁몰랐	-10.376
40	-10.376
▁끊어	-10.3762
▁세탁기	-10.3762
▁도착하면	-10.3765
▁밥먹	-10.3769
▁치고	-10.3772
▁안들어	-10.3773
▁탐	-10.3773
l	-10.3777
듣	-10.378
쓰면	-10.3782
힌	-10.3787
냄새	-10.3787
▁내용이	-10.379
▁하필	-10.3793
▁미용실	-10.3802
▁무릎	-10.3807
▁읽	-10.3807
큐	-10.3808
엠	-10.3811
▁찾	-10.3811
릉	-10.3814
▁실수	-10.3817
▁볶음밥	-10.3822
>	-10.3822
수잇	-10.3825
▁늦을	-10.383
▁하냐고	-10.3837
한듯	-10.3837
칼	-10.384
▁가방을	-10.3845
▁맛없	-10.3848
듣고	-10.3849
▁이름을	-10.3854
▁굳	-10.3856
마시	-10.3858
▁정상	-10.3863
생활	-10.3865
▁황	-10.3866
먹지	-10.3866
버렸	-10.3867
▁궁금하다	-10.3867
]	-10.387
랬	-10.387
▁스팸	-10.387
▁가져다	-10.387
▁당첨	-10.3873
샵	-10.3873
▁밑	-10.3875
▁있게	-10.3878
▁다행이	-10.3881
▁사업	-10.3881
▁시내	-10.3884
▁슈퍼	-10.3884
▁받으러	-10.3884
까지만	-10.3888
▁남아서	-10.3891
▁피곤하	-10.3893
▁들어와	-10.3895
▁그르	-10.3898
일로	-10.39
▁핸드폰을	-10.3902
혼	-10.3907
▁얼음	-10.3907
하겠다	-10.3908
▁어려운	-10.3909
▁가성비	-10.391
▁환전	-10.3911
▁배송비	-10.3913
▁아닐까	-10.3914
C	-10.3918
쳤	-10.3919
▁두번째	-10.3927
게임	-10.3929
▁만나자고	-10.3933
가격	-10.3939
하는건	-10.3941
▁소개	-10.3941
▁투표	-10.3942
▁거임	-10.3946
데이	-10.3953
▁누워있	-10.3954
보기	-10.3957
먹고싶다	-10.3958
▁애들은	-10.3961
▁오리	-10.3964
▁겨	-10.397
▁누구랑	-10.397
즁	-10.397
▁묻는다	-10.3976
▁죽어	-10.3983
▁그런게	-10.3986
가요	-10.3988
▁표현	-10.3991
15	-10.3992
그럴	-10.3995
▁남아	-10.3995
굿	-10.3998
▁물어	-10.3998
▁바꾸고	-10.3999
💕	-10.4001
▁끊	-10.4003
▁배고프	-10.4005
▁교수님이	-10.4009
앗어	-10.401
▁땡큐	-10.4012
두개	-10.4013
▁통장	-10.4014
▁좋아한다	-10.4015
▁피부과	-10.4015
▁사줘	-10.4018
▁종류	-10.4022
▁나보다	-10.4026
욘	-10.4027
▁착	-10.4028
▁점수	-10.4033
▁35	-10.4033
만한	-10.4039
▁;	-10.4041
였음	-10.4041
귀엽	-10.4042
찍어	-10.4046
된다고	-10.4046
저거	-10.4047
▁조심해야	-10.4049
널	-10.405
▁저런거	-10.405
▁싸고	-10.4052
봣어	-10.4054
뒤에	-10.4055
▁맛나게	-10.4061
갔다	-10.4062
살아	-10.4062
▁행복해	-10.4065
완	-10.4066
▁여자친구	-10.4066
▁가슴	-10.4067
하려면	-10.407
한건	-10.4073
▁그랴	-10.4074
앞	-10.4083
팬	-10.4086
▁너희	-10.4092
▁문을	-10.4096
▁걸어서	-10.4097
▁카페가	-10.4098
▁동물	-10.4098
▁여유	-10.4101
▁아근데	-10.4102
살이	-10.4102
▁예쁘다고	-10.411
▁사랑니	-10.4111
알지	-10.4116
수있	-10.4117
아아	-10.4119
▁단어	-10.412
▁앱	-10.4129
틴	-10.4131
▁도대체	-10.4135
▁굿굿	-10.4135
중이	-10.4136
▁자체가	-10.4138
▁공지	-10.414
는구나	-10.4148
엌ᄏᄏ	-10.415
▁시계	-10.4151
▁과장님	-10.4152
▁났다	-10.4154
▁일어났	-10.4156
마트	-10.4157
▁나가는	-10.4159
▁평	-10.4164
▁걸린	-10.4165
▁학교에	-10.4181
▁놓	-10.4181
▁비용	-10.4182
▁때려	-10.4183
▁몸무게	-10.4184
▁없었	-10.4185
▁자야	-10.4188
이었	-10.4188
▁기절	-10.4193
▁앉	-10.4195
치즈	-10.4195
▁맛있었	-10.4198
▁화면	-10.4198
▁쉽게	-10.4204
▁받았는데	-10.4206
▁대부분	-10.421
마음	-10.4211
용으로	-10.4213
▁파리	-10.4216
올게	-10.4218
▁가까운	-10.4218
잇어서	-10.4221
올려	-10.4222
▁맛난	-10.4225
▁넣으면	-10.4228
▁틀어	-10.4231
시다	-10.4239
스타	-10.4241
▁거냐고	-10.4242
▁배경	-10.4243
▁순대	-10.4243
▁정하고	-10.4248
▁활동	-10.425
먹을까	-10.4252
▁시장	-10.4254
▁바쁜	-10.4255
▁긴장	-10.4257
▁것으로	-10.4257
▁손가락	-10.4262
▁여봉	-10.4264
냄	-10.4264
▁어캐	-10.4272
▁회색	-10.4273
▁현대	-10.4273
▁페	-10.4273
럼	-10.4275
먹었는데	-10.4276
▁이력서	-10.4277
▁회사가	-10.4278
▁권	-10.4279
▁급하게	-10.4283
▁ᄃᄃ	-10.4288
한다는	-10.4288
▁오빠도	-10.4292
▁안오	-10.4295
말해	-10.4295
^_^	-10.4297
주겠다고	-10.4298
그치	-10.43
▁친구는	-10.4302
▁나온다고	-10.4302
▁인터넷에서	-10.4305
▁안주	-10.4308
먹고싶	-10.4309
▁답한다	-10.4309
하거든	-10.431
에요	-10.4312
▁돈으로	-10.4317
~~?	-10.432
▁되냐고	-10.4322
▁롱패딩	-10.4324
▁끈	-10.4328
▁필라테스	-10.4328
▁김치찌개	-10.4331
▁한다며	-10.4334
▁셋이	-10.4334
▁읽고	-10.4337
▁떨어져서	-10.4337
▁옮겨	-10.4338
는줄	-10.4339
▁자유	-10.4345
▁칼국수	-10.4346
x	-10.4352
▁손톱	-10.4352
야대	-10.4354
온거	-10.4354
▁자면	-10.4365
▁P	-10.4366
▁양파	-10.4367
▁아그래	-10.4371
▁당황	-10.4373
▁전화해	-10.4375
▁고르	-10.4376
식으로	-10.4377
▁조만간	-10.4379
▁빌려	-10.4379
는곳	-10.4381
▁자취	-10.4382
시반에	-10.4385
▁뿌	-10.4386
▁미역국	-10.4386
▁찾아보고	-10.4391
▁짬뽕	-10.4394
만들어	-10.4396
먹으러	-10.4402
▁위한	-10.4403
▁이후로	-10.4404
▁s	-10.4412
▁개봉	-10.4414
▁손이	-10.4419
한거야	-10.4421
▁엉덩이	-10.4427
▁갈때	-10.4429
▁시켜서	-10.443
넣고	-10.4432
▁글치	-10.4434
▁와플	-10.4435
▁위치	-10.4435
찡	-10.4435
▁백화점	-10.4436
▁씹	-10.4437
▁벌레	-10.4438
▁멋있	-10.444
이잖아	-10.4442
▁칭찬	-10.4444
▁적립금	-10.4445
▁어쩌	-10.4445
렸어	-10.4446
▁세금	-10.4447
운데	-10.4448
▁안정	-10.4449
▁기다려야	-10.4452
▁동기	-10.4454
▁잇는데	-10.4455
▁모른다	-10.4455
▁쩐다	-10.4459
▁심해	-10.446
▁뜯	-10.4461
뜻	-10.4462
▁패스	-10.4466
잘못	-10.4475
받았	-10.4479
없으면	-10.448
▁샴푸	-10.4481
늦	-10.4489
볼래	-10.449
▁낫다	-10.4491
▁것보다	-10.4492
여기	-10.4499
▁끝이	-10.4502
▁냉동	-10.4504
▁끝까지	-10.4504
▁여권	-10.4509
▁미쳐	-10.4515
때는	-10.4517
압	-10.4518
▁150	-10.453
▁개강	-10.453
▁집가	-10.4531
진심	-10.4538
▁멀어	-10.454
▁가격도	-10.454
▁휴무	-10.4543
근처	-10.4545
▁떨어져	-10.4547
▁운동화	-10.4553
▁짜장면	-10.4553
▁이모가	-10.4556
▁기간	-10.4558
▁흐음	-10.4561
차이	-10.4561
싶다	-10.4562
찜	-10.4562
▁예쁘게	-10.4567
ᄊ	-10.4577
귀여워	-10.4577
▁뮤지컬	-10.4578
던디	-10.4578
▁적응	-10.458
....?	-10.4581
▁않다고	-10.4586
는대	-10.4587
▁설탕	-10.4588
쓴	-10.4589
▁하이	-10.4594
▁해지	-10.4596
▁와이파이	-10.46
▁보고싶	-10.46
▁생각하는	-10.4603
▁독감	-10.4604
특	-10.4604
▁찾아봐	-10.4604
▁지내	-10.4604
▁그사람	-10.4604
바바	-10.4606
엌ᄏᄏᄏᄏ	-10.4606
▁기숙사	-10.4609
같음	-10.4609
▁달리	-10.4611
▁잇는	-10.4617
▁닫	-10.4617
▁적립	-10.462
▁뒤로	-10.4622
보구	-10.4625
▁시청	-10.463
▁최애	-10.463
▁곰	-10.4635
▁때까지	-10.4636
▁제주	-10.4637
▁수능	-10.4639
▁넣을	-10.464
▁베이지	-10.4644
겅	-10.4648
▁친구들이	-10.4649
▁다섯	-10.465
줬어	-10.465
A	-10.4654
주문	-10.4654
쌀	-10.4656
▁사장이	-10.4657
▁갈아	-10.4662
▁참여	-10.4663
▁한번씩	-10.4664
▁나왔다고	-10.4664
▁할아버지	-10.4666
▁참치	-10.4666
다른	-10.467
▁느	-10.4671
치면	-10.4674
▁아니지만	-10.4675
▁버리	-10.4676
▁알겠다	-10.4676
▁광	-10.4678
뭔	-10.468
▁기다리는	-10.468
u	-10.4682
▁들리	-10.4685
▁싶었는데	-10.4685
▁물어보니	-10.4686
▁소설	-10.4686
▁업체	-10.4688
었나	-10.4689
▁장사	-10.4701
▁케	-10.4703
▁오빠랑	-10.4712
없지	-10.4714
▁앜ᄏᄏᄏᄏᄏ	-10.4716
▁확진자가	-10.4718
▁테	-10.4718
칸	-10.4718
▁자라	-10.4718
▁의미	-10.472
▁줘야	-10.4725
냐구	-10.4725
▁많지	-10.473
▁않음	-10.4731
▁막내	-10.4736
날씨	-10.4738
에서도	-10.4738
먹는거	-10.4739
▁있다며	-10.4739
난리	-10.4742
▁공사	-10.4742
▁자녀	-10.4743
줄까	-10.4743
▁필요없	-10.4746
모르	-10.4751
▁아버지	-10.4752
▁잠실	-10.4755
라인	-10.4755
▁애기들	-10.4758
▁적게	-10.4758
거같어	-10.4758
떨	-10.4759
▁수박	-10.476
번째	-10.4764
▁타서	-10.4765
▁가져	-10.4767
롭	-10.4767
▁입은	-10.477
든지	-10.477
했을	-10.4771
▁여기도	-10.4771
▁팀장	-10.4773
▁오지게	-10.4773
▁코스	-10.4774
▁부탁하고	-10.4774
▁붙어	-10.4776
▁싸서	-10.4776
하겠다고	-10.4779
▁꽉	-10.4784
▁수업을	-10.4787
▁필요하	-10.4793
▁자르	-10.4793
이요	-10.4798
▁기프티콘	-10.4801
▁땡	-10.4801
▁삐	-10.4804
케이크	-10.4804
보인다	-10.4808
▁엘	-10.4811
▁엄마아빠	-10.4817
▁가수	-10.4819
▁있을지	-10.482
▁천원	-10.4822
자는	-10.4823
▁방법에	-10.4823
▁명이	-10.4824
것다	-10.4824
...??	-10.483
▁길어	-10.4831
▁모델	-10.4833
▁짠	-10.4834
▁가야겠다	-10.4838
▁잘라	-10.4843
래서	-10.4845
드려	-10.4845
▁자다가	-10.4849
▁크고	-10.4851
▁사회	-10.4852
▁인간	-10.4853
▁높은	-10.4854
▁좋아하	-10.4855
들이랑	-10.4855
▁귀가	-10.4857
▁석	-10.4861
없나	-10.4861
▁컴활	-10.4862
▁뭐든	-10.4863
▁내친구	-10.487
▁춥다	-10.4874
▁좋긴	-10.4874
야겠네	-10.4885
▁동생은	-10.489
▁휘	-10.4891
▁소름	-10.4894
▁거기도	-10.4898
▁말아	-10.4899
식이	-10.4901
▁좋더라	-10.4901
▁퀴즈	-10.4905
▁고추	-10.491
▁보내줘	-10.491
▁아들	-10.4914
거가타	-10.4919
▁홍콩	-10.4921
▁워	-10.4922
▁상황을	-10.4924
요즘	-10.4929
▁만나고	-10.4932
▁돌아가	-10.4932
▁구럼	-10.4938
그때	-10.4941
▁있으	-10.4944
▁경험	-10.4945
▁수준	-10.4947
▁프린트	-10.495
▁못한다	-10.4955
택	-10.4956
▁결	-10.4959
▁없으니까	-10.4962
걸리	-10.4968
하거나	-10.4972
▁경력	-10.4972
써서	-10.4975
톤	-10.4978
▁자라고	-10.4979
갸	-10.498
▁부탁한다	-10.4983
▁감정	-10.4983
▁때도	-10.4985
▁어쩐지	-10.4987
▁생각중	-10.4988
r	-10.4995
▁혀	-10.4996
▁수건	-10.5
??????	-10.5001
껏	-10.5001
▁차이가	-10.5001
▁패	-10.5001
▁물에	-10.5002
▁말지	-10.5002
죵	-10.5003
▁마치	-10.5005
▁노는	-10.5011
▁만난	-10.5016
하고싶다	-10.5018
▁ᅮᅮᅮᅮ	-10.5021
▁입으면	-10.5021
▁버리고	-10.5023
▁중요한	-10.5023
검	-10.5025
▁떨어지	-10.5029
▁짱이	-10.5032
▁빵을	-10.5032
둠	-10.5033
▁무서운	-10.504
▁먹을래	-10.504
▁모름	-10.5047
▁버거	-10.5051
v	-10.5057
▁말하면	-10.5066
▁ᅵ	-10.5066
찰	-10.5067
▁토욜에	-10.5068
▁미루	-10.507
▁아줌마	-10.5071
▁준비를	-10.5078
▁나오늘	-10.5082
보려고	-10.5083
기분	-10.5084
균	-10.5089
홈	-10.509
▁아닌지	-10.5093
이자나	-10.5096
▁네일	-10.5096
▁단체	-10.5099
▁매번	-10.5102
▁인턴	-10.5104
▁마리	-10.5106
▁들었다	-10.5108
▁그랬는데	-10.5109
▁생겨	-10.5111
▁갈비	-10.5112
▁사이즈가	-10.5112
▁공짜	-10.5112
없고	-10.5117
▁때가	-10.5118
첨	-10.512
▁생각나	-10.5121
▁스스로	-10.5121
▁도와주	-10.5125
는다고	-10.5127
▁갈색	-10.5128
떡볶이	-10.5128
▁뱅기	-10.5131
▁콘	-10.5131
▁아깝	-10.5132
같다	-10.5134
으려나	-10.5136
▁조절	-10.5138
▁곳은	-10.5139
▁터미널	-10.5141
▁존맛탱	-10.5142
▁화나	-10.5146
▁친구를	-10.5147
▁애인	-10.5147
▁가고싶다	-10.5148
▁예약을	-10.5149
▁ᄋᄒ	-10.515
즤	-10.5151
▁친구들이랑	-10.5156
▁아플	-10.516
▁익	-10.516
▁챙기	-10.5165
▁말은	-10.5168
?!?	-10.5172
▁나쁘지	-10.5173
;;;;	-10.5178
▁체력	-10.518
▁주기로	-10.5181
추가	-10.5184
▁얇은	-10.5185
▁놀라	-10.5188
▁맨투맨	-10.519
사는	-10.5198
소스	-10.52
았다	-10.52
해주고	-10.5201
걱정	-10.5201
▁가보고	-10.5202
빙	-10.5206
게따	-10.5208
필요	-10.5209
▁갠춘	-10.5215
▁입구	-10.5219
생기	-10.5224
야할듯	-10.5225
▁있다가	-10.5228
▁이정도	-10.5228
아닌가	-10.5233
▁당일	-10.5236
눙	-10.524
▁먹으면서	-10.5243
▁상대방에게	-10.5244
피자	-10.5246
▁엇	-10.5247
▁계단	-10.5249
끼고	-10.5249
▁음식점	-10.525
쿠폰	-10.5254
▁있어도	-10.5254
싫	-10.5256
▁하던데	-10.5264
▁짧	-10.5266
▁써도	-10.5269
▁그동안	-10.5271
▁아무거나	-10.5275
▁몸살	-10.5275
▁기준	-10.5278
치는	-10.5282
▁사라	-10.529
▁편하	-10.5293
▁못한	-10.5296
조금	-10.5299
▁좋대	-10.5301
▁시켰	-10.5301
는것	-10.5302
▁하려	-10.5307
해야겠다	-10.5307
훈	-10.5309
▁귀걸이	-10.5309
▁별거	-10.531
▁ᄉ	-10.5311
구리	-10.5312
▁슬프다	-10.5312
▁다음주에	-10.5315
했어요	-10.5316
▁짓	-10.532
▁추운	-10.5321
세여	-10.5322
▁거절	-10.5322
고있어	-10.5327
버거	-10.5329
▁개웃기네	-10.5331
y	-10.5332
졸	-10.5334
▁보일러	-10.5334
몽	-10.5335
▁남겨	-10.5337
▁영수증	-10.5343
▁아마도	-10.5344
▁이런건	-10.5346
▁불안	-10.5347
드만	-10.5348
텐	-10.5348
엇다	-10.535
▁영상을	-10.5353
▁카트	-10.5353
거라고	-10.5358
력이	-10.5364
▁나을	-10.5364
▁웬	-10.5368
▁나가야	-10.537
겜	-10.537
▁덕분에	-10.5372
장에	-10.5373
▁왜이렇게	-10.5375
▁냉	-10.5377
▁케익	-10.5382
▁작아	-10.5383
▁존잼	-10.5383
▁모르겠는데	-10.5384
▁네에	-10.5385
▁궁	-10.5387
▁오르	-10.5391
먹은	-10.5408
이런거	-10.5412
▁말해줘	-10.5413
▁이번에는	-10.5413
엿어	-10.5417
인가요	-10.542
▁피시방	-10.5428
▁나가기	-10.5429
▁조심해	-10.5429
▁생선	-10.543
미리	-10.543
▁생각했는데	-10.5432
▁팔고	-10.5434
▁서울에서	-10.5435
▁싼거	-10.5435
있었는데	-10.5436
▁반응	-10.5436
▁친구와	-10.544
▁듣기	-10.5442
▁길게	-10.5445
웅웅	-10.5446
▁꼴	-10.5447
▁ᅲᅲᅲᅲᅲᅲᅲ	-10.5453
받음	-10.5455
▁세계	-10.5459
야겠어	-10.546
포인트	-10.5463
▁감사합니다	-10.5463
▁점심으로	-10.5465
▁펜션	-10.5468
▁미뤄	-10.5469
스럽	-10.5472
▁군	-10.5474
도돼	-10.5475
▁반대	-10.5476
▁나라	-10.5477
땨	-10.5477
그리	-10.5478
▁스트레스를	-10.5478
▁지나가	-10.5486
이한테	-10.5486
▁취직	-10.5487
홀	-10.5491
▁껴	-10.5492
▁단발	-10.5493
▁상황이	-10.5494
▁슬프	-10.5497
▁작아서	-10.5499
▁주제	-10.55
인스타	-10.5517
율	-10.5518
▁상처	-10.5518
했잖아	-10.5521
있엉	-10.5522
▁코스트코	-10.5524
▁오우	-10.5524
개씩	-10.5527
▁경기도	-10.5527
▁보내달라고	-10.5531
...!	-10.5531
▁경찰	-10.5532
▁[	-10.5533
칭	-10.5533
▁프리	-10.5543
ᄀᄀ	-10.5546
▁없대	-10.5547
▁대학교	-10.5547
▁간단하게	-10.5549
▁짧은	-10.555
▁맞을	-10.555
나여	-10.5555
샘	-10.5555
뜸	-10.5556
▁야야	-10.5556
논	-10.5558
▁탓	-10.5559
란다	-10.556
▁샘	-10.5564
▁가고싶	-10.5565
▁식빵	-10.5568
▁이번주에	-10.557
.........	-10.5571
▁콩	-10.5574
▁뚫	-10.5581
아닌데	-10.5582
구낭	-10.5582
사야	-10.5585
▁달아	-10.5585
긍	-10.5588
▁일년	-10.5592
▁생기면	-10.5593
온대	-10.5594
▁갔던	-10.5594
▁걱정이	-10.5597
취소	-10.5598
▁여기가	-10.5598
▁내일도	-10.5603
거얌	-10.5603
껭	-10.5607
▁있더라	-10.561
▁앉아있	-10.561
▁떡볶이를	-10.5611
었고	-10.5611
맛잇	-10.5612
넣	-10.5615
놔서	-10.5615
▁주인	-10.5615
▁줬	-10.5615
꽃	-10.5617
S	-10.5618
▁입장	-10.5624
남자	-10.5625
▁이걸로	-10.5627
나봄	-10.563
▁쓰라고	-10.5632
▁받지	-10.5634
뎌	-10.5637
▁방법	-10.5638
▁아메리카노	-10.5639
확	-10.5642
싶어서	-10.5642
▁정답	-10.5644
▁그땐	-10.5649
▁떠나	-10.5651
▁사진으로	-10.5655
먹기	-10.5656
▁겜	-10.566
▁마져	-10.5663
▁연락해	-10.5663
▁수리	-10.5666
서울	-10.5668
▁소화	-10.5669
상태	-10.5669
▁이것	-10.567
▁홍보	-10.5671
▁버티	-10.5672
▁사오	-10.5673
▁둘째	-10.5673
받는	-10.5674
끊	-10.5676
그러면	-10.5677
언니가	-10.568
겠다는	-10.5681
하셨	-10.5682
▁피해	-10.5683
▁물이	-10.5683
▁올린	-10.5686
▁바닥	-10.5686
옥	-10.5688
▁다니고	-10.569
▁수학	-10.569
▁고맙다	-10.569
▁오늘까지	-10.5691
▁들어가는	-10.5692
▁상품권	-10.5692
젠	-10.5696
▁이럴	-10.5701
빠지	-10.5703
▁만약에	-10.5705
▁싫고	-10.5707
▁디저트	-10.5708
▁갠차나	-10.5711
▁가디건	-10.5715
▁옥수수	-10.5716
납	-10.5717
고싶은데	-10.5721
▁버터	-10.5722
▁않으면	-10.5723
이긴	-10.5725
▁면허	-10.5725
▁묻	-10.5728
으면서	-10.5729
▁못먹	-10.573
▁멋	-10.5732
▁잘하는	-10.5732
선물	-10.5732
▁하지마	-10.5733
▁리뷰	-10.5733
보지	-10.5736
ᄏᄀ	-10.5742
▁효과가	-10.5742
▁얻	-10.5745
는걸로	-10.5746
▁대화자	-10.5747
▁음식이	-10.5755
▁테이블	-10.5757
▁뷔페	-10.5758
아이	-10.576
생일	-10.5766
해볼게	-10.5768
▁모르겠지만	-10.5772
▁좋겠	-10.5772
시네	-10.5772
▁S	-10.5776
안대	-10.5777
니가	-10.578
▁키키	-10.5781
▁공장	-10.5783
▁오예	-10.5783
▁만났	-10.5786
▁먹으려	-10.5789
▁유리	-10.579
▁맛있지	-10.5791
겠군	-10.5791
▁울산	-10.5793
▁고등학교	-10.5799
먹는데	-10.58
▁몰랏	-10.5804
총	-10.5809
▁알앗	-10.5813
으려고	-10.5815
▁불고기	-10.5821
▁편지	-10.5822
▁버거킹	-10.5828
▁자동차	-10.5836
▁소금	-10.5837
그랫	-10.5837
끌	-10.584
n	-10.5841
했는지	-10.5841
▁투명	-10.5843
재밌	-10.5844
있었어	-10.585
잡아	-10.5853
걸루	-10.5854
▁모를	-10.5856
▁상대가	-10.586
▁여기저기	-10.5861
▁완료	-10.5862
▁손에	-10.5863
여ᄏᄏ	-10.5864
▁할머니가	-10.5867
도못	-10.5869
▁월욜	-10.5869
▁옥	-10.587
▁나오지	-10.587
▁일케	-10.5871
▁모르겠네	-10.5872
▁모바일	-10.5873
럭	-10.5877
그런가	-10.5879
▁쿠폰을	-10.5879
▁되어서	-10.588
따라	-10.5885
▁싶으면	-10.5887
했거든	-10.5887
숨	-10.5888
▁패드	-10.5888
센터	-10.5888
▁투자	-10.5889
한지	-10.5891
갈거야	-10.5893
▁끝난	-10.5894
렸다	-10.5894
▁그러자	-10.5897
겠음	-10.5897
▁간지	-10.5899
컵	-10.5904
묘	-10.5904
▁말씀	-10.5906
▁한숨	-10.5906
▁먹다가	-10.5906
같애	-10.5907
묜	-10.5908
픽	-10.591
▁폭	-10.5911
▁모아서	-10.5915
단다	-10.5916
줫	-10.5919
▁솔	-10.5922
▁양재	-10.5926
▁보게	-10.5927
▁정확히	-10.5928
▁기침	-10.5928
확인	-10.5929
어여	-10.5929
▁없는거	-10.593
▁어제도	-10.5931
▁못했다	-10.5933
##@	-10.5933
때까지	-10.5937
P	-10.5938
▁건가	-10.5939
▁모른다고	-10.5939
베이	-10.5943
▁손으로	-10.5947
▁뻔	-10.5949
▁생신	-10.5951
▁주방	-10.5951
▁보내준	-10.5953
었네	-10.5954
▁멜론	-10.5955
▁충분히	-10.5956
▁현재	-10.5958
▁덕질	-10.5959
▁야간	-10.5961
퇴	-10.5962
▁자려고	-10.5965
▁아껴	-10.5967
해놓고	-10.5968
▁다행이야	-10.597
하니깐	-10.5971
형이	-10.5971
▁같지만	-10.5972
▁빠르게	-10.5973
▁맞아요	-10.5974
▁얼굴에	-10.5975
에다가	-10.5976
▁먼데	-10.5977
진거	-10.5978
▁일도	-10.5983
▁로션	-10.5988
▁말할	-10.5991
간대	-10.5991
애가	-10.5992
▁막걸리	-10.5993
꾼	-10.5996
▁어떤지	-10.5997
▁설사	-10.5997
▁살거	-10.5999
푼	-10.5999
보임	-10.6
▁그렇구만	-10.6001
을수도	-10.6001
랩	-10.6002
랬는데	-10.6004
▁출	-10.6004
주지	-10.6006
▁필름	-10.6008
▁나이가	-10.6011
많아서	-10.6015
▁고민이	-10.6018
왓는데	-10.602
▁확인한다	-10.6021
▁태국	-10.6022
배송	-10.6023
▁받음	-10.6027
▁보여주고	-10.6028
웟	-10.6029
▁더운	-10.603
▁걱정하고	-10.6031
▁탕수육	-10.6032
▁아니근데	-10.6032
벨	-10.6032
쪼	-10.6035
잖어	-10.6037
▁수업이	-10.6037
▁든다	-10.6038
▁걱정마	-10.6048
▁나를	-10.6051
▁연휴	-10.6054
▁검은	-10.6056
▁먹어보고	-10.6062
해보고	-10.6062
▁가격은	-10.6065
때도	-10.6065
▁곳으로	-10.6066
▁고맙다고	-10.6069
▁정신이	-10.6071
▁깜짝	-10.6071
▁올라오	-10.6073
▁술집	-10.608
있다고	-10.608
▁궁금해서	-10.6082
▁신입	-10.6083
▁너네집	-10.6083
여자	-10.6084
▁모르게	-10.6085
▁비싸다고	-10.6087
오는거	-10.609
이뻐	-10.6091
▁아버님	-10.6094
받은	-10.6095
▁좋지만	-10.6097
▁어느정도	-10.6097
▁갔을	-10.6099
▁누군가	-10.6101
▁해주고	-10.6101
▁아맞다	-10.6102
▁전문	-10.6103
▁같지	-10.6104
▁없다는	-10.6104
잤	-10.6108
파티	-10.6112
▁시켰는데	-10.6113
간거	-10.6114
다닐	-10.6114
▁입어야	-10.6114
▁보고싶다	-10.6115
탓	-10.6115
우니까	-10.6118
만들	-10.6123
▁직원이	-10.6123
▁믿	-10.6125
▁전화로	-10.6126
▁모습	-10.6127
▁않게	-10.6128
▁귀엽지	-10.6129
▁엄빠	-10.6133
해야돼	-10.6134
▁쥬	-10.6134
▁좋아하는데	-10.6137
기간	-10.6139
고기	-10.6139
▁덕	-10.614
▁피부가	-10.614
됐다	-10.6144
생각해	-10.6146
가루	-10.6149
▁엑셀	-10.615
▁이태원	-10.615
▁가져오	-10.615
▁안내	-10.6151
▁메뉴를	-10.6152
▁팩	-10.6153
▁시에	-10.6157
놨어	-10.616
▁그래요	-10.6163
▁어쩔수없	-10.6164
좋은데	-10.6164
▁영양제	-10.6165
▁될까	-10.6166
할수있	-10.6168
▁안되나	-10.617
▁사람에	-10.6171
사라	-10.6181
시가	-10.6183
▁환승	-10.6184
▁적은	-10.6184
▁가방에	-10.6185
▁싸우	-10.6188
앞에서	-10.6189
▁슬리퍼	-10.6191
▁별로야	-10.6192
▁오디	-10.6192
잇나	-10.6193
들한테	-10.6197
▁걷	-10.62
▁거라며	-10.6202
둬	-10.6205
오는데	-10.6205
부르	-10.6211
▁있었던	-10.6212
▁보인다고	-10.6213
▁까지	-10.6215
▁그만두	-10.6216
냠	-10.6216
▁애초에	-10.6217
▁중이라	-10.6217
옆에	-10.622
▁축하해	-10.6222
르고	-10.6222
//	-10.6222
▁늦어	-10.6224
▁잘하고	-10.6225
시나	-10.6226
▁경우	-10.6226
▁인강	-10.6226
▁그레이	-10.6227
롤	-10.6233
▁안먹어	-10.6233
▁레드	-10.6234
▁1000	-10.6235
▁이유를	-10.6237
쯤에	-10.6237
릭	-10.6241
▁것처럼	-10.6242
▁공부할	-10.6242
▁어제는	-10.6243
▁된대	-10.6243
지않냐	-10.6246
▁많더라	-10.6247
▁착한	-10.6248
▁들은	-10.6262
▁걸어가	-10.6266
▁불가능	-10.6272
▁사야겠다	-10.6274
▁입는	-10.6276
▁중국어	-10.6276
중이야	-10.628
▁자료	-10.628
▁둘이서	-10.6282
▁휴지	-10.6282
럴	-10.6284
▁센터	-10.6287
▁맞제	-10.6288
▁토론하고	-10.6289
▁우리동네	-10.629
▁지하	-10.6292
▁혼자서	-10.6293
▁잇다	-10.6295
▁대표	-10.6296
▁구니까	-10.6297
색이	-10.6298
▁뛰	-10.6299
점심	-10.6303
▁안와	-10.6304
▁뜻	-10.6307
콤	-10.6313
산거	-10.6318
▁그릇	-10.632
▁그전에	-10.632
▁왕복	-10.6321
받을	-10.6324
▁동생에게	-10.6324
▁따뜻하게	-10.6324
▁입맛	-10.6325
여ᅲᅲ	-10.6327
▁마시는	-10.6327
가기	-10.6332
▁사진은	-10.6336
었지	-10.6337
▁병원가	-10.6337
▁계획을	-10.6339
▁아뇨	-10.6339
▁괜찮네	-10.634
▁될지	-10.634
!!!!!!!!	-10.634
▁낼은	-10.6343
갈듯	-10.6348
떵	-10.6349
▁여붕	-10.635
▁영화관	-10.6352
▁쌀국수	-10.6352
후에	-10.6353
▁햇빛	-10.6353
▁받는다	-10.6356
▁타임	-10.6356
나왔	-10.6357
▁우왕	-10.636
폭	-10.6365
나온	-10.6366
닫	-10.6367
▁청년	-10.6368
썼	-10.6371
궈	-10.6382
▁뜯어	-10.6384
스러워	-10.6389
▁안산	-10.6393
놓은	-10.6396
▁스테이크	-10.6396
군데	-10.6397
컴	-10.6399
▁소개팅	-10.6401
혈	-10.6402
겸	-10.6402
센	-10.6402
그만	-10.6404
▁빠르	-10.6407
▁봤다고	-10.6409
뗘	-10.6411
▁집은	-10.6411
~~~~~~	-10.6412
먹을래	-10.6415
있대	-10.6416
▁텀블러	-10.6421
▁머지	-10.6421
▁오오오	-10.6421
야되	-10.6422
기사	-10.6422
h	-10.6423
▁이야	-10.6424
례	-10.6428
................	-10.6428
▁라떼	-10.643
엘	-10.6435
▁노래가	-10.6435
바꿔	-10.6438
▁않지만	-10.6439
▁상황에	-10.6443
아까	-10.6451
▁일정을	-10.6451
걸어	-10.6452
▁매달	-10.6453
▁대단하다	-10.6459
수있어	-10.6462
추워	-10.6463
음식	-10.6464
▁주지	-10.6469
ᆞ	-10.6469
▁찍을	-10.6472
되니까	-10.6476
쓰는	-10.6479
▁굉장히	-10.6484
▁닭갈비	-10.6485
▁해주는	-10.6487
만두	-10.6488
▁키우	-10.6493
땡	-10.6498
▁차에	-10.6498
든가	-10.6499
랜드	-10.65
▁맛있을	-10.6501
▁테스트	-10.6509
▁직구	-10.651
면접	-10.6512
▁주문한	-10.6518
졍	-10.6518
됏	-10.6525
이쁘	-10.6528
▁폐	-10.6529
▁고양이가	-10.6532
▁친구한테	-10.6535
▁왜왜	-10.6537
▁급여	-10.6539
▁있겠다	-10.6539
▁갑	-10.6539
▁알아봐	-10.6542
▁공기	-10.6543
▁살게	-10.6543
~!!	-10.6544
▁쿠	-10.6549
동에	-10.6549
램	-10.655
만원이	-10.655
▁가득	-10.6551
▁그럴수도	-10.6552
먹고싶어	-10.6553
▁하길래	-10.6553
사러	-10.6554
말구	-10.6555
▁클럽	-10.6555
▁돌리	-10.6556
▁전까지	-10.6561
▁열이	-10.6562
▁에어	-10.6565
▁물어봤는데	-10.6566
▁만큼	-10.6566
▁존버	-10.6567
▁복숭아	-10.6569
▁원인	-10.6571
읍	-10.6571
▁끓여	-10.6571
▁싸다	-10.6573
▁벽	-10.6574
ᄉᄇ	-10.6575
▁맘대로	-10.6576
▁제작	-10.6583
년이	-10.6586
▁강원도	-10.6587
▁다르게	-10.6589
▁프	-10.6593
▁후기를	-10.6593
▁식단	-10.6594
▁케이크를	-10.6597
▁놀다가	-10.6598
▁거울	-10.6599
▁먹어보	-10.6602
▁으아	-10.6606
▁쩝	-10.6606
▁그러지	-10.6607
ᄋᄉᄋ	-10.6608
새끼	-10.6612
내서	-10.6615
▁좌석	-10.6617
벽	-10.6618
▁당분간	-10.6618
▁만나자	-10.6619
린거	-10.6619
▁위험	-10.6621
이군	-10.6624
라니까	-10.6625
▁쿨	-10.6625
▁임신	-10.6627
곸ᄏᄏᄏ	-10.6636
▁않는다고	-10.6638
▁가능하	-10.6638
▁닦	-10.6639
부러	-10.664
▁실물	-10.6641
▁사도	-10.6642
라떼	-10.6644
갈비	-10.6644
▁내야	-10.6644
▁나가고	-10.6645
▁윤	-10.6645
욱	-10.6645
▁젖	-10.6648
▁도로	-10.6653
▁방콕	-10.6656
▁어른	-10.6659
빌	-10.6659
▁화요일에	-10.6659
▁스케줄	-10.6661
▁본인은	-10.6664
▁허리가	-10.6666
티비	-10.6672
▁걱정되	-10.6674
▁이후	-10.6679
▁어쩌고	-10.6683
▁그러는	-10.6684
▁심해서	-10.6685
하길래	-10.6686
▁알라딘	-10.669
▁사진찍	-10.6691
▁있자나	-10.6691
▁컵라면	-10.6692
보면서	-10.6692
▁어이없	-10.6693
▁전화가	-10.6693
▁반반	-10.6696
▁시간표	-10.6697
▁잠시만	-10.6698
▁해놓고	-10.67
▁여성	-10.6701
▁새끼	-10.6703
▁빠졌	-10.6705
샷	-10.6706
▁중독	-10.6708
쎄	-10.6709
▁추울	-10.671
나고	-10.6711
▁검색해	-10.6711
▁항	-10.6714
호텔	-10.6714
예요	-10.6715
▁첫날	-10.6721
감이	-10.6721
닉	-10.6725
▁한다는	-10.6725
입을	-10.6725
▁없애	-10.6727
춥	-10.6733
▁카톡으로	-10.6735
▁구두	-10.6738
겹	-10.6739
▁많았	-10.6739
▁안나오	-10.6741
▁빡	-10.6741
▁정해	-10.6742
▁했을	-10.6744
▁모르지	-10.6745
▁성격이	-10.6746
▁온도	-10.6746
즐	-10.6747
어떻게	-10.6747
▁비밀	-10.6751
다는데	-10.6751
바꾸	-10.6752
▁지워	-10.6752
▁공원	-10.6753
을거	-10.6755
▁두달	-10.6756
▁강아지가	-10.6757
축	-10.6758
▁나누	-10.676
▁옷은	-10.6764
▁퇴직금	-10.6766
▁손목	-10.6766
▁공부하고	-10.6767
귀찮	-10.6767
▁가라	-10.6769
▁맡	-10.677
줭	-10.677
▁청바지	-10.6771
▁갔다고	-10.6772
▁싫어하는	-10.6773
@	-10.6776
역에	-10.6776
▁헛	-10.6776
▁움직이	-10.6778
는사람	-10.6778
턴	-10.6779
▁영화가	-10.6788
▁달라서	-10.6791
얏	-10.6791
▁같아요	-10.6793
▁아프면	-10.6794
▁건강검진	-10.6795
▁키보드	-10.6795
▁조용히	-10.6796
▁내일까지	-10.6798
▁버즈	-10.6798
아침에	-10.6799
▁무시	-10.68
거든요	-10.6801
삭	-10.6801
▁시발	-10.6803
▁아냐아냐	-10.6807
▁면접을	-10.6808
▁겸	-10.6809
아빠	-10.6813
▁감성	-10.682
▁사료	-10.6821
▁어쩌지	-10.6821
▁혹	-10.6823
덴	-10.6823
▁낫다고	-10.6823
▁꿈을	-10.6824
▁요금제	-10.6826
▁비싼거	-10.6827
25	-10.6827
▁미안하다고	-10.6828
▁거기는	-10.6829
▁짜증이	-10.6829
▁피아노	-10.683
주는거	-10.6832
▁낙	-10.6833
된대	-10.6834
100	-10.6834
~~!!	-10.6839
왓다	-10.6839
▁봐주	-10.684
▁웃음	-10.6841
▁준비하고	-10.6841
▁얻어	-10.6844
줬는데	-10.6845
보게	-10.6846
▁언제쯤	-10.6848
펜	-10.6851
▁맞아맞아	-10.6851
▁레이	-10.6859
▁응원	-10.6859
▁물어봐서	-10.686
잇는거	-10.686
▁풍	-10.6861
▁동의	-10.6862
▁줄게	-10.6862
▁양치	-10.6863
▁ᄌ	-10.6866
▁컨디션	-10.6868
나오면	-10.6869
▁다리가	-10.6871
기엔	-10.6872
▁쉬운	-10.6873
▁답하고	-10.6874
▁심장	-10.6874
고생	-10.6876
▁엘지	-10.6877
▁파우치	-10.6877
▁나머지는	-10.6878
▁구매한	-10.6881
공원	-10.6881
▁ᄏᄏᄏᄏ아	-10.6892
▁그리구	-10.6893
▁노잼	-10.6896
굼	-10.6896
▁부산에	-10.6897
▁허벅지	-10.69
밧	-10.69
생김	-10.6904
▁도착하	-10.6905
▁힘들었	-10.6905
▁그러다	-10.691
눌	-10.6914
▁햇어	-10.6914
▁폰으로	-10.6918
▁텐데	-10.6921
▁원래는	-10.6922
▁참아	-10.6922
칩	-10.6925
▁갸	-10.6928
▁안맞	-10.6929
▁마지막에	-10.6932
▁작은거	-10.6932
▁관계	-10.6934
▁생겼다	-10.6934
▁밀가루	-10.6936
▁자세히	-10.6939
▁연봉	-10.6942
▁가깝	-10.6943
▁작성	-10.6946
▁싶다는	-10.6948
▁인성	-10.695
졌다고	-10.6955
킨	-10.6956
닼ᄏᄏᄏ	-10.6957
▁최고야	-10.6958
▁등등	-10.6961
▁말만	-10.6961
▁시키고	-10.6962
켓	-10.6962
▁목욜	-10.6963
▁도망	-10.6964
▁55	-10.6967
▁중에서	-10.6968
▁그것	-10.6968
▁ᅮᅲ	-10.6972
▁안해도	-10.6974
▁서면	-10.6974
잣	-10.6976
▁신라	-10.6976
▁잔소리	-10.6978
▁말투	-10.698
▁들어온	-10.6982
▁허락	-10.6984
▁버릴	-10.6989
▁아이들	-10.6989
▁정도는	-10.699
▁알리	-10.6993
▁뭐라도	-10.6994
햇네	-10.6995
쑤	-10.6996
쪽이	-10.6998
겨울	-10.6998
▁기록	-10.6998
▁말리	-10.6998
하겠지	-10.6998
▁불만	-10.7005
▁벚꽃	-10.7007
▁레몬	-10.7008
kg	-10.7008
하실	-10.701
봐야겠다	-10.7017
▁빌리	-10.7017
할라고	-10.7017
▁그르게	-10.7019
갈께	-10.7021
▁중앙	-10.7023
▁쏘	-10.7023
▁맛있고	-10.7025
▁화분	-10.7025
▁머라	-10.7025
▁요청	-10.7028
▁넘어가	-10.7028
G	-10.7032
▁국내	-10.7033
▁덥다	-10.7034
▁기술	-10.7034
▁어려	-10.7035
▁신나	-10.7036
보이는데	-10.7036
ᅮᅮᅮᅮᅮ	-10.7039
케이스	-10.7039
▁언제가	-10.7043
T	-10.7055
▁찾는	-10.7055
번은	-10.7055
▁중고	-10.7057
쟝	-10.7058
▁!!!	-10.7059
▁어제부터	-10.7062
▁썸	-10.7062
▁완성	-10.7063
▁그만큼	-10.7063
▁극혐	-10.7066
▁몽	-10.7068
가는게	-10.707
▁바르	-10.707
▁밴드	-10.7071
▁그래야지	-10.7073
▁줄이	-10.7076
엽	-10.7076
▁가루	-10.7077
▁양배추	-10.7079
신고	-10.7081
▁한의원	-10.7082
▁여수	-10.7086
▁넴	-10.709
▁했으면	-10.7094
▁하트	-10.7095
▁현장	-10.7097
B	-10.7102
▁불닭	-10.7103
▁쓰기	-10.7103
▁돌아다니	-10.7106
▁빌	-10.7108
▁짐을	-10.7113
밍	-10.7114
▁안녕	-10.7116
▁가격에	-10.7119
▁했다며	-10.712
▁앤	-10.7121
거등	-10.7124
▁굽	-10.7128
뽀	-10.713
▁야식	-10.713
놨는데	-10.7133
▁힘드	-10.7133
▁택시를	-10.7134
▁것만	-10.7134
▁도착했	-10.7134
핫	-10.7134
▁방이	-10.7136
▁아싸	-10.7139
신데	-10.7139
▁시키면	-10.715
▁비밀번호	-10.7152
영상	-10.7158
▁뿌려	-10.7158
딴	-10.716
▁학점	-10.7163
▁주려고	-10.7163
▁아니구	-10.7166
먹을거	-10.7167
▁웅ᄏᄏᄏ	-10.717
ᄃᄃ	-10.7175
▁마취	-10.7175
▁뽀	-10.7176
▁떠서	-10.7177
▁무대	-10.7178
츄	-10.7178
▁되니	-10.7178
▁필요해	-10.7182
▁지난	-10.7186
▁집들이	-10.7192
▁안써	-10.7193
인뎅	-10.7193
800	-10.7194
▁가져와	-10.7199
▁미래	-10.7201
▁설레	-10.7202
▁설명한다	-10.7203
멋	-10.7204
▁데려가	-10.7206
요ᅲ	-10.7206
▁몇시쯤	-10.7207
해주는	-10.7209
▁쓰는거	-10.721
흥	-10.7211
▁키우는	-10.7211
▁도움	-10.7212
하세요	-10.7212
원인데	-10.7213
헌	-10.7215
추천	-10.7221
쉬어	-10.7223
▁귀엽고	-10.7224
사람은	-10.7227
▁해리포터	-10.7228
▁봐야겠다	-10.7229
▁예뻐서	-10.723
개가	-10.7234
인이	-10.7235
▁추억	-10.7235
▁얘기하	-10.7236
나무	-10.7236
거니	-10.7237
▁혼나	-10.7238
▁페이	-10.7242
▁벗	-10.7243
마셔	-10.7243
▁들려	-10.7244
▁손님이	-10.7246
▁아끼	-10.7247
하루	-10.7247
▁반차	-10.7248
▁말해서	-10.7248
내용	-10.7252
▁하던	-10.7254
등록	-10.7254
▁들으면	-10.7256
▁양도	-10.7258
▁할래	-10.726
▁맘이	-10.726
▁이쁘게	-10.726
모양	-10.726
▁상관	-10.726
▁착각	-10.7264
▁바꿔야	-10.7271
▁얼마전에	-10.7271
겠구만	-10.7272
지원	-10.7273
▁볼게	-10.7274
▁글씨	-10.7277
얼굴	-10.7278
▁구글	-10.7283
▁스킨	-10.7285
▁아까워	-10.7286
것들	-10.7287
▁쇼핑몰	-10.7287
▁좋겟다	-10.7291
마스크	-10.7294
▁바닥에	-10.7294
▁의견을	-10.7296
▁숙	-10.7296
▁간만에	-10.7299
▁국수	-10.7299
▁어릴	-10.73
▁외출	-10.73
▁걸리는	-10.73
▁자동	-10.7301
▁신발을	-10.7301
▁암것도	-10.7303
▁ᄆᄌᄆᄌ	-10.7303
▁가방이	-10.7307
▁이빨	-10.731
▁무게	-10.7315
▁맞으면	-10.7316
차가	-10.7318
▁생각도	-10.7319
▁고쳐	-10.732
▁와야	-10.732
▁어린	-10.732
▁진료	-10.732
낸	-10.7321
▁구리	-10.7325
▁물어봤	-10.7327
▁장난아니	-10.7327
▁창원	-10.7329
하겠	-10.733
▁요기	-10.7331
▁다녔	-10.7333
▁두시	-10.7333
▁이제는	-10.7333
▁그쪽	-10.7336
▁성적	-10.7338
▁시간은	-10.7338
▁안전	-10.7338
▁억지로	-10.7339
▁유투브	-10.734
▁열두시	-10.7344
▁생김	-10.7344
▁벌어	-10.7345
해야되	-10.7346
싶어	-10.7349
퍼센트	-10.735
하는중	-10.7353
▁누르면	-10.736
녜	-10.7361
▁쉽	-10.7364
▁빠져서	-10.7365
▁저렴한	-10.7369
▁충전기	-10.7369
잘해	-10.7371
▁막히	-10.7373
역시	-10.7373
▁다운	-10.7374
볶음	-10.7377
▁올라	-10.7383
▁.....	-10.7384
▁원짜리	-10.7386
▁십분	-10.7387
보는거	-10.7387
▁주문해	-10.7387
▁졸려서	-10.7389
▁카드로	-10.739
갈거	-10.7391
▁할때	-10.7392
▁놀다	-10.7398
▁뇌	-10.7401
▁손해	-10.7401
▁이어	-10.7406
▁점심시간	-10.7409
▁독립	-10.7409
들어서	-10.7411
▁관심이	-10.7412
▁맞추	-10.7416
▁터	-10.7416
▁이런식으로	-10.7418
▁이러면	-10.7418
▁청약	-10.742
▁겁	-10.742
▁환경	-10.7424
봤다	-10.7427
벅	-10.7428
▁제안	-10.7432
찐	-10.7434
▁과장	-10.7435
▁그룹	-10.7435
▁안먹고	-10.7444
▁힘들고	-10.7445
챠	-10.7445
▁티브이	-10.7446
▁먹을게	-10.7449
▁보관	-10.745
▁가격을	-10.7454
뭔가	-10.7454
▁들어야	-10.7454
▁모르는데	-10.7457
▁수욜	-10.7464
▁엘베	-10.7469
▁않냐	-10.7469
▁순천	-10.747
게요	-10.7471
▁서서	-10.7471
튼	-10.7472
▁쓰는데	-10.7473
▁잤어	-10.7474
▁만나러	-10.7474
폐	-10.7476
▁한국에서	-10.748
▁상대에게	-10.7486
▁시간도	-10.7488
▁앜ᄏᄏᄏᄏᄏᄏ	-10.7489
금융	-10.7489
▁집에만	-10.7494
거려	-10.7495
줄께	-10.7495
층에	-10.7497
▁하겠다고	-10.7497
▁있기	-10.7498
▁핫도그	-10.7498
▁반복	-10.7499
▁두유	-10.7499
▁예쁘고	-10.7501
드림	-10.7502
▁펴	-10.7506
▁밖	-10.7509
대신	-10.7509
▁만나기	-10.7515
▁남의	-10.7518
▁요금	-10.7518
겠넹	-10.7521
가고싶다	-10.7522
▁망고	-10.7523
▁지하철을	-10.7524
옆	-10.7526
▁한복	-10.7527
댔	-10.7529
▁투어	-10.7529
근무	-10.7531
▁했었	-10.7534
봐요	-10.7534
▁피자를	-10.7535
▁그렇네	-10.7535
동생	-10.7537
최	-10.7539
▁조카	-10.7539
▁자신	-10.7541
달래	-10.7543
▁만들기	-10.7544
▁신전	-10.7545
튀	-10.7546
거에여	-10.7548
▁투썸	-10.7551
기억	-10.7551
닼ᄏᄏᄏᄏ	-10.7552
▁못사	-10.7552
▁시킨	-10.7552
▁생각하	-10.7553
▁지난번에	-10.7554
팡	-10.7557
긴하지	-10.7557
잇엇	-10.7558
▁여자가	-10.7559
▁고정	-10.756
▁마치고	-10.756
▁고마	-10.7561
▁맛을	-10.7562
▁넣어야	-10.7562
▁각각	-10.7562
▁방법이	-10.7562
▁어머	-10.7563
▁액정	-10.7566
▁농협	-10.7568
▁왜안	-10.7568
▁저러	-10.7571
이었다	-10.7572
웠어	-10.7572
▁능력	-10.7578
▁잘했다	-10.7579
▁보구	-10.7581
▁제목	-10.7581
▁풀고	-10.7582
▁살을	-10.7585
▁아니니까	-10.7585
▁실내	-10.7587
▁말구	-10.7587
내내	-10.7591
▁않은데	-10.7593
이따	-10.7595
였지	-10.7599
있어요	-10.7601
▁국민	-10.7602
▁라면을	-10.7607
머야	-10.7608
구경	-10.761
▁가봐	-10.761
해줄	-10.7613
▁입술	-10.7615
▁출구	-10.7615
▁입에	-10.7616
▁시켜먹	-10.7622
▁배고프다	-10.7622
정도로	-10.7622
▁있냐	-10.7623
▁하도	-10.7625
▁말까	-10.7625
잖아요	-10.7626
▁양심	-10.7627
▁갈거야	-10.7629
▁가는게	-10.763
▁소비	-10.7636
▁했으나	-10.7637
바람	-10.7637
▁소리를	-10.7638
▁모르겠고	-10.764
▁발목	-10.7642
▁가능해	-10.7642
▁얍	-10.7643
▁고통	-10.7644
부턴	-10.7644
가바	-10.7644
▁바뀐	-10.7646
▁보라색	-10.7647
▁쪽으로	-10.7649
벌써	-10.7661
▁부분이	-10.7661
▁국밥	-10.7662
▁가까이	-10.7665
▁어릴때	-10.7665
M	-10.7666
▁논	-10.767
▁헤어	-10.767
룬	-10.767
중인데	-10.7672
▁마음을	-10.7678
▁부부	-10.7678
▁드리	-10.7679
것이	-10.7682
▁알려달라고	-10.7685
▁없었다	-10.7686
햇지	-10.7686
▁찬	-10.7688
▁잔뜩	-10.7691
▁랩	-10.7693
▁싶음	-10.7694
▁높아	-10.7696
섭	-10.7697
꺼는	-10.7697
▁딸이	-10.77
▁오천원	-10.7705
리스	-10.7706
하나봐	-10.7707
▁모해	-10.7709
▁구입	-10.7712
▁방에서	-10.7717
▁에바	-10.7717
▁정도면	-10.7718
▁탈색	-10.7719
세대	-10.772
▁직업	-10.7721
누나	-10.7722
야되나	-10.7723
▁치아	-10.7724
이렇게	-10.7724
▁커버	-10.7727
▁긱사	-10.7728
▁웃긴	-10.7729
먹게	-10.773
셧	-10.7731
▁멀미	-10.7738
▁베개	-10.7739
물이	-10.7741
▁자리를	-10.7743
▁쎄	-10.7744
▁먹겠다고	-10.7744
핸	-10.7744
▁저기서	-10.7745
건디	-10.7748
▁유튜버	-10.7749
▁뷰	-10.775
▁사줄	-10.7751
▁생크림	-10.7751
▁블루	-10.7752
▁걔는	-10.7752
썻	-10.7753
▁저희	-10.7754
▁생각나서	-10.7755
었거든	-10.7755
▁심한	-10.7756
땜시	-10.7756
드는	-10.7759
하지말고	-10.776
▁녹차	-10.7762
▁그린	-10.7763
▁승	-10.7763
▁사준	-10.7765
돠	-10.7765
▁목걸이	-10.7765
▁떨어질	-10.7768
▁빨아	-10.7773
▁뭘로	-10.7776
▁모닝	-10.7778
▁진자	-10.7779
힘들어	-10.778
▁해야해	-10.7782
▁만화	-10.7783
▁할부	-10.7783
윤	-10.7783
보여서	-10.7785
▁수수료	-10.7785
▁빨간색	-10.7786
▁같어	-10.7786
하지않	-10.7788
시로	-10.7789
애기	-10.7791
▁부러	-10.7794
날이	-10.7796
▁왓챠	-10.7796
▁B	-10.7798
▁얘네	-10.7801
▁입사	-10.7802
▁속초	-10.7804
▁심하게	-10.7804
느데	-10.7804
▁짝	-10.7807
있으니까	-10.7809
▁코로나가	-10.781
▁시리즈	-10.7811
▁일할	-10.7811
거여	-10.7812
▁글을	-10.7812
▁바뀌	-10.7818
▁김장	-10.7818
▁나왓	-10.782
▁힘들지	-10.7823
▁존맛이	-10.7824
▁낮잠	-10.7826
▁이십	-10.7826
▁먹고싶은거	-10.7838
▁까먹	-10.7839
넘어	-10.784
▁사람한테	-10.7842
▁장난감	-10.7842
었는지	-10.7843
▁생각해서	-10.7847
▁탈출	-10.7848
▁가시	-10.785
▁참나	-10.7852
▁라이브	-10.7852
오라고	-10.7855
▁욕심	-10.7855
햄	-10.7861
▁여섯시	-10.7863
하고싶	-10.7866
▁샘플	-10.7867
시킬	-10.7868
▁묶	-10.7869
▁으악	-10.787
▁땡기	-10.787
▁거실	-10.787
▁하아	-10.7877
▁나에게	-10.7883
▁대단해	-10.7884
▁이미지	-10.7884
▁어떠	-10.7885
▁먹었고	-10.7885
▁가정	-10.7886
맛나	-10.7887
사이	-10.7887
닼ᄏᄏ	-10.7888
▁먹어봐	-10.789
▁군데	-10.7893
▁엠	-10.7899
었지만	-10.7899
캔	-10.79
"	-10.7901
▁속상	-10.7902
러가	-10.7902
겨서	-10.7903
▁렌트	-10.7903
▁자신은	-10.7904
▁직원들	-10.7905
▁불편해	-10.7909
하자마자	-10.7914
▁옮기	-10.7917
▁그렇긴	-10.792
▁잔다	-10.7921
하고싶어	-10.7922
▁요거	-10.793
였던	-10.7931
▁인사를	-10.7934
▁신기하	-10.7935
▁증	-10.7937
▁답답	-10.7937
거의	-10.7942
▁사는거	-10.7942
▁고르고	-10.7943
▁쓴다	-10.7944
▁개를	-10.7945
졋어	-10.7945
▁와이	-10.7947
▁휴학	-10.795
리터	-10.7952
▁귀찮다	-10.7954
▁종로	-10.7959
▁갖	-10.7961
본다고	-10.7965
▁복사	-10.7967
▁월급이	-10.7968
▁토끼	-10.7969
치료	-10.7973
큼	-10.7978
▁말라	-10.7979
▁늦어서	-10.7979
쫌	-10.798
열심히	-10.798
씻	-10.7981
▁플러스	-10.7983
쪙	-10.7983
▁모니터	-10.7983
▁업데이트	-10.7983
▁누워	-10.7985
▁행복한	-10.7985
▁교정	-10.7988
st	-10.7995
▁재고	-10.7996
뎁	-10.7997
▁접속	-10.7998
▁사는게	-10.8001
프라	-10.8005
▁걸렸	-10.8005
▁말하	-10.8008
껀데	-10.8008
▁일어나면	-10.8008
▁물건이	-10.801
▁사무실에	-10.8011
해줄게	-10.8011
몸	-10.8013
할수도	-10.8017
▁끝내고	-10.8017
완료	-10.8021
싼	-10.8023
▁티셔츠	-10.8024
이트	-10.8024
나벼	-10.8028
안함	-10.8028
▁맵	-10.8029
▁a	-10.803
▁사귀	-10.803
▁늦은	-10.803
▁혜택	-10.8031
▁글서	-10.8031
거아녀	-10.8031
▁달달	-10.8032
▁처방	-10.8032
햇음	-10.8034
개웃겨	-10.8038
▁아쉬워	-10.8039
하드라	-10.8039
▁이후에	-10.8039
▁크크	-10.804
▁비슷하	-10.8041
▁니는	-10.8041
▁안된대	-10.8042
▁지나면	-10.8044
▁됐다고	-10.8045
▁버섯	-10.8046
▁상의	-10.8047
▁사는데	-10.8051
객	-10.8051
▁자체	-10.8054
▁생길	-10.8056
▁이득	-10.8059
▁해요	-10.806
▁허걱	-10.8063
▁같으니	-10.8064
겠습니다	-10.8065
이러	-10.8068
▁넣은	-10.8068
▁자기소개서	-10.8071
▁나혼자	-10.8078
▁지나서	-10.808
▁아니여	-10.8089
▁되어있	-10.8091
▁얼마야	-10.8093
딘	-10.8096
과목	-10.8098
깅	-10.81
▁낸	-10.8104
▁발이	-10.8104
스타일	-10.8106
▁출근을	-10.8109
▁카드를	-10.8111
▁짱나	-10.8112
▁것이라	-10.8114
분은	-10.8115
▁빠진	-10.8116
▁택배로	-10.8117
▁된다는	-10.8118
분만	-10.8119
오네	-10.8122
▁담날	-10.8123
▁날짜를	-10.8124
▁시원한	-10.8125
▁오타	-10.8125
▁농	-10.8126
▁무슨일	-10.8127
▁어여	-10.8133
▁불러서	-10.8134
▁소독	-10.8134
▁일곱시	-10.8137
춘	-10.8138
▁수익	-10.8138
올때	-10.8138
▁올릴	-10.8139
▁남는	-10.8141
▁마라샹궈	-10.8142
&	-10.8143
▁동네에	-10.8146
▁눈을	-10.8148
스가	-10.8148
▁꿈에서	-10.8148
▁학기	-10.8148
▁재미가	-10.8149
▁걱정한다	-10.815
▁잤는데	-10.8151
는지에	-10.8154
▁연말	-10.8159
▁좀비	-10.8159
처음	-10.8159
말이야	-10.816
▁ᄏᄏᄏᄏᄏ아	-10.816
버릴	-10.8161
▁어울릴	-10.8167
▁생일선물	-10.8168
▁행복하다	-10.8168
삿어	-10.8171
▁미쳤	-10.8171
▁방탄	-10.8175
▁400	-10.8176
▁하겠다	-10.8176
▁마트에서	-10.8179
▁번째	-10.8181
깃	-10.8182
▁인테리어	-10.8183
▁붕어빵	-10.8183
나오는	-10.8184
▁답변	-10.8184
다르	-10.8185
▁그정도면	-10.8188
▁과연	-10.8189
▁으응	-10.8189
웠다	-10.8192
01	-10.8195
아주	-10.8197
엌ᄏᄏᄏᄏᄏ	-10.8203
▁~~~	-10.821
아니가	-10.8211
▁나이제	-10.8212
▁재수	-10.8214
▁님이	-10.8215
▁사가	-10.8216
해야하나	-10.8216
있오	-10.8216
원짜리	-10.8219
▁포도	-10.8221
이라구	-10.8222
렛	-10.8223
하노	-10.8227
▁바지를	-10.8228
▁언니의	-10.8236
▁넣는	-10.8236
운거	-10.8236
먹는다	-10.8236
스러운	-10.8237
▁금욜에	-10.8237
타면	-10.8241
▁블	-10.8242
▁쓰던	-10.8244
▁지에스	-10.8247
▁속도	-10.8248
80	-10.825
여ᅮᅮ	-10.8251
▁고민하다가	-10.8252
산다	-10.8253
팔아	-10.8253
신다	-10.8256
핀	-10.8258
콩	-10.8262
▁아이디어	-10.8264
▁캡쳐	-10.8264
▁겨울이	-10.8266
읽	-10.8271
▁아우	-10.8272
만원짜리	-10.8275
▁이기	-10.8275
▁있는게	-10.8278
▁안보	-10.8279
▁우울해	-10.828
▁보내면	-10.828
▁아이가	-10.828
햇나	-10.8281
주께	-10.8281
일을	-10.8283
뿐이	-10.8284
▁있던데	-10.8285
렸는데	-10.8285
갓어	-10.8288
▁점심때	-10.8289
▁보냈다	-10.8291
더라구요	-10.8291
▁운영	-10.8293
▁왜그래	-10.8294
▁춤	-10.8294
▁했음	-10.8294
더라도	-10.8295
▁...?	-10.8296
이미	-10.8296
▁쌈	-10.8297
때메	-10.8298
▁한쪽	-10.8298
오지	-10.8298
▁퓨	-10.8299
▁토스트	-10.8299
ᄂ데	-10.8299
▁섞	-10.8301
▁바르고	-10.8301
▁못한다고	-10.8302
샀는데	-10.8303
을거같아	-10.8304
너가	-10.8305
▁빠르다	-10.8307
▁재밌는	-10.8307
▁찍는	-10.8308
▁재밌다	-10.8308
ᅲᅲᅲᅲᅲᅲᅲ	-10.8309
테니까	-10.8309
▁슬픈	-10.831
▁과목	-10.8311
▁됐는데	-10.8314
단말야	-10.8316
▁보이고	-10.8316
하하	-10.8318
▁놉	-10.8319
▁잠들	-10.832
▁가능하다	-10.8323
▁드라이브	-10.8324
슴다	-10.8325
레이	-10.8326
▁한번만	-10.8329
▁유심	-10.833
▁아직은	-10.833
▁받기	-10.833
▁오천	-10.8332
준거	-10.8332
▁점순	-10.8333
▁좋아한다고	-10.8334
했다가	-10.8338
좌	-10.834
ᄏᄏᄀ	-10.834
배우	-10.8344
▁삼촌	-10.8348
▁일본어	-10.8348
▁맛있더라	-10.8348
겁	-10.8349
▁피곤하다	-10.835
▁품	-10.8352
있더라	-10.8353
▁갠찮	-10.8354
▁편집	-10.8358
▁재미없	-10.8359
▁잤다	-10.8361
▁온대	-10.8361
▁희	-10.8364
▁나이키	-10.8364
▁나간	-10.8367
▁짧게	-10.837
▁공유하고	-10.8371
▁웅ᄏᄏ	-10.8372
새우	-10.8376
킬로	-10.8378
▁좋았어	-10.8383
협	-10.8383
▁안하면	-10.8384
▁취미	-10.8385
솔	-10.8385
▁내용을	-10.8385
삐	-10.8386
▁자가격리	-10.8386
많은	-10.8387
▁찾으러	-10.839
▁빠질	-10.8393
..........	-10.8394
▁남았는데	-10.8395
▁가운데	-10.8398
긴함	-10.8399
▁안좋은	-10.84
▁우울	-10.8403
▁별로라고	-10.8403
▁어렸을	-10.8404
사람들이	-10.8404
장을	-10.8404
자낭	-10.8405
드라마	-10.8406
▁시급	-10.841
야게따	-10.8411
▁없었어	-10.8411
놧	-10.8412
정도는	-10.8413
▁비오	-10.8414
쁠	-10.8415
▁ᅦ	-10.8416
▁나야	-10.8416
할거같아	-10.8419
▁고급	-10.8419
▁백퍼	-10.8421
▁이자	-10.8426
▁좋다는	-10.8426
▁파는데	-10.8428
▁된거	-10.843
▁수영복	-10.8431
▁굿즈	-10.8431
▁치면	-10.8432
하기도	-10.8435
아침	-10.8437
▁영향	-10.8443
럿	-10.8444
▁배워	-10.8445
▁튀	-10.8445
엑	-10.8445
륵	-10.8446
▁유치원	-10.8449
▁이유는	-10.8449
▁가고싶어	-10.845
▁너무너무	-10.8451
앵	-10.8451
▁군산	-10.8452
▁버스타	-10.8452
▁분이	-10.8453
▁평소	-10.8455
▁몰랐어	-10.8456
버리고	-10.846
▁한두	-10.8461
보겠다고	-10.8461
보까	-10.8464
▁키가	-10.8464
▁있거든	-10.8465
안됨	-10.8468
▁좋으	-10.8469
▁아이템	-10.847
▁네이비	-10.847
▁습	-10.8471
▁죠	-10.8473
▁C	-10.8473
▁배민	-10.8475
▁숙제	-10.848
해줌	-10.8481
넘게	-10.8481
ᄏᄏᄀᄏ	-10.8485
▁입력	-10.8487
줄알고	-10.8488
▁몸은	-10.8489
으나	-10.8489
▁청주	-10.849
▁응ᄏᄏ	-10.849
▁먹었던	-10.8492
▁안쓰	-10.8493
거덩	-10.8493
곸ᄏᄏᄏᄏ	-10.8498
▁외식	-10.85
ᄀᄏ	-10.85
곸ᄏᄏ	-10.8501
▁닌	-10.8509
▁일회용	-10.8511
▁매력	-10.8511
▁도랏	-10.8511
▁택	-10.8512
▁스타	-10.8513
▁니도	-10.8515
빡	-10.8516
▁뭉	-10.8516
▁마켓	-10.8517
▁어째	-10.8517
▁메이플	-10.8522
▁완벽	-10.8524
거같은디	-10.8525
좋네	-10.8526
▁에어컨을	-10.8527
▁안되는데	-10.8531
▁과장님이	-10.8532
▁교수	-10.8533
▁없더라	-10.8537
▁존예	-10.8538
▁비슷하게	-10.8539
▁플	-10.8539
▁나오는거	-10.8541
밑에	-10.8541
▁기회	-10.8541
렀	-10.8543
▁코드	-10.8545
▁대단	-10.8545
▁가스	-10.8547
▁되었	-10.8549
▁해볼게	-10.8553
I	-10.8553
▁춘천	-10.8554
▁든	-10.8554
▁쓴다고	-10.8555
▁윗	-10.8558
이거든	-10.8561
▁유명하	-10.8568
▁쫄	-10.8569
▁조식	-10.857
▁감염	-10.8571
▁사진에	-10.8573
▁얼만데	-10.8573
▁고데기	-10.8573
르르	-10.8576
▁불편하	-10.8576
▁초록색	-10.8576
▁후드	-10.8578
쳣	-10.8584
황	-10.8584
만해도	-10.8585
되어서	-10.8586
▁저걸	-10.8588
▁버스에서	-10.8588
▁라인	-10.8589
▁이런데	-10.8591
▁유산균	-10.8593
▁찾기	-10.8597
버렸다	-10.8598
▁바꿔서	-10.8599
▁해달라	-10.8601
▁깔아	-10.8602
오나	-10.8602
엄마가	-10.8603
▁물어보면	-10.8603
▁오일	-10.8604
▁추천하고	-10.8605
▁실기	-10.8608
되게	-10.861
더랑	-10.8611
▁숙박	-10.8613
▁뭐먹	-10.8615
▁품절이	-10.8617
갖고	-10.8617
▁고생이	-10.8618
▁없다며	-10.862
▁미쳤어	-10.8625
▁색상	-10.8627
깐	-10.8627
▁번에	-10.8628
▁저번주	-10.8629
▁자기야	-10.8633
셋	-10.8635
▁취소하고	-10.8636
▁국가	-10.8637
▁초딩	-10.8643
▁어울리는	-10.8644
▁이번주는	-10.8645
약속	-10.8645
▁믿어	-10.8647
▁괜찮고	-10.865
년생	-10.8653
▁그거는	-10.8653
▁해보자	-10.8653
▁사고싶	-10.8654
겼	-10.8655
▁비싸게	-10.8657
▁그런것도	-10.8657
놀아	-10.8661
택배	-10.8661
올리	-10.8662
▁친구의	-10.8663
본거	-10.8667
▁오라	-10.8668
▁융	-10.8676
̊̈	-10.8677
▁맥도날드	-10.8677
▁이랬	-10.8678
▁챙겨주	-10.8679
할까봐	-10.868
▁귀신	-10.868
▁다섯시	-10.8682
▁청소기	-10.8682
투어	-10.8683
▁하하	-10.8684
▁올리고	-10.8687
▁찾았다	-10.8687
▁가야해	-10.8688
갓다	-10.869
보기로	-10.8693
▁근처에서	-10.8695
쌈	-10.8702
▁여러개	-10.8704
▁이정도면	-10.8705
넌	-10.8705
▁보는거	-10.8705
분정도	-10.8707
▁타이밍	-10.8708
겟당	-10.8711
▁안되서	-10.8712
▁안함	-10.8714
▁캬	-10.8714
▁나누고	-10.8717
▁붙어있	-10.8718
▁단백질	-10.872
▁속눈썹	-10.872
물어보	-10.8724
사실	-10.8725
월이	-10.8725
▁알았다고	-10.8727
▁신기하네	-10.8728
▁찾아볼게	-10.873
해바	-10.8738
▁더블	-10.874
▁빡세	-10.8741
▁않았어	-10.8742
▁귀여워서	-10.8743
꿀	-10.8743
더워	-10.8744
되네	-10.8745
▁잃	-10.8747
▁밟	-10.8749
▁좋으면	-10.875
▁멋진	-10.8751
이야기	-10.8752
▁밥이	-10.8753
▁타야	-10.8753
▁비싸고	-10.8754
▁설명해	-10.8755
▁빙수	-10.8756
▁뺄	-10.8756
짜나	-10.8757
▁강제	-10.8758
▁어디든	-10.8759
정보	-10.8759
▁싶을	-10.8759
▁빨라	-10.876
▁만들었	-10.8762
▁나눠서	-10.8763
▁코엑스	-10.8763
것두	-10.8764
▁엑소	-10.8765
▁밝	-10.877
돌려	-10.8771
이모	-10.8772
▁목도리	-10.8773
▁녹음	-10.8774
으론	-10.8775
▁나온거	-10.8776
▁싫은데	-10.8777
▁쉽지	-10.878
가져가	-10.878
▁받았다고	-10.8781
▁염	-10.8781
▁어쩔수	-10.8782
▁팀장님이	-10.8786
▁버전	-10.8788
▁캠핑	-10.8789
덥	-10.879
▁용산	-10.8791
▁후딱	-10.8791
▁주차장	-10.8793
▁의지	-10.8793
▁줬는데	-10.8795
▁직장인	-10.8796
▁2000	-10.8797
▁자긴	-10.8798
버렸어	-10.8798
▁명절	-10.8799
▁해먹	-10.88
▁치우	-10.8801
이더라	-10.8802
▁맥날	-10.8802
탑	-10.8803
▁너두	-10.8804
시기	-10.8804
둑	-10.8805
▁잇음	-10.8805
▁아웃	-10.8805
▁훠궈	-10.8805
됴	-10.8805
둣	-10.8805
▁숫자	-10.8805
▁빗	-10.8806
묻	-10.8806
▁콩나물	-10.8808
▁우리집에	-10.8808
괴	-10.8808
L	-10.8809
▁스타일이	-10.8809
굳	-10.8809
▁인터넷에	-10.8809
▁시도	-10.8811
보다가	-10.8811
▁뒤집어	-10.8813
파일	-10.8814
▁최근	-10.8816
▁오기	-10.8816
▁동아리	-10.8819
▁올해는	-10.8819
▁내방	-10.8819
장소	-10.882
▁언냐	-10.882
▁잡아서	-10.8824
친구들	-10.8828
▁체험	-10.8829
▁부서	-10.8833
번이	-10.8833
하신	-10.8833
▁적용	-10.8834
보이는	-10.8834
인걸	-10.8835
그려	-10.8836
주는데	-10.8839
▁이사가	-10.884
끔	-10.8842
▁이러면서	-10.8842
▁먹으니까	-10.8843
처리	-10.8844
▁훔쳐	-10.8844
▁모르겟	-10.8845
▁미치	-10.8848
▁전달	-10.8848
▁아깝다	-10.8848
▁짜파게티	-10.8848
▁출퇴근	-10.8849
개에	-10.8853
▁매직	-10.8854
르륵	-10.8855
할께	-10.8855
▁음성	-10.8857
▁블라우스	-10.8857
▁화내	-10.8858
▁보정	-10.8864
▁그렇다면	-10.8864
▁다녀온	-10.8865
▁음료수	-10.8866
이냐고	-10.8868
▁받으	-10.8868
▁늦잠	-10.887
냈	-10.8871
▁쿠션	-10.8874
▁기도	-10.8874
▁갔었	-10.8876
버렷	-10.8877
▁못함	-10.8877
▁잇어서	-10.8886
▁김에	-10.8888
▁가요	-10.8889
▁올렸	-10.8891
즘	-10.8891
▁멀어서	-10.8892
▁논문	-10.8894
▁금지	-10.8895
▁매운거	-10.8896
▁통신사	-10.8896
▁사먹	-10.8896
▁빠지는	-10.8896
▁장마	-10.8897
했다며	-10.8898
▁좋아할	-10.8903
▁하려면	-10.8904
▁했는지	-10.8904
▁머리에	-10.8905
▁쇼	-10.8905
▁아픈데	-10.8908
▁포항	-10.8911
▁오궁	-10.8912
먹엇어	-10.8913
테니	-10.8914
해야하는데	-10.8914
가려고	-10.8914
골라	-10.8922
▁아닌거	-10.8924
▁받았어	-10.8928
▁어딜	-10.893
▁뉴	-10.8932
지말라	-10.8932
어플	-10.8935
▁화장실에	-10.8937
붕	-10.8938
과자	-10.8938
힝	-10.8939
대여	-10.8942
▁실화냐	-10.8942
제발	-10.8943
▁부모님이	-10.8945
▁전철	-10.8946
맞지	-10.8949
▁물어보는	-10.895
▁드러	-10.8951
▁지원금	-10.8952
▁교체	-10.8954
▁퇴	-10.8957
▁셀카	-10.8959
▁필터	-10.8959
이써	-10.8961
찮	-10.8962
▁밀어	-10.8963
▁괜찮으면	-10.8963
er	-10.8965
▁할수	-10.8967
담주	-10.8968
▁힘들게	-10.8971
▁다행이라고	-10.8972
▁안나와	-10.8973
▁걷는	-10.8977
▁부천	-10.8977
▁고마웡	-10.8978
▁들어오면	-10.8979
▁말했	-10.8979
흘	-10.8979
▁민트	-10.8979
▁과정	-10.8982
▁넣었	-10.8983
말아	-10.8983
▁모르지만	-10.8988
ᄁ	-10.8988
므	-10.8989
▁마우스	-10.8995
긴하다	-10.8997
▁일단은	-10.8997
▁여친	-10.8999
▁인해	-10.9
▁많으면	-10.9
▁뺏	-10.9002
▁자야지	-10.9003
걱	-10.9003
있으	-10.9006
▁모레	-10.9006
▁보고싶어	-10.9008
▁세탁	-10.9009
고시퍼	-10.9011
▁정산	-10.9013
▁마시면	-10.9015
▁달고	-10.9017
▁좋을듯	-10.9017
▁지하철에서	-10.9017
▁찍었	-10.9018
▁오사카	-10.9022
▁준비해	-10.9024
▁안양	-10.9027
▁조아조아	-10.9027
애들이	-10.903
했엉	-10.9033
19	-10.9034
▁스포	-10.9034
▁취향이	-10.9035
가니까	-10.9035
▁글쿠나	-10.9036
▁찜닭	-10.9038
▁사람들도	-10.9038
▁우째	-10.9041
200	-10.9041
린데	-10.9043
담에	-10.9044
▁빛	-10.9045
▁궁금하	-10.9046
▁장갑	-10.9049
▁늘어	-10.9052
▁들어올	-10.906
▁언제나	-10.906
여ᅲ	-10.9065
▁립스틱	-10.9066
▁여전히	-10.9066
▁평균	-10.9066
▁몇시까지	-10.9067
▁선크림	-10.9068
▁하나를	-10.9069
김밥	-10.9069
이라는데	-10.9075
▁삶	-10.9077
▁곤	-10.9079
▁말하지	-10.908
▁속옷	-10.9081
아아아	-10.9081
▁다녀야	-10.9081
▁들어왔	-10.9084
▁있엉	-10.9085
▁굶	-10.9085
했는디	-10.9088
낮	-10.909
터지	-10.909
▁없어요	-10.909
▁울엄마	-10.9091
▁해라	-10.9092
▁해볼까	-10.9093
▁남은거	-10.9094
▁일상	-10.9094
▁그거랑	-10.9097
▁잘생긴	-10.9097
▁불가	-10.9098
▁아까워서	-10.9099
넼ᄏᄏᄏ	-10.91
▁애들이랑	-10.9102
▁새해	-10.9103
▁할수있	-10.9104
▁우산을	-10.9104
▁다른건	-10.9104
가보네	-10.9105
▁무엇	-10.9108
▁왠	-10.9109
잡고	-10.911
▁공개	-10.9115
버려서	-10.9117
▁언제부터	-10.9119
▁만드	-10.912
했오	-10.9121
인치	-10.9122
여름	-10.9122
▁타투	-10.9124
▁헬	-10.9124
한텐	-10.9126
일때	-10.9131
▁안보이	-10.9132
▁사진도	-10.9132
▁컸	-10.9137
쓰는거	-10.9139
엇음	-10.9141
▁화를	-10.9142
▁추운데	-10.9144
놨다	-10.9146
▁외우	-10.9147
혀서	-10.9149
▁땡겨	-10.915
▁없었는데	-10.9153
▁목욕	-10.9156
▁수치	-10.9157
있잖아	-10.9157
해줘서	-10.9159
?.?	-10.9159
▁딱딱	-10.9161
얘	-10.9164
▁택배가	-10.9168
▁가니까	-10.9169
▁무난	-10.917
▁신상	-10.917
▁사게	-10.9172
▁시키는	-10.9173
모야	-10.9173
▁이야기해	-10.9176
다던데	-10.9179
수준	-10.9182
▁평가	-10.9185
▁누나는	-10.9187
▁열받	-10.9188
▁막창	-10.9191
▁뭐하고	-10.9191
▁매주	-10.9192
▁이뿌	-10.9193
닛	-10.9198
할텐데	-10.9199
들어가서	-10.92
계획	-10.9203
▁공구	-10.9203
▁빅	-10.9204
▁영국	-10.9204
▁상자	-10.9205
▁맞아서	-10.9205
메뉴	-10.9205
녹	-10.9205
뀨	-10.9205
▁어이없어	-10.9206
▁일정이	-10.9208
▁아몬드	-10.9209
신발	-10.9209
하시는	-10.921
▁기업	-10.9212
사주	-10.9213
▁소식	-10.9214
수술	-10.9214
▁120	-10.9215
아나	-10.9216
▁결재	-10.9216
▁어떠냐고	-10.9216
▁기억안나	-10.9216
▁되겠	-10.922
▁마셨	-10.922
▁쉬는날	-10.9221
▁질리	-10.9224
곳은	-10.9225
▁심심해서	-10.9226
방에서	-10.9234
애들은	-10.9242
▁동대문	-10.9243
▁다르다	-10.9243
딜	-10.9244
오키	-10.9245
▁삼십분	-10.9246
통장	-10.9247
뼈	-10.9248
해달라	-10.9249
돈으로	-10.9249
꼴	-10.925
▁년	-10.9251
재밋	-10.9251
탔	-10.9252
▁걸린다	-10.9252
▁생리통	-10.9252
웨이	-10.9253
▁필요한거	-10.9253
▁그러니깐	-10.9254
▁씻구	-10.9262
아파서	-10.9264
▁신어	-10.9266
▁쩔	-10.9267
▁떨어진	-10.9267
▁되겠지	-10.9269
▁먹방	-10.9271
▁갈아타	-10.9273
탁	-10.928
▁공짜로	-10.9282
▁좋아좋아	-10.9283
▁민망	-10.9283
했었는데	-10.9287
정도면	-10.9287
▁공부하	-10.9287
모습	-10.9287
뤼	-10.9288
것같다	-10.9289
▁못보	-10.929
▁조명	-10.9292
▁중요	-10.9293
▁먹어야겠다	-10.9293
▁들어오는	-10.9293
원으로	-10.9294
괜찮아	-10.9294
▁통영	-10.9296
▁보장	-10.9298
더나	-10.9298
▁갚	-10.9301
▁빼야	-10.9303
▁부족	-10.9304
▁갠찬	-10.9304
▁불편	-10.9307
?!?!	-10.9307
▁나고	-10.9308
▁레벨	-10.9308
만원정도	-10.9309
▁닦아	-10.9312
버린	-10.9312
하는거지	-10.9312
이즈	-10.9314
돼지	-10.9316
프레	-10.9317
냇	-10.9318
▁애인이	-10.9322
듯이	-10.9322
▁검사를	-10.9323
최고	-10.9323
▁없잖아	-10.9327
쳤어	-10.9327
▁받앗	-10.9328
▁하나에	-10.9331
▁언니네	-10.9331
먹어도	-10.9332
▁얍얍	-10.9333
주의	-10.9333
▁신용카드	-10.9335
에스	-10.9335
들의	-10.9336
▁고모	-10.9337
▁팀장이	-10.9337
▁살면	-10.9338
▁라멘	-10.934
궁금	-10.9341
▁대면	-10.9346
린다고	-10.9347
▁주먹밥	-10.9347
꺼같아	-10.9348
▁이럼	-10.9348
르면	-10.935
▁과제를	-10.9351
국수	-10.9351
하셈	-10.9353
멍	-10.9355
▁눕	-10.9356
▁컬러	-10.9358
90	-10.9359
▁검정색	-10.9362
▁교통	-10.9362
했을때	-10.9364
버전	-10.9365
▁나진짜	-10.9367
롯	-10.9368
▁설명하고	-10.9371
▁실험	-10.9373
▁키워	-10.9373
▁32	-10.9374
났다	-10.9376
칙	-10.9378
바다	-10.9378
▁깨워	-10.9381
▁눈물이	-10.9382
▁자켓	-10.9383
여보	-10.9383
다행	-10.9385
▁잘했	-10.9386
핏	-10.9387
▁장면	-10.9388
자소서	-10.9388
▁작가	-10.939
▁끝나는	-10.9391
▁뚜	-10.9393
▁처음으로	-10.9397
▁어떻	-10.9403
▁치킨이	-10.9404
▁간호사	-10.9408
▁없엉	-10.9408
▁공부하는	-10.9409
▁조합	-10.9411
있니	-10.9413
▁포장해	-10.9413
▁집안	-10.9415
▁많음	-10.9416
▁비슷	-10.9419
▁애들아	-10.942
▁최종	-10.9425
▁생리대	-10.9428
보ᅥ	-10.9429
▁항공권	-10.9429
킬	-10.943
됫	-10.9432
▁즐기	-10.9433
▁셋	-10.9433
▁주인공	-10.9434
동네	-10.9435
!!!!!!!!!	-10.9437
수도있	-10.9437
▁죄송	-10.9437
▁다이소에서	-10.9437
▁근로	-10.9439
▁m	-10.944
▁머리도	-10.9442
▁아니네	-10.9443
▁일어날	-10.9446
▁갈께	-10.9448
▁아라	-10.9449
▁향이	-10.9453
▁어디쯤	-10.9453
김에	-10.9453
▁????	-10.9454
▁정리하고	-10.9455
▁하라	-10.9456
▁대단한	-10.9456
▁그대	-10.9457
다보면	-10.9457
▁찰	-10.9458
교육	-10.9459
▁기여	-10.9461
▁답답해	-10.9462
▁헝	-10.9464
멘	-10.9466
빠져	-10.9466
쨔	-10.9468
전부터	-10.9468
▁쓰려고	-10.9468
▁영등포	-10.9469
▁고프	-10.947
였으면	-10.947
▁첫번째	-10.9471
▁먹던	-10.9472
▁헉헉	-10.9472
보라	-10.9472
▁뜨거운	-10.9473
▁계시	-10.9475
▁선배	-10.9476
▁아씨	-10.9476
▁떨어졌	-10.9476
▁밝은	-10.948
▁하는거야	-10.9483
▁내릴	-10.9483
랐	-10.9486
▁여드름	-10.9488
▁아직안	-10.9488
미안	-10.9488
▁졸귀	-10.9489
아이디	-10.949
와써	-10.949
줄알았는데	-10.9491
▁잊	-10.9493
▁문닫	-10.9494
▁만지	-10.9496
▁상추	-10.9496
▁가져갈	-10.9497
▁살아야	-10.95
▁유명	-10.9501
70	-10.9502
▁오자마자	-10.9502
▁거고	-10.9503
▁운동하고	-10.9507
▁다른곳	-10.9509
▁사려	-10.951
짜증나	-10.9511
봤자	-10.9513
▁ᄋᄋᄋᄋᄋ	-10.9513
들었	-10.9514
댱	-10.9515
▁물어본	-10.9515
▁크다	-10.9517
▁두꺼운	-10.952
▁술은	-10.9521
▁생겼어	-10.9521
▁낼부터	-10.9524
▁불편한	-10.9525
▁닭강정	-10.9525
▁쪽에	-10.9525
겠다며	-10.9525
▁기모	-10.9527
▁바꾸면	-10.9528
▁오져	-10.9529
▁졸리	-10.9529
돈이	-10.9531
청소	-10.9533
▁위험하	-10.9533
▁일산	-10.9536
▁산책을	-10.9536
▁환	-10.9537
▁씀	-10.9538
▁무섭다고	-10.9538
▁앜ᄏᄏ	-10.954
▁돈벌	-10.9541
▁올리브영	-10.9541
▁제사	-10.9542
▁채워	-10.9543
▁남자친구가	-10.9545
▁개발	-10.9546
▁말야	-10.9547
▁새거	-10.9547
▁사용할	-10.955
▁기다릴	-10.9551
걸려	-10.9552
갑다	-10.9553
▁찜	-10.9554
학생	-10.9557
입구	-10.9558
▁미쳣	-10.956
이든	-10.956
▁하고싶	-10.9561
▁포토샵	-10.9561
활	-10.9561
▁좋은지	-10.9562
일어나	-10.9562
거는	-10.9565
▁올랐	-10.9566
헉	-10.9568
혜	-10.957
▁원룸	-10.957
R	-10.9571
▁c	-10.9572
▁조심해서	-10.9573
▁씨유	-10.9579
▁작게	-10.958
▁느껴	-10.9581
▁활용	-10.9581
▁그러다가	-10.9584
▁만남	-10.9585
파이	-10.9586
▁탔는데	-10.9588
▁시바	-10.9588
에여	-10.9589
▁않았는데	-10.959
밖	-10.9593
상황	-10.9595
▁가족들	-10.9596
나왔어	-10.9598
▁머해	-10.96
만원에	-10.9604
▁38	-10.9604
줄알았	-10.9604
▁수강신청	-10.9608
ᄎ	-10.9609
▁긴팔	-10.961
▁힘든데	-10.9612
▁생각은	-10.9615
▁빵집	-10.9616
▁마침	-10.9618
뭐지	-10.962
쪽은	-10.9624
려다가	-10.9624
나올	-10.9625
▁어딘데	-10.9625
▁좋아하고	-10.9627
▁놀래	-10.9628
집은	-10.9629
▁호주	-10.9633
드릴	-10.9633
▁이천	-10.9636
놔야	-10.9638
▁낚시	-10.9639
▁인도	-10.964
▁태워	-10.9642
놓으면	-10.9644
▁무겁	-10.9644
무서워	-10.9649
▁회원	-10.9649
▁눈치보	-10.965
▁휴가를	-10.9651
텍	-10.9653
▁디즈니	-10.9654
▁가볍게	-10.9654
▁응급실	-10.9654
▁안받	-10.9654
▁조각	-10.9655
▁오래된	-10.9656
로우	-10.9659
했다는	-10.9662
고싶은	-10.9662
▁오는거	-10.9663
곧	-10.9665
▁빡치	-10.9668
▁성인	-10.9669
▁명동	-10.9672
▁읍	-10.9672
▁자식	-10.9673
때문	-10.9674
▁편하다	-10.9675
▁봐줘	-10.9675
▁깜빡	-10.9675
▁서울은	-10.9678
▁금액이	-10.9679
오늘은	-10.9683
▁환자	-10.9684
▁오빠한테	-10.9685
오르	-10.9685
할라	-10.9685
갘	-10.9685
한건데	-10.9689
들에게	-10.9689
▁들면	-10.969
▁가봐야	-10.969
▁멋져	-10.9693
▁건너	-10.9696
▁ᅲᅲᅲᅲᅲᅲᅲᅲ	-10.9699
▁플라스틱	-10.9701
▁역대급	-10.9701
▁ᄀᄎᄀᄎ	-10.9701
▁언넝	-10.9701
셨어	-10.9703
▁오만원	-10.9703
▁길어서	-10.9704
▁옼	-10.9706
▁조립	-10.9706
▁스트레칭	-10.9707
▁매장에	-10.9707
▁가면서	-10.9708
명이서	-10.9708
▁아이유	-10.9709
나두	-10.971
하셔	-10.9717
왔엉	-10.972
▁살래	-10.9723
▁전날	-10.9726
▁그것만	-10.9728
▁=	-10.9728
쉽	-10.9731
▁길을	-10.9731
▁조언	-10.9732
얀	-10.9733
잇고	-10.9738
▁바지가	-10.9741
▁출근해서	-10.9741
▁크으	-10.9742
▁똑	-10.9742
아저씨	-10.9743
우유	-10.9745
▁한국에	-10.9746
▁메인	-10.9747
▁차려	-10.9748
▁카페를	-10.9749
▁아니가	-10.975
▁모르겟어	-10.9753
▁친구네	-10.9754
▁끝남	-10.9756
▁대학생	-10.9756
폴	-10.9757
▁보여주며	-10.9758
▁편하고	-10.9759
있다가	-10.9759
마싯	-10.9761
사항	-10.9761
▁잘했네	-10.9763
▁갠	-10.9763
업체	-10.9765
▁그렇겠지	-10.9766
▁해줘야	-10.9767
▁폴	-10.9767
잇으면	-10.9769
마냥	-10.9772
것처럼	-10.9773
▁했다는	-10.978
문자	-10.978
▁도움이	-10.9781
ᅧ	-10.9782
▁오니까	-10.9782
▁헐ᄏᄏᄏ	-10.9786
야됨	-10.9787
▁등을	-10.9789
▁화상	-10.9789
▁M	-10.979
▁알림	-10.9791
응응	-10.9792
녕	-10.9793
쒀	-10.9795
하고있어	-10.9797
맛있어	-10.9799
비는	-10.9799
물어봐	-10.98
▁엔	-10.98
▁출발할	-10.9802
▁그만두고	-10.9804
▁레시피	-10.9805
▁혹시나	-10.9805
▁교복	-10.9805
▁용량	-10.9807
▁한시	-10.981
▁두세	-10.9811
미가	-10.9812
인게	-10.9814
▁파란색	-10.9815
▁오십	-10.9816
▁멋지	-10.9821
라구요	-10.9823
도있고	-10.9823
것네	-10.9823
▁재미있다	-10.9824
▁아니니	-10.9824
▁생각해보니	-10.9829
▁한끼	-10.9829
▁시원	-10.9829
머금	-10.9831
▁칭구	-10.9835
▁보드	-10.9835
▁팔찌	-10.9836
😭	-10.9838
룽	-10.9842
▁해운대	-10.9842
400	-10.9842
냐는	-10.9848
▁봐바	-10.985
랍	-10.985
방이	-10.9853
▁있오	-10.9858
받앗	-10.9858
명은	-10.9861
같은건	-10.9861
롬	-10.9866
▁남편이	-10.9869
▁너꺼	-10.987
거라서	-10.9871
▁신기한	-10.9872
▁수면	-10.9872
갓다가	-10.9873
▁한글	-10.9874
▁왜지	-10.9876
▁대학원	-10.9877
▁같긴	-10.9877
할수	-10.9877
건강	-10.9879
였다고	-10.9881
▁생일이	-10.9882
▁천재	-10.9884
..;;	-10.9885
▁보는중	-10.9886
눈뎅	-10.9886
▁지켜	-10.9888
▁심리	-10.9888
▁팔았	-10.989
모르겠	-10.9891
▁죽은	-10.9892
지머	-10.9894
▁제거	-10.9894
▁타러	-10.9895
자네	-10.9895
▁케이	-10.9899
▁소중	-10.9899
▁요즘에	-10.9899
▁쩌	-10.99
▁떨어지면	-10.99
▁광명	-10.99
보고싶다	-10.9904
▁어려워서	-10.9904
▁700	-10.9905
안하면	-10.9906
중이라	-10.9906
▁책이	-10.991
부리	-10.9912
▁썼는데	-10.9914
▁모르니까	-10.9915
▁진짜루	-10.9918
▁들었어	-10.9919
▁놀자	-10.992
▁곡	-10.9924
하까	-10.9924
됬	-10.9925
▁열시	-10.9925
▁이쁘지	-10.9925
▁들었는데	-10.9926
▁학교가	-10.9931
▁쩔어	-10.9931
▁대형	-10.9931
▁사촌	-10.9934
▁늦었	-10.9936
대요	-10.9937
▁초등학교	-10.9938
j	-10.9938
▁도쿄	-10.9938
▁더러워	-10.9938
▁누르	-10.994
▁안자	-10.9941
▁재질	-10.9942
포장	-10.9943
주에	-10.9943
▁실제	-10.9945
늬	-10.9945
▁술먹	-10.9945
요리	-10.9947
▁시절	-10.9949
셀	-10.9949
낳	-10.995
컨	-10.9951
셤	-10.9952
꺄	-10.9952
▁대단하	-10.9953
정이	-10.9954
▁한국인	-10.9955
▁티가	-10.9955
▁앜ᄏᄏᄏᄏᄏᄏᄏ	-10.9955
대가	-10.9957
많다	-10.9957
▁째	-10.9958
▁하루만	-10.9959
▁인스타에	-10.9961
▁그때는	-10.9961
9000	-10.9963
▁당면	-10.9963
▁맡겨	-10.9964
▁도착했어	-10.9964
포함	-10.9967
했었	-10.9968
▁망할	-10.9971
▁ᄏᄏᄏᄏᄏᄏ아	-10.9971
기준	-10.9972
욧	-10.9973
▁회복	-10.9974
▁몰랑	-10.9976
저녁에	-10.9976
뛰	-10.9977
▁원두	-10.9979
▁나갔	-10.9979
24	-10.998
▁초록	-10.998
▁연수	-10.9985
▁실업급여	-10.9986
▁전부터	-10.9986
▁비빔밥	-10.9986
▁전기장판	-10.9986
▁인기가	-10.9987
▁생활비	-10.9987
하대	-10.9988
▁덮	-10.9988
▁전시회	-10.9989
▁물어보자	-10.9989
다니는	-10.9991
날듯	-10.9991
▁창피	-10.9991
▁싱	-10.9991
▁예능	-10.9992
▁시켰다	-10.9999
땀	-11
▁카페인	-11
안좋	-11.0001
▁동생이랑	-11.0001
▁낮은	-11.0001
▁알려준	-11.0002
▁뚜껑	-11.0006
▁얼마안	-11.0008
해지	-11.0009
▁뜬	-11.0009
▁라식	-11.0009
▁지키	-11.001
▁모습을	-11.0011
▁똑같아	-11.0012
곸ᄏᄏᄏᄏᄏ	-11.0015
▁미팅	-11.0015
해가지고	-11.0015
▁말해주고	-11.0015
▁잔다고	-11.0017
대기	-11.0017
갓는데	-11.002
혹시	-11.0027
▁청소를	-11.0027
▁왔고	-11.0027
!!!!!!!!!!!!!!!!	-11.0029
▁안해서	-11.0031
▁지랄	-11.0033
▁있겠지	-11.0033
▁삼계탕	-11.0034
▁프리미엄	-11.0034
▁닿	-11.0036
▁점심먹고	-11.0037
▁공간	-11.0037
그렇지	-11.0038
했냐	-11.0042
▁장기	-11.0044
순위	-11.0044
▁비와	-11.0045
▁맛잇어	-11.0047
▁짜장	-11.0047
끝나면	-11.005
겐	-11.005
아픈	-11.005
▁밥먹으러	-11.0052
▁같던데	-11.0055
▁보내는	-11.0056
달러	-11.0058
▁부르는	-11.0059
긴했는데	-11.0059
▁아부지	-11.0059
▁오해	-11.0059
▁필요가	-11.0059
▁아아아	-11.0061
▁얘가	-11.0062
▁더위	-11.0066
▁아는데	-11.0066
▁노랑	-11.0068
▁2020	-11.0074
▁두명	-11.0074
▁고치	-11.0074
스를	-11.0075
▁아휴	-11.0079
▁신난다	-11.008
있냐	-11.0082
했나봐	-11.0082
됑	-11.0082
▁신천지	-11.0083
▁자르고	-11.0084
▁신촌	-11.0087
금액	-11.0088
▁더이상	-11.0088
▁자몽	-11.0088
하는사람	-11.0091
인정	-11.0091
▁소문	-11.0091
받으면	-11.0093
▁할듯	-11.0094
▁슬랙스	-11.0095
놈들	-11.0096
▁레깅스	-11.0097
▁핑계	-11.0097
▁대로	-11.0098
▁않냐고	-11.01
▁점순이	-11.0101
해준다	-11.0102
싫다	-11.0102
▁터질	-11.0103
어도	-11.0104
▁좀따	-11.0113
▁니네	-11.0113
▁공부해야	-11.0113
▁붙이고	-11.0115
▁주었다	-11.0116
▁지옥	-11.0117
▁내리면	-11.0119
▁조건	-11.0119
▁ᅥ	-11.0121
▁먹었는지	-11.0122
▁다음에는	-11.0125
▁방을	-11.0127
▁먹고싶은	-11.0129
▁어플로	-11.0129
▁도착해	-11.013
꼐	-11.0131
숑	-11.0131
▁아프지	-11.0131
▁가벼운	-11.0132
모임	-11.0132
▁땜에	-11.0132
넼ᄏᄏ	-11.0133
겠어요	-11.0136
이에여	-11.0137
▁가볼까	-11.0137
▁노란색	-11.0138
▁세수	-11.0139
▁다낭	-11.014
▁베란다	-11.0141
▁프랑스	-11.0141
▁소개해	-11.0141
▁없어도	-11.0142
▁땀이	-11.0143
▁언제와	-11.0143
▁서버	-11.0144
싹	-11.0147
▁어묵	-11.0148
▁병원을	-11.0152
▁매트	-11.0152
마저	-11.0152
인증	-11.0153
불러	-11.0153
시키고	-11.0153
▁먹으라	-11.0154
▁몰랐다	-11.0156
사와	-11.0156
▁샤	-11.0157
▁날에	-11.0159
▁일욜에	-11.0159
▁드라마를	-11.016
▁편의점에	-11.0163
쟈나	-11.0164
▁식물	-11.0165
▁어머니가	-11.0167
스럽다	-11.0169
▁날이라	-11.0169
▁비비	-11.017
시쯤에	-11.0176
▁b	-11.0176
▁웃기네	-11.0177
▁삼십	-11.0178
▁배불러	-11.0178
▁머리카락	-11.0183
웠는데	-11.0185
▁사무실에서	-11.0185
▁장염	-11.0191
남앗	-11.0193
▁신규	-11.0197
밤에	-11.0197
▁다른사람	-11.0198
▁조정	-11.0201
거니까	-11.0203
▁사고싶어	-11.0204
가고싶어	-11.0204
▁계약서	-11.0204
▁독일	-11.0206
▁믿을	-11.0207
나가서	-11.0207
케익	-11.0208
▁예쁜데	-11.021
▁무슨일이야	-11.0211
피곤	-11.0212
▁실비	-11.0216
▁오늘의	-11.0217
▁춥다고	-11.0218
해두	-11.0218
▁싸움	-11.0218
^^...	-11.0219
무리	-11.0225
▁놀았	-11.0227
들어오	-11.0228
ᄍ	-11.023
퐁	-11.023
▁TV	-11.023
▁몇명	-11.023
▁분위기가	-11.0231
▁쌍	-11.0231
▁탈락	-11.0234
▁잊고	-11.0235
▁지굼	-11.0235
▁젊은	-11.0237
▁언젠가	-11.024
▁살빼	-11.0241
▁센스	-11.0244
▁심심하	-11.0245
갱	-11.0247
낄	-11.0247
▁젊	-11.0247
▁초반	-11.0248
바쁘	-11.0248
세용	-11.025
▁퇴근시간	-11.0254
▁욕을	-11.0256
▁롱	-11.0256
시간은	-11.0259
▁뭐먹지	-11.026
▁편할	-11.0262
▁닮았	-11.0263
▁면세점	-11.0263
▁라지	-11.0263
▁먹어요	-11.0265
▁진상	-11.0266
w	-11.0267
▁안되지	-11.027
▁하셨	-11.0271
제가	-11.0272
도라	-11.0274
여ᄏᄏᄏ	-11.0278
▁희망	-11.0281
하넹	-11.0284
인거야	-11.0286
▁좋을지	-11.0286
▁절반	-11.0286
▁어렵다고	-11.0288
기다리	-11.0288
▁비누	-11.0292
도없고	-11.0293
▁먹어본	-11.0293
띵	-11.0294
▁창고	-11.0294
▁수고	-11.0294
▁필요하면	-11.0295
▁미용	-11.0295
자면	-11.0295
▁적당한	-11.0296
나왓	-11.0296
▁놔	-11.0296
뭘	-11.0297
봐라	-11.0297
▁애매하	-11.0298
▁보내야	-11.0298
▁해볼	-11.0299
▁빼면	-11.0302
▁현타	-11.0303
▁용기	-11.0303
▁줄여	-11.0304
줬으면	-11.0305
▁몰랐는데	-11.0306
▁정신없	-11.0306
▁가보자	-11.0307
▁볼래	-11.0307
혔	-11.031
하려구	-11.0311
센치	-11.0315
가고싶	-11.0315
많은데	-11.0315
▁구려	-11.0316
▁범	-11.0316
▁찾았	-11.0319
▁냉동실에	-11.032
▁한동안	-11.032
▁붙이	-11.0323
▁대박이네	-11.0323
▁풀리	-11.0325
비를	-11.0326
▁끝났어	-11.0329
▁워낙	-11.0329
▁웃김	-11.0331
▁좋겠네	-11.0331
가면서	-11.0332
오라	-11.0332
▁조퇴	-11.0332
▁메모	-11.0332
맛집	-11.0333
종류	-11.0335
▁형이	-11.0337
▁감당	-11.0339
▁한식	-11.034
▁지금부터	-11.034
지마라	-11.034
제품	-11.0342
▁부평	-11.0343
▁이케아	-11.0343
▁숙소를	-11.0349
▁신경쓰	-11.035
▁구멍	-11.035
끝났	-11.035
난거	-11.035
▁그랬다	-11.0351
▁시대	-11.0352
▁보냈어	-11.0354
▁증상	-11.0354
▁컨셉	-11.0355
▁옷장	-11.0355
▁지점	-11.0357
두면	-11.0357
▁썻	-11.0357
▁숲	-11.0358
이크	-11.0359
쳤다	-11.036
▁고민해	-11.0361
▁큐	-11.0364
▁얼굴을	-11.0365
오오	-11.0367
▁해준	-11.0368
▁외국인	-11.0369
▁봣는데	-11.037
▁엄마의	-11.037
지말구	-11.0375
▁마넌	-11.0375
댄	-11.0376
▁딴거	-11.0377
*	-11.0378
▁피피티	-11.038
친다	-11.038
▁아웃백	-11.038
▁ᄋᄌᄅ	-11.0382
얼마나	-11.0385
라했는데	-11.0386
▁안나가	-11.0389
▁밀크티	-11.0389
▁프로젝트	-11.0391
▁친구도	-11.0392
▁인상	-11.0393
▁자제	-11.0395
▁비와서	-11.0396
▁사건	-11.0397
▁기초	-11.0398
▁멤버	-11.0399
거랑	-11.0401
▁들지	-11.0403
조심	-11.0404
코스	-11.0405
▁누군지	-11.0411
▁중요하	-11.0412
▁몰러	-11.0412
▁믿고	-11.0412
뽑아	-11.0414
▁호두	-11.0415
▁부탁해	-11.0415
한디	-11.0416
잇지	-11.0417
라던데	-11.0417
신거	-11.0417
▁택시타	-11.0419
▁세시	-11.042
텔	-11.0421
▁부른	-11.0422
▁피곤한	-11.0423
래요	-11.0425
▁걷기	-11.0426
둥이	-11.0427
▁스페인	-11.0429
▁3000	-11.0429
▁비닐	-11.0431
것같애	-11.0432
▁공차	-11.0432
▁명품	-11.0433
▁쌩	-11.0434
▁아무튼	-11.0436
▁완전히	-11.0437
먹었다	-11.0437
안좋아	-11.0439
▁스파게티	-11.044
▁청첩장	-11.044
▁시간대	-11.0442
이없어	-11.0443
▁차타고	-11.0444
흠	-11.0444
보드	-11.0445
룰	-11.0445
잤어	-11.0446
화가	-11.0446
밭	-11.0447
▁두통	-11.0448
부족	-11.0449
▁게다가	-11.0452
ᄏᄏᄏᄀ	-11.0458
뎀	-11.0458
▁갠차	-11.046
▁아들이	-11.0461
시오	-11.0468
▁봉투	-11.0469
▁어딘지	-11.0471
▁흔	-11.0477
▁죄	-11.0477
없다고	-11.0483
▁밀리	-11.0483
▁열공	-11.0484
듕	-11.0485
▁마트에	-11.0485
▁핏	-11.0485
▁끌고	-11.0486
거같은	-11.0487
▁지구	-11.0487
핳	-11.0488
▁건대	-11.0493
<	-11.0493
▁만들면	-11.0496
▁채널	-11.0496
▁옷도	-11.0497
▁부터	-11.0499
▁확인하	-11.0499
▁다녀와서	-11.05
▁든다고	-11.05
하께	-11.0501
▁시킴	-11.0501
▁네넹	-11.0501
▁넓	-11.0503
저런	-11.0503
▁목소리가	-11.0504
☆	-11.0504
▁저래	-11.0509
▁예전에는	-11.0511
▁남들	-11.0512
▁아웃겨	-11.0515
도되	-11.0517
▁말하는거	-11.0517
상이	-11.052
E	-11.052
강의	-11.0522
▁하잖아	-11.0525
보는중	-11.0525
▁구경하고	-11.0528
▁맛있음	-11.0529
보자고	-11.0529
▁잡을	-11.053
▁하얀	-11.053
▁이쁜데	-11.053
▁몇년	-11.053
▁학원에	-11.0531
▁희희	-11.0531
▁찰떡	-11.0531
▁숙취	-11.0531
안된다	-11.0532
▁뒤지	-11.0533
▁어쩔수없지	-11.0534
할거같	-11.0535
▁차로	-11.0536
▁미안하다	-11.0539
▁조은	-11.0539
▁억	-11.0543
먹은거	-11.0548
▁괜찮은거	-11.0549
▁귀엽네	-11.0549
펴	-11.055
▁비온다	-11.0552
▁줄줄	-11.0552
▁왔다갔다	-11.0553
▁배송이	-11.0556
선생님	-11.0558
▁느낌이야	-11.0558
온다고	-11.0558
▁기다려봐	-11.0561
▁셀	-11.0561
▁안보여	-11.0564
▁이주	-11.0564
▁덥고	-11.0566
▁차리	-11.0568
넨	-11.0568
▁다니면	-11.057
▁문화	-11.057
▁어려울	-11.057
▁타오바오	-11.0571
▁일하기	-11.0574
▁일자리	-11.0575
▁쓰게	-11.0577
남음	-11.0577
댁	-11.0579
▁양산	-11.0579
낌	-11.058
약간	-11.0582
▁목욕탕	-11.0582
▁냈	-11.0582
섴ᄏᄏᄏ	-11.0583
▁이만	-11.0583
▁무지	-11.0585
▁의견	-11.0585
▁예스	-11.0585
같아서	-11.0588
▁영양	-11.0589
지말라고	-11.0591
▁준대	-11.0592
▁애교	-11.0592
▁짐이	-11.0594
▁울고	-11.0594
▁화욜	-11.0595
▁방향	-11.0596
▁늦게까지	-11.0597
간지	-11.0598
지는거	-11.0599
▁때부터	-11.0599
▁없는지	-11.0601
▁퇴근을	-11.0601
▁존재	-11.0601
만원씩	-11.0602
해떠	-11.0602
▁요거트	-11.0603
쟁	-11.0604
▁맛있었어	-11.0604
▁오빠에게	-11.0606
▁사먹어	-11.0608
▁걱정이다	-11.0608
개만	-11.0611
▁초반에	-11.0611
▁팔아서	-11.0612
신기	-11.0612
나온다	-11.0616
하는건가	-11.0617
▁브	-11.0621
▁걸리면	-11.0622
▁침대에	-11.0624
나게	-11.0624
▁결과가	-11.0627
사자	-11.0628
쒸	-11.0633
▁종아리	-11.0633
▁오렌지	-11.0633
나아	-11.0634
▁빨강	-11.0636
▁출석	-11.0636
틀어	-11.0636
누구	-11.0637
▁호떡	-11.0638
▁그럴듯	-11.0639
감자	-11.0641
수도잇	-11.0641
햇자나	-11.0642
▁실화	-11.0643
▁거랑	-11.0646
▁죽는	-11.0646
▁마지막으로	-11.0647
숲	-11.0648
▁상관없어	-11.0648
▁시켰어	-11.0649
▁공유한다	-11.0649
▁에스	-11.065
▁와도	-11.0651
모자	-11.0652
맵	-11.0654
▁열한시	-11.0654
▁섬	-11.0654
▁장점	-11.0655
▁빵빵	-11.0655
▁퇴근할	-11.0656
▁물어봄	-11.0657
▁ᄇ	-11.0657
아요	-11.0658
▁깨서	-11.0658
▁멍청	-11.066
▁아니겠지	-11.0661
▁이사람	-11.0663
교수님	-11.0664
자주	-11.0665
▁가사	-11.0666
사야지	-11.0669
싶은데	-11.0676
▁거라는	-11.0677
▁타자	-11.0679
▁들어갔	-11.0679
어야지	-11.0681
O	-11.0681
올까	-11.0681
▁건강한	-11.0682
다운	-11.0683
ᄏᄀᄏᄀ	-11.0683
▁비싸지	-11.0685
▁메시지	-11.0685
했자나	-11.0685
▁펜슬	-11.0686
▁홈페이지	-11.0687
▁맛도	-11.0689
▁흡	-11.0689
▁사준다고	-11.0689
(?)	-11.069
▁들어보	-11.069
닦	-11.0692
곱	-11.0692
▁고기가	-11.0693
▁뿐	-11.0695
▁값	-11.0695
못하	-11.0696
가입	-11.0696
▁칫솔	-11.0696
▁간다는	-11.0696
▁볼거	-11.0697
▁살았	-11.0697
꺼같은데	-11.0698
몀	-11.0701
▁바꾸는	-11.0703
▁마주	-11.0704
▁남아있	-11.0704
▁종류가	-11.0706
방법	-11.0708
▁학원에서	-11.0708
▁ᄒᄒᄒᄒᄒᄒ	-11.0709
▁인원	-11.0709
간당	-11.0711
▁갓다	-11.0711
▁어린이	-11.0713
▁시작하	-11.0714
▁쟈철	-11.0715
년은	-11.0715
걸림	-11.0716
엿는데	-11.0717
뭔데	-11.0718
▁그럴걸	-11.0719
우니	-11.0719
챙기	-11.072
똑같	-11.072
▁같이가	-11.0722
???????	-11.0724
▁바바	-11.0725
▁이마	-11.0728
아파트	-11.0731
구매	-11.0732
▁남았다	-11.0733
까말까	-11.0734
▁바이	-11.0735
펀	-11.0736
튜	-11.0736
▁에코백	-11.0736
▁곰팡이	-11.0736
▁신분증	-11.0736
▁사이다	-11.0736
▁조회	-11.0737
▁코코	-11.074
해보자	-11.074
▁중이고	-11.0741
▁쿠팡에서	-11.0745
▁않아도	-11.0746
싶었는데	-11.0747
라면서	-11.0748
▁가능하다고	-11.075
었으면	-11.0752
▁더울	-11.0752
▁애매	-11.0753
▁자신을	-11.0753
▁날씨에	-11.0753
▁호캉스	-11.0754
▁이야기하자	-11.0754
▁신호	-11.0757
섬	-11.0758
▁부모	-11.076
▁패딩을	-11.0761
▁//	-11.0761
▁할인을	-11.0769
인생	-11.0769
▁맥주를	-11.077
▁해장	-11.0771
주가	-11.0774
▁다음엔	-11.0775
제일	-11.0778
▁먹는게	-11.0781
저기	-11.0782
▁파란	-11.0782
▁여기에	-11.0783
앉	-11.0785
면돼	-11.0785
짘ᄏᄏᄏ	-11.0787
▁감독	-11.079
이구만	-11.079
▁소시지	-11.0791
낫어	-11.0791
▁해준다고	-11.0792
▁동료	-11.0793
고양이	-11.0794
▁여름이	-11.0795
▁모습이	-11.0798
▁어짜피	-11.0799
▁전에는	-11.08
년동안	-11.08
▁울어	-11.08
▁쭈꾸미	-11.0802
▁식으로	-11.0803
▁도시	-11.0806
▁괜	-11.0807
▁비해	-11.0812
▁출발하	-11.0813
▁꽂	-11.0814
▁복지	-11.0817
고픈데	-11.0818
써여	-11.0819
▁속상해	-11.0821
예매	-11.0822
14	-11.0823
▁남앗	-11.0827
▁낳	-11.0827
▁공고	-11.083
▁전자	-11.0836
▁거의다	-11.0836
▁좁	-11.0837
▁정주행	-11.084
▁저두	-11.0841
▁어린이집	-11.0843
▁죽이	-11.0844
치기	-11.0847
▁애슐리	-11.0848
▁부대찌개	-11.0849
▁나갔다	-11.085
▁나간다고	-11.0852
▁빌려주	-11.0854
▁패키지	-11.0855
살때	-11.0855
▁어무니	-11.0857
▁가슴살	-11.0858
높	-11.0858
때부터	-11.0858
N	-11.0863
낙	-11.0863
▁600	-11.0864
▁이왕	-11.0865
야겠당	-11.0869
▁고딩때	-11.0872
질이	-11.0873
▁알겟어	-11.0873
춰	-11.0874
쵸	-11.0874
▁가려면	-11.0875
▁좋아하지	-11.0875
▁이상하다	-11.0876
▁달력	-11.0881
와라	-11.0884
받아야	-11.0888
▁센	-11.0888
조각	-11.0891
률	-11.0891
▁여태	-11.0892
쩡	-11.0892
▁33	-11.0893
▁굳굳	-11.0893
▁관련된	-11.0894
▁농담	-11.0895
~!~!	-11.0897
▁자리에	-11.0897
▁반려동물	-11.09
▁했다가	-11.09
▁씻어	-11.0902
▁했네	-11.0903
▁관한	-11.0903
▁일본에서	-11.0904
▁집앞	-11.0907
▁말하였다	-11.0909
▁호박	-11.0911
넼ᄏᄏᄏᄏ	-11.0912
▁터지	-11.0915
▁뭐사	-11.0916
볼때	-11.0919
▁요기요	-11.092
보고싶	-11.0921
시죠	-11.0922
▁짖	-11.0924
▁가죽	-11.0925
까요	-11.0927
어디서	-11.0928
▁캔	-11.093
▁대여	-11.0932
▁끌	-11.0934
▁전국	-11.0934
▁드시	-11.0935
렵	-11.0939
기다려	-11.094
▁죽음	-11.0945
하셔서	-11.0946
▁랜덤	-11.0946
▁에어프라이어	-11.0946
▁교촌	-11.0946
▁관광	-11.0947
▁옆집	-11.0949
▁신발이	-11.0952
해볼까	-11.0953
▁이디야	-11.0953
▁클렌징	-11.0953
▁진작	-11.0954
▁양식	-11.0954
매장	-11.0955
▁해주면	-11.0956
▁양아치	-11.0957
▁내려오	-11.0957
▁예약해	-11.0958
▁먹어봤	-11.0961
▁오류	-11.0962
▁잼나	-11.0962
▁미친듯이	-11.0963
▁비싼데	-11.0964
▁질려	-11.0964
▁구성	-11.0968
수는	-11.0969
▁재밌을	-11.097
▁입었	-11.0971
▁멋지다	-11.0972
▁월욜에	-11.0972
했으	-11.0972
▁담당	-11.0973
▁기르	-11.0974
▁아홉시	-11.0975
겠죠	-11.0976
▁주식을	-11.098
븐	-11.0982
▁없으	-11.0984
▁바꿨	-11.0984
짜증	-11.0986
는거임	-11.0987
▁원장님	-11.0987
▁줬다	-11.099
학과	-11.0992
▁체력이	-11.0997
▁배우고	-11.0998
▁사이즈를	-11.0998
생겼	-11.0998
▁대장	-11.0998
▁입맛이	-11.0999
▁피어싱	-11.0999
▁ᄏᄏᄏ아	-11.0999
보고싶어	-11.1
▁문제는	-11.1003
▁개비싸	-11.1004
▁날라	-11.1004
개나	-11.1004
섴ᄏᄏᄏᄏ	-11.1005
▁갈수	-11.1006
▁메일로	-11.1007
▁싶다며	-11.1007
▁축의금	-11.1008
▁나간다	-11.1009
▁지어	-11.1009
▁싶기도	-11.101
▁대답한다	-11.1011
볶	-11.1012
해져서	-11.1014
페이지	-11.1014
▁격	-11.1015
▁느낌이라	-11.1016
▁습관	-11.1017
▁운동은	-11.1018
▁싶었	-11.1019
잇을	-11.1019
빛	-11.1019
가야해	-11.1019
▁집와서	-11.102
▁가까	-11.1025
▁비염	-11.1029
▁강사	-11.103
보냈	-11.1032
갈라고	-11.1033
▁뭐뭐	-11.1034
▁ᄏᄏᄏᄀ	-11.1034
▁흔들	-11.1036
▁해피	-11.1041
옹ᄒᄒ	-11.1042
빌려	-11.1042
▁삿어	-11.1046
▁골라서	-11.1048
▁피가	-11.1048
▁바라	-11.1048
▁가까워	-11.1049
▁안심	-11.105
▁도저히	-11.1053
▁홈플러스	-11.1053
▁파이팅	-11.1053
퓨	-11.1053
▁보냄	-11.1055
▁종강	-11.1057
▁과학	-11.106
▁동선	-11.1062
신다고	-11.1063
▁상사	-11.1064
▁p	-11.1066
▁담엔	-11.1067
▁맡기	-11.1068
되었다	-11.1069
▁어쩌다	-11.107
거같고	-11.107
하겟	-11.1071
맞춰	-11.1071
구래	-11.1075
▁생기는	-11.1077
짬뽕	-11.1078
▁고딩	-11.1078
하길	-11.1079
예뻐	-11.1079
모가	-11.108
▁비슷해	-11.108
▁그런건가	-11.1081
나봐요	-11.1082
▁최신	-11.1083
▁곱	-11.1083
는ᄃ	-11.1084
▁갱	-11.1084
가족	-11.1085
리아	-11.1085
됐다고	-11.1086
▁보건소	-11.1086
하쟈	-11.109
▁몇시간	-11.1091
비용	-11.1091
▁해봤	-11.1099
▁조리	-11.11
▁환기	-11.11
▁L	-11.1101
▁고객	-11.1103
▁제품을	-11.1106
^^..	-11.1107
▁잇을	-11.1107
치마	-11.1108
▁즐겨	-11.1111
할것	-11.1114
▁그러니	-11.1116
▁브라	-11.1116
치가	-11.1117
안와	-11.1119
▁몬가	-11.112
▁참석	-11.1121
▁춥고	-11.1121
▁그분	-11.1121
▁물어봤다	-11.1122
▁저기요	-11.1123
도없	-11.1124
▁자다	-11.1125
▁나와야	-11.1127
받았다	-11.1128
▁깎	-11.1131
보낼	-11.1133
시켜서	-11.1133
종이	-11.1137
발라	-11.1139
▁제주도에	-11.1139
▁있구나	-11.1139
자체가	-11.1141
▁배려	-11.1141
▁보냈는데	-11.1142
▁맛있었다	-11.1142
▁스시	-11.1145
▁지진	-11.1146
그리고	-11.1146
거예요	-11.1148
▁했잖아	-11.115
▁우동	-11.1151
▁십만원	-11.1151
▁가지러	-11.1153
졌는데	-11.1153
▁쌤이	-11.1154
▁본사	-11.1158
▁매장에서	-11.116
13	-11.1161
▁체리	-11.1162
▁비대면	-11.1164
고싶음	-11.1164
▁까먹고	-11.1165
▁기부	-11.1166
▁구조	-11.1166
거같기도	-11.1166
▁고생했어	-11.1167
▁바퀴	-11.1167
▁집안일	-11.1168
▁하드	-11.117
▁외박	-11.1173
▁집앞에	-11.1174
▁바닐라	-11.1175
▁축	-11.1176
▁축제	-11.1177
▁찔	-11.1177
▁드레스	-11.1179
▁조심하라고	-11.118
▁아빠도	-11.1183
▁아뉘	-11.1185
▁할일	-11.1186
▁충치	-11.1187
▁자자	-11.1188
히히	-11.1189
▁검색해서	-11.119
자꾸	-11.1191
▁해준다	-11.1193
▁당연하	-11.1194
픔	-11.1194
모르겟	-11.1195
▁송금	-11.1198
,,,,,,	-11.1201
만날	-11.1204
▁노란	-11.1206
한테도	-11.1206
▁떴	-11.1207
거리는	-11.1207
역이	-11.1208
▁연인	-11.1211
씨가	-11.1212
▁붙었	-11.1213
킼	-11.1214
▁에버랜드	-11.1215
▁트위터	-11.1215
안해도	-11.1215
▁팝콘	-11.1215
600	-11.1215
▁드뎌	-11.1216
▁펌	-11.1219
키우	-11.1221
▁인당	-11.1221
▁환장	-11.1221
▁으으	-11.1222
▁한입	-11.1222
▁변기	-11.1223
▁강의를	-11.1223
▁알레르기	-11.1223
겻	-11.1226
▁참을	-11.1228
▁갈거	-11.1228
▁훅	-11.1229
▁언닌	-11.1234
▁봉지	-11.1235
▁하나하나	-11.1236
먹을거야	-11.1236
▁통해	-11.1236
바리	-11.1237
턱	-11.1242
▁이쁜거	-11.1242
고마워	-11.1243
▁약은	-11.1244
▁예의	-11.1246
오니까	-11.1248
▁있니	-11.125
▁느낀	-11.125
▁솜	-11.1251
▁해야하나	-11.1251
▁묵어	-11.1253
▁세번	-11.1259
▁처음부터	-11.126
전이	-11.1268
▁택배를	-11.1268
▁뻥	-11.1268
▁앜ᄏᄏᄏᄏᄏᄏᄏᄏ	-11.1269
텅	-11.1269
▁오토바이	-11.1269
세일	-11.127
▁사갈까	-11.127
▁칼로리	-11.127
▁재택	-11.1272
초코	-11.1274
차로	-11.1275
▁빚	-11.1276
꾸야	-11.1276
▁중학교	-11.1277
하는듯	-11.1279
▁근육이	-11.1279
▁핑	-11.1281
▁1.5	-11.1283
파리	-11.1283
▁둔	-11.1283
▁배는	-11.1284
▁살기	-11.1289
▁안됐	-11.1289
▁공항에서	-11.129
▁오시	-11.1291
스틱	-11.1292
▁할거야	-11.1294
▁본거	-11.1296
실에	-11.1297
쟤	-11.1297
▁뒤에서	-11.1298
▁집에가서	-11.1299
▁5000	-11.1299
갑니다	-11.13
▁감고	-11.1304
기도하고	-11.1304
▁집착	-11.1308
▁깔고	-11.131
은행	-11.131
▁보상	-11.1311
▁중고로	-11.1312
면되지	-11.1314
▁영어로	-11.1314
가벼	-11.1315
욬ᄏᄏᄏ	-11.1318
▁선수	-11.1318
기대	-11.1319
▁거는	-11.1319
▁무료로	-11.1322
봅니다	-11.1325
▁영화는	-11.1326
▁텐트	-11.1327
▁동남아	-11.1327
▁후드티	-11.1327
▁얼렁	-11.1327
▁시작해서	-11.1328
▁반납	-11.1328
사이에	-11.133
거같아요	-11.133
▁올라온	-11.1332
▁걸린다고	-11.1335
▁판다	-11.1336
일수도	-11.1336
▁안했어	-11.1337
▁중인	-11.1337
▁오키도키	-11.1338
▁따흐흑	-11.1344
맥주	-11.1346
▁가게에	-11.1351
▁이런게	-11.1351
▁라는	-11.1351
엽떡	-11.1354
▁옮	-11.1354
▁중국집	-11.1358
것같아서	-11.1366
받는다	-11.1366
▁잇엇	-11.1367
공항	-11.1368
정신	-11.1379
▁주로	-11.1379
▁가습기	-11.138
▁ᅮᅮᅮᅮᅮ	-11.138
▁놀랐	-11.1381
▁사줄게	-11.1382
시간을	-11.1383
▁보이지	-11.1383
▁의사가	-11.1383
▁괜찮아요	-11.1385
▁경제	-11.1385
▁안에서	-11.1385
▁마이크	-11.1386
▁연말정산	-11.1386
내는	-11.1387
▁택시타고	-11.1389
▁혈	-11.139
▁우리집은	-11.1394
▁청구	-11.1394
▁컷	-11.1396
▁바꼈	-11.1396
▁나가지	-11.1398
거려서	-11.1399
▁했었는데	-11.14
▁드릴	-11.1401
값이	-11.1402
▁얼마에	-11.1403
석이	-11.1403
▁교통비	-11.1403
앗는데	-11.1404
..^^	-11.1404
히고	-11.1405
▁소파	-11.1408
떴	-11.1409
▁신청을	-11.1411
팟	-11.1412
그램	-11.1412
개는	-11.1413
▁먹었더니	-11.1413
▁마셔서	-11.1417
▁빵이	-11.1419
나갈	-11.142
▁주는데	-11.142
▁손을	-11.142
다녔	-11.1421
지말자	-11.1421
▁봤던	-11.1422
되어있	-11.1424
▁장어	-11.1424
차는	-11.1427
▁d	-11.1427
▁디게	-11.1429
▁아픔	-11.1429
웃기	-11.143
▁버린	-11.143
▁이케	-11.1432
숴	-11.1433
▁즐	-11.1433
▁월급을	-11.1434
킥	-11.1435
▁겉	-11.1436
휴가	-11.1436
▁간단히	-11.1436
▁마크	-11.1436
엌ᄏᄏᄏᄏᄏᄏ	-11.144
▁매출	-11.144
느냐	-11.1441
▁회계	-11.1441
▁냄비	-11.1443
▁했대	-11.1445
▁연락처	-11.1445
▁예정이	-11.1448
▁웨	-11.1449
▁글쿠만	-11.1449
▁기달	-11.1453
알려주	-11.1453
▁생각해보니까	-11.1454
시반쯤	-11.1454
지역	-11.1455
▁걔도	-11.1458
~~^^	-11.146
▁바꾼	-11.146
▁배운	-11.1461
▁안감	-11.1461
▁불량	-11.1461
▁급식	-11.1463
가기로	-11.1464
▁시기	-11.1466
▁맞는데	-11.1468
▁힘을	-11.147
권을	-11.1472
프트	-11.1473
▁옷에	-11.1473
바닥	-11.1473
좋음	-11.1474
-1	-11.1474
▁따흑	-11.1476
▁싸네	-11.148
▁고생해	-11.1482
▁붓기	-11.1482
▁갈수있	-11.149
▁블루투스	-11.1491
쿡	-11.1491
▁스피커	-11.1491
▁ᄋᄌᄋᄌ	-11.1491
▁마쟈마쟈	-11.1492
▁쟤네	-11.1493
될까	-11.1493
▁아줌마가	-11.1496
▁교양	-11.1497
cm	-11.1502
▁기간이	-11.1508
▁님은	-11.1511
▁치워	-11.1513
▁묵고	-11.1514
봐바	-11.1515
학점	-11.152
즙	-11.1521
▁친구들과	-11.1523
▁제한	-11.1525
할땐	-11.1527
사줘	-11.1527
부탁	-11.1528
▁배웠	-11.1528
는거같아	-11.153
월급	-11.153
인거같아	-11.1531
▁잣	-11.1531
▁틀고	-11.1532
▁떨리	-11.1532
▁출연	-11.1532
▁그랬던	-11.1534
▁위험해	-11.1535
자체	-11.1535
▁아이구	-11.1535
보내주	-11.1536
을껄	-11.1538
▁칸	-11.154
▁룸	-11.1544
▁버튼	-11.1546
▁네이버에	-11.1546
▁헷갈리	-11.1547
낰ᄏᄏᄏ	-11.1547
▁해외여행	-11.1549
역으로	-11.1549
▁요새는	-11.155
▁역할	-11.1553
▁재밌었	-11.1554
▁띠	-11.1555
▁보라	-11.1555
가꼬	-11.1556
ᅮᅮᅲ	-11.1556
▁사라져	-11.1558
▁돌아오	-11.1561
▁거라서	-11.1566
▁가능할	-11.1567
▁드림	-11.1567
ᄏᄀᄁ	-11.1568
쌤이	-11.1568
지나	-11.157
될지	-11.1572
▁헐ᄏᄏᄏᄏ	-11.1573
할거같은데	-11.1574
▁힙	-11.1574
▁보쌈	-11.1575
▁열고	-11.1576
▁연락하	-11.1576
▁고소	-11.1577
뚫	-11.1577
죄	-11.1578
정거장	-11.158
▁고수	-11.1582
▁말안	-11.1583
▁생각한	-11.1583
▁중순	-11.1584
▁갈라	-11.1585
을거같은데	-11.1591
있어야	-11.1592
하는것도	-11.1592
▁이사를	-11.1592
▁찾을	-11.1593
▁머리는	-11.1595
▁몇일	-11.1596
▁심심해	-11.1596
▁번역	-11.16
▁앵	-11.1601
넝	-11.1603
▁어버이날	-11.1604
▁집가면	-11.1604
▁변화	-11.1604
▁스캔	-11.1606
▁너만	-11.1606
대는	-11.1609
장은	-11.1611
▁줘도	-11.1613
▁반바지	-11.1613
▁보여준	-11.1615
▁바이러스	-11.1616
해야대	-11.1616
▁말해준다	-11.1617
▁이체	-11.1617
16	-11.162
지롱	-11.1621
▁빨리와	-11.1622
▁일어난	-11.1622
하는디	-11.1628
되었	-11.1629
▁좋다며	-11.1629
▁에프	-11.163
▁테이프	-11.1631
▁갑니다	-11.1633
▁퇴원	-11.1633
길이	-11.1634
▁썰	-11.1634
▁파트	-11.1634
다들	-11.1635
걷	-11.1635
돌이	-11.1636
▁실력	-11.1637
▁볶아	-11.1639
▁띵	-11.1641
▁웅ᄒᄒ	-11.1642
▁이름은	-11.1642
▁나을듯	-11.1643
▁주는거	-11.1643
▁카드값	-11.1643
▁뺐	-11.1644
▁번호를	-11.1645
▁개념	-11.1645
라해	-11.1646
집가서	-11.1646
60	-11.1647
▁시원해	-11.1648
▁재밌겠다	-11.1649
▁고려	-11.1651
▁탔어	-11.1652
▁되서	-11.1655
▁급한	-11.1656
함을	-11.1656
▁진짴ᄏᄏᄏ	-11.1656
▁올라와	-11.1657
▁내서	-11.1661
▁엔시티	-11.1661
▁오프라인	-11.1661
▁조개	-11.1662
▁남았어	-11.1662
가네	-11.1662
▁입이	-11.1663
▁요리를	-11.1664
해져	-11.1666
그라	-11.1666
▁왜이리	-11.1666
야겟어	-11.167
하심	-11.1673
▁괜찬	-11.1674
있자나	-11.1677
▁경비	-11.1677
▁코로나때문에	-11.1678
날짜	-11.1678
화를	-11.168
해야겠다고	-11.168
▁못자	-11.1681
▁파스	-11.1681
있던	-11.1681
▁모르겠음	-11.1682
줘야지	-11.1683
▁헤어진	-11.1683
로운	-11.1684
자들	-11.1685
▁팬티	-11.1685
▁찾아보니까	-11.1687
▁과자를	-11.1691
맹	-11.1693
삘	-11.1693
튀김	-11.1693
▁해줄게	-11.1695
▁그런걸	-11.1695
자를	-11.1696
▁데이	-11.1697
▁구해	-11.1698
▁경쟁	-11.1698
▁썩	-11.1699
▁시끄럽	-11.17
▁챙겼	-11.17
▁그랬나	-11.1701
렷어	-11.1701
▁나눈	-11.1702
찍고	-11.1702
▁받는다고	-11.1703
▁나빠	-11.1707
17	-11.1707
잔아	-11.1709
▁내면	-11.171
쉬고	-11.171
듣는	-11.1711
랫는데	-11.1712
건물	-11.1713
▁한장	-11.1715
▁작고	-11.1716
누가	-11.1716
▁닭볶음탕	-11.1718
▁뿌링클	-11.1718
엣	-11.1718
▁어울린다	-11.1719
▁계곡	-11.172
내면	-11.172
아니지	-11.1722
▁그런가바	-11.1723
데요	-11.1724
▁및	-11.1727
헤헤	-11.1729
▁격리	-11.1729
되니	-11.1729
▁조심하	-11.1729
▁그랬구나	-11.173
▁근육통	-11.1732
▁주기	-11.1733
▁고파서	-11.1734
▁어리	-11.1736
▁보내줄	-11.1737
▁결혼을	-11.174
▁애들도	-11.1742
따위	-11.1743
▁불안해	-11.1745
▁벨	-11.1745
뱅	-11.1746
♥	-11.1747
시대	-11.1749
▁버려야	-11.175
▁헐헐	-11.1751
▁살려	-11.1751
넷플	-11.1752
▁셀프	-11.1752
▁일어났어	-11.1753
년도	-11.1753
긴하지만	-11.1754
▁사라지	-11.1755
▁기운	-11.1756
▁치약	-11.1756
▁연구	-11.1756
▁껌	-11.1757
▁버렸	-11.1759
▁만져	-11.1762
▁긁어	-11.1765
▁했거든	-11.1765
▁오만	-11.1766
한다며	-11.1767
건뎅	-11.1767
이엇	-11.1769
▁터져서	-11.1772
▁인터뷰	-11.1775
🙆	-11.1775
▁초등학생	-11.1775
▁돈만	-11.1776
▁이써	-11.1777
▁담달에	-11.1777
같네	-11.1779
▁읽는	-11.178
잇자나	-11.1783
▁애매한	-11.1784
▁무엇인지	-11.1785
▁놈	-11.1786
든다	-11.1786
▁고양이를	-11.1786
▁2-3	-11.1786
▁유튜브에서	-11.179
▁세부	-11.179
주기로	-11.1791
▁기대된다	-11.1792
땡기	-11.1792
▁호호	-11.1795
▁왜그러	-11.1798
▁여보가	-11.18
▁패션	-11.1803
▁매운맛	-11.1805
▁36	-11.1805
▁페북	-11.1805
▁아쉽네	-11.1807
▁택시비	-11.1809
▁인물	-11.181
▁D	-11.1811
있을때	-11.1811
▁김해	-11.1812
▁이러다	-11.1812
▁삼일	-11.1813
▁공식	-11.1815
▁오래걸리	-11.1818
계약	-11.182
바이	-11.1823
▁바른	-11.1828
헤어	-11.1828
운전	-11.183
▁번씩	-11.1831
됌	-11.1833
▁물리치료	-11.1833
▁인쇄	-11.1834
▁블로그에	-11.1835
께서	-11.1836
▁출력	-11.1837
▁판교	-11.1837
▁안남	-11.184
이떠	-11.184
▁구매할	-11.1843
▁단점	-11.1844
정돈	-11.1846
▁더운데	-11.1847
▁특가	-11.1849
▁저렴하게	-11.185
▁남색	-11.185
▁거기로	-11.1852
▁약정	-11.1852
▁살라고	-11.1852
알았	-11.1856
컬	-11.1856
▁멀라	-11.1857
▁생각해봐	-11.1857
▁몰겟	-11.186
댈	-11.1863
▁고생하	-11.1865
이였	-11.1868
였네	-11.1869
야하는거	-11.1872
왔네	-11.1873
▁돌려서	-11.1875
▁지지	-11.1877
순간	-11.1879
▁나오네	-11.1879
낰ᄏᄏᄏᄏ	-11.188
▁하였	-11.1883
케이	-11.1886
▁때리	-11.1886
려는	-11.1888
게아니라	-11.1889
▁뜨는	-11.189
▁멘탈	-11.1891
▁즐거운	-11.1891
▁순두부	-11.1891
은듯	-11.1891
▁안들	-11.1895
▁구하기	-11.1895
안해서	-11.1895
큐ᅲᅲ	-11.1895
▁쌓	-11.1897
▁외근	-11.1898
▁있겠	-11.1898
었나봐	-11.1898
보셈	-11.19
보쟈	-11.1904
▁한판	-11.1904
직원	-11.1904
▁가쟈	-11.1904
▁큰언니	-11.1906
닼ᄏᄏᄏᄏᄏ	-11.1906
▁하더라고	-11.191
만하면	-11.191
▁머먹	-11.1911
동이	-11.1911
날에	-11.1914
됐는데	-11.1914
▁하는중	-11.1916
스크	-11.1917
생각이	-11.1918
▁활	-11.1919
시라	-11.192
▁달래	-11.1921
아프다	-11.1922
▁요즘엔	-11.1923
▁항공	-11.1927
배고파	-11.1928
저번에	-11.1928
▁미쳤네	-11.193
▁높이	-11.1931
해주면	-11.1931
▁못찾	-11.1933
이며	-11.1933
이였어	-11.1934
▁났다고	-11.1936
▁예약이	-11.1939
▁살살	-11.194
다니고	-11.1941
▁괜찮나	-11.1943
측	-11.1948
▁노동	-11.1948
▁문자로	-11.1949
찔	-11.195
▁진지하게	-11.195
▁빡빡	-11.195
▁대박이	-11.195
▁아이보리	-11.195
▁구래구래	-11.1951
▁히융	-11.1951
▁머글	-11.1951
▁의문	-11.1951
▁구매를	-11.1952
왜케	-11.1954
▁주문할	-11.1955
▁ᄏᄏᄏᄏᄀ	-11.1955
▁비빔면	-11.1956
▁쓰리	-11.1957
벼	-11.1959
할건데	-11.1959
▁세대	-11.1962
▁발급	-11.1966
▁구름	-11.1967
했으니	-11.1968
▁사자고	-11.1969
▁탄산수	-11.1971
▁있으라고	-11.1972
▁모여	-11.1972
하죠	-11.1974
분만에	-11.1974
▁그렇대	-11.1976
▁잠도	-11.1977
들끼리	-11.1979
▁냄새나	-11.198
놀러	-11.1981
때가	-11.1982
▁채우	-11.1983
신대	-11.1983
하겠네	-11.1984
으라	-11.1985
라스	-11.1986
나오고	-11.1988
▁해야하는데	-11.1989
까바	-11.1994
▁기장	-11.1994
▁윽	-11.1996
놓은거	-11.1996
▁출시	-11.1998
지네	-11.1998
스는	-11.2
▁불쌍해	-11.2
▁같네	-11.2001
▁변비	-11.2002
졸려	-11.2004
▁술먹고	-11.2005
시지	-11.2005
▁입어도	-11.2006
못가	-11.2007
▁좋당	-11.2008
▁다운로드	-11.2008
▁데뷔	-11.2009
▁롯데리아	-11.2009
거다	-11.2011
▁관리비	-11.2012
▁친척	-11.2013
교시	-11.2013
▁거니까	-11.2013
한거지	-11.2015
월은	-11.2015
본적	-11.2016
▁생각함	-11.2016
▁샌들	-11.2017
뎈	-11.2018
▁벌금	-11.2018
▁기말	-11.2018
▁어젠	-11.202
을땐	-11.2021
5000	-11.2022
동에서	-11.2023
▁계절	-11.2023
▁차는	-11.2023
▁넘겨	-11.2026
볼께	-11.2029
트리	-11.2029
▁틈	-11.203
▁사지마	-11.203
먹는게	-11.2031
▁잇나	-11.2031
▁예산	-11.2031
▁먹은거	-11.2031
▁알려줄게	-11.2032
꼬야	-11.2033
▁비싸네	-11.2033
▁맹	-11.2034
▁출발해	-11.2035
▁우리엄마	-11.2036
되겠다	-11.2036
▁먹여	-11.2036
▁끄고	-11.2036
▁키우고	-11.2037
년만에	-11.2037
마나	-11.2039
▁개빡	-11.204
전까지	-11.2042
결혼	-11.2043
~♡	-11.2044
▁분당	-11.2044
권이	-11.2045
올라가	-11.2046
▁내는	-11.2047
▁내일이	-11.2048
▁바질	-11.2049
주기	-11.205
▁해먹어	-11.205
▁않는데	-11.2052
▁못하게	-11.2052
▁차이나	-11.2053
▁어니	-11.2054
▁타지	-11.2055
▁솔로	-11.2057
▁배우자	-11.2059
▁셋이서	-11.206
▁달달한	-11.2063
▁짜리	-11.2064
▁미안하	-11.2065
쉐	-11.2067
▁맛없어	-11.2067
▁공인인증서	-11.2068
▁웨이팅	-11.2068
▁도넛	-11.2068
▁젠장	-11.207
효과	-11.207
▁물놀이	-11.2071
시킴	-11.2072
▁있나봐	-11.2073
▁엄니	-11.2073
왔지	-11.2075
▁햇반	-11.2076
▁심하	-11.2077
▁봉사	-11.208
▁하나가	-11.208
▁물고기	-11.2082
하오	-11.2082
타구	-11.2082
▁아버지가	-11.2083
▁회사를	-11.2083
▁색을	-11.2086
▁말해봐	-11.2088
▁주워	-11.2089
300	-11.2089
▁부럽다고	-11.209
▁댓	-11.209
▁줄까	-11.2091
▁대놓고	-11.2091
▁저녁먹고	-11.2091
만원이면	-11.2098
만원대	-11.2101
▁과거	-11.2102
촉	-11.2102
▁눈물나	-11.2103
▁배그	-11.2103
▁뽑았	-11.2103
셔츠	-11.2108
갔을때	-11.2108
▁아랏	-11.2109
▁쪄	-11.211
념	-11.2112
▁발생	-11.2112
할수잇	-11.2113
셨다	-11.2114
기고	-11.2116
쪽에서	-11.2116
▁한마리	-11.2117
▁통장에	-11.2118
▁어이가	-11.2119
▁올리브	-11.2121
▁탑	-11.2121
▁자신도	-11.2123
▁파이	-11.2125
▁재미있다고	-11.2126
▁고민이다	-11.2126
▁맛있대	-11.2127
`	-11.2127
▁후쿠오카	-11.2127
멀어	-11.2128
▁동시에	-11.2128
▁대상	-11.2129
분이면	-11.213
▁올려서	-11.2131
▁탕	-11.2132
▁스콘	-11.2133
▁키링	-11.2136
안오	-11.2136
▁있었다고	-11.2138
▁국어	-11.214
앜ᄏᄏᄏ	-11.2143
▁꿈이	-11.2143
▁구독	-11.2143
▁볶	-11.2144
▁다녀서	-11.2144
▁징	-11.2144
▁그랬더니	-11.2145
▁기기	-11.2145
ᄅᄋ	-11.2148
▁기억해	-11.2148
하더라고	-11.2148
이죠	-11.2149
섯	-11.2149
▁보이는데	-11.215
▁들어도	-11.215
▁백신	-11.2152
▁팥	-11.2153
▁없냐	-11.2153
▁;;;	-11.2154
▁데려다	-11.2156
▁하고싶다	-11.2156
▁콧물	-11.2156
▁써야지	-11.2157
▁해봐야	-11.2158
▁드라이	-11.2159
▁이제야	-11.2162
싸움	-11.2163
▁반쯤	-11.2163
▁하늘색	-11.2164
▁고터	-11.2164
▁수육	-11.2165
▁고민중이야	-11.2165
굽	-11.2165
가려구	-11.217
▁들어봐	-11.217
페이	-11.2171
욬ᄏᄏᄏᄏ	-11.2173
랑은	-11.2174
▁사망	-11.2176
다면	-11.2177
이더	-11.2178
햇더니	-11.2178
▁치는	-11.2179
▁오오오오	-11.2183
▁지우	-11.2186
▁브이로그	-11.2187
▁긍께	-11.2187
▁바깥	-11.2187
▁재택근무	-11.2187
걸릴	-11.2187
▁영혼	-11.2189
▁것인데	-11.219
▁허니	-11.2192
▁넹ᄏᄏ	-11.2192
▁하는건	-11.2193
해야함	-11.2193
▁못먹어	-11.2196
생겻	-11.2197
▁열일	-11.2198
▁주말이	-11.2198
▁일하는데	-11.2201
▁날은	-11.2202
▁예정이라	-11.2204
▁관해	-11.2205
▁ᄏᄏᄏᄏᄏᄏᄏ아	-11.2206
▁문자가	-11.221
▁위가	-11.2211
렉	-11.2213
닌	-11.2214
▁같으면	-11.2219
▁없냐고	-11.2221
샌	-11.2224
▁심심	-11.2225
마지막	-11.2226
잊	-11.2226
이당	-11.2228
▁짧아	-11.2228
▁확인해보	-11.2229
▁그른가	-11.2229
▁상태가	-11.223
바라	-11.2232
▁그러면서	-11.2236
어떤	-11.2237
▁결제를	-11.2238
밖에안	-11.2238
▁맛집이	-11.2238
▁이상한거	-11.2238
▁가치	-11.2238
▁피방	-11.2239
▁방구	-11.2244
▁그래야겠다	-11.2245
닠	-11.2245
▁고생했	-11.2246
▁마라탕을	-11.2246
▁비주얼	-11.2247
▁선착순	-11.2247
▁신도림	-11.2247
▁달러	-11.2248
▁그다음	-11.2248
▁크림치즈	-11.2248
▁발바닥	-11.2249
▁주머니	-11.2249
▁세시간	-11.2249
틈	-11.225
이넹	-11.2251
▁생겼는데	-11.2252
이긴한데	-11.2252
▁고등어	-11.2253
▁단순	-11.2253
▁기존	-11.2253
▁유튜브에	-11.2254
▁약국에서	-11.2254
▁대기업	-11.2255
▁기어	-11.2255
땡겨	-11.2255
야댐	-11.2256
▁맡아	-11.2256
모아	-11.226
▁양꼬치	-11.226
▁편이	-11.2262
봐야겟다	-11.2263
▁정류장	-11.2264
▁개좋아	-11.2265
대에	-11.2267
으려	-11.2267
▁무거워서	-11.2269
▁흥미	-11.2272
▁파바	-11.2273
▁적어서	-11.2274
해준	-11.2275
▁링	-11.2277
▁때문이	-11.2281
▁카드가	-11.2284
존맛	-11.2284
갤	-11.2286
불안	-11.2287
먹으려고	-11.2291
▁늘어나	-11.2292
▁제모	-11.2292
▁베라	-11.2296
순이	-11.2301
▁엄청난	-11.2302
▁세종	-11.2302
▁건조	-11.2303
700	-11.2305
▁보증금	-11.2309
▁민족	-11.2309
▁발톱	-11.2309
▁그닥	-11.2311
▁잘되	-11.2315
▁뱃살	-11.2315
여친	-11.2316
▁버텨	-11.2316
▁했나	-11.2317
떨어지	-11.2318
▁배부르	-11.232
▁서있	-11.2322
걸렸	-11.2322
▁막아	-11.2325
▁버는	-11.2326
▁범계	-11.2326
▁수술을	-11.2328
▁도장	-11.233
쓴다	-11.2332
▁움직여	-11.2333
ᄏᄀᄏᄏ	-11.2335
▁재밌다고	-11.2336
▁먹으	-11.2337
▁보러가	-11.2337
일이야	-11.2337
가라	-11.2339
행복	-11.2342
▁도와	-11.2342
▁구러	-11.2344
터미널	-11.2345
!!!!!!!!!!	-11.2346
▁운동도	-11.2347
▁것들	-11.2351
▁필요하다	-11.2352
▁여섯	-11.2353
▁말려	-11.2353
▁오늘이	-11.2355
▁죠아	-11.2356
간데	-11.2357
▁아직까지	-11.2363
온나	-11.2363
▁일해	-11.2364
▁개학	-11.2365
자랑	-11.2367
▁말하면서	-11.2368
▁무슨일이	-11.2369
▁혈압	-11.2369
마실	-11.237
가자고	-11.2371
▁잘때	-11.2371
이아니라	-11.2372
파는	-11.2377
코트	-11.2383
된데	-11.2383
▁누웠	-11.2385
▁자기네	-11.2387
인거지	-11.2387
▁쳐서	-11.2387
▁오래됐	-11.2388
▁할말	-11.2388
▁비쌀	-11.2391
아직도	-11.2391
을까봐	-11.2392
할뻔	-11.2394
▁쪄서	-11.2394
▁지나고	-11.2398
▁배불러서	-11.24
심해	-11.2401
진않아	-11.2401
▁말하기	-11.2402
▁신청해	-11.2402
▁오기로	-11.2404
▁중국에서	-11.2406
덤	-11.2407
▁주문했다	-11.2408
▁구매했다	-11.2409
▁전화번호	-11.2409
쭉	-11.2409
▁구라	-11.241
▁닮은	-11.2411
할꺼	-11.2411
나중에	-11.2412
맞는	-11.2415
▁온천	-11.2415
▁최고의	-11.2415
받으러	-11.2416
ᄐᄏ	-11.2416
▁메뉴가	-11.2417
와요	-11.242
패스	-11.2421
▁찝찝	-11.2421
위가	-11.2422
씻고	-11.2422
▁아이들이	-11.2423
▁난리났	-11.2423
▁남자애	-11.2424
▁늘려	-11.2428
\	-11.243
▁요구르트	-11.243
▁발가락	-11.243
밥먹	-11.243
▁^_^	-11.2431
다님	-11.2432
▁왔으면	-11.2433
었어요	-11.2435
▁무슨색	-11.2435
혹	-11.2436
▁지인에게	-11.2436
▁미스터	-11.2436
▁나더	-11.2439
▁이쁘다고	-11.244
▁휴식	-11.244
▁옥상	-11.244
▁있길래	-11.2442
▁잡았	-11.2442
▁춥지	-11.2443
▁형부	-11.2443
사람들은	-11.2444
▁괜찮았	-11.2447
▁둘중	-11.2449
▁결혼식에	-11.2449
▁중이야	-11.2453
▁과제가	-11.2453
▁흙	-11.2454
▁웃고	-11.2455
조사	-11.2456
▁하더니	-11.2457
▁앜ᄏᄏᄏᄏᄏᄏᄏᄏᄏ	-11.2458
▁이유에	-11.246
▁가져갔	-11.246
▁반값	-11.2461
드가	-11.2461
▁편도	-11.2462
▁만날지	-11.2466
점에서	-11.2467
▁다니기	-11.2467
▁흉	-11.2469
▁행복하	-11.2472
▁죽었	-11.2472
곱창	-11.2472
▁쌌	-11.2474
통이	-11.2474
▁야근데	-11.2475
▁있었으면	-11.2476
▁원으로	-11.2477
▁오줌	-11.2478
▁골드	-11.248
하더니	-11.248
하는구나	-11.2481
곳에서	-11.2482
하는건데	-11.2484
...........	-11.2484
▁점장	-11.2484
거리고	-11.2485
▁확진	-11.2485
▁간식을	-11.249
▁캡슐	-11.2492
▁마이너스	-11.2492
▁식탁	-11.2493
▁무제한	-11.2494
▁예압	-11.2495
께요	-11.2495
▁하셔서	-11.2496
▁오이	-11.2497
ᄏᄀᄀᄀ	-11.2498
▁그런거야	-11.2499
하삼	-11.2499
▁그치그치	-11.2499
느낌이	-11.2501
▁밖이	-11.2501
▁분리	-11.2502
▁잇고	-11.2502
▁힘들었다	-11.2503
제로	-11.2503
질듯	-11.2505
▁샌	-11.2505
죽어	-11.2506
될걸	-11.2507
▁주문을	-11.2507
▁들어왔다	-11.2509
▁서로의	-11.2509
▁G	-11.2509
▁해놓	-11.2512
▁일어나야	-11.2513
▁반응이	-11.2518
아니라	-11.2519
▁가리	-11.2519
▁의미가	-11.2519
▁안경을	-11.2522
구여	-11.2523
▁이전	-11.2524
▁전용	-11.2527
▁웃기다고	-11.2528
못함	-11.2529
친구가	-11.253
내역	-11.2532
▁수유	-11.2533
안먹	-11.2534
▁밥먹어	-11.2534
▁모으	-11.2536
잇네	-11.2537
▁남음	-11.2538
둬야	-11.2538
아웃	-11.2544
▁안하는	-11.2545
▁김밥을	-11.2546
줄래	-11.2549
▁태풍이	-11.2549
▁안팔	-11.2549
▁앜	-11.255
쩍	-11.2551
조림	-11.2551
▁I	-11.2552
▁마르	-11.2552
▁운전면허	-11.2553
▁유산소	-11.2554
▁접촉	-11.2554
▁재미있	-11.2555
▁바쁠	-11.2556
▁근대	-11.2558
▁안부를	-11.2558
▁쪼금	-11.2559
날은	-11.2559
앜ᄏᄏ	-11.2562
하는곳	-11.2563
▁팔리	-11.2564
▁멋있어	-11.2565
자라	-11.2566
도됨	-11.2567
▁무거운	-11.2569
일인데	-11.257
▁털어	-11.257
▁쭈	-11.2573
▁느껴지	-11.2577
▁헤어지	-11.2578
복이	-11.258
▁위에서	-11.2581
▁그러는거	-11.2583
▁화장대	-11.2583
▁들어가고	-11.2584
▁죄다	-11.2585
▁싸우고	-11.2585
▁가본	-11.2585
▁최저가	-11.2585
~~~~~~~	-11.2587
▁적어도	-11.2588
▁기회가	-11.2588
▁귀여운데	-11.2589
▁저번주에	-11.2589
▁알바가	-11.2591
▁원이라고	-11.2591
생긴	-11.2591
▁정기	-11.2592
...^^	-11.2593
일지	-11.2593
겄다	-11.2594
벌레	-11.2594
했니	-11.2595
▁조사	-11.2596
지게	-11.2596
▁생각난다	-11.2597
걔	-11.2597
▁속으로	-11.2598
▁만날까	-11.2598
▁넓은	-11.2599
▁실시간	-11.26
▁최악	-11.2601
▁든든	-11.2603
기다	-11.2604
겠따	-11.2605
늦어	-11.2605
짘ᄏᄏᄏᄏ	-11.261
▁니꺼	-11.261
▁사람이랑	-11.2611
▁신한	-11.2613
▁빤	-11.2613
이어	-11.2614
▁바빴	-11.2616
▁샤브샤브	-11.2616
♂	-11.2616
▁헿	-11.2617
▁롯데월드	-11.2617
▁스위치	-11.2618
번출구	-11.2619
햇는디	-11.2619
▁바란다	-11.262
▁동갑	-11.262
보러가	-11.2622
▁사고싶다	-11.2623
▁붙잡	-11.2624
▁불어	-11.2625
는거아냐	-11.2627
이었던	-11.2628
▁볶음	-11.2629
▁인식	-11.2631
▁48	-11.2632
▁문구	-11.2633
▁오븐	-11.2634
코드	-11.2635
사지	-11.2636
▁들어있는	-11.2642
▁룸메	-11.2643
▁생각만	-11.2643
하다니	-11.2645
▁코인	-11.2645
▁오뎅	-11.2646
▁연구실	-11.2648
▁붙어서	-11.2649
스러	-11.265
▁밥이랑	-11.2651
▁책상에	-11.2652
주니까	-11.2652
아야	-11.2653
▁국제	-11.2654
따리	-11.2654
▁수습	-11.2654
▁탁	-11.2655
그랬어	-11.2656
써야	-11.2657
▁연고	-11.2657
▁공부해	-11.2658
쭈	-11.266
▁에그	-11.2663
▁유통기한	-11.2664
맞음	-11.2665
▁검진	-11.2665
▁오프	-11.2666
▁공유하	-11.2667
▁모여서	-11.2667
▁아팠	-11.2667
생이	-11.267
벌임	-11.2672
▁처럼	-11.2673
▁먹을거야	-11.2674
인데도	-11.2674
▁99	-11.2675
▁식비	-11.2675
먹으니까	-11.2675
톱	-11.2676
▁표정이	-11.2679
😆	-11.2679
▁캡처	-11.268
▁김치볶음밥	-11.268
옄ᄏᄏᄏᄏ	-11.268
▁서현	-11.2681
▁후기가	-11.2682
▁안받아	-11.2682
▁물었더니	-11.2682
▁저때	-11.2685
▁타이	-11.2686
▁되긴	-11.2687
▁꺼져	-11.2688
번가	-11.2688
▁공포	-11.2689
▁공부하기	-11.2691
았다고	-11.2691
▁사람많	-11.2693
포기	-11.2695
▁그런말	-11.2698
▁많으니까	-11.27
단지	-11.2703
▁기획	-11.2703
▁착용	-11.2704
▁자동으로	-11.2708
▁계좌로	-11.2709
▁어울리	-11.2709
한가	-11.271
▁예뿌	-11.271
▁픽	-11.2713
볼겡	-11.2715
얔ᄏᄏᄏ	-11.2718
▁저녁먹	-11.2718
▁운이	-11.2722
▁괜차	-11.2722
▁시설	-11.2723
K	-11.2724
▁떨어지는	-11.2724
넵	-11.2724
덩이	-11.2727
▁물리	-11.2729
▁없구	-11.273
▁잠깐만	-11.2731
▁먹으니	-11.2733
주나	-11.2734
게찌	-11.2736
온데	-11.2736
▁같이가자	-11.2737
▁왜이래	-11.2738
겠냐고	-11.2739
선이	-11.274
▁뽑는	-11.274
▁야근을	-11.274
▁여덟시	-11.2743
▁트레이더스	-11.2743
▁그나저나	-11.2743
▁해산물	-11.2743
▁핸드크림	-11.2743
▁픽업	-11.2744
▁갈듯	-11.2745
나온거	-11.2748
▁우짜	-11.2749
▁깔끔	-11.2751
건가봐	-11.2752
▁좋았다	-11.2752
▁반성	-11.2752
▁맞았	-11.2752
▁얼려	-11.2752
이었나	-11.2753
▁불안하	-11.2754
젤리	-11.2757
▁할로윈	-11.2757
▁화질	-11.276
▁누구야	-11.2761
▁유튭	-11.2761
▁볼링	-11.2762
곳에	-11.2764
▁이혼	-11.2766
▁사무	-11.2767
▁위치를	-11.2768
량이	-11.2769
▁쉬다가	-11.277
▁들러	-11.2772
▁따라서	-11.2777
▁할인이	-11.2778
되는지	-11.2778
▁발전	-11.2778
다면서	-11.2779
▁필요해서	-11.278
▁케이스를	-11.278
건가요	-11.2781
▁자전거를	-11.2782
▁ᅲᅳᅲ	-11.2785
▁그럴때	-11.2787
▁토할	-11.2788
피스	-11.2788
기에는	-11.2788
보는게	-11.2789
▁고른	-11.2789
▁괜찮은지	-11.2791
요새	-11.2792
▁다니면서	-11.2792
겠구나	-11.2792
▁생각했	-11.2794
▁가진	-11.2794
▁쉬어야	-11.2795
엇나	-11.2796
▁지갑을	-11.2797
▁막차	-11.2797
줬다	-11.2797
▁잡은	-11.2798
통에	-11.2798
했구나	-11.2798
▁파랑	-11.2799
퀴	-11.2799
▁약이	-11.28
▁대박이지	-11.28
피부	-11.28
▁되지만	-11.28
▁뜰	-11.28
▁끌어	-11.2801
▁어후	-11.2803
▁회사는	-11.2804
▁알려줄	-11.2805
렬	-11.2805
얔ᄏᄏ	-11.2805
▁피로	-11.2806
▁커튼	-11.2808
하진	-11.2808
장님	-11.2808
▁몸을	-11.2808
▁꿀잼	-11.2809
조절	-11.2809
▁해놨	-11.2809
▁팔로우	-11.2811
▁없어진	-11.2811
채로	-11.2812
거같은뎅	-11.2812
지않음	-11.2813
많네	-11.2814
▁이득이	-11.2817
▁고민된다	-11.2818
침대	-11.2819
이뿌	-11.2819
▁T	-11.2822
▁답을	-11.2825
▁진정	-11.2827
하기가	-11.2828
▁게임이	-11.2829
▁해두	-11.2831
▁말했는데	-11.2833
▁저번에도	-11.2833
▁응응ᄒᄒ	-11.2834
ᄏᄀᄀᄏ	-11.2835
모르겠어	-11.2836
뎈ᄏᄏᄏ	-11.2836
▁담달	-11.2838
▁파워	-11.2838
▁한화	-11.2842
▁폴로	-11.2842
후기	-11.2844
▁이런것도	-11.2845
▁벗어	-11.2846
▁집이야	-11.2847
▁좋았는데	-11.2848
씬	-11.2849
▁그런것	-11.2849
▁무선	-11.2851
▁짱이다	-11.2851
▁빌라	-11.2852
줘도	-11.2852
벤	-11.2852
쫄	-11.2852
▁해보라고	-11.2853
▁이렇	-11.2858
▁토일	-11.2862
따로	-11.2862
▁초보	-11.2862
▁먹어봤는데	-11.2863
략	-11.2863
▁막혀서	-11.2864
▁염증	-11.2865
▁못받	-11.2865
뜩	-11.2869
▁37	-11.2869
▁하고싶어	-11.2869
▁신카	-11.2869
▁냠냠	-11.287
먀	-11.287
쥴	-11.287
▁왜저래	-11.2871
▁라섹	-11.2871
▁진심으로	-11.2871
ᄒᄉᄒ	-11.2871
▁열쇠	-11.2872
▁불이	-11.2873
▁온거	-11.2873
나보	-11.2874
▁다양한	-11.2874
이유	-11.2875
▁내동생	-11.2876
▁실적	-11.2876
해놓	-11.2879
▁미술	-11.288
▁일어났다	-11.288
▁바쁘다	-11.2881
▁남이	-11.2883
▁복근	-11.2883
▁역사	-11.2884
▁다르다고	-11.2884
레스	-11.2884
▁잘라서	-11.2885
▁병원은	-11.2888
긴데	-11.2889
▁싶네	-11.2889
▁부작용	-11.2892
▁먹는중	-11.2892
▁했으니	-11.2892
▁매니저	-11.2893
▁맞는거	-11.2896
▁우리끼리	-11.2896
▁흐흐	-11.2896
긴하네	-11.2898
하징	-11.2899
▁봣어	-11.2899
▁아울렛	-11.2901
언니랑	-11.2901
킴	-11.2903
▁남자들	-11.2905
들만	-11.2905
평가	-11.2905
▁사용하는	-11.2906
▁오는지	-11.2907
▁고마워요	-11.2907
▁안과	-11.2908
in	-11.2908
▁볼수있	-11.2909
예쁘	-11.2909
는건지	-11.291
▁부장님	-11.2912
▁내부	-11.2915
스테	-11.2917
능데	-11.2917
▁맞는지	-11.2918
주년	-11.2919
▁내리는	-11.2921
▁괴	-11.2921
티켓	-11.2921
할머니	-11.2923
▁원이라	-11.2924
반찬	-11.2925
▁보조	-11.2926
▁불편해서	-11.2927
▁올리면	-11.2929
쿠키	-11.2929
▁해물	-11.2929
껄로	-11.293
▁배고픈	-11.2931
▁가져온	-11.2933
▁가능성	-11.2934
▁코코넛	-11.2935
▁되네	-11.2937
▁어깨가	-11.2939
▁같더라	-11.294
▁자살	-11.2941
▁만든거	-11.2943
▁집밥	-11.2945
돌아가	-11.2945
이쁜	-11.2947
▁귀찮게	-11.295
▁800	-11.2952
▁정장	-11.2952
올래	-11.2953
▁물어볼게	-11.2957
▁디자인이	-11.296
얼른	-11.2962
~??	-11.2962
하겠어	-11.2964
으셨	-11.2964
▁질러	-11.2966
▁기타	-11.2967
라궁	-11.2968
02	-11.297
지갑	-11.2971
▁싸운	-11.2971
▁끝낫	-11.2973
▁밥먹구	-11.2974
▁햄버거를	-11.2975
▁왜죠	-11.2976
는뎁	-11.2977
▁/	-11.2979
깜	-11.2981
무섭	-11.2982
해줬	-11.2984
▁학원을	-11.2985
거같아여	-11.2985
맞어	-11.2986
▁일본에	-11.2987
▁아니래	-11.2987
▁느리	-11.2988
▁소득	-11.299
▁하냐	-11.2991
▁들여	-11.2991
서그런가	-11.2993
터져	-11.2994
▁델	-11.2999
줍	-11.3
혓	-11.3
🥰	-11.3
▁보조배터리	-11.3
▁캐나다	-11.3
▁귀에	-11.3002
▁시리얼	-11.3002
▁?!	-11.3002
▁챙겨서	-11.3002
▁생겻	-11.3002
▁작품	-11.3003
▁응ᄏᄏᄏ	-11.3004
▁단기	-11.3004
들과	-11.3006
막히	-11.3009
▁날짜가	-11.301
▁기출	-11.3011
▁받은거	-11.3012
▁뽑아서	-11.3015
▁체크카드	-11.3016
▁소세지	-11.3018
▁덮밥	-11.302
드라고	-11.3023
▁돈주고	-11.3026
▁쑥	-11.3027
▁끓이	-11.3028
▁말로	-11.3029
▁음식에	-11.3031
마을	-11.3032
▁기엽	-11.3033
▁점검	-11.3033
카드로	-11.3036
▁노래도	-11.3037
▁시원하	-11.3039
벗	-11.3039
▁와씨	-11.3039
하트	-11.304
▁방해	-11.3041
드러	-11.3041
보낸	-11.3042
▁누구한테	-11.3042
▁추웠	-11.3042
▁먹엇어	-11.3043
▁시켜야	-11.3047
뽕	-11.3048
쿨	-11.3049
있던데	-11.3051
▁어떻게든	-11.3051
▁이쁘고	-11.3051
▁순살	-11.3052
▁걷고	-11.3055
▁담당자	-11.3056
▁있구	-11.3056
▁팔면	-11.3057
것지	-11.3059
쿤	-11.3059
▁장만	-11.306
▁되기	-11.3063
생겨서	-11.3063
▁대중교통	-11.3065
▁망했	-11.3065
▁껄껄	-11.3065
▁꼰대	-11.3065
▁팍팍	-11.3065
ᄏᄀᄀ	-11.3066
▁버블티	-11.3067
해봄	-11.3067
▁댐	-11.3067
돌리	-11.3068
▁실장님	-11.3068
▁180	-11.307
▁여자애	-11.307
한사람	-11.3071
▁심사	-11.3071
▁피우	-11.3073
▁귀엽게	-11.3073
▁마음대로	-11.3074
▁예전엔	-11.3074
햇오	-11.3074
▁은근히	-11.3076
▁ᄏᄏᄀ	-11.3076
▁가능한지	-11.3076
▁최저	-11.3077
▁천호	-11.3078
같고	-11.3081
자로	-11.3084
▁비슷할	-11.3085
여ᅮ	-11.3087
▁사실을	-11.3087
ᄀᄀᄏ	-11.3088
▁이러다가	-11.3088
▁전쟁	-11.3088
▁그쵸	-11.3089
데가	-11.309
▁빙	-11.3091
몰랐	-11.3091
방울	-11.3092
▁ᄑ	-11.3092
▁이사님	-11.3093
▁화장실에서	-11.3093
▁귀찮다고	-11.3093
관이	-11.3093
▁빡세게	-11.3094
▁가짜	-11.3094
▁특이하	-11.3096
▁고백	-11.3097
▁말고는	-11.3098
▁저정도	-11.3098
년전	-11.31
▁그저	-11.3101
▁매년	-11.3103
▁되잖아	-11.3104
▁이번에도	-11.3105
▁필요할	-11.3106
▁힘드네	-11.3107
씹	-11.3107
샀다	-11.3109
읍니다	-11.3109
▁놀랐다	-11.311
▁포기하고	-11.3114
갈겡	-11.3115
쉴	-11.3115
핵	-11.3115
편이	-11.3115
▁하겠지	-11.3116
들려	-11.3116
▁딴데	-11.312
▁엑스	-11.312
▁나감	-11.312
진이	-11.3121
▁구운	-11.3121
▁됏	-11.3122
▁가르쳐	-11.3122
▁과장이	-11.3124
▁통과	-11.3125
▁......	-11.3126
▁뭐임	-11.3128
▁사전	-11.313
렙	-11.3131
▁써보	-11.3131
▁에너지	-11.3131
▁뽕	-11.3132
먹으러가	-11.3132
아픔	-11.3132
▁가족끼리	-11.3133
주스	-11.3133
▁지났	-11.3134
▁돼지고기	-11.3134
▁대화하고	-11.3134
받았어	-11.3135
▁보내줄게	-11.3136
▁천사	-11.3137
▁오백	-11.3137
▁후리스	-11.3138
▁띠용	-11.3139
▁모르니	-11.314
▁헤어질	-11.3141
▁기둘	-11.3142
▁독서	-11.3144
▁털이	-11.3146
▁없엇	-11.3146
▁빼서	-11.315
는구만	-11.3153
▁몰겠	-11.3153
▁셔틀	-11.3154
▁전문가	-11.3154
▁소재	-11.3155
▁세게	-11.3155
댕기	-11.3157
▁생겼다고	-11.3158
흔	-11.3158
▁벌고	-11.3162
▁하얀색	-11.3163
드리고	-11.3164
왔어요	-11.3164
습니당	-11.3165
▁생일에	-11.3166
잘안	-11.3169
해따	-11.3169
자나요	-11.317
▁모래	-11.3172
경기	-11.3173
엌	-11.3174
▁올라서	-11.3174
▁생각이다	-11.3176
▁개웃	-11.3177
▁놓은	-11.3177
▁화장을	-11.3177
▁울면서	-11.3178
셩	-11.3179
▁식당에	-11.318
하우스	-11.3181
밑	-11.3186
픈	-11.3186
▁사이드	-11.3192
연습	-11.3192
▁왜요	-11.3192
떠서	-11.3193
▁되냐	-11.3193
▁바꿨다	-11.3194
ᄐᄏᄏᄏ	-11.3196
갯	-11.3197
▁돗자리	-11.3197
▁엊그제	-11.3197
인다	-11.3198
▁중간고사	-11.3198
▁핫팩	-11.3199
▁연인이	-11.3199
▁주고받는다	-11.3199
▁엑	-11.32
잇엇어	-11.3201
아마	-11.3202
그러게	-11.3202
▁수강	-11.3202
시즌	-11.3206
▁배울	-11.3206
▁닥터	-11.3207
▁걘	-11.3207
▁좋아함	-11.3207
안하	-11.3208
▁무거워	-11.3208
▁2.5	-11.3211
녀석	-11.3212
와야지	-11.3212
마쟈	-11.3215
▁알겠다고	-11.3215
만하고	-11.3216
??!	-11.3217
▁썼어	-11.3218
▁챙길	-11.3218
▁한번더	-11.3218
▁귀여움	-11.322
▁안되는거	-11.3221
▁캬캬	-11.3221
▁무난한	-11.3222
앜ᄏᄏᄏᄏ	-11.3227
백원	-11.3227
▁짱맛	-11.3228
있는게	-11.3229
▁성향	-11.3233
▁건강에	-11.3233
▁e	-11.3233
18	-11.3234
고파	-11.3235
▁보려	-11.3236
인간	-11.3236
시간씩	-11.3237
▁내기	-11.3238
▁책임	-11.3238
▁맴	-11.3239
▁어디꺼	-11.3241
▁좋겟	-11.3242
올걸	-11.3244
▁기다리는중	-11.3245
쇼핑	-11.3248
얍	-11.3249
앱	-11.3249
릴까	-11.325
등이	-11.325
야하는	-11.3251
패딩	-11.3251
▁안쓰고	-11.3252
▁아니잖아	-11.3253
둘다	-11.3253
▁먹다	-11.3256
▁서울역	-11.3257
▁돌리고	-11.3257
거같기도하고	-11.3258
야할텐데	-11.3259
▁내려갈	-11.3261
▁오버	-11.3262
다니까	-11.3262
랗	-11.3262
긴하더라	-11.3263
다음에	-11.3264
릅	-11.3264
▁꿔바로우	-11.3264
▁아디다스	-11.3264
▁포스터	-11.3267
▁비자	-11.3267
▁첫째	-11.3267
틱	-11.3268
▁야구장	-11.3268
이게	-11.3268
▁구롬	-11.3268
▁부족한	-11.3269
▁내돈	-11.3269
▁막혀	-11.327
▁몰아	-11.3273
▁판단	-11.3274
▁성장	-11.3275
▁놓을	-11.3277
▁마블	-11.3277
는군	-11.3279
▁멋있다	-11.3279
▁빡쳐	-11.3282
▁K	-11.3283
▁라테	-11.3285
▁찾으면	-11.3287
원이야	-11.329
▁해야되	-11.329
▁비상	-11.3291
▁친절	-11.3292
▁마인드	-11.3292
▁논의	-11.3294
▁가위	-11.3295
▁비싸지만	-11.3295
▁외모	-11.3296
▁코가	-11.3296
▁들어왔는데	-11.3297
수도있어	-11.3297
▁아이디로	-11.3298
▁참고로	-11.3298
웃기다	-11.3299
▁연차를	-11.3301
▁부추	-11.3301
지않니	-11.3302
냈어	-11.3305
▁뿌듯	-11.3306
▁전화와서	-11.3306
▁쏟아	-11.3307
▁차서	-11.3308
사리	-11.3309
▁그때까지	-11.331
▁술이	-11.3311
렸다고	-11.3311
▁분석	-11.3312
▁부정	-11.3312
▁잡는	-11.3312
▁못하겠다	-11.3315
옵	-11.3315
▁들어가야	-11.3316
깍	-11.3316
▁노래는	-11.3317
▁톤	-11.3318
입장	-11.3319
▁장을	-11.3321
▁깨지	-11.3322
파스타	-11.3324
▁언어	-11.3324
▁묻는	-11.3326
▁어쩌구	-11.3326
증이	-11.3328
▁껴서	-11.333
⫬	-11.3331
▁따릉이	-11.3331
▁된장찌개	-11.3331
▁흘러	-11.3331
▁준거	-11.3332
▁여름휴가	-11.3332
▁현관	-11.3333
▁휴일	-11.3333
라공	-11.3333
▁옆으로	-11.3334
~~~!	-11.3337
▁만들어야	-11.3337
▁소원	-11.3338
▁스쿼트	-11.334
▁도시락을	-11.3341
27	-11.3342
▁알아봐야	-11.3343
ᄒᄒᄒᄒᄒ	-11.3343
인것	-11.3345
▁관리를	-11.3345
ᄏᄐᄐ	-11.3345
놀이	-11.3346
패드	-11.3346
▁올라갈	-11.3348
▁졸업식	-11.3349
▁해야돼	-11.3351
보장	-11.3351
▁웨딩	-11.3351
놓음	-11.3353
▁재미있는	-11.3355
난다고	-11.3357
이래서	-11.3357
▁시원하게	-11.3357
▁고추장	-11.3359
진대	-11.3362
었대	-11.3363
▁하나사	-11.3363
▁바삭	-11.3365
▁구치	-11.3366
▁조지	-11.3366
▁연속	-11.3366
수있는	-11.3367
▁목에	-11.3367
▁혼밥	-11.3367
▁쓰다가	-11.337
▁뭘까	-11.337
▁한박스	-11.3377
느끼	-11.3379
집을	-11.338
햇대	-11.3383
곰	-11.3383
▁이별	-11.3384
F	-11.3384
X	-11.3384
썩	-11.3384
생각나	-11.3385
▁분식	-11.3386
▁빠지고	-11.3387
▁켰	-11.339
▁지급	-11.3393
▁이거봐	-11.3396
▁당연한	-11.3396
▁마약	-11.3397
▁안들어가	-11.3397
▁집까지	-11.3398
못하고	-11.3398
한잔	-11.3398
▁아보카도	-11.3399
▁의정부	-11.3399
▁아푸	-11.3399
▁바르는	-11.3399
▁탈모	-11.3401
▁세차	-11.3402
▁쉬라고	-11.3403
하라는	-11.3404
들어간	-11.3407
▁말한거	-11.3409
▁알겠엉	-11.341
쌍	-11.341
▁코트를	-11.3412
혁	-11.342
싶으면	-11.3421
이양	-11.3423
른거	-11.3425
좋겠다	-11.3425
지지	-11.3427
있는지	-11.3427
▁해먹을	-11.3427
▁배달비	-11.3428
시간동안	-11.3428
구야	-11.3428
▁어디냐	-11.3429
나감	-11.343
니깤ᄏᄏ	-11.3433
계란	-11.3434
▁썼다	-11.3436
▁카톡을	-11.3437
▁개가	-11.3438
▁힘드러	-11.3441
▁일하면서	-11.3443
겠대	-11.3444
▁거실에	-11.3445
▁예배	-11.3446
▁공부하러	-11.3447
빠르	-11.3448
▁폭발	-11.3448
▁먹이	-11.345
칼국수	-11.3451
▁에고	-11.3451
었잖아	-11.3452
▁위장	-11.3453
▁한약	-11.3453
대체	-11.3454
내려가	-11.3457
▁학교를	-11.3457
▁세워	-11.346
▁엄청나	-11.3461
▁하체	-11.3464
냅	-11.3465
▁브라운	-11.3465
▁산부인과	-11.3467
▁인수인계	-11.3467
작업	-11.3467
▁받는거	-11.3468
맡	-11.3469
▁옆자리	-11.347
▁우울증	-11.3473
▁폰을	-11.3474
▁꼬리	-11.3475
▁도착한	-11.3476
남아	-11.3477
▁!!!!	-11.3477
▁이뻐서	-11.3478
했으니까	-11.3478
▁고개	-11.3478
▁최고지	-11.3479
▁색깔이	-11.348
▁꿈에	-11.3481
▁건조기	-11.3481
비번	-11.3481
▁못하겠	-11.3482
▁보일	-11.3483
▁살면서	-11.3483
▁여러가지	-11.3483
▁돌고	-11.3484
▁올라오는	-11.3485
▁핸드폰으로	-11.3485
▁조아해	-11.3486
▁표시	-11.3486
▁천둥	-11.3487
▁바로바로	-11.3487
▁느려	-11.3487
해줘야	-11.349
▁견적	-11.3491
▁라이	-11.3492
▁다닌	-11.3492
렉스	-11.3493
▁찍은거	-11.3493
▁잡아야	-11.3494
▁힛	-11.3494
▁써보고	-11.3496
▁업뎃	-11.3496
▁살때	-11.3496
▁하느라	-11.3498
▁주름	-11.3498
갈지	-11.3499
▁잊어	-11.3499
▁멜	-11.35
▁싸다고	-11.3501
▁코로나로	-11.3501
▁전화해보	-11.3505
봣다	-11.3506
▁흘리	-11.3507
▁한창	-11.3507
▁노원	-11.3509
▁심하다	-11.3511
▁걱정된다	-11.3513
낀	-11.3514
▁얼굴은	-11.3519
열어	-11.352
넷	-11.352
고나서	-11.3521
캣	-11.3521
칼로리	-11.3522
▁짬	-11.3522
토욜	-11.3523
잠깐	-11.3523
▁옮길	-11.3526
▁집도	-11.3529
▁뽑을	-11.3531
셨는데	-11.3531
▁여행은	-11.3532
▁정리를	-11.3532
▁엽기	-11.3535
▁메이크업	-11.3535
▁바퀴벌레	-11.3535
▁포켓몬	-11.3535
▁조개구이	-11.3536
▁나오라고	-11.3539
먹는중	-11.354
모르게	-11.354
▁단골	-11.354
▁미련	-11.3541
많고	-11.3542
▁머것	-11.3542
앗다	-11.3542
▁예술	-11.3542
▁세탁소	-11.3543
▁스트	-11.3544
▁송도	-11.3544
▁꺅	-11.3544
터짐	-11.3544
▁부리	-11.3545
게써	-11.3545
▁홍삼	-11.3547
▁기준이	-11.3547
야된다	-11.3548
▁시세	-11.3549
▁남친이	-11.3549
ᅮᅮᅮᅮᅮᅮ	-11.3551
▁뭐냐고	-11.3552
쓰는데	-11.3554
▁올라가서	-11.3555
▁^	-11.3555
▁깔끔하게	-11.3555
▁멀었	-11.3556
▁하고싶은	-11.3556
▁띄	-11.3557
넣었	-11.3558
▁무엇이	-11.3558
▁들려서	-11.3558
맞다	-11.3559
▁머냐	-11.356
기능	-11.3562
충전	-11.3562
▁억울	-11.3563
ᄐᄐᄐ	-11.3563
한것	-11.3564
▁주말은	-11.3566
할꺼야	-11.3566
오빠가	-11.3568
▁만들어주	-11.3569
세상	-11.3569
▁당첨되	-11.357
꺼가	-11.3572
끝날	-11.3573
▁알바생	-11.3575
▁집주인	-11.3577
어렵	-11.3579
▁개빡쳐	-11.3579
이사	-11.3581
▁뒤져	-11.3581
와야	-11.3582
▁물어보니까	-11.3583
상자	-11.3583
▁일어남	-11.3584
▁다름	-11.3587
점을	-11.3587
▁팬들	-11.3589
음료	-11.3589
긴하는데	-11.359
▁내놔	-11.359
▁비용이	-11.3593
▁현금으로	-11.3593
없대	-11.3594
▁살수있	-11.3594
위험	-11.3594
▁자극	-11.3594
서비스	-11.3594
▁걸리고	-11.3595
▁차량	-11.3595
▁지는	-11.3595
▁깊	-11.3597
뎈ᄏᄏᄏᄏ	-11.3598
▁겹치	-11.3602
▁애들한테	-11.3603
룡	-11.3603
▁멸치	-11.3604
▁놀자고	-11.3605
▁풍경	-11.3606
▁주택	-11.3606
▁티빙	-11.3607
나오는거	-11.3607
▁안된	-11.3607
▁가봤	-11.3609
▁g	-11.3609
용품	-11.3613
이었음	-11.3614
▁이거는	-11.3614
▁해봤는데	-11.3614
셨어요	-11.3615
쾌	-11.3616
▁탔다	-11.3616
▁안보고	-11.3617
▁정품	-11.3618
말을	-11.3619
▁같은디	-11.3619
인가바	-11.3619
▁아픈거	-11.362
▁그랬지	-11.3622
or	-11.3623
▁마신	-11.3623
▁누나에게	-11.3624
▁받는데	-11.3627
만나서	-11.3628
껴서	-11.3629
프리	-11.3629
▁채소	-11.3629
▁뺀	-11.363
▁이만원	-11.363
▁드라마가	-11.363
▁어렵지	-11.363
앜	-11.3631
준데	-11.3631
▁쌉	-11.3632
▁어떰	-11.3632
▁예아	-11.3635
)(	-11.3637
▁빠지면	-11.3639
▁뽑고	-11.364
▁아니요	-11.364
트라	-11.3641
좋게	-11.3641
군여	-11.3642
눈물	-11.3647
▁쓴거	-11.3648
▁간거	-11.3649
꺼면	-11.3653
려구요	-11.3653
▁소화가	-11.3653
▁괜찮음	-11.3654
▁보고서	-11.3654
▁기상	-11.3655
▁천국	-11.3656
주네	-11.3656
▁걸어야	-11.366
~~~?	-11.366
폼	-11.3661
어차피	-11.3661
▁팁	-11.3663
▁놀면	-11.3666
썼어	-11.3668
지요	-11.3668
베리	-11.3669
야겟당	-11.3669
▁가평	-11.367
ᅲᅲᅲᅲᅲᅲᅲᅲ	-11.3672
좋아하는	-11.3672
▁트렌치	-11.3673
뵈	-11.3674
쬬	-11.3674
▁재난지원금	-11.3674
▁블루베리	-11.3674
▁헌혈	-11.3674
덮밥	-11.3676
▁출국	-11.3676
▁핸폰	-11.3676
섴ᄏᄏ	-11.3677
▁뚝딱	-11.3677
▁곳도	-11.368
모름	-11.3681
사님	-11.3681
▁단지	-11.3681
신가	-11.3682
▁댕겨	-11.3683
둘이	-11.3684
▁스파	-11.3685
▁삭	-11.3685
▁오빤	-11.3686
▁견	-11.3686
▁포토	-11.3687
▁줄어들	-11.3687
▁맛잇겟다	-11.3688
▁저리	-11.3688
▁세상에서	-11.3688
▁시험에	-11.3689
▁알러지	-11.3689
▁실버	-11.369
▁골프	-11.369
▁끌려	-11.369
▁폰이	-11.3692
▁시험기간	-11.3692
▁뽀뽀	-11.3693
▁아르바이트를	-11.3693
▁말하라고	-11.3694
찍었	-11.3696
▁깎아	-11.3698
▁만나야	-11.3699
▁수다	-11.3699
▁별로다	-11.3699
▁미친거	-11.3699
것같음	-11.37
봐야징	-11.3703
나랑	-11.3704
▁복권	-11.3706
▁매진	-11.3706
갘ᄏᄏᄏ	-11.3707
▁부를	-11.3709
▁되겠네	-11.3709
먹을게	-11.3711
▁애매해서	-11.3711
소식	-11.3711
▁보낸다	-11.3712
▁누나도	-11.3713
마시고	-11.3713
신분	-11.3714
▁좋으니	-11.3714
맞추	-11.3715
▁나는데	-11.3715
▁퇴근이	-11.3718
▁사람마다	-11.3718
해놨	-11.372
뚝	-11.3721
▁인가	-11.3724
▁해줘서	-11.3725
햇다고	-11.3728
▁원본	-11.3728
짘ᄏᄏ	-11.3729
▁부어	-11.3729
났는데	-11.3729
짠	-11.373
▁닫아	-11.3732
줘요	-11.3736
이후로	-11.3736
층이	-11.3737
화장실	-11.3739
사이트	-11.374
▁가타	-11.3742
▁느꼈	-11.3742
😂	-11.3744
▁육개장	-11.3744
▁고등학생	-11.3744
▁매트리스	-11.3744
쩔	-11.3745
▁얼릉	-11.3745
체크	-11.3745
▁잃어버린	-11.3746
스프	-11.3746
▁정해진	-11.3747
축제	-11.3747
▁단톡	-11.3747
▁백팩	-11.3747
▁싸웠	-11.3748
▁말아야	-11.3748
▁모텔	-11.3748
▁저것도	-11.3749
가쟈	-11.3749
▁벌써부터	-11.3749
▁추워지	-11.3749
▁환율	-11.375
!!!!!!!!!!!	-11.3751
▁웹	-11.3754
▁염색을	-11.3754
인지에	-11.3755
랰ᄏᄏᄏ	-11.3755
▁고르는	-11.3755
▁알겠오	-11.3757
▁놔두고	-11.3758
한다구	-11.3759
달아	-11.3764
▁우편	-11.3764
풀어	-11.3765
▁교대	-11.3765
보이네	-11.3766
▁괜츈	-11.3766
▁좋을까	-11.3767
▁어카지	-11.3767
▁장학금	-11.3768
도되고	-11.377
볼라고	-11.377
▁숨겨	-11.377
▁몰랐네	-11.3771
▁몰아서	-11.3772
한걸	-11.3772
상으로	-11.3772
▁머여	-11.3772
줫는데	-11.3772
▁갈라고	-11.3774
▁에구	-11.3775
▁고민하자	-11.3776
수당	-11.3777
야되는거	-11.378
▁뭔일	-11.378
▁보호	-11.3781
일정	-11.3784
▁처음엔	-11.3785
▁알바를	-11.3785
으려면	-11.3787
쳤는데	-11.379
▁안좋다	-11.3792
▁죽여	-11.3795
▁페이지	-11.3796
▁마음의	-11.3797
마이	-11.38
▁모르겟다	-11.38
없는거	-11.3801
벙	-11.3802
휘	-11.3802
샐러드	-11.3803
뭉	-11.3803
▁터진	-11.3804
▁가라앉	-11.3804
인사	-11.3804
▁대구에	-11.3806
▁아기가	-11.3807
▁ᄃᄃᄃ	-11.3807
▁빌려서	-11.3807
▁엌	-11.3808
▁스카	-11.3808
▁망한	-11.3809
▁골랐	-11.3811
▁으음	-11.3811
▁알았지	-11.3813
었다며	-11.3814
▁도로주행	-11.3814
▁마요네즈	-11.3814
▁고깃집	-11.3814
▁완죤	-11.3814
▁약먹고	-11.3814
▁립	-11.3815
▁클릭	-11.3815
▁설빙	-11.3815
재미	-11.3816
▁케이티	-11.3817
▁연애를	-11.3817
계산	-11.3818
▁입었는데	-11.382
▁사이버	-11.382
▁날리	-11.382
3000	-11.3822
▁장바구니	-11.3826
▁돌았	-11.3826
▁사냥	-11.3826
▁나처럼	-11.3827
▁없어졌	-11.3828
▁오구	-11.3829
▁던져	-11.3829
▁배탈	-11.3831
▁세트로	-11.3832
▁공부가	-11.3832
▁자신감	-11.3834
▁가즈아	-11.3835
▁생각나는	-11.3836
▁2~3	-11.3836
줄수있	-11.3837
심이	-11.3838
▁해당	-11.3838
무시	-11.384
▁외부	-11.3841
해용	-11.3841
보이더라	-11.3841
▁채용	-11.3841
▁올리는	-11.3842
▁알앗어	-11.3843
▁노트북을	-11.3844
할거면	-11.3845
▁ᅲᅲᅲᅲᅲᅲᅲᅲᅲ	-11.3845
▁어떡하지	-11.3846
▁해킹	-11.3846
아아아아	-11.3847
▁싼데	-11.3848
▁개통	-11.3849
▁이마트에서	-11.3851
시전에	-11.3852
▁퇴근하면	-11.3852
▁골목	-11.3854
▁안입	-11.3856
▁헤어졌	-11.3857
▁귀찮고	-11.3857
▁말이지	-11.3857
▁그러더라	-11.3858
▁힘들겠다	-11.3858
▁추억이	-11.3859
▁서울대	-11.3859
댄다	-11.386
▁밥만	-11.386
▁사람인	-11.3861
▁뮤	-11.3862
▁마스크가	-11.3863
말야	-11.3865
▁먹긴	-11.3867
겠노	-11.3868
▁f	-11.3868
▁개많	-11.3869
▁지성	-11.3869
왱	-11.3874
야겟네	-11.3874
우산	-11.3874
▁헐ᄏᄏ	-11.3875
▁싸울	-11.3875
▁핸드폰이	-11.3875
상관없	-11.3876
▁여유가	-11.3876
▁가발	-11.3876
것어	-11.3877
야하는디	-11.3878
감기	-11.388
▁크레	-11.388
▁문신	-11.3881
▁담요	-11.3882
▁낙지	-11.3883
▁배터리가	-11.3883
▁웃겨서	-11.3885
▁탄수화물	-11.3885
▁땅콩	-11.3885
▁원장	-11.3886
▁인생이	-11.3886
▁고민을	-11.3887
도서관	-11.3887
▁다신	-11.3889
ᄏᄐᄏᄏ	-11.389
▁싸지	-11.389
하려나	-11.3893
▁허억	-11.3895
그랭	-11.3896
▁살아서	-11.3898
▁컬	-11.3899
▁할리스	-11.3899
▁스탈	-11.3901
▁들어옴	-11.3902
▁끊을	-11.3902
해봤는데	-11.3903
▁답답하	-11.3903
부럽	-11.3903
▁추위	-11.3903
▁샀고	-11.3903
▁찾음	-11.3903
▁거리가	-11.3904
▁안타	-11.3904
▁잡혀	-11.3904
▁첨엔	-11.3905
발표	-11.3906
▁깜놀	-11.3906
놈이	-11.3907
비로	-11.3908
▁마셔야	-11.391
▁ᄅ	-11.3911
낫다	-11.3911
▁살찌	-11.3912
었엉	-11.3912
▁배달의	-11.3913
뒀	-11.3913
▁무서웠	-11.3916
▁겪	-11.3916
▁닫고	-11.3917
▁이시간에	-11.3917
▁쉬워	-11.3918
▁서점	-11.3918
▁묻어	-11.392
▁확률이	-11.3921
▁시켯	-11.3921
▁간단한	-11.3922
▁오른	-11.3922
대단	-11.3924
▁먹어라	-11.3925
▁이겨	-11.3927
보세요	-11.3927
▁쯤	-11.3929
알려	-11.393
▁강화	-11.393
급이	-11.3932
▁밤을	-11.3933
▁불쌍	-11.3933
는거라	-11.3933
잇오	-11.3935
▁모양이	-11.3936
시간만	-11.3936
▁들엇	-11.3938
하거	-11.3939
▁연락할게	-11.394
▁타입	-11.394
캬	-11.394
▁잇으면	-11.3941
▁그정도는	-11.3941
수를	-11.3943
▁읽을	-11.3943
▁잊지	-11.3944
▁뜨면	-11.3949
▁가니	-11.395
▁터치	-11.3951
▁고래	-11.3952
넛	-11.3956
▁눌러서	-11.3956
▁맘스터치	-11.3956
▁셋째	-11.3957
▁라이언	-11.3957
▁종합	-11.3959
했었어	-11.3959
▁얼굴도	-11.3959
▁베스트	-11.396
▁대타	-11.396
▁중복	-11.396
▁계좌번호	-11.3961
▁심장이	-11.3962
▁맞게	-11.3962
▁계약직	-11.3962
▁안살	-11.3964
▁등록금	-11.3966
▁계획이	-11.3966
▁직무	-11.3967
▁난방	-11.3968
텐뎅	-11.3968
▁백업	-11.3969
▁맞앙	-11.397
장에서	-11.397
▁질문에	-11.3971
▁그말	-11.3972
▁사주고	-11.3973
▁대박이야	-11.3973
▁떡볶이가	-11.3973
▁싶은거	-11.3973
▁언제든	-11.3975
▁물품	-11.3976
이네요	-11.3981
▁도서관에서	-11.3981
▁찌개	-11.3983
▁옵션	-11.3983
▁알려줘서	-11.3984
▁공부도	-11.3985
▁무기	-11.3987
▁사진찍어	-11.3987
▁열나	-11.3989
만얼마	-11.3989
장난	-11.3989
안사	-11.399
달라는	-11.3992
미터	-11.3995
수가없	-11.3995
▁n	-11.3995
▁신나게	-11.3998
있게	-11.4001
z	-11.4001
있으니	-11.4001
▁비벼	-11.4002
공기	-11.4002
▁살아있	-11.4003
탱이	-11.4004
▁운동복	-11.4005
일동안	-11.4006
▁사람들과	-11.4006
▁좋앙	-11.4008
을라나	-11.4009
▁점심시간에	-11.401
▁되더라	-11.4011
▁챙겨먹	-11.4014
뚱	-11.4018
▁컨디션이	-11.4021
바르	-11.4022
랑같이	-11.4025
부분이	-11.4027
초딩	-11.4027
눌러	-11.4028
▁엘리베이터	-11.4028
왈	-11.4028
▁자연스럽게	-11.4028
▁가져가서	-11.403
뜯	-11.403
시키는	-11.403
타서	-11.4031
▁사귄	-11.4032
▁종종	-11.4032
▁듯하다	-11.4033
년째	-11.4035
▁오바야	-11.4035
▁사탕	-11.4036
몰라서	-11.4036
♡♡♡	-11.4037
▁소식을	-11.4037
▁맛에	-11.4037
▁사인	-11.404
겠네요	-11.404
on	-11.4041
달라해	-11.4041
▁도착했다	-11.4041
▁오셔서	-11.4041
▁가는건	-11.4042
사람도	-11.4042
▁ᄒᄅ	-11.4043
▁일자	-11.4045
▁주인이	-11.4045
비싼	-11.4046
▁잘햇	-11.4048
▁찾아봤는데	-11.4048
고르	-11.4049
▁도망가	-11.4049
니당	-11.405
▁온다는	-11.405
ar	-11.4051
▁아시아나	-11.4052
▁l	-11.4054
줫어	-11.4059
▁저렴	-11.4059
▁쿠폰이	-11.406
▁이러니까	-11.4061
수있음	-11.4062
▁꽂아	-11.4064
▁일어났는데	-11.4065
쓴거	-11.4065
▁엄마를	-11.4069
▁생각에	-11.407
▁집근처	-11.4071
▁1500	-11.4071
▁위주로	-11.4071
▁바디	-11.4071
▁때만	-11.4072
▁떳	-11.4072
밖에없	-11.4073
▁둘중에	-11.4073
일이라	-11.4075
▁약속한다	-11.4077
▁못봤	-11.4081
▁효	-11.4081
▁사줄까	-11.4081
▁두근	-11.4081
▁안되네	-11.4084
방금	-11.4085
▁층	-11.4086
▁도와줄	-11.4086
▁벌어서	-11.4089
겄	-11.4092
갠춘	-11.4092
중에서	-11.4093
▁운명	-11.4093
때문이	-11.4093
▁잠은	-11.4093
선택	-11.4096
것을	-11.4097
겠소	-11.4097
겠냐	-11.4098
▁이거야	-11.4099
U	-11.41
▁클라이밍	-11.4101
뿜	-11.4101
드나	-11.4101
▁내시경	-11.4101
▁안할	-11.4105
▁판다고	-11.4108
▁파악	-11.411
▁충분	-11.411
해야되는데	-11.4111
집가	-11.4112
릴때	-11.4113
▁이뿌다	-11.4113
빠졌	-11.4113
♡♡	-11.4114
▁않았지만	-11.4114
▁이런느낌	-11.4115
엇지	-11.4115
머글	-11.4115
▁세상이	-11.4115
▁준비해야	-11.4119
▁버틸	-11.4119
겠나	-11.412
▁가래	-11.4122
▁쉬면	-11.4123
▁주부터	-11.4123
▁만나지	-11.4123
▁보태	-11.4124
▁귀찮은	-11.4126
초밥	-11.4127
경우	-11.4127
▁글게	-11.413
▁첨부터	-11.413
▁가까운데	-11.4132
▁텐	-11.4132
▁운전을	-11.4132
▁떨려	-11.4133
다보니	-11.4133
▁앞이	-11.4133
▁아빠에게	-11.4134
▁합쳐서	-11.4138
지기	-11.4143
거같던데	-11.4145
되잖아	-11.4145
▁에엥	-11.4146
울때	-11.4147
알겠어	-11.4148
▁일찍자	-11.4148
▁주사를	-11.4148
▁두피	-11.4148
에겐	-11.4148
해조	-11.415
▁힘들면	-11.4152
치과	-11.4152
▁물어서	-11.4152
▁쇼핑을	-11.4154
지말지	-11.4154
재질	-11.4155
▁인제	-11.4157
는즁	-11.4159
▁15000	-11.4159
ᅮᅮᅮᅲ	-11.4162
상담	-11.4163
▁빌려줄	-11.4163
ᄂᄂ	-11.4164
회식	-11.4165
▁잘먹	-11.4165
컴활	-11.4166
▁정성	-11.4166
▁두배	-11.4168
냥이	-11.4168
관련	-11.4169
시나요	-11.4169
............	-11.4171
멸	-11.4172
▁오리지널	-11.4174
▁왕십리	-11.4174
▁백종원	-11.4174
▁사투리	-11.4174
층에서	-11.4174
▁스케일링	-11.4174
▁정수기	-11.4175
보려	-11.4175
▁줬다고	-11.4175
▁전시	-11.4176
활동	-11.4176
한달	-11.4176
▁리필	-11.4177
보니깐	-11.4177
이ᅭ	-11.4177
▁황금	-11.4178
머겅	-11.4179
▁그만둘	-11.418
▁분홍색	-11.4181
▁원피스를	-11.4182
한국	-11.4182
▁34	-11.4183
월달	-11.4183
나부다	-11.4184
절대	-11.4186
▁피씨방	-11.4186
▁결심	-11.4186
되냐	-11.4187
들었어	-11.4188
▁언니를	-11.4189
영어	-11.4189
▁지난번	-11.4189
▁도착하는	-11.419
걸린	-11.4191
▁잘못된	-11.4192
려는데	-11.4197
▁퀸	-11.4198
▁최악이	-11.4199
▁수납	-11.4201
▁찜질방	-11.4202
성공	-11.4205
둔거	-11.4205
▁잘했다고	-11.4206
▁짭	-11.4206
맞네	-11.4207
지말래	-11.4207
내리	-11.4207
놀고	-11.4207
중요	-11.4209
크게	-11.4211
햇엇	-11.4211
▁무거	-11.4211
올거	-11.4214
자구	-11.4214
▁배달이	-11.4217
▁늙	-11.4217
시키면	-11.4218
▁씻었	-11.4218
▁비행기를	-11.4219
▁이랬는데	-11.4219
▁내용에	-11.4219
▁기억도	-11.4219
▁찍으면	-11.4221
▁모자라	-11.4222
▁자는데	-11.4222
▁구분	-11.4222
집으로	-11.4223
붙여	-11.4223
▁줬어	-11.4223
▁알게써	-11.4225
오자	-11.4227
▁따지	-11.4228
바퀴	-11.4228
▁라이트	-11.4229
상관	-11.423
▁하니깐	-11.423
▁잘생겼	-11.4231
▁따뜻해	-11.4232
▁해가	-11.4232
▁컴퓨터로	-11.4232
된당	-11.4235
▁한명이	-11.4236
해짐	-11.4237
▁담배를	-11.4237
▁토론	-11.4238
썰	-11.4239
겼어	-11.4241
▁,,,,	-11.4242
▁개안	-11.4242
▁좌	-11.4244
렌즈	-11.4245
▁점장님	-11.4245
▁친구야	-11.4247
▁안갈	-11.4247
저나	-11.4247
▁방탄소년단	-11.4247
▁그립톡	-11.4247
▁한마디	-11.4248
려궁	-11.4248
이여서	-11.4249
▁디스크	-11.4249
▁어딨	-11.425
▁보냇	-11.425
▁일어나는	-11.425
프다	-11.425
▁배에	-11.425
▁잡채	-11.4251
알아서	-11.4252
▁몇달	-11.4253
엿나	-11.4253
그래두	-11.4254
▁"	-11.4254
▁성능	-11.4255
▁분명히	-11.4255
▁가긴	-11.4256
▁장미	-11.4256
▁중요해	-11.4258
거잖아	-11.4258
▁배추	-11.4258
줄겡	-11.4259
▁사정	-11.4259
입금	-11.426
▁바람에	-11.426
향이	-11.426
▁반대로	-11.4261
▁이상해서	-11.4262
좋아해	-11.4263
자신	-11.4265
▁치킨은	-11.4266
▁의외로	-11.4266
▁샐러드를	-11.4267
▁날아가	-11.4267
▁복잡하	-11.4269
▁익숙해	-11.4269
▁없어지	-11.4269
▁샀던	-11.427
▁250	-11.427
알고	-11.4271
아닐	-11.4271
셔야	-11.4272
▁음식물	-11.4273
얔ᄏᄏᄏᄏ	-11.4275
부자	-11.4277
었더니	-11.4278
▁있을때	-11.4278
▁공부는	-11.4278
▁삿는데	-11.428
마켓	-11.4282
▁유튜브를	-11.4282
아니구	-11.4284
이기	-11.4285
감사	-11.4286
더러	-11.4287
▁지네	-11.429
아아아아아	-11.4291
▁듣는데	-11.4291
▁알고있	-11.4291
▁일하면	-11.4292
▁현지	-11.4294
달라구	-11.4296
▁들어갔다	-11.4299
▁러브	-11.4301
▁모가	-11.4301
인대	-11.4301
▁났는데	-11.4301
해주세요	-11.4302
▁남자는	-11.4303
같지	-11.4305
▁천장	-11.4305
므로	-11.4308
▁자매	-11.431
▁특정	-11.4311
조차	-11.4311
▁갔을때	-11.4312
빗	-11.4313
뭇	-11.4313
▁켜고	-11.4315
▁보내라고	-11.4316
▁필요하다고	-11.4316
합격	-11.4317
▁식품	-11.4318
▁먹고싶은데	-11.4318
▁내렸	-11.432
▁이가	-11.432
▁노맛	-11.4321
무침	-11.4321
▁그러고보니	-11.4321
▁노량진	-11.4321
▁브런치	-11.4321
▁에어비앤비	-11.4321
▁오피스텔	-11.4321
▁뉴욕	-11.4322
▁탈퇴	-11.4323
▁살거야	-11.4324
▁법을	-11.4325
아퍼	-11.4325
먹었엉	-11.4325
▁보험료	-11.4325
끝내	-11.4325
▁전체적으로	-11.4325
▁헷	-11.4326
▁레이저	-11.4326
한당	-11.4327
▁웅ᄏᄏᄏᄏ	-11.4328
▁그러게요	-11.4329
▁잇는거	-11.4331
일어나서	-11.4332
▁가고싶은데	-11.4332
▁어색	-11.4332
▁쳇	-11.4333
전번	-11.4336
함이	-11.4336
▁먹었지	-11.4337
▁벗겨	-11.4338
▁색감	-11.4339
▁까미	-11.4339
받으	-11.434
월말	-11.434
▁들음	-11.4341
키고	-11.4341
▁수입	-11.4341
안먹어	-11.4341
▁벽에	-11.4342
▁둥	-11.4343
귀엽다	-11.4343
이번에	-11.4346
▁할라고	-11.4346
▁뚱뚱	-11.4347
▁유튜브로	-11.4347
▁깨우	-11.435
뭐라	-11.435
▁사원	-11.4351
겟군	-11.4352
▁봤을	-11.4354
들에	-11.4354
▁파는거	-11.4355
▁우리회사	-11.4355
▁찾은	-11.4356
▁홈플	-11.4356
아앙	-11.4356
▁몰라도	-11.4357
▁미쳣다	-11.4358
▁대리님	-11.4359
▁부산에서	-11.4359
▁순위	-11.436
▁가볼	-11.436
요금	-11.4363
겟음	-11.4365
타이	-11.4366
▁일반인	-11.4366
▁뭐하냐	-11.4366
▁채팅	-11.4367
▁아직두	-11.4367
▁다짐	-11.4372
첫	-11.4375
▁생기고	-11.4381
▁이쁘네	-11.4382
▁불안해서	-11.4384
▁시작하면	-11.4384
▁비워	-11.4386
것같아요	-11.4387
▁온니	-11.4388
▁해석	-11.4388
▁안가고	-11.4389
▁인싸	-11.4389
▁분홍	-11.4391
▁만한	-11.4396
▁광화문	-11.4396
▁쫓아	-11.4396
▁정확한	-11.4396
▁국민은행	-11.4396
▁청춘	-11.4397
▁롯데마트	-11.4397
▁핀	-11.4398
▁생긴거	-11.4399
▁지하철이	-11.4399
▁끼워	-11.44
▁공기업	-11.44
▁1+1	-11.44
▁심각한	-11.4403
▁돌아가는	-11.4404
이상해	-11.4404
▁금욜날	-11.4405
당한	-11.4405
잇엉	-11.4405
▁지들	-11.4405
깝	-11.4405
▁ᄏᄃᄏᄃ	-11.4406
▁늘리	-11.4406
▁올게	-11.4406
▁될거	-11.4408
해진	-11.4409
▁걸림	-11.4409
▁잃어버리	-11.4413
▁잡히	-11.4416
▁할인받	-11.4417
▁남기	-11.4418
물어	-11.4418
▁시력	-11.4419
▁다르지	-11.4419
됏어	-11.4422
랬어	-11.4422
▁여러번	-11.4425
▁수준이	-11.4425
올거야	-11.4425
알았어	-11.4425
▁액	-11.4429
▁배우는	-11.4429
햇거든	-11.4429
1000	-11.443
▁알어	-11.443
▁가까워서	-11.4431
모으	-11.4431
▁안좋아서	-11.4434
인형	-11.4436
▁보석	-11.4437
잡았	-11.4438
▁찾아가	-11.4439
▁교수가	-11.4439
▁진동	-11.4441
▁가로	-11.4442
▁00	-11.4444
▁합의	-11.4445
▁찍었다	-11.4446
▁얘는	-11.4447
▁딜	-11.4448
▁구래서	-11.4448
▁걱정을	-11.445
보내고	-11.4451
인건	-11.4454
못먹	-11.4455
에서만	-11.4455
▁출발해서	-11.4455
▁뜨고	-11.4455
신경	-11.4455
▁많으니	-11.4455
▁넓어	-11.4455
거같긴한데	-11.4455
▁알면	-11.4456
▁구워먹	-11.446
따고	-11.4461
자세	-11.4461
▁길거리	-11.4461
위치	-11.4461
기차	-11.4465
▁잘한다	-11.4465
쌓	-11.4466
▁오킹	-11.4466
방은	-11.4466
▁고민하는	-11.4467
인실	-11.4468
▁합니다	-11.4468
긴다	-11.4468
할게요	-11.4469
봅시다	-11.4471
▁다래끼	-11.4471
▁주세요	-11.4471
필요없	-11.4472
▁되려나	-11.4473
▁연극	-11.4475
▁발랐	-11.4479
▁전원	-11.448
▁남았다고	-11.448
▁두근두근	-11.4481
▁z	-11.4481
0000	-11.4482
▁암거나	-11.4484
▁족	-11.4484
는뎈ᄏᄏᄏ	-11.4486
습니	-11.4489
▁유명해	-11.4492
▁안조아	-11.4493
약을	-11.4496
▁잇몸	-11.4498
▁뺏어	-11.4499
▁나어제	-11.4499
▁냉동실	-11.4499
▁쏙	-11.4499
▁애매해	-11.4499
▁섞어	-11.4501
▁사진만	-11.4502
▁친해지	-11.4503
▁덜덜	-11.4503
▁입양	-11.4504
▁크기가	-11.4504
했는뎅	-11.4504
▁테마	-11.4506
▁챙겨가	-11.4512
▁강아지들	-11.4513
매트	-11.4519
▁분장	-11.452
▁밭	-11.452
타워	-11.4524
사람한테	-11.4524
▁데가	-11.4525
깔아	-11.4525
▁해줬	-11.4526
▁지마켓	-11.4528
▁쳐다보	-11.453
▁용인	-11.4531
▁이상하	-11.4536
보께	-11.4536
점수	-11.4537
▁빨대	-11.4538
▁순서	-11.4539
잎	-11.454
▁메이	-11.454
갚	-11.4541
펌	-11.4541
▁후보	-11.4542
▁기구	-11.4543
생겨	-11.4546
쯔	-11.4547
^-^	-11.4547
▁한꺼번에	-11.4547
돔	-11.4547
▁마찬가지	-11.4547
▁라디오	-11.4547
▁깻잎	-11.4547
▁런닝	-11.4547
▁스트레스받	-11.4547
▁수하물	-11.4547
시반까지	-11.4547
▁의료	-11.4548
▁민폐	-11.4548
▁멈추	-11.4548
▁실수로	-11.4548
▁자기한테	-11.4549
드시	-11.455
▁머쓱	-11.4551
▁로고	-11.4552
어어	-11.4553
이쁘다	-11.4554
▁오니	-11.4556
짧	-11.4556
표정	-11.4557
하는겨	-11.4557
▁배고픈데	-11.4558
▁멀쩡	-11.4559
▁볼지	-11.4559
▁ᅩ	-11.4561
했던거	-11.4561
▁이제부터	-11.4561
▁챙기고	-11.4562
▁녜	-11.4563
할껄	-11.4563
▁그럴수	-11.4564
▁누르고	-11.4565
▁고속도로	-11.4566
알려줘	-11.4567
▁부탁하	-11.4569
▁내려가서	-11.457
▁애기가	-11.4571
▁조용	-11.4572
▁이름도	-11.4573
▁붕	-11.4574
금지	-11.4575
▁괜찮을듯	-11.4577
랬지	-11.4578
▁못봄	-11.4582
▁ᄏᄏᄏᄏᄏᄏᄏᄏ아	-11.4582
▁기운이	-11.4583
해야징	-11.4584
스탈	-11.4588
능력	-11.4588
대면	-11.4589
▁책읽	-11.4589
▁계란을	-11.4589
▁플레이	-11.459
▁별로라	-11.459
▁열정	-11.4592
▁얘기가	-11.4592
▁구로	-11.4594
하겟다	-11.4595
들면	-11.4598
그릇	-11.4598
가기전에	-11.4599
▁물티슈	-11.4599
▁없오	-11.46
▁약속했다	-11.4601
잃어	-11.4602
▁받으려고	-11.4603
▁싸우는	-11.4604
▁어제보다	-11.4606
▁스프	-11.4606
▁똥싸	-11.4608
▁멀다	-11.4608
몇시에	-11.4608
▁식당에서	-11.4609
가야돼	-11.4609
▁민원	-11.461
댔어	-11.461
▁장바구니에	-11.4611
갖	-11.4611
사를	-11.4612
▁복도	-11.4613
빨라	-11.4614
▁꼬치	-11.4616
▁간대	-11.4617
팝	-11.4617
가봄	-11.4617
팍	-11.4618
▁그러는데	-11.4618
▁미세먼지가	-11.4618
▁나오기	-11.4619
▁퇴근해서	-11.462
▁개웃기다	-11.462
쓰레기	-11.462
엌ᄏᄏᄏᄏᄏᄏᄏ	-11.462
▁도서관에	-11.4621
▁아닌듯	-11.4623
눅	-11.4623
슥	-11.4623
잏	-11.4623
▁유부초밥	-11.4623
해놔	-11.4624
▁여의도	-11.4625
▁못했	-11.4625
▁빠르네	-11.4626
▁오처넌	-11.4628
작아	-11.4629
들엇	-11.4629
▁자를	-11.4629
▁시작한	-11.4631
▁꼬막	-11.4631
▁서운하	-11.4632
▁환상	-11.4634
오오오	-11.4634
▁뚱	-11.4634
네ᄏᄏ	-11.4636
▁조율	-11.4638
▁싶었던	-11.4638
읽어	-11.4638
스피	-11.4638
▁토욜날	-11.4639
▁알려주면	-11.464
▁한방에	-11.4642
다니면서	-11.4642
▁안가져	-11.4643
▁잤다고	-11.4644
그러네	-11.4645
괜차나	-11.4646
▁보여줄게	-11.4646
나오는데	-11.4647
▁우리의	-11.4647
▁오라방	-11.4648
충격	-11.4648
피곤해	-11.4649
▁대비	-11.4651
뇽	-11.4651
▁욕먹	-11.4652
▁굴러	-11.4655
하다는	-11.4656
▁그런거같아	-11.4656
너도	-11.4657
▁민증	-11.4657
▁진주	-11.4657
은거야	-11.4659
▁체질	-11.4659
▁면세점에서	-11.4659
▁재생	-11.466
▁아니에요	-11.4662
▁낫겠다	-11.4662
▁짜증난다	-11.4662
▁끊기	-11.4663
▁어때요	-11.4665
▁꽁	-11.4665
▁그사람이	-11.4667
45	-11.4668
자야	-11.4669
▁어딘가	-11.467
놓을게	-11.467
▁방역	-11.4671
이던데	-11.4671
▁쟤는	-11.4673
그것도	-11.4674
▁높아서	-11.4675
▁되었다고	-11.4677
▁풀렸	-11.4678
▁글로	-11.468
▁생각할	-11.4681
▁야경	-11.4681
겠니	-11.4682
▁안뜨	-11.4683
▁번개	-11.4684
▁보여줬	-11.4684
▁책장	-11.4685
▁걔랑	-11.4685
봉지	-11.4686
▁알아야	-11.4686
었구나	-11.4687
▁마음은	-11.4688
과제	-11.4689
▁므	-11.4691
그러고	-11.4692
헷	-11.4695
▁제외	-11.4696
바뀌	-11.4696
주세여	-11.4697
저렇게	-11.4697
기름	-11.4698
클럽	-11.4698
▁자존심	-11.4699
끗	-11.4699
▁제육	-11.4699
▁기생충	-11.47
▁단호박	-11.47
▁유니클로	-11.47
▁겨드랑이	-11.47
롸	-11.47
해준대	-11.47
▁샤넬	-11.47
▁쉰	-11.4701
▁말해야	-11.4701
▁예쁠	-11.4702
▁경험이	-11.4703
▁떠들	-11.4703
▁휴게소	-11.4703
▁어쩜	-11.4704
▁파주	-11.4705
▁튀어	-11.4706
ᄏᄏᄀᄏᄏ	-11.4708
▁자지	-11.4709
▁말했어	-11.4709
▁심각	-11.471
▁엄지	-11.471
▁잘어울리	-11.4712
▁헤이	-11.4713
의미	-11.4713
▁어뗘	-11.4714
▁쐬	-11.4714
▁금액을	-11.4714
▁앙대	-11.4714
▁어딜가	-11.4715
두대	-11.4717
▁좋아지	-11.4718
결과	-11.4719
미쳤	-11.4719
탔어	-11.4719
▁수령	-11.472
▁노예	-11.472
▁트리	-11.4721
머것	-11.4722
▁상의한다	-11.4722
▁어땠어	-11.4723
▁계신	-11.4725
댕겨	-11.4726
▁몰려	-11.4727
▁틀린	-11.4728
반지	-11.4728
▁가냐고	-11.4728
▁물어봐야	-11.4728
아예	-11.473
▁올렸는데	-11.473
▁쪼아	-11.4731
질러	-11.4731
▁운동하는	-11.4731
▁스펙	-11.4735
▁어떡하냐	-11.4735
▁조져	-11.4736
▁놀아주	-11.4736
머니	-11.4736
▁보내서	-11.4739
그대로	-11.4739
▁만들었는데	-11.474
오니	-11.474
▁옴마	-11.474
▁몇분	-11.4741
돈데	-11.4741
▁갔다왔	-11.4742
▁장비	-11.4743
▁쉰다고	-11.4744
▁빨래를	-11.4745
햇던	-11.4748
▁내복	-11.4749
▁져	-11.4749
가니	-11.4749
▁생일선물로	-11.4751
때쯤	-11.4752
등급	-11.4753
선배	-11.4755
▁생일이라	-11.4756
▁남자애들	-11.4756
▁우리집에서	-11.4757
▁신을	-11.4757
▁버리는	-11.4757
인척	-11.4758
▁있긴한데	-11.4758
▁자른	-11.4759
▁뻔했다	-11.4759
분전	-11.4761
▁맞은	-11.4762
▁올라왔	-11.4762
▁버스는	-11.4764
▁안봐	-11.4765
▁화해	-11.4765
넉넉	-11.4765
▁없어져서	-11.4768
▁좋앗	-11.4769
멜	-11.4769
▁씻을	-11.477
아플	-11.477
▁병원비	-11.4772
차타고	-11.4773
▁키울	-11.4774
▁이놈	-11.4777
버린다	-11.4777
▁홧팅	-11.4778
꽈	-11.4778
켄	-11.4778
툼	-11.4778
▁레전드	-11.4778
▁놀랬	-11.4778
▁하는거지	-11.4778
▁베이글	-11.478
▁말하니	-11.478
▁겉옷	-11.4781
부터는	-11.4783
줬다고	-11.4783
▁없을듯	-11.4785
▁개웃김	-11.4786
▁할라	-11.4787
▁개오바	-11.4787
▁으앙	-11.4789
▁일정에	-11.479
▁렉	-11.4792
걸음	-11.4793
▁했어요	-11.4794
빠진	-11.4797
심각	-11.4798
▁답답해서	-11.4798
▁94	-11.4799
▁사람들을	-11.4799
▁마지막날	-11.4801
▁재미있게	-11.4802
▁바라고	-11.4803
염색	-11.4805
▁나라면	-11.4805
▁넣어주	-11.4806
▁욱	-11.4806
..0	-11.4808
▁들어간다	-11.481
▁원씩	-11.481
▁하시는	-11.4812
▁식욕	-11.4812
▁성남	-11.4813
지니까	-11.4813
느껴	-11.4814
▁애를	-11.4814
기념	-11.4814
나왔다	-11.4815
▁증상이	-11.4815
고싶당	-11.4816
8000	-11.4818
▁느끼는	-11.4819
▁길러	-11.4824
▁앉은	-11.4825
즌	-11.4825
▁여보는	-11.4825
▁어두운	-11.4825
▁다이소에	-11.4826
▁찍어야	-11.4826
었는디	-11.4826
되겠네	-11.4826
▁구찌	-11.4828
수있을까	-11.4829
▁이번달에	-11.4831
▁컨	-11.4832
거아니가	-11.4833
▁가자는	-11.4837
햇엉	-11.4837
옄ᄏᄏᄏᄏᄏ	-11.4837
▁싸강	-11.4838
▁그렇지만	-11.4841
▁졸리다	-11.4842
▁언제오	-11.4843
▁궁금한	-11.4844
▁숙소에	-11.4844
닿	-11.4844
▁저기가	-11.4845
였고	-11.4845
주려고	-11.4847
올듯	-11.4847
▁160	-11.4848
▁서운해	-11.4848
전엔	-11.485
▁그정도로	-11.485
ᄁᄀ	-11.485
▁언니꺼	-11.4851
라그래	-11.4852
분위기	-11.4853
▁나쁘지않	-11.4853
킷	-11.4854
▁광안리	-11.4856
▁사회생활	-11.4857
▁할꺼	-11.4858
당함	-11.4858
▁깨끗	-11.4858
▁복귀	-11.4859
▁미리미리	-11.486
▁어디까지	-11.4861
▁으휴	-11.4861
▁향기	-11.4861
▁히잉	-11.4862
ᄏᄁ	-11.4863
▁i	-11.4864
▁읭	-11.4864
▁제로	-11.4864
ᅳᅮ	-11.4865
▁응모	-11.4867
고싶네	-11.4867
맞나	-11.487
▁3-4	-11.4872
▁굵	-11.4872
방송	-11.4872
▁너를	-11.4874
..;	-11.4875
▁올라가는	-11.4877
▁하라는	-11.4878
▁사람들한테	-11.4878
▁고를	-11.4879
▁겹	-11.4879
▁쫄면	-11.488
▁끝났다	-11.4881
른데	-11.4881
▁비싸긴	-11.4882
▁싫어해	-11.4883
▁가게에서	-11.4884
나오네	-11.4886
▁필테	-11.4886
▁우아	-11.4887
▁흐르	-11.4888
▁호빵	-11.4888
인건가	-11.4888
하고싶은데	-11.4889
▁피곤하지	-11.4889
▁엄청나게	-11.489
입으면	-11.489
▁일부	-11.4892
지니	-11.4892
▁대신에	-11.4897
편해	-11.4898
어떠	-11.4899
▁내장	-11.4899
▁푹자	-11.49
아라	-11.4901
▁ᄏᄏᄏᄏᄏᄏ대박	-11.4903
▁들이	-11.4904
▁그쯤	-11.4904
아닐까	-11.4904
▁마장	-11.4905
▁날도	-11.4906
▁거를	-11.4907
▁뜸	-11.4907
▁관두	-11.4909
▁한국어	-11.491
▁헉스	-11.4911
근처에	-11.4912
▁저걸로	-11.4912
▁까만	-11.4915
집도	-11.4915
주말	-11.4916
▁망했어	-11.4917
우동	-11.492
▁돌리면	-11.492
▁한우	-11.4923
▁있을거	-11.4923
▁지정	-11.4924
믿	-11.4924
▁애정	-11.4924
다섯	-11.4928
넥	-11.493
▁야외	-11.4933
해졌	-11.4934
▁눌렀	-11.4934
▁심부름	-11.4934
밸	-11.4934
▁바닷가	-11.4935
▁낄낄	-11.4935
▁어쨌든	-11.4935
▁매일매일	-11.4935
욬ᄏᄏᄏᄏᄏ	-11.4936
▁있을거야	-11.4936
▁춤추	-11.4936
▁아니어서	-11.4937
▁대략	-11.4938
맘에	-11.4938
▁그러나	-11.4939
▁거지같	-11.4939
▁가이드	-11.4942
▁무한	-11.4942
오셈	-11.4943
▁바보야	-11.4944
▁스케쥴	-11.4945
▁오산	-11.4945
▁걱정하지	-11.4947
낰ᄏᄏᄏᄏᄏ	-11.4947
▁점이	-11.4947
▁없는게	-11.495
상품	-11.4952
▁갔으면	-11.4954
▁생각해보	-11.4954
화면	-11.4954
▁이리	-11.4956
▁합정	-11.4957
▁난리남	-11.4958
▁녹아	-11.4958
살래	-11.4959
욜	-11.4961
▁개미	-11.4962
▁늦으면	-11.4962
싸게	-11.4962
라햇는데	-11.4963
▁그담	-11.4965
가까	-11.4967
▁덥다고	-11.4967
▁밖으로	-11.4967
갈아	-11.4968
▁재난	-11.4969
▁잘맞	-11.497
▁나갈게	-11.4972
▁껍질	-11.4973
▁룰루	-11.4973
▁여기까지	-11.4974
졸라	-11.4975
싶음	-11.4975
▁이때	-11.4976
▁정지	-11.4978
▁최고다	-11.498
았음	-11.4984
▁할걸	-11.4984
▁귀차나	-11.4985
▁왔다며	-11.4985
지않았	-11.4986
▁우정	-11.4986
▁ᄂᄂᄂ	-11.4987
리는거	-11.4989
▁재료를	-11.4993
했으나	-11.4994
▁추가로	-11.4994
보이고	-11.4995
▁놀리	-11.4997
▁고기는	-11.4997
▁생수	-11.4998
갔네	-11.4999
▁문제야	-11.5001
만드는	-11.5001
▁가족이	-11.5001
▁매콤	-11.5001
▁압	-11.5002
▁내리고	-11.5004
콕	-11.5006
▁자구	-11.5006
▁안했는데	-11.5007
▁잡았다	-11.5008
▁밥먹을	-11.5011
차를	-11.5012
텨	-11.5012
아줌마	-11.5012
▁퇴근해	-11.5012
쇄	-11.5012
▁말함	-11.5012
큰거	-11.5013
▁춘	-11.5013
▁유니폼	-11.5014
▁전자렌지	-11.5014
▁펭수	-11.5014
▁웨이브	-11.5014
▁곰돌이	-11.5014
▁감사감사	-11.5014
▁재킷	-11.5015
▁적혀있	-11.5017
▁벨트	-11.5017
▁징징	-11.5017
▁자신에게	-11.5018
하시네	-11.5018
▁그거야	-11.502
시켰	-11.502
들음	-11.5022
▁짱짱	-11.5022
▁유독	-11.5023
▁방수	-11.5023
네ᅲᅲ	-11.5024
▁내림	-11.5025
▁던지	-11.5026
송이	-11.5026
별루	-11.5027
▁열차	-11.5028
///	-11.5029
냈다	-11.5031
▁낯	-11.5032
▁헌	-11.5032
해주는거	-11.5033
▁차도	-11.5034
▁조끼	-11.5034
거기서	-11.5034
▁시험은	-11.5035
핑크	-11.5036
묵어	-11.5037
갠	-11.5038
ᅥᄂ	-11.504
▁하거나	-11.504
??????????	-11.5041
▁금토일	-11.5042
생겼어	-11.5046
엇네	-11.5048
▁요구	-11.5049
▁올라와서	-11.5052
맞고	-11.5052
▁?????	-11.5054
▁좋구	-11.5055
▁어디갔	-11.5055
▁팩트	-11.5056
▁기억력	-11.5057
▁생명	-11.506
4000	-11.506
다구요	-11.506
▁육수	-11.5061
▁하루가	-11.5062
▁피곤할	-11.5062
사다	-11.5063
▁<	-11.5065
▁것이며	-11.5065
얔ᄏᄏᄏᄏᄏ	-11.5066
보내줘	-11.5067
때리	-11.5067
▁지루	-11.5068
소만	-11.5069
▁이쁨	-11.5069
▁삽	-11.507
▁맛잇는거	-11.507
▁강아지를	-11.5071
▁남친이랑	-11.5072
▁안타깝	-11.5072
▁95	-11.5075
▁해본	-11.5077
▁못하는데	-11.5077
▁무릎이	-11.5077
▁메뉴에	-11.508
▁양쪽	-11.5084
▁안맞아	-11.5084
▁하나로	-11.5084
디야	-11.5084
▁비오면	-11.5085
▁부르고	-11.5085
당근	-11.5086
▁상해	-11.5087
▁다니는데	-11.5087
▁갔다오	-11.5087
달리	-11.5091
칫	-11.5091
▁먹어봤어	-11.5092
싳	-11.5093
😍	-11.5094
▁야무지게	-11.5094
▁애플리케이션	-11.5094
▁프렌즈	-11.5094
q	-11.5094
▁오케오케	-11.5094
▁차장님	-11.5094
▁스포츠	-11.5095
▁대한항공	-11.5095
▁에센스	-11.5095
잌	-11.5096
▁네시	-11.5096
▁맛있었다고	-11.5096
보네	-11.5096
▁싫음	-11.5097
▁허르	-11.5098
▁어려움	-11.5098
▁그랬었	-11.5098
▁지나가는	-11.51
▁폭식	-11.51
ᄏ큐ᅲᅲᅲ	-11.51
▁쌓이	-11.5101
▁나온대	-11.5102
▁재워	-11.5103
▁깼	-11.5104
▁보는게	-11.5104
하군	-11.5106
▁다녀왔	-11.5106
공간	-11.5107
▁가끔씩	-11.5108
▁돌아오는	-11.5108
▁없는듯	-11.5108
▁분양	-11.511
▁초딩때	-11.511
▁할수잇	-11.5111
▁학과	-11.5111
화장	-11.5111
▁거품	-11.5112
▁집값	-11.5113
▁발송	-11.5115
없을	-11.5118
▁가다가	-11.5118
▁간식으로	-11.5119
넣어서	-11.5119
▁김포	-11.512
▁분노	-11.5124
텐디	-11.5124
▁눈도	-11.5125
▁달린	-11.5126
▁잘하면	-11.5126
▁마을	-11.5127
곳으로	-11.5129
▁삘	-11.5129
▁벽지	-11.5131
였구나	-11.5131
하려는데	-11.5133
▁삶은	-11.5133
가는거야	-11.5133
낸다	-11.5134
▁바뀌었	-11.5135
불가	-11.5137
ᄏᄏᄐᄏ	-11.5139
▁피곤했	-11.514
거고	-11.5141
▁담주부터	-11.5141
▁ᄁ	-11.5141
▁편해서	-11.5142
▁일어낫	-11.5143
▁쏠	-11.5144
색깔	-11.5145
갈수있	-11.5146
하네요	-11.5147
통화	-11.5147
만원인데	-11.5147
▁북한	-11.5148
▁모으는	-11.5149
▁주무	-11.5154
▁주스	-11.5154
▁세일을	-11.5157
▁어엉	-11.5158
델	-11.5158
실수	-11.5161
헝	-11.5163
▁가야하나	-11.5163
▁어렵고	-11.5163
▁이하	-11.5164
▁안했	-11.5165
나왔는데	-11.5168
▁아메	-11.5169
▁마지막이	-11.5169
▁쟤가	-11.5169
회에	-11.517
▁니랑	-11.517
▁화났	-11.517
렷다	-11.5172
•	-11.5172
▁52	-11.5172
▁예민한	-11.5173
▁사람만	-11.5173
붓	-11.5173
▁마른	-11.5174
▁안가도	-11.5174
☺	-11.5175
▁후다닥	-11.5175
▁스마일	-11.5175
▁놀이터	-11.5175
Y	-11.5175
▁러닝	-11.5175
ᅭ어	-11.5176
▁완결	-11.5176
▁외롭	-11.5176
왜안	-11.5177
▁런던	-11.5178
▁쇼파	-11.518
▁히터	-11.518
▁어이없네	-11.518
▁음식은	-11.5181
▁중학생	-11.5181
▁제주도에서	-11.5181
▁어떨까	-11.5181
▁여유롭게	-11.5183
▁생각하지	-11.5185
▁넘기	-11.5185
앜ᄏᄏᄏᄏᄏ	-11.5186
▁기념으로	-11.5186
▁숙소가	-11.519
는뎈ᄏᄏᄏᄏ	-11.5191
▁원주	-11.5191
▁어디다	-11.5191
▁벗고	-11.5191
▁옛날엔	-11.5191
▁추가해서	-11.5193
▁연금	-11.5193
▁초음파	-11.5193
▁장례식장	-11.5193
▁보아	-11.5195
▁좋겠당	-11.5195
▁나아지	-11.5195
먹으	-11.5195
▁정전	-11.5196
▁어늘	-11.5198
버릴까	-11.52
▁쫙	-11.5202
오바	-11.5205
리스트	-11.5205
각이	-11.5205
눈이	-11.5207
▁어키	-11.5207
▁쉬지	-11.5207
는딩	-11.5211
표를	-11.5211
▁일한	-11.5213
▁통통	-11.5213
랰ᄏᄏᄏᄏ	-11.5214
~~??	-11.5216
보이지	-11.5217
▁똑같은거	-11.5217
com	-11.5219
수잇어	-11.5219
▁깔끔하	-11.5221
▁간다며	-11.5221
ᄀᄀᄀ	-11.5222
▁전환	-11.5226
이라면	-11.5228
▁다담주	-11.5229
기계	-11.523
▁템	-11.523
▁왓어	-11.5236
▁쩜	-11.5236
▁감정이	-11.5237
성에	-11.5238
▁않앗	-11.5239
▁왜그러지	-11.5239
▁그때도	-11.524
시티	-11.524
▁받기로	-11.524
하나만	-11.5241
해보여	-11.5242
구랭	-11.5243
못해서	-11.5243
▁오티	-11.5244
그림	-11.5244
▁듀	-11.5245
▁친구들은	-11.5245
▁늦지	-11.5248
하러가	-11.5248
▁저렴하	-11.5248
▁지니	-11.525
춤	-11.5253
점은	-11.5253
헿	-11.5255
▁빠짐	-11.5255
겔	-11.5256
’	-11.5256
▁싱가폴	-11.5256
▁임산부	-11.5256
인강	-11.5256
▁베이컨	-11.5256
▁비비큐	-11.5256
▁맥북	-11.5257
▁욜	-11.5259
만원은	-11.5259
▁기억에	-11.5259
▁서울로	-11.5259
시네요	-11.526
▁저거는	-11.526
▁엄마꺼	-11.5261
▁올만에	-11.5261
▁주간	-11.5262
금욜	-11.5262
▁망했다	-11.5262
▁읽어보	-11.5263
▁갔다와	-11.5263
▁제안한다	-11.5265
ᄑᄑ	-11.5265
▁내역	-11.5266
▁들으면서	-11.5267
▁나듀	-11.5268
뿐이야	-11.5268
▁세제	-11.5269
▁고양이는	-11.527
블루	-11.5272
▁영하	-11.5273
봐여	-11.5273
▁자극적인	-11.5274
▁깍	-11.5274
뭐냐	-11.5277
자켓	-11.5278
▁하와이	-11.5278
▁공복	-11.5279
▁그랬다고	-11.528
▁뭐더라	-11.528
네ᅲ	-11.5285
분뒤	-11.5285
▁떨어짐	-11.5285
▁샷	-11.5286
▁ᄏᄏᄏᄏᄏ아니	-11.5286
▁얘기했	-11.5286
▁아닠ᄏᄏᄏ	-11.5286
▁감튀	-11.5289
대루	-11.529
▁느껴진다	-11.529
▁당일에	-11.5292
의사	-11.5292
▁어디에서	-11.5292
▁노리	-11.5293
▁핑크색	-11.5295
냐면서	-11.5298
▁사온	-11.5299
▁가지마	-11.5299
가능하	-11.5301
▁자막	-11.5301
▁낮아	-11.5302
▁재밌어서	-11.5302
것보다	-11.5305
▁벗어나	-11.5306
속에	-11.5308
▁수원역	-11.5308
▁뻗	-11.5308
다녀서	-11.5309
제대로	-11.5309
▁찜질	-11.5312
▁덧	-11.5314
없었	-11.5316
한테는	-11.5319
천원이	-11.5319
▁뽑기	-11.5319
▁반만	-11.5321
▁물어봣	-11.5322
▁어머님이	-11.5323
▁정도에	-11.5324
왔다고	-11.5326
갔나	-11.5326
오져	-11.5327
옄ᄏᄏᄏ	-11.5327
좋겠	-11.5327
▁안되겠다	-11.5327
▁날씨도	-11.5327
▁충격적이	-11.5327
▁한계	-11.5332
요오	-11.5333
느니	-11.5334
▁명의	-11.5336
▁늦어도	-11.5337
▁도깨비	-11.5338
▁튜브	-11.5338
▁연회비	-11.5338
좋은거	-11.534
▁팔뚝	-11.534
▁그램	-11.5341
▁안드	-11.5342
▁냈다	-11.5342
▁종교	-11.5343
년간	-11.5343
▁맑	-11.5344
▁타로	-11.5344
대충	-11.5345
▁붙을	-11.5345
▁혼내	-11.5346
▁주시	-11.5346
▁음료를	-11.5347
▁그렇긴한데	-11.5348
▁단거	-11.535
비행기	-11.5351
▁거여	-11.5352
겟는데	-11.5353
▁저녁에는	-11.5353
▁도전해	-11.5354
쩐	-11.5354
▁색은	-11.5356
▁단계	-11.5356
▁말하지만	-11.5357
▁귀여	-11.5358
▁찾아보자	-11.5358
▁빼는	-11.5359
안에서	-11.5365
▁주문해서	-11.5366
▁읽었	-11.5366
▁붙으면	-11.5366
▁잘해서	-11.5366
수로	-11.5368
입음	-11.5369
▁캔들	-11.537
잇냐	-11.537
▁정해서	-11.537
▁지출	-11.5371
▁쌓아	-11.5372
될거	-11.5372
▁모자를	-11.5372
▁한정	-11.5372
▁유행이	-11.5372
▁조교	-11.5373
▁눈으로	-11.5374
▁어떡하	-11.5374
▁호에	-11.5375
보이긴	-11.5375
▁그지	-11.5375
들리	-11.5378
▁배고프면	-11.5379
다행이다	-11.538
▁해야하는	-11.5381
▁얼탱	-11.5382
적어	-11.5382
▁제품이	-11.5382
▁읽씹	-11.5384
▁마포	-11.5385
▁가겠다	-11.5387
라믄	-11.5387
▁대사	-11.5387
▁일본은	-11.5388
일인가	-11.539
와따	-11.5391
잘했어	-11.5392
▁택배비	-11.5393
잔다	-11.5394
▁많지만	-11.5396
▁기능이	-11.5396
라는거	-11.5397
모드	-11.5398
▁보내주고	-11.5401
영이	-11.5403
점에	-11.5403
택시	-11.5404
▁사은품	-11.5405
▁따뜻하	-11.5405
▁신랑	-11.5406
▁부어서	-11.5409
▁짱이야	-11.5409
▁그니께	-11.5409
▁봤더니	-11.5413
▁ᄏᄏᄏᄀᄏ	-11.5415
▁안쓰는	-11.5415
찌개	-11.5415
얻	-11.5418
▁영화보고	-11.5418
▁미드	-11.5419
됭	-11.542
얐	-11.542
웜	-11.542
▁안맞는	-11.542
▁팬미팅	-11.5421
V	-11.5421
항공	-11.5421
꽂	-11.5421
증명서	-11.5421
다이어트	-11.5422
넓	-11.5422
하셧	-11.5424
▁워터	-11.5425
▁왕창	-11.5426
갈라	-11.5427
▁모지	-11.5427
▁초기	-11.5427
▁따라가	-11.5429
▁입기	-11.5432
▁부대	-11.5433
한겨	-11.5434
웃김	-11.5436
▁로제	-11.5436
▁보충	-11.5437
▁빌린	-11.5437
▁분들	-11.5437
▁서랍	-11.5437
봤지	-11.5438
중독	-11.5439
▁주먹	-11.5439
▁끔찍	-11.544
될거같아	-11.5441
▁의도	-11.5442
어려워	-11.5443
▁빨개	-11.5443
▁잘지내	-11.5443
▁당근마켓	-11.5443
▁끊고	-11.5443
▁꼽	-11.5444
▁갓다가	-11.5445
▁쉰다	-11.5446
▁크면	-11.5446
플러스	-11.5448
왔음	-11.5448
▁바꾸자	-11.5449
▁위생	-11.545
▁깬	-11.5451
▁빡쳐서	-11.5451
▁매워	-11.5452
▁넣었는데	-11.5452
▁윗집	-11.5453
물을	-11.5454
▁진한	-11.5456
▁직전	-11.5456
▁주말이라	-11.5459
노트	-11.5459
소리가	-11.5461
▁이중	-11.5462
▁어떨지	-11.5462
됐네	-11.5463
▁사와서	-11.5464
▁먹어야해	-11.5464
▁쟈	-11.5465
감동	-11.5465
▁한번은	-11.5467
▁면이	-11.5468
글고	-11.5469
수영	-11.547
▁개많이	-11.5471
▁머신	-11.5472
주삼	-11.5472
▁게임에	-11.5473
로만	-11.5474
▁규	-11.5474
에프	-11.5475
▁확실한	-11.5477
▁모으고	-11.548
계좌	-11.5481
▁알아볼	-11.5482
붙이	-11.5483
한것도	-11.5483
빌리	-11.5487
먹는다고	-11.5487
▁쉬어서	-11.5488
▁단종	-11.5489
▁뭐먹어	-11.5491
▁최고라고	-11.5493
▁닥	-11.5494
▁아니었어	-11.5496
▁술도	-11.5497
▁엄만	-11.5498
▁그랬음	-11.5498
▁주신	-11.5498
▁나오니까	-11.5498
▁물량	-11.5499
▁윙	-11.5501
채우	-11.5501
줄알아	-11.5501
개로	-11.5502
중간	-11.5502
▁인절미	-11.5504
탠	-11.5504
▁파리바게트	-11.5504
▁바뀔	-11.5504
돋	-11.5505
팜	-11.5505
카메라	-11.5506
▁없자나	-11.5506
답니다	-11.5507
잇으	-11.5507
▁뚝	-11.5507
▁질투	-11.5508
엄빠	-11.5509
▁씻는	-11.5511
▁땀나	-11.5511
▁편하긴	-11.5511
▁기가	-11.5512
▁느낌으로	-11.5513
▁전기세	-11.5514
선수	-11.5514
빠질	-11.5515
분도	-11.5515
뿌리	-11.5515
▁위험한	-11.5515
바꿀	-11.5517
▁입으라고	-11.5517
▁안한다	-11.5519
었을	-11.5519
으래	-11.5521
▁차에서	-11.5521
곸ᄏᄏᄏᄏᄏᄏ	-11.5522
▁섭웨	-11.5524
오픈	-11.5525
주머니	-11.5526
▁상한	-11.5526
닮	-11.5528
▁소화제	-11.5529
▁있었음	-11.5529
▁만들었다	-11.553
▁다듬	-11.5532
▁몇살	-11.5532
▁팩스	-11.5533
▁봐달라고	-11.5534
도없어	-11.5534
눈거	-11.5535
▁가는거야	-11.5536
▁벌레가	-11.5537
거아니야	-11.5537
▁상대방도	-11.5538
▁팔이	-11.5539
▁결혼하고	-11.554
질까	-11.5542
▁자기들	-11.5542
▁제공	-11.5543
해야할듯	-11.5544
▁나가려고	-11.5544
분의	-11.5544
먹냐	-11.5545
▁속상하	-11.5547
▁못하	-11.555
오냐	-11.5552
▁시간되면	-11.5552
▁있을듯	-11.5552
왔더니	-11.5553
먹을때	-11.5553
▁깼다	-11.5553
ᄀᄁ	-11.5557
던거같은데	-11.5558
토리	-11.5559
있었다	-11.5559
없냐	-11.5562
▁ᄏᄒᄏᄒ	-11.5563
re	-11.5563
▁연말에	-11.5563
새로	-11.5564
▁쟁여	-11.5565
▁연락안	-11.5565
가구	-11.5566
▁등급	-11.5567
▁다음달	-11.5568
▁이랫	-11.5569
기위해	-11.5569
구가	-11.557
▁가질	-11.5572
▁묻지	-11.5572
▁옶	-11.5572
▁쪘	-11.5573
▁유형	-11.5575
였는지	-11.5576
▁카페가서	-11.5576
이번주	-11.5576
되겟다	-11.558
색으로	-11.5581
제를	-11.5583
▁일만	-11.5583
웟어	-11.5584
▁x	-11.5587
▁선글라스	-11.5588
❣	-11.5588
꿍	-11.5588
▁엑스레이	-11.5588
▁https	-11.5588
되는거야	-11.5589
▁웃으면서	-11.5589
▁하셨다	-11.559
숭	-11.559
▁오리고기	-11.559
▁설득	-11.559
▁어떠케	-11.5591
▁스마트폰	-11.5592
▁일어나자마자	-11.5592
두되	-11.5592
▁내껀	-11.5592
▁올지	-11.5593
놓을	-11.5594
▁반말	-11.5594
▁괴롭히	-11.5596
▁미션	-11.5596
매운	-11.5597
할겡	-11.5597
원피스	-11.5598
▁스튜디오	-11.5599
이엿	-11.5599
▁돌아다녀	-11.5602
▁학생이	-11.5603
▁토너	-11.5606
▁아쉬운	-11.5606
렇	-11.5608
닐	-11.5609
▁무서움	-11.561
22	-11.5611
▁본체	-11.5612
대고	-11.5613
▁계란말이	-11.5614
▁안간다	-11.5615
기싫	-11.5617
▁위치가	-11.5617
▁먹지마	-11.5618
▁뿌듯하	-11.5619
▁하하하	-11.5622
▁대답해	-11.5622
▁우리랑	-11.5625
▁사람들에게	-11.5626
▁성분	-11.5626
맞춰서	-11.5628
▁낀	-11.5629
▁강남에서	-11.5629
▁말하니까	-11.5629
욬ᄏᄏ	-11.563
▁64	-11.5631
▁사당	-11.5632
▁하늘이	-11.5633
냉면	-11.5634
닼ᄏᄏᄏᄏᄏᄏ	-11.5634
▁딥	-11.5636
▁밥집	-11.5636
▁후우	-11.5638
▁알아봤	-11.5641
94	-11.5642
▁챙겨야	-11.5642
일껄	-11.5643
진데	-11.5644
▁할부로	-11.5645
한개	-11.5647
▁짜고	-11.5647
▁유치	-11.5649
▁삼만원	-11.5649
치를	-11.5649
진짴ᄏᄏ	-11.5649
할때도	-11.5651
고픈	-11.5652
주차	-11.5652
▁네개	-11.5653
▁먹어봄	-11.5656
▁결혼하면	-11.5657
▁힝구	-11.5657
▁미친놈	-11.5657
▁태우	-11.5657
▁얼마정도	-11.5658
것보단	-11.5659
▁똥을	-11.5659
▁잇지	-11.5659
▁임티	-11.566
▁다친	-11.566
▁도와줘	-11.5661
▁때문	-11.5661
줬더니	-11.5663
해주지	-11.5664
▁저랑	-11.5665
▁월화	-11.5666
▁한거야	-11.5666
▁앉을	-11.5667
꼈	-11.5667
▁시작이	-11.5669
▁말해도	-11.5669
▁간호	-11.567
▁고민이야	-11.567
쓱	-11.5671
▁보낼게	-11.5671
▁닌텐도	-11.5673
▁쉬엄쉬엄	-11.5673
▁정형외과	-11.5673
하는것	-11.5673
▁알차게	-11.5673
낰ᄏᄏ	-11.5673
▁방탈출	-11.5673
작은	-11.5674
윙	-11.5675
졌네	-11.5676
▁사상	-11.5676
▁호오	-11.5677
▁컴백	-11.5677
▁환급	-11.5678
▁감자탕	-11.5678
디자인	-11.5678
ᄆᄎ	-11.5679
▁개조아	-11.5683
▁전라도	-11.5683
▁불렀	-11.5684
엉엉	-11.5684
것같은	-11.5684
▁가는지	-11.5685
▁들고가	-11.5685
나가면	-11.5686
0%	-11.5686
▁o	-11.5687
▁사이트에서	-11.5687
▁우주	-11.5687
▁킬	-11.5687
쯤은	-11.5689
아팠	-11.5689
▁옙	-11.5689
▁65	-11.5691
▁훗	-11.5691
▁자격	-11.5692
▁퇴사하고	-11.5693
▁하루만에	-11.5694
▁>	-11.5694
게되면	-11.5695
▁저나해	-11.5696
피곤하	-11.5697
인지는	-11.5698
▁파우더	-11.5698
▁운동할	-11.5699
▁나올때	-11.5702
알겠	-11.5702
▁열시미	-11.5702
▁엿	-11.5703
ᄀᄏᄏᄏ	-11.5704
▁온수	-11.5704
▁쏴	-11.5705
커버	-11.5705
커서	-11.5707
▁전화도	-11.5707
▁힐	-11.5708
▁팔지	-11.5709
▁난리야	-11.571
야겠군	-11.5713
달려	-11.5713
원은	-11.5716
▁넘으면	-11.5716
봐야겠어	-11.5716
▁39	-11.5717
▁오매	-11.5717
▁어딨어	-11.5717
▁옮겼	-11.5717
▁쌔	-11.5717
드랑	-11.5718
▁좋아하시	-11.572
▁자기전에	-11.5721
▁살인	-11.5722
▁주식이	-11.5722
ᄏ큐ᅲ	-11.5723
▁결론	-11.5723
챙	-11.5725
▁무시하	-11.5725
에에에	-11.5726
▁해주지	-11.5726
▁카페도	-11.5727
▁부산은	-11.5728
▁나니	-11.5729
▁앜ᄏᄏᄏᄏᄏᄏᄏᄏᄏᄏ	-11.5729
학년때	-11.5729
▁줄을	-11.573
▁사귀는	-11.5731
▁다섯개	-11.5732
▁이름으로	-11.5733
▁계산해	-11.5734
▁양보	-11.5735
▁창문을	-11.5736
▁보내줬	-11.5737
데서	-11.5738
▁궁금해한다	-11.574
일거	-11.5743
▁지나갔	-11.5744
▁운동이	-11.5745
이용	-11.5745
▁요일	-11.5746
▁안먹음	-11.5746
▁장식	-11.5747
▁한두번	-11.5748
;;;;;	-11.5749
▁라면이	-11.5749
자식	-11.575
해야한다	-11.5751
▁동네에서	-11.5752
▁대리점	-11.5754
▁시리	-11.5754
▁찾아야	-11.5755
▁이론	-11.5756
▁마미	-11.5757
줘야해	-11.5757
갔지	-11.5758
▁조타	-11.5758
▁불닭볶음면	-11.5758
▁스탠딩	-11.5758
둿	-11.5758
▁오트밀	-11.5758
흡	-11.5758
ᄐᄐ	-11.5759
생기면	-11.5759
▁계란찜	-11.5761
▁안올	-11.5761
자서	-11.5761
▁할인쿠폰	-11.5762
▁신메뉴	-11.5762
예쁜	-11.5762
▁별루야	-11.5763
자전거	-11.5763
강아지	-11.5764
▁사볼까	-11.5764
사도	-11.5765
햌ᄉ	-11.5765
버튼	-11.5766
스티	-11.5766
▁사갈게	-11.5767
들어와서	-11.5767
가야겠다	-11.5767
▁안부	-11.5768
그걸	-11.5769
구마	-11.577
보려구	-11.5771
▁부탁했다	-11.5771
▁초콜렛	-11.5771
하겟지	-11.5772
안맞	-11.5772
▁넣어놨	-11.5774
▁얇	-11.5775
행사	-11.5776
▁찢어	-11.5776
▁주라고	-11.5777
마셨	-11.5777
나한테	-11.5777
야하니까	-11.5778
써요	-11.578
의자	-11.5781
드립니다	-11.5781
▁된장	-11.5782
▁고생햇	-11.5783
▁졸귀탱	-11.5783
냐면	-11.5784
▁쪼끔	-11.5784
넘나	-11.5784
▁케이스가	-11.5786
▁목포	-11.5786
▁ᄏᄏᄏᄏᄏᄀ	-11.5787
▁못들어	-11.5787
두부	-11.5788
접수	-11.5789
▁올까	-11.579
율이	-11.5792
),	-11.5794
카트	-11.5794
▁똑똑	-11.5795
▁출근하는	-11.5795
▁욕조	-11.5797
▁결제가	-11.5797
빤	-11.5798
웃기네	-11.5798
조음	-11.5798
me	-11.5799
▁의자에	-11.5799
▁떄	-11.58
하려는	-11.5801
도아니고	-11.5801
▁선생님들	-11.5801
▁헤어지고	-11.5802
▁불안하다	-11.5802
▁혼자가	-11.5804
▁인지	-11.5806
▁붙은	-11.5806
▁완벽한	-11.5807
겠징	-11.5808
안주	-11.5808
엑스	-11.5809
사는게	-11.581
▁살려고	-11.5811
▁목욜에	-11.5811
끝난	-11.5813
▁옷사	-11.5816
.............	-11.5816
시절	-11.5816
▁웃어	-11.5816
▁일기	-11.5817
볼거	-11.582
몇시	-11.582
▁깔끔하고	-11.5821
▁찍어주	-11.5821
▁뽑아야	-11.5822
산책	-11.5822
▁카페는	-11.5822
▁사고가	-11.5823
▁보스	-11.5823
▁바꿀까	-11.5824
▁쓰니까	-11.5825
볶음밥	-11.5826
-2	-11.5827
거같다고	-11.5827
있는거야	-11.5827
▁기대하고	-11.5828
많음	-11.5828
▁아무말	-11.5828
▁동전	-11.583
▁사고싶은데	-11.583
▁이해해	-11.583
▁정부	-11.5832
▁쇠	-11.5832
▁많대	-11.5832
▁샤워하고	-11.5832
▁보여줄	-11.5833
잖니	-11.5833
길어	-11.5834
흐흑	-11.5834
늑	-11.5835
같은게	-11.5835
▁터졌	-11.5835
허다	-11.5837
▁사러가	-11.5837
▁더럽	-11.5838
▁두시에	-11.5839
ᄐᄐᄐᄐ	-11.5839
▁넣어두	-11.584
▁없던	-11.5841
▁깐	-11.5841
조은	-11.5841
▁울었다	-11.5842
▁이상하다고	-11.5842
항상	-11.5843
▁가야되	-11.5843
▁푸는	-11.5843
퀘	-11.5844
▁노인	-11.5844
▁참내	-11.5844
▁항생제	-11.5844
햤	-11.5844
▁ᄀᄂᄁ	-11.5844
▁프리퀀시	-11.5844
▁메가박스	-11.5845
▁인바디	-11.5845
일본	-11.5846
글이	-11.5846
▁장판	-11.5847
할려고	-11.5848
지나면	-11.5848
▁언니들	-11.5848
|	-11.5848
▁본가	-11.585
브라운	-11.585
▁주문하고	-11.585
▁때리고	-11.5851
▁그림을	-11.5851
▁액상	-11.5851
▁개쩐다	-11.5852
▁그럴리가	-11.5852
▁저사람	-11.5852
인당	-11.5852
▁후라이드	-11.5852
▁동탄	-11.5854
옷이	-11.5854
▁회식을	-11.5854
보냄	-11.5855
긴한디	-11.5855
비빔밥	-11.5857
그야	-11.5858
▁편하다고	-11.5858
그정도	-11.586
쓰게	-11.5861
인데요	-11.5862
이였는데	-11.5863
햌ᄏᄏᄏᄏ	-11.5865
▁간편	-11.5866
▁자리에서	-11.5866
▁웃기고	-11.5868
▁소음	-11.5868
네용	-11.5868
칭구	-11.5869
▁피부에	-11.5869
수없	-11.5869
▁많았어	-11.587
먹네	-11.5871
▁예약한	-11.5872
▁반은	-11.5874
▁말해줄게	-11.5876
▁배부르다	-11.5876
▁캐시	-11.5877
▁110	-11.5878
▁놓쳤	-11.5878
▁여기로	-11.5879
▁그롬	-11.5879
▁돌렸	-11.588
▁일하러	-11.5881
▁놀라고	-11.5881
▁앉았	-11.5881
▁시위	-11.5883
▁올거야	-11.5883
언니도	-11.5884
ᄐᄏᄏᄏᄏ	-11.5886
▁호텔에서	-11.5889
▁아침은	-11.5889
▁시킬까	-11.5891
적금	-11.5891
▁포스	-11.5891
험	-11.5892
▁맘에들어	-11.5892
꺼지	-11.5892
▁해주세요	-11.5895
▁다욧	-11.5895
▁둬	-11.5896
▁갈수록	-11.5898
▁맞는다고	-11.5899
▁강제로	-11.5899
▁전화해봐	-11.5899
▁요번	-11.5901
버리면	-11.5901
▁갔더니	-11.5902
▁기억을	-11.5903
▁물어보지	-11.5904
▁비도	-11.5906
으셈	-11.5907
▁꿀잠	-11.5908
▁통해서	-11.5909
▁탄산	-11.5911
▁예민	-11.5912
▁용량이	-11.5913
법이	-11.5914
▁부지런하	-11.5916
▁오를	-11.5916
갑네	-11.5917
▁큰데	-11.5918
!!!!!!!!!!!!	-11.5919
는거랑	-11.5919
위로	-11.592
▁건강을	-11.592
▁t	-11.592
눈디	-11.5921
▁무섭고	-11.5923
을거같	-11.5924
한명	-11.5924
가보다	-11.5926
▁예약하고	-11.5926
▁신경쓰이	-11.5926
▁저녁엔	-11.5926
해야겟다	-11.5927
▁집도착	-11.5927
▁쓱	-11.5928
씽	-11.5931
▁왤캐	-11.5931
▁면역력	-11.5931
▁분리수거	-11.5931
▁진통제	-11.5931
▁지코바	-11.5931
▁굿모닝	-11.5931
▁웬만하면	-11.5932
▁스마트	-11.5932
▁예뻤	-11.5932
시원	-11.5932
▁포스팅	-11.5932
안햇	-11.5932
ml	-11.5933
긁	-11.5936
▁눈치가	-11.5936
바빠	-11.5936
▁해보려고	-11.5937
▁바짝	-11.5937
▁리스트	-11.5938
▁적당	-11.5938
도시락	-11.5939
an	-11.594
▁감기에	-11.5943
른다	-11.5944
▁집순이	-11.5945
▁괜찮더라	-11.5945
주일	-11.5946
▁존잼이	-11.5946
▁깔았	-11.5946
▁풍선	-11.5948
?!?!?	-11.5951
▁장소에	-11.5951
▁배고플	-11.5953
▁다행이지	-11.5954
▁이불을	-11.5955
▁개구리	-11.5955
▁체중	-11.5956
햇서	-11.5959
▁깡	-11.5961
▁카누	-11.5961
▁생산	-11.5961
금방	-11.5961
▁유아	-11.5964
▁준비중	-11.5966
▁살자	-11.5966
▁신림	-11.5967
▁건강하게	-11.5968
▁급행	-11.5968
▁ᄏᄏᄀᄏ	-11.597
▁약한	-11.597
▁경영	-11.597
들어와	-11.5971
▁군인	-11.5971
▁출발했	-11.5974
▁아니구나	-11.5974
????????	-11.5975
▁취소되	-11.5975
▁다니지	-11.5977
안경	-11.5978
▁피씨	-11.5978
▁물어봤어	-11.5979
▁재밋어	-11.5982
▁알겠어요	-11.5982
▁기여워	-11.5984
ᅡᄂ	-11.5984
해주라	-11.5985
▁있었고	-11.5986
제한	-11.5986
▁지원해	-11.5988
26	-11.5989
▁실장님이	-11.5989
▁먹엇는데	-11.5991
▁신선	-11.5995
시킨	-11.5996
솥	-11.5998
안감	-11.5999
▁하래	-11.6
▁이쪽	-11.6
가믄	-11.6001
▁먹을때	-11.6001
▁애매하다	-11.6001
▁지연	-11.6002
▁보내주면	-11.6004
▁오올	-11.6005
▁고파	-11.6006
▁오앙	-11.6006
뭐해	-11.6007
좋았	-11.6007
▁가게가	-11.6009
▁보낸거	-11.6013
▁신부	-11.6013
둡	-11.6013
▁나라에서	-11.6014
뱅기	-11.6014
▁프라이	-11.6015
▁꼈	-11.6016
▁문앞에	-11.6016
브랜드	-11.6016
▁소형	-11.6018
▁정규직	-11.6019
뒈	-11.6019
멕	-11.6019
울듯	-11.602
▁서른	-11.602
▁로즈	-11.6022
▁소스가	-11.6023
꼽	-11.6023
비도	-11.6023
▁시댁	-11.6024
▁특별	-11.6024
▁아라또	-11.6024
>_<	-11.6025
멈	-11.6025
▁후배	-11.6025
삶	-11.6025
▁수선	-11.6026
▁여주	-11.6027
▁ᄇᄅ	-11.6028
▁서운	-11.6028
▁떼잉	-11.6029
▁감탄	-11.603
▁중딩	-11.6031
▁도배	-11.6031
근육	-11.6031
시계	-11.6031
▁치즈볼	-11.6031
했눈데	-11.6032
▁육회	-11.6033
▁넣었다	-11.6034
▁헤어져	-11.6034
대학교	-11.6034
▁써있	-11.6035
▁싶었다	-11.6035
▁나갔어	-11.6036
잘했	-11.6036
▁망해	-11.6037
안되서	-11.6037
▁조커	-11.6038
▁먹고싶어서	-11.6039
▁어색하	-11.6039
▁시술	-11.6039
▁그녀	-11.6039
▁매장이	-11.604
▁다닌다	-11.604
▁알고보니	-11.604
지않을	-11.6041
▁파업	-11.6041
있을게	-11.6042
▁많아지	-11.6042
▁전주에	-11.6042
거가	-11.6044
▁그만둔다고	-11.6046
▁씻어야	-11.6046
▁누워있어	-11.6047
되자나	-11.6047
▁졸린	-11.605
▁체육	-11.6051
해지는	-11.6052
▁주의	-11.6052
▁짧아서	-11.6056
▁잡지	-11.6057
▁있는거야	-11.6057
▁감이	-11.6057
▁고시	-11.6057
대출	-11.6058
어쩌	-11.6059
▁점장님이	-11.6059
될거같	-11.6062
려다	-11.6062
▁쳤	-11.6064
▁E	-11.6065
▁포함해서	-11.6066
▁보니깐	-11.6066
▁학생들	-11.6067
▁다닌다고	-11.6067
▁지켜보	-11.6068
▁왕따	-11.6069
▁마시지	-11.6069
는거같	-11.607
~!!!	-11.607
순없	-11.6071
운다	-11.6072
▁수욜에	-11.6073
▁바지는	-11.6073
▁화장품을	-11.6074
▁비추	-11.6076
▁잘못한	-11.6076
▁모기가	-11.6078
▁떨어지고	-11.6079
ᅲᅲᅲᅲᅲᅲᅲᅲᅲᅲᅲᅲᅲᅲᅲᅲ	-11.6079
근디	-11.6081
▁잘햇어	-11.6081
▁무려	-11.6082
▁가져와서	-11.6083
▁정문	-11.6083
도되나	-11.6083
▁있다면	-11.6083
▁사라진	-11.6084
▁못했어	-11.6085
중국	-11.6087
▁경찰서	-11.6088
하시고	-11.6089
▁앖	-11.6089
▁브이	-11.6091
오ᅥ	-11.6091
▁소개시켜	-11.6092
▁타기	-11.6092
▁복잡	-11.6092
▁얼만지	-11.6092
▁짱구	-11.6096
해지고	-11.6097
것은	-11.6098
▁태도	-11.6098
▁검색하면	-11.6098
친다고	-11.6099
▁정식	-11.61
사건	-11.6101
▁갈아입	-11.6101
먹엇는데	-11.6101
▁정한다	-11.6101
하지않아	-11.6102
▁케이크가	-11.6102
신나	-11.6105
원인가	-11.6105
▁주사맞	-11.6105
꼇	-11.6106
사장	-11.6106
..............	-11.6107
꼼	-11.6107
싸다	-11.6107
▁초에	-11.6107
▁리모델링	-11.6107
첸	-11.6107
쓰기	-11.6108
▁로켓	-11.6108
▁세월	-11.6108
▁언젠간	-11.6109
쁨	-11.6109
▁영화보	-11.611
▁악몽	-11.611
▁참기름	-11.611
▁갈비탕	-11.611
▁중식	-11.6111
▁당욘	-11.6111
뺏	-11.6114
▁출산	-11.6115
당연	-11.6115
넼ᄏᄏᄏᄏᄏ	-11.6118
▁떡국	-11.6118
▁얘들아	-11.6118
취향	-11.6122
▁네엥	-11.6124
▁또라이	-11.6124
불편	-11.6125
▁목금	-11.6126
▁F	-11.6126
슬퍼	-11.6126
기야	-11.6127
▁나타나	-11.6128
▁아빠와	-11.6129
▁신기하다고	-11.613
▁밀린	-11.6131
▁할아버지가	-11.6132
▁수제	-11.6132
▁챙겨먹어	-11.6133
손님	-11.6133
▁나왔고	-11.6134
▁게장	-11.6135
▁매워서	-11.6136
▁맛있겠	-11.6137
▁들어갔는데	-11.6139
▁치과에	-11.6139
▁코피	-11.6139
잌ᄏᄏᄏᄏ	-11.6139
먹으면서	-11.6139
햇으면	-11.6141
▁누워잇	-11.6143
▁쓸데없는	-11.6143
깊	-11.6145
▁지인과	-11.6146
▁확실	-11.6146
▁O	-11.6147
▁외워	-11.6148
▁마시러	-11.6148
▁부족해서	-11.6149
이니깐	-11.615
▁꺼지	-11.615
아푸	-11.615
▁삼촌이	-11.6152
깤ᄏᄏᄏ	-11.6152
▁어따	-11.6154
▁수제비	-11.6154
▁펄	-11.6156
▁목록	-11.6157
▁성형	-11.6158
▁쓰레기통	-11.6159
▁매물	-11.6159
▁보이면	-11.616
▁되어야	-11.616
▁취급	-11.616
다음	-11.6164
때문인가	-11.6165
트로	-11.6165
▁건조해서	-11.6166
▁찾았어	-11.6166
▁죽고	-11.6166
▁오셨	-11.6168
▁이야기했다	-11.6168
~!~!~!	-11.6169
▁경험을	-11.617
맛있겠다	-11.6171
그랬는데	-11.6172
▁웅앵	-11.6172
▁아주머니	-11.6172
줘라	-11.6174
▁R	-11.6177
▁반이	-11.6177
▁악마	-11.6177
웃곀	-11.6178
▁뭐하는	-11.6178
▁재미없어	-11.6178
거같긴	-11.618
▁기분좋	-11.6181
▁타구	-11.6181
▁품절이라	-11.6182
▁예매해	-11.6183
이었다고	-11.6184
▁커피는	-11.6185
▁못살	-11.6185
믹	-11.6186
▁땡기는	-11.6187
주셨	-11.6188
▁갔고	-11.6188
브라	-11.6188
▁못하면	-11.6189
▁안옴	-11.6189
▁험	-11.6189
아프고	-11.6191
떳	-11.6194
▁머리감	-11.6194
자금	-11.6195
공주	-11.6195
▁난리나	-11.6196
•••	-11.6197
쥼	-11.6197
▁스위스	-11.6197
▁설렌다	-11.6197
▁상무님	-11.6197
▁예쁨	-11.6198
▁요샌	-11.6198
▁중국인	-11.6198
▁밑에서	-11.6198
▁체크인	-11.6199
▁본인의	-11.62
▁인간이	-11.6201
▁당뇨	-11.6201
▁올려주	-11.6201
만든	-11.6202
▁이메일	-11.6204
▁에효	-11.6204
▁골반	-11.6204
짜장	-11.6205
블랙	-11.6205
▁거다	-11.6205
때려	-11.6206
▁재입고	-11.6206
엿음	-11.6206
▁발리	-11.6207
▁홈쇼핑	-11.6208
▁가능성이	-11.6209
▁괜찮겠지	-11.6209
먹었지	-11.6209
▁놀려	-11.621
▁중요하지	-11.621
▁열받아	-11.6211
▁개잘	-11.6211
봉투	-11.6212
긴했어	-11.6212
▁보긴	-11.6213
일어났	-11.6213
시라고	-11.6214
▁아닠ᄏᄏᄏᄏ	-11.6215
▁주민	-11.6216
▁받으라고	-11.6217
▁가난	-11.6218
햌ᄏᄏᄏ	-11.6219
▁점심먹	-11.622
▁티켓팅을	-11.6222
at	-11.6223
사용	-11.6223
▁고집	-11.6224
▁아냥	-11.6226
▁선물해	-11.6226
공사	-11.6227
엌ᄏ	-11.6227
▁숙소는	-11.6229
시꺼	-11.6229
네ᄏᄏᄏ	-11.6229
▁바부	-11.623
▁우리학교	-11.623
장애	-11.6232
하면돼	-11.6233
▁된다면	-11.6235
▁났어	-11.6236
해야할	-11.6239
▁아이폰은	-11.6239
▁2500	-11.6239
▁다리에	-11.6241
▁얇아	-11.6244
어어어	-11.6244
▁확실하	-11.6245
▁월급날	-11.6246
▁남주	-11.6246
지않게	-11.6249
▁찼	-11.6249
▁좁은	-11.6251
▁쫌만	-11.6252
▁붙는	-11.6252
▁자도	-11.6253
갘ᄏᄏᄏᄏ	-11.6253
오기	-11.6255
조심해	-11.6257
▁임시	-11.6257
▁가을에	-11.6258
꺼라	-11.6259
▁안들고	-11.626
▁쪽이	-11.6264
부럽다	-11.6264
한적	-11.6266
??!!	-11.6267
▁못본	-11.6267
▁놔두	-11.6267
▁회를	-11.6267
래여	-11.6269
▁사용해	-11.6269
▁흐엉	-11.627
하기전에	-11.627
이이이	-11.6271
▁발로	-11.6272
죽을	-11.6274
▁시집	-11.6274
고구마	-11.6275
기싫어	-11.6275
▁아니었	-11.6282
났네	-11.6286
란말	-11.6286
판에	-11.6286
앰	-11.6287
▁놀이기구	-11.6287
맣	-11.6287
쀼	-11.6287
쮸	-11.6287
▁킹덤	-11.6287
▁범죄	-11.6287
▁가벼워	-11.6287
▁울리	-11.6288
▁코디	-11.6288
▁재발급	-11.6288
▁손바닥	-11.6289
머지	-11.6289
▁답답하다	-11.629
▁거기까지	-11.6291
네ᅮᅮ	-11.6292
플레이	-11.6292
뜰	-11.6293
분꺼	-11.6293
안되는	-11.6294
▁앉아잇	-11.6294
괜춘	-11.6296
▁잘챙겨	-11.6296
▁무한리필	-11.6296
만원이야	-11.6299
▁이전에	-11.63
있는건	-11.63
월욜	-11.6301
▁손절	-11.6301
▁왓는데	-11.6301
▁잇자나	-11.6304
▁뜻이	-11.6305
땜	-11.6305
▁나을지	-11.6306
28	-11.6307
▁다가오	-11.6307
▁신경써	-11.6307
▁아라써	-11.6307
▁지적	-11.6308
▁쓰자	-11.6308
▁껍데기	-11.6311
▁요약	-11.6314
▁주말엔	-11.6315
▁색으로	-11.6315
▁덤	-11.6317
▁그정돈	-11.6317
▁생각했다	-11.6318
▁찾아볼	-11.6318
▁갤	-11.6319
▁패턴	-11.632
왔오	-11.632
▁먹었엉	-11.6321
▁ᄏᄏᄏᄏᄏᄏᄏᄏᄏ아	-11.6321
▁심심하면	-11.6321
▁환자가	-11.6322
믄데	-11.6323
▁너구리	-11.6323
▁않기로	-11.6323
거아니냐	-11.6323
나봥	-11.6324
▁순수	-11.6324
센스	-11.6325
▁할텐데	-11.6325
▁지하에	-11.6326
메이트	-11.6326
축하	-11.6327
▁화장실을	-11.6328
▁무서	-11.6329
기회	-11.633
▁그그	-11.6331
▁웃긴게	-11.6331
할줄	-11.6332
▁이것만	-11.6333
머리가	-11.6334
고민중	-11.6334
유로	-11.6339
친거	-11.634
▁미역	-11.634
▁사양	-11.6343
▁수액	-11.6344
▁낄	-11.6345
고추	-11.6347
적이야	-11.6348
▁기사가	-11.6348
▁배워서	-11.6348
▁그러던데	-11.6349
▁쉬는시간	-11.6351
▁붙이는	-11.6352
▁드라이기	-11.6352
떤	-11.6355
회의	-11.6357
▁받아주	-11.6357
▁되는거야	-11.6358
ᄅᄅ	-11.636
관계	-11.636
▁천안에	-11.6364
사는거	-11.6365
하늘	-11.6365
▁가려구	-11.6366
▁망햇	-11.6366
▁배아파	-11.6367
2000	-11.6367
▁남을	-11.6367
▁풀리면	-11.6367
▁다운받	-11.6368
▁문정	-11.6369
그르	-11.6369
▁생각남	-11.6371
▁않네	-11.6372
▁성수기	-11.6374
▁않겠	-11.6375
▁날씨는	-11.6376
쿄	-11.6377
죤	-11.6377
▁어마어마	-11.6378
▁누룽지	-11.6378
▁피크닉	-11.6378
▁호다닥	-11.6378
▁아무때나	-11.6378
▁아퍼	-11.6378
▁부담스러워	-11.6379
▁샤이니	-11.6379
해봐야	-11.6379
정해	-11.6382
▁백숙	-11.6382
지는데	-11.6384
▁사람들이랑	-11.6384
칼퇴	-11.6385
▁가야하는데	-11.6385
섞	-11.6387
▁ᄏᄏᄏᄏ나도	-11.6389
▁올려야	-11.6389
▁맘에드는	-11.639
눈치	-11.639
버리는	-11.6393
▁아쉬워한다	-11.6397
▁다녀왔는데	-11.6397
▁써봐	-11.6397
▁결혼할	-11.6397
▁보자마자	-11.6397
▁먹을꺼	-11.6398
▁스파오	-11.6399
▁이용하	-11.6399
▁아이디를	-11.64
▁벤	-11.64
▁선물은	-11.64
▁틀리	-11.6401
▁이쁠	-11.6402
▁사야해	-11.6402
▁발레	-11.6402
▁도수	-11.6405
▁값이	-11.6405
▁아니얌	-11.6405
▁물어보며	-11.6406
▁대단하다고	-11.6409
▁범인	-11.641
▁못했다고	-11.641
분들	-11.6411
▁찾아봤	-11.6412
▁냥이	-11.6413
▁끝나구	-11.6415
이불	-11.6416
▁안보내	-11.6416
▁못갈	-11.6417
더라궁	-11.6417
▁속에	-11.6419
올랐	-11.642
팠	-11.642
끓	-11.642
▁삼겹	-11.642
해줬어	-11.6421
▁점수가	-11.6422
시에서	-11.6423
▁입주	-11.6424
구이	-11.6425
▁기준으로	-11.6425
▁입어서	-11.6425
▁시려	-11.6426
▁온몸이	-11.6426
▁삶이	-11.6426
셨나	-11.6426
▁주문했는데	-11.6427
▁햇더니	-11.6427
곸	-11.6428
▁생일을	-11.6432
▁결정했다	-11.6432
▁어르신들	-11.6432
▁무슨말	-11.6433
▁티를	-11.6433
했당	-11.6434
부를	-11.6434
남았어	-11.6435
▁오랜만이	-11.6435
▁보내준다고	-11.6436
타운	-11.6437
▁링크를	-11.6437
▁아니거든	-11.644
가는길	-11.6441
▁쓸수있	-11.6442
▁무늬	-11.6443
▁이뿐	-11.6444
▁하모	-11.6445
▁하루는	-11.6446
설마	-11.6446
만원이래	-11.6447
▁놀러와	-11.6449
▁커피가	-11.645
▁가셨	-11.6451
▁나오더라	-11.6451
▁고양이들	-11.6451
▁싫었	-11.6451
급은	-11.6451
▁불어서	-11.6451
할것같아	-11.6451
▁이백	-11.6453
▁역에서	-11.6453
갈꺼야	-11.6454
▁한적	-11.6454
35	-11.6455
했냐고	-11.6456
아까워	-11.6456
▁사라졌	-11.6459
▁피지	-11.646
▁자기랑	-11.646
▁웃는	-11.6461
▁넣으	-11.6462
▁몇백	-11.6462
식품	-11.6463
▁차고	-11.6464
▁ᅳᅮ	-11.6465
동은	-11.6465
갇	-11.6469
▁사줘야	-11.6469
▁군것질	-11.6469
▁근로장려금	-11.6469
▁칵테일	-11.6469
밨	-11.6469
▁카트라이더	-11.6469
▁어지럽	-11.647
시포	-11.647
▁손잡이	-11.647
ᄐᄏᄏ	-11.647
ing	-11.647
▁커피도	-11.6471
▁특별한	-11.6472
▁달라지	-11.6474
▁밥솥	-11.6475
▁너무하네	-11.6475
▁말랐	-11.6475
▁빈티지	-11.6476
내로	-11.6478
해야될	-11.6478
▁꺼내서	-11.6478
분뒤에	-11.6478
▁터져	-11.6478
▁노려	-11.6478
▁놀기로	-11.6479
얄	-11.6479
▁걸렸다	-11.6479
▁위염	-11.648
ᅮᅲᅲ	-11.648
▁백만	-11.6481
▁방귀	-11.6482
▁유료	-11.6483
받는거	-11.6485
▁올영	-11.6485
▁문서	-11.6486
들아	-11.6486
▁약먹	-11.6487
랴고	-11.6488
▁먹을수	-11.6488
있거든	-11.6488
▁구런	-11.6489
아쉽	-11.649
뻐	-11.6491
도ᅣ	-11.6492
같어	-11.6493
▁불편하다	-11.6496
▁무슨맛	-11.6496
▁치매	-11.6496
▁가족들이	-11.6498
▁바꾸려고	-11.6499
▁신문	-11.6499
▁결과를	-11.65
▁들어왔어	-11.65
시켯	-11.6502
적은	-11.6503
▁존잘	-11.6503
▁머리아파	-11.6503
소설	-11.6505
▁삶의	-11.6505
노답	-11.6505
▁은행에	-11.6507
▁알겠음	-11.6508
▁없었다고	-11.6509
▁오려고	-11.651
하든	-11.651
▁포장해서	-11.6511
▁사람이라	-11.6511
▁여섯시에	-11.6511
▁좋겠는데	-11.6514
교회	-11.6514
▁가고싶은	-11.6516
그린	-11.6516
잘라	-11.6516
▁수도권	-11.6516
▁입으	-11.6517
▁발에	-11.6517
▁없니	-11.652
▁약도	-11.6521
▁웃긴다	-11.6521
▁마셨다	-11.6521
▁해봐야지	-11.6521
▁뮬	-11.6524
▁갓는데	-11.6524
▁이민	-11.6525
▁무리하지	-11.6528
▁구매해	-11.6529
▁w	-11.653
힘드	-11.6531
드니	-11.6534
▁강남역	-11.6535
동으로	-11.6535
줄알았어	-11.6539
어ᅲ	-11.6539
▁설날	-11.6541
▁보수	-11.6541
▁어울려	-11.6542
▁재밌었어	-11.6543
▁지문	-11.6543
▁기관	-11.6543
▁말투가	-11.6544
▁출근해야	-11.6545
▁어른들	-11.6545
힘들다	-11.6547
년을	-11.6547
▁어떤게	-11.6547
습니까	-11.655
▁공유기	-11.6551
▁덥지	-11.6552
했습니다	-11.6553
▁살림	-11.6553
말한	-11.6553
▁촌	-11.6553
▁이루	-11.6554
00	-11.6555
야쥐	-11.6555
▁놓치	-11.6557
입어야	-11.6559
쥰	-11.6562
▁횟집	-11.6562
▁특유의	-11.6562
▁슬펐	-11.6562
봤네	-11.6562
▁가르치	-11.6563
▁교통사고	-11.6563
겼는데	-11.6563
▁포켓	-11.6563
▁몬스터	-11.6563
▁나눠주	-11.6566
▁기억이안나	-11.6566
▁그런가보다	-11.6566
▁싸워	-11.6567
거림	-11.6568
▁여우	-11.6569
▁앞자리	-11.657
▁촉	-11.6572
▁살찐	-11.6573
▁책도	-11.6574
▁있을게	-11.6574
주는게	-11.6574
불쌍	-11.6576
해봐야지	-11.6576
존잼	-11.6576
▁앞뒤	-11.6577
▁젓가락	-11.6577
▁상태로	-11.6577
▁있더라고	-11.6578
▁일해야	-11.6579
▁확률	-11.6581
한건가	-11.6585
ᄏᄏᄀᄀ	-11.6585
▁증명서	-11.6586
,,,,,,,	-11.6587
▁예쁘지	-11.6587
빠짐	-11.6588
▁예민하	-11.6589
▁다른사람들	-11.6589
▁대창	-11.659
▁들어본	-11.659
▁날씬	-11.659
▁영상이	-11.6591
졋다	-11.6596
▁올래	-11.6597
▁아낰ᄏᄏ	-11.66
주사	-11.6601
▁종료	-11.6601
올린	-11.6602
▁쩌네	-11.6604
셨네	-11.6605
배달	-11.6605
▁몇십	-11.6605
▁까먹었	-11.6606
서류	-11.6607
▁커트	-11.6609
▁4000	-11.6609
▁썬	-11.6609
▁태그	-11.661
가능한	-11.6612
▁적금을	-11.6612
▁아앗	-11.6613
▁N	-11.6614
le	-11.6615
▁느린	-11.6615
▁학습	-11.6616
▁쌍수	-11.6616
공단	-11.6621
▁달고나	-11.6623
해죠	-11.6624
▁75	-11.6624
있구	-11.6625
▁와라	-11.6626
▁부르면	-11.6633
▁그때부터	-11.6634
참치	-11.6636
▁일찍일어나	-11.6637
원이라	-11.6638
▁그떄	-11.6639
▁ᄏᄒ	-11.664
▁그라	-11.6642
▁먹었지만	-11.6642
▁여자는	-11.6643
다잉	-11.6643
▁생각하니까	-11.6643
▁문제집	-11.6644
받은거	-11.6645
▁싸인	-11.6647
▁썼다고	-11.6649
나유	-11.6651
첩	-11.6652
년대	-11.6653
▁사회적	-11.6654
▁귀여우	-11.6654
▁기저귀	-11.6655
▁애니메이션	-11.6655
쥔	-11.6655
▁트레이닝	-11.6655
▁미끄러	-11.6655
▁멈춰	-11.6656
쳐도	-11.6656
▁회원가입	-11.6656
▁탑텐	-11.6656
▁그것이	-11.6656
▁보드게임	-11.6656
▁감자튀김	-11.6657
시켜먹	-11.6659
▁요즘에는	-11.666
▁했는디	-11.666
▁약사	-11.6662
▁월차	-11.6662
▁열리	-11.6662
▁의식	-11.6662
웨어	-11.6662
바야지	-11.6663
▁휴우	-11.6663
라미	-11.6663
▁태연	-11.6664
하구만	-11.6665
▁알겠습니다	-11.6665
▁부들부들	-11.6666
▁이야기가	-11.6666
빅	-11.6667
뻥	-11.6667
돈까스	-11.6668
▁사랑하는	-11.6668
▁마중	-11.6668
▁인터넷이	-11.6669
▁정해야	-11.6669
년만	-11.667
▁화목	-11.667
▁먹겠다	-11.6671
▁벙	-11.6672
▁초과	-11.6672
▁멀티	-11.6672
있는곳	-11.6672
▁질질	-11.6672
▁백만원	-11.6673
▁팬들이	-11.6675
천에	-11.6676
▁베이	-11.668
▁있으며	-11.6681
십분	-11.6682
▁다르네	-11.6683
▁찾았는데	-11.6683
▁있을걸	-11.6683
▁ᄏᄏᄏᄏ아니	-11.6684
▁알면서	-11.6685
스럽게	-11.6686
주택	-11.6686
마늘	-11.6687
▁하차	-11.6688
되징	-11.6689
▁조금이라도	-11.6689
▁하지말고	-11.669
▁정작	-11.6691
▁기다린다	-11.6691
▁미치겠다	-11.6693
▁그쪽으로	-11.6695
▁같은뎅	-11.6696
▁시작해	-11.6699
▁번만	-11.6699
▁애는	-11.6699
물어봤	-11.67
논거	-11.67
▁좋으니까	-11.6701
는뎈ᄏᄏ	-11.6701
▁물어보려고	-11.6701
▁봄에	-11.6701
▁한옥	-11.6702
켰	-11.6702
▁결말	-11.6703
갈꺼	-11.6703
해보라고	-11.6703
▁판매하는	-11.6705
▁반까지	-11.6706
▁결혼한	-11.6709
갔음	-11.6709
▁잠들었	-11.671
함ᄏᄏᄏ	-11.6711
▁그집	-11.6711
▁개시	-11.6711
팔리	-11.6711
닼	-11.6712
▁날인데	-11.6712
▁심각해	-11.6712
▁접시	-11.6712
겠고	-11.6713
▁딸은	-11.6714
▁끝나는데	-11.6715
줄알앗	-11.6719
▁부분을	-11.6719
번에	-11.6721
▁헐ᄏᄏᄏᄏᄏ	-11.6721
쩐다	-11.6722
▁미안해서	-11.6722
▁검색해보	-11.6723
▁지르	-11.6724
▁대본	-11.6724
▁별로안	-11.6726
▁권하고	-11.6726
▁사다줘	-11.6726
잇던데	-11.6727
▁구할	-11.6727
ᄉ어	-11.6729
아니여	-11.6729
▁가나	-11.6733
▁낼도	-11.6733
▁ᄏᄀᄏ	-11.6735
지않앗	-11.6736
▁들어간다고	-11.6737
▁비행기가	-11.6737
▁생일날	-11.6738
▁원장님이	-11.6738
거아님	-11.6739
거같으	-11.6741
귀찮아	-11.6742
▁옮기는	-11.6742
▁배도	-11.6745
▁그지같	-11.6745
▁다운받아	-11.6746
▁그니까요	-11.6747
알앗	-11.6748
원이면	-11.6748
▁전해	-11.6749
슝	-11.675
▁왁싱	-11.675
퀄	-11.675
▁미숫가루	-11.675
▁안타까워	-11.675
젱	-11.675
▁냅둬	-11.675
해야해서	-11.6751
▁잡으면	-11.6752
▁부엌	-11.6753
거가튼데	-11.6754
▁괜찮아지	-11.6754
▁실력이	-11.6755
▁어둡	-11.6756
싸고	-11.6757
▁볼수	-11.6757
▁않기	-11.6759
▁앙앙	-11.6759
▁판매자	-11.676
터질	-11.676
일만	-11.6761
▁애니	-11.6761
▁빼빼로	-11.6764
보호	-11.6765
▁맞출	-11.6765
▁유전	-11.6765
▁좋긴한데	-11.6766
▁먹었나	-11.6767
만원만	-11.6767
어려	-11.6769
▁착해	-11.6769
해도되	-11.677
▁됐지	-11.677
▁뱀	-11.6771
▁당기	-11.6772
▁월요일부터	-11.6773
▁하우스	-11.6773
▁국물이	-11.6774
▁없는디	-11.6775
형은	-11.6775
▁먹어보고싶	-11.6776
▁우는	-11.6776
날때	-11.6776
▁세명	-11.6777
▁바뀜	-11.6779
▁직원들이	-11.6779
만하다	-11.678
밥을	-11.678
▁순삭	-11.6781
▁바르면	-11.6781
파크	-11.6782
▁나갔는데	-11.6782
▁안떠	-11.6784
▁섞어서	-11.6784
▁나쁘	-11.6784
▁승인	-11.6785
▁구멍이	-11.6786
▁지름	-11.6786
▁훈련	-11.6786
▁부족하	-11.6787
▁냄	-11.6788
▁아앙	-11.6788
▁업무를	-11.6789
▁고민되네	-11.6789
▁드립	-11.6789
▁나근데	-11.6789
...???	-11.6789
밀리	-11.6793
▁마즘	-11.6795
줄거	-11.6796
짘ᄏᄏᄏᄏᄏ	-11.6798
으세요	-11.6799
▁적고	-11.68
▁머니	-11.6801
맛이야	-11.6802
▁간지러	-11.6803
▁두끼	-11.6803
꺼내	-11.6804
▁데워	-11.6805
▁타려고	-11.6806
▁가기전에	-11.6807
▁시켜먹어	-11.6809
▁해여	-11.6809
▁가자마자	-11.681
▁웃기지	-11.681
▁헹	-11.681
말은	-11.681
▁영화관에서	-11.6811
▁나왔으면	-11.6811
모르고	-11.6811
▁빠를	-11.6812
▁병원가서	-11.6812
구해	-11.6812
것인가	-11.6813
▁이대로	-11.6813
▁오늘따라	-11.6815
▁비슷한거	-11.6816
▁어플을	-11.6816
▁렌즈를	-11.6817
오세요	-11.6819
▁아침을	-11.6819
▁하고싶은데	-11.6819
▁캠	-11.6819
들어갈	-11.682
▁길에서	-11.682
되는게	-11.6821
▁온라인으로	-11.6821
▁지퍼	-11.6821
낫지	-11.6822
▁들었다고	-11.6822
살면	-11.6822
놓으라고	-11.6824
▁흐리	-11.6826
환자	-11.6826
만남	-11.6826
잇다가	-11.6828
▁귀여웠	-11.683
ᅲᅲᅲᅲᅲᅲᅲᅲᅲᅲᅲᅲ	-11.683
▁알아보는	-11.683
니트	-11.6833
하도록	-11.6833
▁높게	-11.6834
▁알뜰	-11.6836
▁멈	-11.6836
ᄊ어	-11.6837
▁우리한테	-11.6837
▁방어	-11.6838
▁이럴때	-11.6839
히면	-11.684
▁밑으로	-11.6841
원이다	-11.6844
▁도미노	-11.6845
▁실리콘	-11.6845
▁자존감	-11.6845
▁콘센트	-11.6845
▁중간중간	-11.6846
▁플리스	-11.6846
▁자취방	-11.6846
▁씨제이	-11.6846
▁깔깔	-11.6846
▁도둑	-11.6846
가없어	-11.6848
▁안되니까	-11.6848
▁직거래	-11.6848
있어도	-11.6849
먹어봐	-11.6849
▁반전	-11.685
▁투잡	-11.6851
▁볼펜	-11.6851
▁베이비	-11.6853
▁속은	-11.6853
웃음	-11.6854
▁가는길에	-11.6855
▁일욜날	-11.6856
▁처음이라	-11.6857
쇠	-11.6857
물에	-11.6857
▁부럽네	-11.6857
실에서	-11.6857
팁	-11.6858
얇	-11.6859
뺄	-11.6859
편의점	-11.6859
왤케	-11.686
▁씹어	-11.686
▁미안한데	-11.6861
▁정하	-11.6863
▁첨들어	-11.6863
플라	-11.6864
▁글자	-11.6865
▁이야기하다가	-11.6866
▁신났	-11.6866
▁앞으로는	-11.6867
▁뽐뿌	-11.6868
▁기차를	-11.6868
▁돌아올	-11.6868
으먄	-11.6869
▁느끼고	-11.6869
는거면	-11.6869
▁사이즈는	-11.6869
▁구매하기	-11.687
▁상태에서	-11.687
▁단식	-11.6871
▁갑분	-11.6871
▁한편	-11.6871
▁보냈다고	-11.6872
▁들어가기	-11.6872
▁드라마에	-11.6873
▁다행쓰	-11.6874
▁목살	-11.6875
▁토요일은	-11.6875
몇개	-11.6876
▁마을버스	-11.6877
?!?!?!	-11.6878
▁공부하면	-11.6878
▁콜라보	-11.6878
▁타코	-11.6878
▁형님	-11.6881
숙소	-11.6882
▁다이아	-11.6883
▁찬물	-11.6884
입니당	-11.6884
▁어디여	-11.6885
▁달글	-11.6885
▁여자친구가	-11.6886
▁너에게	-11.6887
▁질렀	-11.6887
▁구입한	-11.6888
▁취소해	-11.6888
▁메리	-11.6888
▁만났는데	-11.6888
▁십마넌	-11.6889
▁안읽	-11.6889
▁친구들한테	-11.6889
▁힘들지만	-11.6889
▁좀이따	-11.6889
일차	-11.6889
▁눈알	-11.6891
곳도	-11.6891
워크	-11.6891
▁ᄋᄋᄋᄋᄋᄋ	-11.6891
▁집중해서	-11.6892
▁건강이	-11.6893
잌ᄏᄏᄏ	-11.6893
▁1,2	-11.6893
드려야	-11.6894
▁스틱	-11.6895
나니까	-11.6896
세포	-11.6896
하당	-11.6896
뭐여	-11.6898
이라두	-11.6898
용ᄏᄏᄏ	-11.6898
안들어	-11.6899
▁다행인	-11.6899
▁능력이	-11.69
▁눈은	-11.69
없엉	-11.6901
불이	-11.6903
언니는	-11.6904
▁주말에는	-11.6905
▁물어보라고	-11.6905
민호	-11.6905
찾아보	-11.6908
▁보던	-11.6912
넼ᄏᄏᄏᄏᄏᄏ	-11.6914
안되면	-11.6914
▁퇴근했	-11.6914
직전	-11.6916
거가태	-11.6916
댔는데	-11.6917
▁보시	-11.6919
먼데	-11.692
▁늙은	-11.692
지말까	-11.692
▁일할때	-11.692
힘든	-11.6921
▁찾아보니	-11.6921
▁물려	-11.6921
▁낫지않	-11.6922
▁밥묵	-11.6925
▁시작할	-11.6925
▁물어볼까	-11.6925
▁맛집을	-11.6926
▁H	-11.6926
▁속상하다	-11.6928
▁가던	-11.693
▁작업을	-11.693
▁얄	-11.6931
떨어져	-11.6932
▁다르고	-11.6933
해야하는	-11.6935
▁집갈때	-11.6935
▁호텔에	-11.6936
▁뭔소리	-11.6937
▁너무좋아	-11.6937
함ᄏᄏᄏᄏ	-11.6939
▁이어폰을	-11.6939
▁받게	-11.6939
▁로맨스	-11.6941
▁오버워치	-11.6941
▁폼롤러	-11.6941
켘	-11.6941
▁CGV	-11.6941
▁비빔국수	-11.6941
▁따져	-11.6942
▁긍게	-11.6942
▁멤버십	-11.6942
▁안하는데	-11.6943
▁무료배송	-11.6943
▁관절	-11.6945
▁ᄏᄏᄏ아니	-11.6946
업무	-11.6947
▁끝에	-11.6947
▁곤약	-11.6947
▁소풍	-11.6947
▁팍	-11.6948
▁오겠다고	-11.695
과정	-11.6951
▁버블	-11.6951
▁넉넉하게	-11.6952
▁역시나	-11.6952
줄은	-11.6952
▁못알아	-11.6952
닭발	-11.6953
▁말자	-11.6954
▁디자이너	-11.6955
▁길드	-11.6955
H	-11.6956
▁하드라	-11.6956
▁폼	-11.6958
▁간이	-11.6959
▁고프다	-11.696
▁숟가락	-11.696
▁상담을	-11.6961
▁컴터로	-11.6961
시간도	-11.6963
스토리	-11.6963
을꺼야	-11.6965
▁매매	-11.6965
▁리조트	-11.6966
거같더라	-11.6966
▁둘러	-11.6966
애서	-11.6968
▁날개	-11.6969
야될듯	-11.697
끝남	-11.6971
▁대전에서	-11.6973
배민	-11.6973
▁체한	-11.6974
▁도전해보	-11.6974
▁응웅	-11.6975
▁연습을	-11.6975
▁싫지만	-11.6975
▁저정도면	-11.6976
▁말랑	-11.6977
야한대	-11.6979
▁평화	-11.698
뿐이라	-11.698
▁하루를	-11.6981
▁무인	-11.6982
야하지	-11.6982
▁펫	-11.6984
▁하나봐	-11.6985
▁가격대	-11.6985
▁여행이	-11.6985
걸려서	-11.6987
해놧	-11.699
▁만오천원	-11.6991
▁이브	-11.6992
▁역전	-11.6993
▁주문하면	-11.6993
▁안와서	-11.6994
잇엇는데	-11.6994
▁잃어버렸	-11.6998
▁전화하면	-11.6998
▁안열	-11.6998
▁아미친	-11.6999
▁것이니	-11.7002
▁옮기고	-11.7002
▁동생한테	-11.7002
▁아줌마들	-11.7002
▁동물의	-11.7003
▁가져가라고	-11.7005
가튼	-11.7006
▁잘됐	-11.7006
어디야	-11.7007
▁칭찬해	-11.7009
▁좋은듯	-11.7013
▁전신	-11.7013
대학	-11.7015
▁물었다	-11.7017
달까	-11.7019
▁커리	-11.7019
▁다먹고	-11.702
▁두껍	-11.7022
▁시간과	-11.7023
▁확인해봐	-11.7024
▁원작	-11.7025
▁에어컨이	-11.7028
자르	-11.7028
겼다	-11.7029
▁소름돋	-11.7031
다녓	-11.7031
▁햐	-11.7032
아아앙	-11.7032
▁부장님이	-11.7033
▁누워있다	-11.7033
되더라	-11.7036
보였	-11.7037
보시오	-11.7038
륙	-11.7038
밬	-11.7038
▁부드러운	-11.7038
▁경쟁률	-11.7039
▁함부로	-11.7039
▁안녕하세요	-11.7039
▁이러는데	-11.7039
▁건전지	-11.7039
▁신뢰	-11.704
▁만화책	-11.704
▁맞은편	-11.7041
▁연예인들	-11.7044
▁일해서	-11.7044
▁내거	-11.7045
▁선호	-11.7046
▁보여달라고	-11.7047
▁ᄀᄃ	-11.7048
자야지	-11.7048
▁양말을	-11.7048
▁실감	-11.7049
흐흐	-11.705
▁잠자	-11.705
▁사천	-11.705
▁등교	-11.7051
드릴게요	-11.7052
▁문제지	-11.7052
할때마다	-11.7053
갓다왓	-11.7053
▁임대	-11.7054
▁굶어	-11.7055
▁심즈	-11.7056
▁똑똑하	-11.7057
몰랏	-11.7057
▁한명은	-11.7057
▁소방	-11.7058
▁알려줬	-11.7058
채워	-11.7059
▁미스트	-11.7059
▁쏘리	-11.7059
응께	-11.7059
▁일박	-11.706
▁아무나	-11.7061
맞았	-11.7062
월드	-11.7063
[...]
