[PAD]
[UNK]
[CLS]
[SEP]
[MASK]
이
다
고
는
가
아
하
어
서
에
나
지
?
그
데
도
거
기
한
니
해
라
야
.
을
사
오
자
면
!
로
리
있
은
안
게
시
보
만
일
마
먹
으
대
까
내
인
들
구
주
스
요
를
래
같
무
네
제
진
수
여
했
려
말
너
것
근
없
부
더
원
러
음
정
전
우
저
금
할
생
바
좋
겠
장
간
비
짜
었
때
와
되
집
잘
랑
치
드
알
개
의
상
건
모
늘
미
트
신
난
화
응
소
중
번
못
많
싶
디
동
봐
람
뭐
물
냐
두
웅
언
엄
맛
런
조
터
걸
심
르
차
날
분
카
버
방
당
갈
왜
피
맞
머
문
워
배
세
달
타
유
히
각
공
과
운
실
좀
연
빠
않
예
살
럼
크
단
입
직
냥
받
던
파
계
았
남
식
애
친
올
용
(
줄
)
긴
행
님
며
렇
약
노
청
프
테
매
잇
산
밥
^
듯
영
쓰
울
국
적
점
감
회
른
재
왔
발
임
돈
키
얼
반
따
선
겨
월
천
학
함
속
준
져
케
레
후
티
찮
써
위
괜
본
교
또
든
추
누
성
온
새
코
업
명
호
불
넘
된
귀
싸
루
처
강
양
출
토
헐
0
박
경
갔
느
볼
줘
막
겟
1
작
찍
색
돼
결
길
엉
봤
민
포
편
햇
관
년
눈
혼
힘
통
질
글
끝
꺼
담
열
놀
린
름
빨
체
잠
몰
웃
였
목
역
별
침
초
군
,
증
플
페
폰
김
엇
커
허
브
삼
찾
락
능
씨
잖
돌
필
격
즈
2
쉬
험
갑
메
몇
녁
얘
급
복
림
병
뭔
취
착
술
싫
꾸
놓
확
절
료
넣
등
팔
설
곳
될
완
걍
옷
휴
벌
녀
퇴
옹
습
둘
답
엔
끼
먼
백
잡
즘
외
앞
낼
께
슨
늦
억
손
참
닌
쁘
났
렸
넹
종
태
품
쳐
3
맨
샀
딱
톡
죽
최
력
란
떡
검
택
셔
쪽
책
릴
슬
투
쿠
현
표
밖
충
블
망
졌
징
켜
깐
접
항
럽
패
합
앗
헤
순
흑
5
송
킨
쯤
퍼
랬
평
베
형
럴
궁
찌
떠
큰
빵
움
떨
낌
족
환
빼
석
잔
창
됐
곤
떻
짐
죠
욜
육
골
굴
깨
몸
옴
뒤
뎅
판
존
걱
록
챙
탕
넌
독
씩
혀
딩
붙
엽
잉
봄
왓
탈
엥
앙
겁
밤
낫
텐
볶
풀
졸
줬
닭
랜
밀
떤
듣
틀
변
채
꼬
4
팅
맘
철
염
봉
십
헉
향
꼭
셨
밌
멀
쓸
숙
악
넷
맥
권
쟈
캐
암
류
갓
앜
튼
광
익
째
핑
픈
법
링
짱
왕
뿌
묻
랐
욕
콘
똑
뜨
홍
션
황
씻
찬
옆
놔
쁜
혹
겼
깔
탁
랭
클
닝
론
젤
북
흐
벽
활
됨
싼
축
첨
냉
냄
빡
벅
얌
컴
켓
흠
규
닐
립
뭘
슈
웠
쳤
뽑
칠
앉
6
핸
끔
쩌
줌
뉴
센
읽
덜
봣
푸
탄
쉽
꿀
렌
빌
쇼
칼
낮
낭
액
엌
짝
걔
잼
컨
껴
샤
특
량
딸
땡
랫
팀
득
8
7
섭
슷
9
냈
쥬
풍
희
닥
덕
갖
콜
멋
쩔
꿈
슴
묵
곧
솔
효
텔
섯
견
널
층
굿
잤
롱
끄
큼
튜
첫
몬
뻐
끊
극
큐
s
츠
척
값
꿔
놨
승
갠
쓴
댕
범
땐
팬
렵
곱
꽃
똥
믄
램
춘
뜻
털
낸
웨
춰
엑
엿
춥
촌
쌀
껄
칭
_
좌
싱
높
튀
쥐
쌤
떼
뻔
킹
굳
퓨
겹
킬
삿
랴
련
밑
홀
홈
숨
릭
롯
랏
썼
옥
옛
멍
렴
놈
뿐
젠
깝
닼
찜
>
셈
햄
긍
획
짓
즐
팩
엘
팡
뛰
켰
씀
t
덩
콩
믿
핫
곡
렁
#
탔
쪼
쏘
렷
삭
폭
옮
컵
딴
둥
녹
닫
엠
댜
빈
e
논
념
뎈
롭
+
셀
농
댓
헬
곸
덥
벤
뷰
쌍
벼
짧
<
둔
넼
쟁
겡
깜
땅
a
뮤
랙
맙
땜
힝
샌
쫌
땀
셋
펜
흰
맡
총
흥
탱
눌
딘
푹
c
찰
끌
턴
룸
쟤
컬
델
m
듀
찐
빙
릉
릿
몽
o
뽀
죄
랄
캬
롤
샐
뱅
걷
밋
쪄
럭
i
렀
졋
쩐
쎄
뚜
잊
끓
얔
끈
둬
팟
뀌
잃
쌈
힐
압
폐
닮
짤
혜
령
템
앤
훈
탐
율
납
벗
뜯
벨
낰
멘
폴
혈
넵
붕
융
왤
퀴
p
싯
r
욤
낙
S
왠
눠
뽕
닦
삐
밍
g
뇨
씬
k
힌
픽
짘
z
훨
n
즌
뼈
곰
흘
틱
촉
캔
괴
빔
햐
듬
껀
균
줫
얇
왱
뒷
띠
흔
협
빛
삶
갤
앱
짬
캡
썹
싹
샵
긋
d
깡
%
객
샘
릇
딜
핵
틴
궈
콤
꽤
섴
꾼
넴
씹
넓
T
얻
랍
쳣
춤
꿨
례
닠
탑
헷
뚫
쌓
톱
얍
넉
겻
쭉
쿨
앵
찝
흡
쿤
겸
l
댐
뚝
뚱
떄
낳
턱
곀
긔
썸
뜬
률
녔
덮
b
훔
룩
C
멜
컷
쫄
뷔
탓
즁
웡
빅
먄
끗
##고
##이
##?
##는
##에
##하
##가
##.
##다
##을
##어
##도
##은
##거
##는데
##지
##게
##면
##!
##를
##아
##야
##해
##다고
##나
한다
##로
##에서
##네
##겠
##서
##만
##들
##었
##라고
아니
##기
##자
근데
##보
##으로
##있
오늘
##했
##먹
진짜
##한
##어서
##주
너무
##라
##같
##니
##한다
##되
이야기
사람
##음
##해서
##시
##았
지금
##할
##랑
##)
##으면
##니까
##(
##지만
그냥
##안
우리
##오
##까지
##때
엄마
##싶
##아서
언니
그럼
많이
##듯
##봐
내일
##구
##여
##다가
생각
그거
##없
##긴
##은데
##것
##냐
##인데
##수
##의
##러
이제
##잇
##겟
같이
맛있
##대
그렇
##와
##원
##한테
##던
##려고
시간
해서
##님
##번
괜찮
##면서
##말
그런
##이랑
##인
##일
##부터
##데
아직
그러
그래서
하나
##,
어디
친구
##중
자기
##는지
어제
다른
##더라
##달
이거
그래
모르
##사
##과
##햇
사진
##함
대해
##였
##해야
##좋
##냐고
##두
##적
##보다
##요
##개
##건
다시
##줄
거기
##자고
이번
저녁
##집
##어야
엄청
##임
##에게
##엇
##??
만나
##받
##봤
그래도
##꺼
##않
언제
##며
보내
##!!
##시간
계속
일단
이런
##쓰
응응
전화
##돼
오빠
##아니
다음
빨리
요즘
##케
##더니
##당
여기
##잖아
##써
웅웅
##^^
힘들
바로
고민
##다는
아빠
##날
##인가
##엔
무슨
해야
아침
##이나
머리
##사람
##라서
##분
##던데
##애
나오
##걸
얘기
##다며
##엉
##어요
회사
혼자
원래
공부
만들
##정도
점심
그게
##거든
##바
##쯤
##줘
운동
##좀
##알
갑자기
##더
##구나
그니까
##놓
완전
나가
저거
##을까
도착
별로
연락
##욜
병원
그건
##타
때문
하루
대박
##내
##용
##옹
카페
##따
##으니까
##한데
버스
##어도
##라도
##넹
일찍
다행
그때
##씩
비싸
나중
정도
영화
##라는
그리고
##진짜
##뎅
조금
아냐
##처럼
##맛
##마
##뭐
##으러
그치
퇴근
##까
얼마
##가지
##맞
##군
##죠
##앗
남자
##래
어떻
들어가
##으니
와서
##왔
거의
저번
##잘
뭔가
걱정
이상
##전
필요
오래
맨날
가능
##못
##는다
시험
동생
주말
##많
마음
정말
어떤
출근
느낌
##살
##해도
##곳
재밌
한다고
##된
가격
##한다고
##갈
##디
##남
##인지
커피
알려
##건데
몰라
아님
##입
##징
나왔
##쟈
학교
여행
##는디
##그
처음
##치
##노
##아야
기분
##갔
서울
##될
##하나
코로나
이렇
기억
제일
가지
##년
치킨
##명
마스크
이미
아까
준비
노래
##으
##볼
예약
피곤
벌써
얼굴
##줬
##와서
주문
약간
##비
그런가
##길래
##!!!
귀찮
짜증
오키
##너
문제
아하
아프
##길
##건가
##친구
##월
그럴
시작
추천
이름
이게
마자
여자
선물
##생각
##다니
##진
누가
사고
확인
열심히
##플
##께
날씨
귀엽
##됐
수업
미안
##마다
보여
##셨
##머
대화
##네요
누나
사실
카드
##스
##든
궁금
##구만
먼저
아주
##그래
##니깐
겁나
##아요
##거나
고기
아이
##밖에
##봄
##는다고
##천
마시
##습니다
다니
자리
이러
카톡
##눈
아무
약속
##봐야
누구
일어나
그것
출발
##됨
##랭
##야지
##넌
##삼
아아
혹시
신기
역시
자꾸
생일
##왓
토요일
##또
얼마나
##차
그랬
##왜
어차피
미친
방금
취소
##티
잘못
##텐데
소리
기다리
결제
시에
##져
##났
금요일
##으라고
##나가
마지막
예전
##자마자
신청
##제
##같이
인터넷
할인
시켜
10
저기
##나오
고생
##갓
비슷
게임
##보이
된다고
결혼
음식
미리
새로
##랫
자주
위해
핸드폰
진심
얼른
##근데
##떠
##준
예쁘
##옴
##째
스트레스
##스타
##성
##???
##쪽
##더라고
보이
##찍
##을지
##십
##세요
구매
면접
학원
어때
##이래
대해서
##때문
이쁘
##드
해도
##돈
##감
##어야지
##본
##라며
지하철
조아
가방
부탁
난리
서로
수도
간다고
챙겨
한국
떡볶이
새벽
##겨
라면
된다
정리
##싫
##걸로
##싸
요새
편하
##방
저런
조심
이해
##려면
##낫
아마
##으려고
금방
이따
##대로
사랑
드라마
행복
아닌
똑같
##려
화장실
##낭
##해야지
택배
##찌
^^
가게
##반
##나요
월요일
겨울
##느라
##장
##보내
바꾸
##아냐
##올
##엌
##줄게
##질
##밥
##엿
##많이
가족
##끝
##쥬
##그러
건강
고양이
##넣
사장
담주
일본
상대방
이사
피자
애기
자신
아예
##앙
나온
강아지
부산
오랜만
배달
##넘
나이
배송
교수
여름
##짜리
여보
택시
다르
나와서
웃기
따로
##된다
마니
알바
##해요
근처
##생
##할까
영상
되게
##졌
당연
##믄
사용
세상
##앞
##신
다이어트
##줘서
일요일
##키
무섭
이건
##닼
신경
##냥
최고
운전
##응
선생
편의점
##잡
사이즈
옛날
##모르
바람
##줘야
부럽
##볼까
검색
오오
기대
대단
##합니다
잠깐
##드라
냄새
대신
시키
감사
##쉬
간다
바지
이유
##얌
##라구
불편
##벅
##간
항상
맥주
##잼
무조건
마라
매일
##너무
어렵
찾아보
##백
##끼
월급
문자
##씨
영어
신발
미쳤
###
내년
##아도
어쩔
본인
30
##어여
흑흑
##샀
할머니
##탕
유튜브
개웃
과제
제발
오후
제주도
##화
##색
##지금
##잉
보통
##동안
걸리
##가능
##오늘
그만
상황
##웃겨
청소
그걸
##짜
오전
##유
##려나
##나라
제대로
##루
##느낌
고마워
대충
봐야
##보여
재미있
몰랐
아쉽
##라니
후기
추가
##겡
아녀
##자나
다리
##김
인정
쿠폰
##언니
##으면서
##다구
##군요
중요
##땐
오호
결국
##글
휴가
절대
##사진
동네
중국
가끔
##!!!!
정신
구래
##트
내용
##짐
##테
##느
##셈
구경
##놀
##뎈
##실
호텔
##단
케이크
##랴
##그럼
##놔
##댜
아닌데
그러니까
##버
##주일
##에요
##규
##돼서
##만나
##렷
##곸
##리
##라면
검사
포기
직원
##권
##번호
천천히
중간
아이폰
예정
##랏
아르바이트
이랑
사면
숙소
##봐서
##버리
##혀
들어오
나와
##스럽
##소
저렇
그래야
산책
비싼
##빼
생겼
차라리
##난
##톡
##얘기
알아보
##줌
##후
어쩌
없이
##쥐
유명
동안
감기
물건
##물
##넼
인생
##카드
컴퓨터
설명
##소리
따뜻
프로
##뿐
이것
가져가
##준다고
김치
##온
##슈
아저씨
##팔
티켓
네이버
방법
##갈까
올해
함께
시원
에어컨
##크
당근
직접
배우
##뻔
지인
할지
비행기
우린
여러
##점
바쁘
##져서
##잖
고맙
나갈
##카
##찾
괜히
##둘
##셔서
솔직히
예매
눈치
장난
나올
##딩
수술
보험
피부
취업
##조아
치즈
계란
와우
##피
어떡
##터
보냈
12
이모
##된다고
사기
##는데도
부모
##죽
사이
##업
목요일
일정
##이제
확진
##간다
##이상
노트북
##움
##능
우선
작년
마트
빠르
계획
아파서
##셔
허리
생리
통화
데리
갈까
지원
김밥
암튼
기본
##려구
심심
과자
팀장
##뒤
수요일
##밋
메뉴
초코
맛나
##할지
##그래도
까먹
차이
##값
##은지
##건지
##듣
##들어가
강의
##매
무엇
포장
아닌가
애매
##끼리
상대
##옷
버리
눈물
##여서
침대
##조
지나
누워
##는구나
상관없
##도착
무료
사무실
날짜
##란
다섯
생기
##팅
아닝
가입
##만들
어느
##르
올리
##네여
##형
성공
대한
관리
##다는데
그날
히히
결정
대구
회식
##담
헬스
티비
카카오톡
##꼬
답답
스타
##알바
내말이
##입니다
##그런
치과
##봣
20
배고프
시켰
심하
주식
##빵
온다고
##빠
인사
##비싸
11
돼서
당장
##시키
귀여워
사야
##파
우산
살까
##나와
분위기
거리
신고
그려
번호
##미
##식
세일
##던가
화장
##왕
만드
##시켜
간식
##캐
상태
##폰
선택
##땜
살짝
아무것
우유
##싯
효과
##댕
##세
해야지
##냐며
부르
##궁
맛집
위험
##다면
시반
##그냥
우와
##보단
##마시
##한대
따라
웃겨
##늦
식당
기사
빠지
아항
##프
평일
써야
##홍
대답
##얔
##껄
##그거
교육
##욤
기다려
일어났
##저
##아프
아니야
한데
과장
개월
공유
##만큼
##떡
만날
##더라구
매장
야근
냉장고
패딩
결혼식
##열
부담
##어용
##는겨
저게
고구마
##박
이후
##팟
한테
주변
엉엉
##층
이틀
##우
##답
##탱
도전
부분
키우
아픈
##맛있
##공
##누
올라가
도와
##콘
##링
축하
##오키
내리
불안
굳이
헤헤
##놈
조심히
확실히
퇴사
아이스크림
##튼
우웅
샐러드
할까
##거래
새로운
##카페
##팩
햄버거
##나왔
##했었
##없이
바뀌
요리
##아녀
##꾸
아이패드
##쏘
##뿌
##야겠다
##영
##어디
미국
##앜
여유
##낰
만든
##잔
그대로
봐서
##을래
##도록
재미
연애
매운
만약
##뜨
##병원
가야
##고는
아이디
##봐야지
그나마
##아님
준다고
뭔지
예쁜
개인
후회
##부
바꿔
큰일
스타일
뭔데
##벌
인기
당연히
케이스
##자리
일반
##워
고르
올려
모든
##+
블로그
대학
저렴
느끼
자라
아파
등록
배고파
떨어지
##맘
나갔
기차
돌아가
아파트
포인트
정하
##해라
슬프
어머니
콘서트
##짘
##난다
##까진
토익
무서워
##그렇
충격
맛없
생긴
##삿
평소
결과
##껀
담배
그런지
##엄마
##카톡
남친
염색
##등
##라는데
##다면서
##회사
현금
##힘들
검정
난다
그래두
먼가
맛난
삼겹살
관심
딸기
곱창
당첨
연습
안경
##준비
오케이
성격
이불
부족
##버렸
나쁘
계좌
은행
무리
자체
연차
골라
파스타
자전거
며칠
##햐
딱히
화요일
##은디
이따가
걸로
나름
환불
쇼핑
품절
가장
쿠팡
인천
설마
추석
다이소
##메
심지어
오픈
충전
건데
블랙
수가
달라
아기
메일
##겻
##벅스
입금
멋있
##인디
##잤
##즈
만두
##행
우울
노력
의사
##아빠
그림
대리
졸업
##울
##!!!!!
어떻게
##씀
##????
추워서
소개
##걸리
깔끔
중고
바다
##묵
대체
드디어
도서관
##이거
소스
바르
##쓸
주차
이쁜
디자인
시분
##급
##을걸
##언제
##섴
목소리
##순
롯데
##머리
돼지
힘내
까지
##돌
코트
초밥
##쌤
##쳐
그런데
가을
발표
금액
##종일
사과
이벤트
##혼자
상담
생각나
원에
몰라서
대전
##봐도
점점
추워
##아파
빨래
자르
감자
수영
##한지
##밤
##배
계산
도시락
근무
해결
들어왔
토론
강남
이마트
##아직
##심
거지
써서
##듀
잠시
아깝
책상
오잉
광주
빌려
##지요
##이런
반찬
##쿤
당황
##상
##위
##괜찮
취향
그만두
##그래서
##버려
힘든
샌드위치
???
잠들
##아야지
했었
여긴
##으며
내려가
##뽑
연기
지갑
삼성
공항
나머지
대기
흰색
의자
##읽
자랑
어이없
박스
##몇
모습
귀여운
집중
##웡
그렇게
창문
##별
##겠다
어깨
##생겼
위치
이상한
연어
화가
카카오
나옴
##한가
시즌
학생
정보
##여행
로또
바닥
그니깐
##필요
인간
##대박
##우리
모두
##곀
서류
매우
교회
##선물
##어라
##시작
종류
##슴
##산
과일
은근
마감
구하
수고
원피스
답장
봐도
글구
##준다
왤케
태풍
건지
샤워
##야징
##빡
관련
##동네
##참
##존
##몰라
최대한
##닝
##불
핑크
##억
##공부
어릴
##개월
전부
여섯
배터리
##낼
업무
##엥
##박스
##기간
어떠
##드리
식사
크림
비밀
##다음
##셧
댓글
붙이
주소
각자
카메라
다닐
##나바
일주일
##긔
남편
##브
소름
건물
제품
갈지
합격
##저녁
##예
난다고
##에선
대출
마저
모자
##대서
##편
##팀
##겄
보낸
바보
##댐
##세여
##닠
##센터
그걸로
화이팅
파티
##웃
직장
맞춰
다녀오
##나옴
기간
##지도
##쪄
##신청
유행
계약
갈게
물어봐
설치
참고
##웅
챙기
##봐요
##퍼
아줌마
아무래도
더워서
힘드
##학교
아들
만족
넷플릭스
##오래
해외
##한다는
##얼
이럴
수원
##그랬
간단
##운동
##줄까
지나가
저건
소주
에이
돌리
##얼마
전체
마카롱
적당히
주기
마치
세트
실패
##캬
라고
쓰레기
상상
##바로
##처
질문
##된대
미치
##전화
아무리
연말
대표
실수
##이얌
##쿠
##거리
주사
더워
카레
##벼
싸우
재료
##시험
##닭
체력
치료
##척
비교
브랜드
사지
##럼
##갈게
##모
고고
##덜
##굿
도움
전혀
##역
아닐
현실
크리스마스
##짓
미용실
오바
색깔
쿠키
##이름
속이
원장
알려준다
##니께
물론
##기에
기계
사이트
최근
자격증
어머님
##깨
작업
##융
커플
홍대
##선
음료
##롭
닭발
##보험
##이득
자유
무릎
##땅
거야
##게요
모기
##양
칭찬
##는대
준다
심각
커서
##씻
화장품
##놔야
##쩌
연결
##그램
##일어나
근디
동영상
일부러
연예인
기름
지각
약국
천안
##자는
자연
생활
오히려
소고기
나눠
##영화
구워
##할래
추억
이렇게
방송
물어본다
용돈
##패딩
##코
##냄새
불쌍
##킹
##깡
근육
##부분
스터디
장소
##막
군대
알람
누르
광고
수정
평생
적금
자서
##풀
##곤
스티커
미니
##무
##즁
졸리
회의
##는가
꺼내
애인
슬슬
신나
##퇴
이용
예상
노노
##준대
포함
급하
위해서
의미
##다던데
##갈래
##봉
소화
##구먼
가야지
테니
피부과
##재
##문제
##지나
##깤
당신
##룸
만났
##으시
공짜
감동
별루
이래서
##나온
눈썹
말씀
들어갔
##썼
자동
##작
제출
##수업
미세먼지
##노래
경험
체크
온다
나라
시장
오지
##히
허허허
이모티콘
통장
##제도
개꿀
맞춰서
애플
막상
15
##렴
어른
렌즈
##치킨
나왓
##통
프로그램
와인
##빨리
외국
##픈
지역
인증
프로필
50
노래방
##먄
이래
훨씬
##가요
거긴
거짓말
##옆
니트
분에
당일
##더라도
이것저것
##끝나
##어때
생겨서
공기
맞추
접수
표정
##오빠
제주
앞머리
##다시
원이
방학
국물
##랔
##마니
##엄청
사회
##다니까
무시
레알
##듯이
##남친
목표
동물
야채
##놨
##욥
헤어지
내려
##욬
공연
글쎄
보낼
##차이
##욘
##프로
웹툰
인형
##틀
파마
교환
한잔
##강
바나나
걸어가
종이
##아이
서비스
##귀
기준
휴대폰
##다리
하늘
망했
너희
나쁜
온라인
마셨
##마리
요가
##근처
지내
갚
자세
왜냐면
##운
들어갈
데이트
무난
##던지
##속
늙
귤
##덕
아버지
오른쪽
행사
##소서
셤
거실
멀리
##으니깐
크기
데이터
올라오
##넴
어휴
##내일
거절
긁
대만
고마
어우
사귀
왼쪽
허허
인가
설거지
##신의
링크
편한
##동생
##커
그리
실습
한두
나의
##포
##고도
##까스
##거기
##으려나
반팔
뿌리
특히
##붙
선배
필기
캐리어
줘서
아래
##랬
##와야
월세
동기
입맛
모임
족발
본다고
열받
확정
##랰
저장
이젠
40
양말
사달
##멀
##썽
월일
##봥
이어폰
먼지
파일
100
물으니
상품
##으려
그르
언능
몸무게
등산
모으
산다
##류
나을
발견
모양
##먼
백화점
젊
##챙겨
!!!
기회
##바지
에스
##탔
깨끗
##사고
새우
기능
전주
가까운
왠지
다운
##온다
바꿨
영업
##그런가
##허
쉴
다이어리
캐릭터
경주
분명
##버림
후후
##일찍
무서워서
옮기
바빠서
##든지
이뻐
간장
##크림
순간
비용
강릉
화면
최소
##직
확실
오르
시골
구입
서운
##본다
어울리
처리
필수
##사랑
꾸준히
모델
공무원
##간다고
##냐구
##몰
##갖
나누
똑같이
좁
다행히
뉴스
모야
이랬
##!!!!!!
##짱
##흑
가성
한강
##넝
축구
독서실
##쟝
##아침
##샵
##호
버티
반응
걸렸
##려는데
점수
##에여
산거
놀라
죄송
##에다가
내려서
상처
##표
단계
토스
누워서
신입
그쪽
장사
상관
##병
넘어가
부자
##나와서
긍까
##시퍼
##는데요
##앵
정상
증말
바꿀
볼까
##햌
향수
내내
빠졌
저러
베트남
갤럭시
##닫
에서
자야
토마토
한다는
공주
놀랐
어색
명이
산다고
건조
꽉
##냇
제안
셔츠
##써서
돈가스
##회
문의
걸려서
앨범
아오
짬뽕
배고파서
이걸
어서
에휴
참치
볶음밥
로그인
하네
돌아다니
후드
##듬
연장
가깝
##뮤
##가격
##치료
현대
##은가
다녀
올리브
##더만
##생활
실화
할아버지
##><
초대
인데
헐랭
종일
갈래
촬영
##각
알려줘
빨간
괜춘
실장
재미없
경우
##생기
컨디션
조용
수능
##뷰
##둔
##예약
판매
밝
졸려
##어제
##챠
자취
##앤
공감
본다
지방
오디
##끄
##손
##진다
##이당
##닷
##맨
##마켓
##버거
##활
진행
마사지
양이
##거든요
불러
##계속
괜차나
##려는
물어볼
##으라
##퇴근
응원
##이렇
예민
면세
##샷
시내
가만히
겨우
센터
길이
##뎌
땡기
##놔서
##칠
야구
##춥
심장
나무
부동산
##예요
목이
수준
여부
입원
##졋
줘야
달달
소식
다양
웃긴
##해졌
유럽
시계
예뻐
##엇다
벌레
##쇼
##술
##쓴
##잠
##엄
가슴
서브웨이
##책
##댓
##려다가
계정
실제로
칼국수
굽
들어간
어려워
##떄
##출근
##닥
마실
##블
##가바
전세
미쳐
감정
##기네
걸려
##춘
티브이
##일까
##검사
##켜
올렸
##늘
완벽
단체
색이
##발
둘째
##동물
노트
##배송
들어와서
친한
맞음
##탈
요기
정해
##고파
##아아
##찜
한참
걸릴
독감
배경
##할걸
##컵
그치만
##큰
##뉘
##커피
##궈
학년
사도
오징어
##~
##음식
##긋
업체
힐링
적응
나온다
##이러
주인
##큐
적당
##껴
##버스
##나왓
냉면
##고민
잠옷
변경
반지
##빠지
일곱
##으루
맵
걸어서
##겠다고
##기분
##여자
##덩
##계
##공원
##염
초반
보여서
아이돌
##냨
충분
##침
비번
양념
##상태
가구
기억나
##쿠폰
반품
##시장
우체국
마져
무서운
경기
##자기
낮잠
긴장
와야
##알려
##예정
가져
##람
과외
나온다고
##것다
##사이
마무리
##아닌
첫날
##는군
버렸
하필
미루
가려
고장
반려
설정
깼
##냐는
##텐
편지
돌려
다녀왔
와이파이
봐야지
초콜릿
떨어졌
유지
##가슴살
편해
##욧
치마
멋지
##갘
지하
##무슨
##젤
연인
부장
보인다
##법
피티
학기
방문
가수
굶
울산
시켜서
##%
콜라
활동
##새끼
##볼래
이득
지도
움직이
말투
어찌
당분간
##판
##북
의견
바라
젤리
삭제
떴
빠른
베이지
##관리
야간
단어
##약
학점
깜짝
입장
##나올
##쳐서
손님
으로
##찬
불닭
익숙
##남자
능력
막내
##걸까
아닐까
고딩
##익
덕분
사랑니
##라니까
##바바
달리
도대체
들리
거래
줄이
매번
##정리
초딩
##아닌데
진자
안정
붙여
##레
코스트코
튀김
##탓
이력서
기절
하트
부러워
의심
부터
비타민
고통
##컷
선풍기
##옄
오만
##으까
##파티
순대
도로
##금
##든데
수강
##먼저
손톱
연봉
몰래
출장
얼음
공장
음악
##앉
자면
##거야
지난번
청년
고등학교
진료
##넷
##짜증
##은행
공지
에어
네일
가져오
안녕
피시방
##떼
##빨
자료
##구요
사자
##이쁘
##세트
##뎁
##밖
와플
야식
시도
기숙사
아메리카노
타임
마늘
호선
백수
##고요
미래
복잡
홍콩
대부분
수리
##학기
##해봐야
가볍
사업
전공
쌀국수
행동
##템
브이
고프
잠실
드리
이미지
회색
엉덩이
좌석
위로
최대
빡세
스케줄
환자
##초
김치찌개
수영장
만난
##구래
터지
충전기
배부르
터미널
##둥
##따라
공사
고치
매력
외국인
나눈다
스토리
조만간
시청
샴푸
섞
##줭
##사이즈
##자체
화나
##의원
강사
어려운
뿌듯
보고
야야
양파
파리
미역국
##!?
묶
어딜
시킬
리얼
오우
부부
기다려야
빌리
대하
##데이
##달래
##들어오
끓여
흐음
조절
##증
##고서
고객
##댘
다녔
멀쩡
마리
##힘
깊
갈비
##쌈
전기
##구려
무튼
떠나
세금
땡큐
##어유
모아
투썸
실망
##재밌
수수료
##팡
##동
지에스
##토
그럴까
##꺼야
##라던데
텀블러
어쩐지
빠져
바빠
기프
##신고
##잣
표현
사촌
><
풀리
느껴
##묜
감성
인턴
##컴
##다네
##딱
명은
##라면서
##다닐
전해
##단계
##떡볶이
고추
##다녀
현장
밤새
최애
##가방
손가락
##꾼
##겅
별거
시킨
말리
##즘
화이트
경력
##깔
##얍
##게임
##학년
##군데
말지
하하
##댔
##베
전자
##든가
단발
성적
두부
양치
##칼
강제
재고
모바일
필라테스
##롱
실물
##갸
중독
##차나
##출발
떨어져서
놀러
##해용
완료
만큼
##다행
##클
친절
아홉
식단
##저거
써도
비비
신세계
정확
애초
착하
자극
##하고
아팠
##새
##이후
한다며
걸린
해지
민망
##보여서
##문
##기억
취미
필름
개봉
환전
##타임
헤어
##꿈
##쩔
보인다고
공원
##피곤
아이스
##으려면
##팬
##미친
재난
##죵
심해
생선
##여기
바꿔야
프린트
폼
늦잠
테이블
즐기
##뽀
##마트
##근
##줘도
때리
##더라구요
##할인
페이
##는다는
##슴다
기다렸
##었었
들어야
##학원
상품권
마이
적립금
의지
##튀
사놓
요청
##칩
##믿
그분
아마도
##으나
##철
짜장면
위한
모름
##걸려
##스타일
##잨
##바야
마셔
##겜
차단
조언
작가
##엠
리뷰
수학
그동안
##던디
##처리
진정
스스로
이걸로
햇빛
억울
##놨는데
삼촌
##시러
##인가요
특이
##살까
##이란
갔었
##친
프리
점장
냉동
##하루
##을라고
##갑
스테이크
##요즘
기업
##쇼핑
##롬
심해서
여권
##림
서면
영수증
##아닌가
##웃기
어딨
설사
냉동실
##줫
모를
스팸
##런
투표
알리
##짴
##래서
깎
연휴
아버님
경찰
저것
남겨
##원래
국가
##연락
쇼핑몰
##푸
대학교
##갠
찝찝
급여
##귀찮
군데
##검진
뷔페
세탁기
수건
##보임
될지
##겁나
닭갈비
만지
타이밍
그릇
사주
##아용
##잘못
썩
과목
##즤
##식당
##똥
올라
마켓
##륵
입술
충분히
면세점
직업
하도
내렸
기침
용량
근로
##냉
모른다고
영화관
어렸
분이
##잌
##내용
그지
##셔요
케익
핫도그
패드
##메뉴
올랐
##?????
속도
##끊
크으
머지
적립
발라
##기사
제목
여성
##헤
##결제
##케이
그래야지
##얼굴
아끼
##튜버
막히
##그때
##정말
갈색
키보드
모아서
한국사
##진다고
개강
레드
유투
##킨
컵라면
정확히
아라
##^_^
##맨날
##가게
지났
똑똑
허락
홈페이지
엘지
습관
##생일
사료
소개팅
##잖아요
##볶음
##으신
##땡
무대
##얏
##시켰
반대
뺏
##혐
매니저
집들이
손목
슬퍼
최악
모른다
찾아볼
민트
##달라
돌아오
영양제
한가
저희
기가
##아파서
##대신
그래요
와도
휴무
시기
##페이
##일단
입력
##에다
한거
##해져서
이태원
한숨
##이야기
##는구만
맨투맨
마취
##몬
고소
반차
물어봐서
##칭
##정
명절
##김밥
바쁜
진지
슈퍼
##론
세계
패스
##라떼
##별로
긍데
그립
##스러워
갸
##티비
##귀엽
##녜
가져다
공간
전달
수면
기운
여수
꽂
면허
잘라
##부럽
오예
졸려서
주지
##아저씨
교정
술집
##싱
텐데
들으면
안대
##나갈
##날씨
불고기
정신없
##완전
주제
##갑자기
##걍
조용히
고모
건가
가스
##뱅
##녀
##난리
설탕
증상
##마음
##엽
조합
우짜
사라
회원
피해
##았었
데려가
아닌지
뮤지컬
사전
##주인
##붕
굉장히
##할라고
아플
울엄마
으응
휴지
##었잖
내방
작성
디저트
##바꾸
##언
칼로리
참여
##넨
이동
벚꽃
##확인
##투
생리통
새끼
밀가루
태국
국민
##치즈
추운
과연
##밑
##주행
유치원
펜션
버터
실내
##써야
캡쳐
여기저기
두유
현재
방콕
##여도
빠져서
누군가
탕수육
갈아타
스킨
##암
##봨
보여줘
사와
##채
##골
##주문
##부르
백만
##줘야지
무겁
부천
데려다
##다른
조카
##겤
청약
##늠
라떼
한국인
상의
빠진
오이
착한
주인공
든든
임신
그린
구두
귀걸이
쉬운
기여
방탄
활용
##걱정
이자
식빵
##!!!!!!!
욕심
##신기
원인
##띠
구해
##털
너무너무
녹차
##굼
계단
전날
발목
수박
최저
귀차
드라이브
멤버
슬리퍼
구멍
##건디
겜
혹시나
유통
##케이스
##아라
고급
엄청나
##신다
달라서
소설
##-
##우유
##뇨
보일러
천만
된다는
놔두
실력
없애
##을껄
요거
##할라
클럽
붕어빵
아뇨
우왕
주방
혜택
이전
편할
자동차
예뻐서
물어봐야
한글
##지원
액정
올린
##떨
사갈
주차장
퇴직금
놉
안주
여드름
소중
거울
베란다
투명
????
진작
##된다는
바디
##거의
인강
자긴
##이번
환승
짱나
투자
##다요
느리
##거덩
겉
##뉴
##슨
이면
피아노
잔다
##그치
재질
##엑
##쿠나
억지로
드라이
##낳
잔소리
##쟁이
콧물
국수
허벅지
##궁금
##굳
귀신
##껭
##냄
##기한
치우
땡겨
운영
##으론
외출
##핑
계절
##취소
##대요
가사
홍보
취직
청바지
##3
나간
반반
요금
기도
치아
젖
탈출
세대
##렁
머리카락
가득
##욕
타투
##조금
##몸
들어와
##스러운
눌러
##세용
인성
테스트
##문자
##포인트
##겸
##쩐
쩝
사려
##면서도
간만
떨어져
버거
이기
중국어
지난
추울
##덥
##본다고
##할꺼
##다매
케이
##자꾸
왜지
생겨
소독
##탑
달러
멜론
##졍
든다
캠핑
##줘요
잔뜩
##률
국밥
신전
라인
##완료
강원도
줄게
카트
오버
버즈
##미안
어머
##릉
아픈데
##신다고
플러스
##직원
떠서
공인
왕복
직구
##그게
평가
인분
주민
##지가
##돋
부지런
속상하
불러서
딱딱
가디건
##올게
##구여
반복
##쉽
자세히
암것도
##흑흑
##씹
아우
조건
버섯
##올리
막걸리
붓
##이이
잘생긴
핏
##자의
신용
장난감
##쳤
먹이
시간표
할래
문화
이빨
##샹
대로
그만큼
글씨
토스트
청소기
물어본
보조
##온대
코드
점심때
형부
오일
##에스
장바구니
알라딘
25
정답
설레
귀가
와이
##다더라
생신
만화
출석
버거킹
생크림
##애기
귀여워서
##겹
가까이
소금
##쥴
##이뻐
스트레칭
도시
경기도
##볶
코스
밴드
관계
갑니다
먼데
##공항
음식점
버릴
##못하
처럼
추우
옥수수
##합
##구이
##추가
번은
불렀
##선생
##료
뭘로
로션
##5
##래요
일상
##주말
편집
빠질
##다아
##틴
##마스크
##소스
양배추
##기다리
더운
##곡
퀴즈
웃음
##갈지
화질
확률
##이유
##어울리
자식
##주가
환경
오리
썰
심한
가시
들어온
##초밥
기록
다녀야
##캉
초등
올라왔
##지네
미팅
의외
저걸
신한
##해한다
##뚜
급한
##다잉
##보고
채우
##쑤
##산다
쿠션
##보인다
물리
온도
##줄께
적용
##땨
수다
##봐라
##>
##색이
##자구
##모양
그리구
##될까
손해
입사
짜리
파우
내려오
시급
아쉬워
으악
라는
시켜야
오마
##슬
조개
##랩
끓이
##딸
##하우스
상대자
##될지
##몀
어린이
자녀
맥도날드
분만
숫자
어묵
여친
##샤
##쫌
가져갈
##했어요
##가입
실기
꼴
크크
아싸
##한텐
놀이
인테리어
츄
유산균
신라
특별
오류
오해
탈색
공고
복숭아
디즈니
어떤지
##?!
##봉이
아휴
##케이크
주일
집안
등등
##생김
##됬
##꼭
맑
김장
목욕
##그럴
후딱
##거트
##으래
실업
쌩
넘기
##흐흑
봉투
해피
모레
엘베
##통장
차장
출퇴근
##정보
배민
양도
그룹
양재
##아앙
!!!!
농협
모니터
요금제
군산
허걱
나오늘
외우
이때
기술
전문
레몬
##향
어쩌다
아까워
논문
##청
##인데도
몸살
모이
답변
##추워
염증
보라색
화분
국내
쓴다고
##께서
간호사
##효
##고자
##등록
코엑스
목걸이
멘탈
##방법
업데이트
언젠가
아웃
맡기
##시기
발급
될까
##아유
조식
##탐
뺐
넉넉
유리
##수당
추운데
알아봐
##웟
##싼
메이플
블루
여태
##수준
상자
##주사
정산
완성
안전
##숲
출구
레시피
음료수
##델
장면
##자며
오구
금토
오타
참나
##핏
엑셀
기초
레벨
교체
비빔밥
셀카
##가져가
##점심
##활동
짜파게티
##펌
##맥
공포
##지에
##갈께
##영상
월말
##아픈
##터지
망하
##이따
렌트
가루
엑소
##내리
##니다
각각
랩
조각
##급여
짠
##눙
##할께
언제나
개맛
옮겨
열정
박일
##한다며
내릴
바꿔서
##다야
해라
##창
##려니
##이리
음성
소비
샘플
봉지
먹방
친하
발이
토할
##기가
데이
##을라
지우
인상
##간대
아몬드
보장
끔찍
역대
##랄까
버려
수치
운동화
구글
매트
##칸
청첩장
##둬
이디야
두꺼운
##냈
된대
##청소
##2
동아리
##락
힘든데
친척
##고기
##리스
연속
뜨거운
##만드
##캔
##바오
##냠
##추
잔다고
##이양
##센
##더워
언니네
##인생
금지
##어두
닭강정
소문
##그리
##을까요
듯하
##걸루
전철
커버
##기업
##지역
##관계
##피자
##와요
시끄럽
##그건
뺄
컬러
열공
아껴
##럽
뒤집
##맛나
주먹밥
##돠
가운데
웬만
아씨
##약속
타오
##모임
불만
장점
24
아아아
##감사
##패
보관
착각
##진심
녹음
예능
방이
수익
##온다고
나눠서
호주
망고
##닦
보정
골랐
무게
##똑같
우동
##드만
순천
##김치
인당
결재
양심
완전히
세수
초록색
상하
단점
에프
피어싱
티셔츠
##나갔
##누구
##뎀
##닮
투어
가르쳐
##앱
계약서
사라지
안심
##나이
담날
외식
##내내
##틈
정했
아이템
펴
내면
때려
영국
사준
순위
어려워서
토끼
슬픈
##무섭
색상
일기
##전하
##지원금
자켓
##나용
##자라
가요
사라졌
진혁
더럽
##나유
##마을
낚시
매진
##보냈
##망
##면접
##관
지옥
##구야
주머니
도랏
한쪽
밟
##는다며
유심
##헐
싸움
##아까
##귀여워
지루
##아함
포토샵
기기
조명
제사
##뭔
온대
매주
##꺼도
나와야
한입
선크림
속눈썹
버전
고정
##데기
접속
영향
빨간색
혼나
##드려
##마의
일어
##쿄
##뒀
##쌀
나간다고
생김
##핸
안타깝
청주
아디
##짤
##인의
##버려서
욕먹
멋진
숙제
##롤
##뜸
챙겼
여덟
성인
동선
시리즈
베개
##높
봉사
친해
남기
막창
멀미
주고받
##워치
본사
숙취
오져
##는걸
##할텐데
실시간
고려
축제
몰러
독립
##바르
필터
오렌지
포항
##저래
##해져
말라
##드렸
초록
과거
인도
할라
보다
연금
엽기
##줘라
느꼈
##기준
해리포터
대형
수영복
했으나
하얀
멋져
중학교
##생겨서
##최고
어딘데
배워
생길
어째
##체
일어날
##와도
쳐다보
해요
##빠르
두세
##구경
체험
긱
들어올
립스틱
동의
장갑
##조심
고파서
아까워서
##항
할부
바꾼
잣
튼튼
피피티
##담주
인원
단백질
##돜
컸
##볼께
에코
장기
속초
애슐리
##편하
##단다
픽업
신상
##할까봐
##드라마
복지
##뛰
게다가
다녀와
빙수
원룸
##플로
바뀐
잘랐
숙박
##지내
##일지
아무튼
책임
명품
##근무
빵집
바닐라
##다르
헝
##웤
놀래
후우
##로운
##자네
##짧
복사
엑스
조회
바이러스
간지
어린
##겈
예스
배불러
따지
콩나물
누웠
누군지
##에프
##라인
##픽
##끈
##와중
처방
실비
##킬로그램
##뗘
갈아입
##마냥
명동
깨워
##해짐
버려야
떨어진
##비슷
##켓
비오
##소개서
##갑니다
##와라
어짜피
회복
오케
##둠
지난주
라멘
##스토리
마셔서
화내
##해놨
모닝
만남
일본어
마침
찾아봐
구리
##칰
망할
일회용
배우자
핑계
질리
##놧
뇌
비해
패키지
##금액
##면허
단기
양산
##돼지
##고야
진짜루
엔시
흙
흥미
##션
##띵
##읍
끝내
##터치
얼만데
보호
다녀와서
##라구요
##다길래
지구
몰랑
밀리
##당하
##첨
지원금
##햄
예뿌
늘어나
##헷
대학생
##줄래
##본데
##버린
식욕
가치
##올려
선수
이마
팝콘
장마
들렸
##거양
데뷔
그랬나
공개
오뎅
긍정
##!!!!!!!!
응급실
어딘지
담당
전시회
초기
감독
##생겨
옷장
##폼
##는고
범계
##상황
가슴살
##신발
하이
자자
아이디어
창피
토하
어여
##사면
간단히
네네
어린이집
매달
계시
##정산
##프라이어
주택
이쁜데
귀여
아웃백
##올까
워터
##쪙
놀랬
트위터
##지갑
##난다고
목도리
##추천
기념
우째
##댱
이럼
##량
##마저
달력
슬랙스
살빼
문신
장염
통신사
##넵
올릴
정장
부평
워낙
호두
##지롱
##격리
떨어질
숏
##파크
공구
터질
오궁
지켜보
가만
알림
창원
##돼요
닿
뚜껑
한동안
오천
판교
##기다
여전히
용기
##교육
##만의
주로
##_
신호
##투어
##소리야
살찌
##라나
한방
향이
죽이
##제품
소득
##대가
##뤼
항공
##1
중앙
자제
##열심히
##흐
어울릴
##츄
##가족
##어쩌
##배우
내기
매콤
창고
##순간
##래여
##해진
헛
##마셔
웃겼
##그렇게
##샘
신분증
짖
매직
천둥
해물
동시
라이브
##증서
에바
교통
13
사건
파란색
##중요
##화면
##때메
보상
기타
해당
속옷
바퀴
##자르
일산
지랄
##니당
마이너스
무서웠
신천지
김포
당하
##습니당
페북
가죽
레깅스
절반
옆집
##건강
할만
##때리
네이비
적혀
공차
부작용
무선
##예매
얼렁
내서
평균
차리
과정
보건소
14
마셔야
코코
아부지
지키
실험
##릿
예쁜데
##꼬치
##홈
##육
한식
냄비
따듯
허니
제작
##그려
훠궈
교양
##좋아하
자매
소파
지점
노랑
##정돈
그럴듯
##구리
정기
가보
삼계탕
바질
춘천
아가
블라우스
##신데
홈플러스
채워
청구
개발
##랄
평범
더운데
##호텔
나이키
웬
태어나
더위
감당
구려
등급
왴
##빈
더울
제한
인해
18
##네유
##드림
태워
##막히
##수술
센스
외모
자몽
원두
채널
뻔했
시절
##극
알려준
이직
집착
휴학
##간지
##가루
조정
##불편
번이
##산거
##널
재택
볼래
##오바
파이팅
훅
교통비
독일
##구매
다녀온
식물
안산
당면
##보였
##거려
##는군요
찰떡
##드릴
##쒀
비누
보쌈
메인
라테
기엽
채팅
##한디
조퇴
##볼라고
찾아가
한복
퇴원
미뤄
건대
##처음
경제
영등포
걸린다고
직장인
밀크티
코인
##브이
##랜드
이케아
##모야
##거라
달려
바바
걸린다
##전이
시대
##이야
컨셉
연수
마우스
에버랜드
뿌려
정부
으아
##쳣
통영
반바지
환장
##시대
입구
직전
거랑
##해질
##팁
도쿄
어려
스파게티
팬티
##시킬
##위해
구라
백신
##맛집
##국수
가습기
##텍
매출
60
줘도
##그만
##건가요
죽음
개운
##돌리
##눌
##라이
##리아
##외
##톤
##해두
갔다왔
종아리
##댄
미용
##버전
속상해
##걸릴
##퓨
긴팔
어려울
##국
클렌징
결론
##뭔가
생리대
이혼
살래
봐야겠다
##??????
##율
진상
할꺼
경쟁
##셔야
##낮
비와
최종
##츠
##헿
타로
고수
##룩
우편
집안일
주위
##쎄
##써도
##비용
##거지
##떵
당당
##거등
종로
외근
##수도
출력
체리
##업체
제거
##킬로
도저히
##저번
##찐
##다구요
외박
##밀
긍게
새해
잠잠
##조각
달래
오토바이
막차
##과자
드레스
감염
##따리
##키로
##애서
##졸
##라네
##세계
가리
그레이
17
분정
##무니
히잉
##떰
##보낸
시전
안양
나간다
##백화점
##떨어지
랜덤
숲
베이
가져와
신규
다운로드
남의
^_^
##몽
눕
##사항
화상
##아아아아아
헉헉
휴일
##!?!
포도
##한다구
##무서워
제외
펌
목욕탕
배려
동대문
##규규
들어도
가져왔
##매트
이제야
페이지
##걸렸
도장
보였
생활비
장어
초보
온몸
더블
휴게소
은근히
파스
든다고
기르
##란다
헤어졌
##예쁘
방향
##낸
##인증
##뜯
##됑
##둣
오빤
탈락
올라온
노란
하나하나
신어
껄껄
변비
전국
순서
조지
요구르트
가정
양식
보험료
샤브샤브
겪
##올라가
설날
##상관
구운
##뽕
고쳐
카페인
교촌
간다는
애교
##부족
빨라
##핫
##닿
##쒸
신혼
##늬
저래
##꼴
##가여
해장
천재
소소
싸웠
막혀서
강하
곰팡이
용산
##푸드
전이
웨딩
##껴서
지워
감고
사이다
안과
아주머니
##홀
##짝
일자리
도수
##미팅
복권
##요리
##아주
오사카
##쨔
##령
배불러서
훔쳐
##램
##생긴
##계획
수제
##대출
##셤
##택배
희희
##여야
##매일
도라
생각났
라지
들려
기장
전기장판
##더라고요
##목
테이프
돼지고기
골목
윽
바꼈
엊그제
##고의
수육
##겨울
즐겁
조교
축의금
##사야
##석
##곧
개념
##다스
##모습
##여친
##읍니다
##펜
##세상
##얘
##종
##듕
위가
합니다
역할
부대찌개
##퍼센트
경비
바삭
16
##으셨
##능력
##키우
그른가
신촌
충치
만져
주간
##렌지
##쪼
보라
비싼데
마이크
분당
##듦
버튼
쓴다
##올라
소시지
보건
희망
했잖아
##사실
##운전
서랍
대학원
구성
올라서
##압
교복
비염
시스템
예의
구치
초등학생
중순
꾸미
너무나
따라서
헐헐
##중간
줄까
##부턴
실제
##턴
대놓
갈께
##축하
##저런
짜장
##했으니
##시원
정류장
농담
##느냐
아이구
##부탁
흘리
비빔면
껐
터졌
기다릴
떨리
빚
##탄
##강의
##음료
##됏
피로
##시당
빵빵
차려
프로젝트
드림
머글
무지
##세일
##아파트
##교
##이미
##자랑
##기대
##스탈
##벌써
목금
##끌
##조사
##필
##과목
보냄
뻗
##이용
호호
인나
##멋
##니가
한약
양아치
빵이
파란
불량
##하당
반납
종합
다를
하드
##뼈
선착순
조사
서버
대상
그대
##통화
##링클
##뇽
정수기
##겠어
##어렵
자지
고등학생
쪘
##쩡
##버릴
##복
##웨이
그랬던
##내려
##시켜서
##둔다고
찜질방
쳐서
비닐
아픔
##아아아아
아이유
지지
수분
##면은
찡
##부리
뚱뚱
##그릇
살살
##악
##캄
##장이
플라스틱
보증금
무거워서
세탁
감자탕
##숨
속상
패션
##보네
기다
찢
다녀서
##눈물
상쾌
껌
돋
##대의
케이티
골라서
##숩
어리
##주도
##머금
##댈
##과제
꺄
적어도
따라가
추웠
##취
도망가
연락처
##케익
꿀잠
심리
한번
##렸
셀프
기존
##여름
사은품
쪄서
시킴
발톱
동갑
##쎀
##충
피우
뒤지
##행복
바쁠
힙
##포함
위주
안방
라식
곳도
쓰리
##이게
이케
바빴
건조기
갬
별일
##지이
배웠
매운맛
시리얼
기모
##갈비
팔리
인터뷰
##빠져
진주
##리스트
##자낭
##아악
편안
후식
에너지
남주
어버이날
터져서
해운대
상무
비쌀
##말래
##아깝
열리
##하트
모여
##여지
한판
최선
##도라
심사
김해
및
호떡
두피
장학금
김치볶음밥
볶음
200
##빌
##계좌
##셋
천장
##웨
##'
발가락
##배터리
파바
##할게요
##품
칸
의문
##서울
올려서
약정
티빙
그랬었
물어봄
##땡겨
지르
이놈
##경우
세부
남음
##가유
퀄리티
이쪽
언닌
##초코
##얼마나
##챙기
매년
선호
##다운
##할거
일어난
유일
##하구
##바쁘
변기
##차리
##뭔데
블루투스
##둬야
공식
기출
시력
올라와
##보장
메시지
'
##요오
단지
기상
물고기
종강
게스트
팔찌
판단
골드
알레르기
##묻
브런치
휴식
나감
캡슐
##쿠만
소세지
존재
웨이브
된장찌개
셔틀
지진
만만
##다오
상추
##잇대
자도
그저
대비
##뜻
마인드
저렇게
계곡
격리
내놓
##주스
화려
기부
##시킨
펜슬
강화
프리미엄
##4
##아이디
노란색
##준다는
그쵸
##셩
##포장
차량
이뻐서
##방의
오줌
그러나
##할게
##들리
건너
그램
실적
길거리
들렀
도망
작품
환기
모자라
##티켓
개미
물티슈
파워
텐트
점검
캐시
방구
모래
챙겨서
##더나
##신대
참석
##숴
긍께
쪼금
##들어왔
##푼
지연
##봅니다
광명
칫솔
##새우
오븐
맴
알차
##거려서
귀여운데
부정
##간당
참으
사당
촉촉
조별
두껍
##달의
##틱
##버터
##바꿔
첫째
헷갈리
갈라
쓸데없
##라길래
판다
했으니
약이
써야지
식탁
모루
담당자
갔다오
##서요
##고여
분양
어쩌구
근육통
걘
읍
##랍
벌금
??
##땡기
유부
리모
##펴
동남아
허버
어땠
##코드
스카이
샹
도넛
##려구요
준대
##종류
탈퇴
##룬
##아들
탈모
불가
문구
체크카드
##검
스피커
하하하
##제일
##고프
가즈
##소개
방탄소년단
##겐
소원
추카
##밧
##탈출
##당했
##어치
롯데월드
##요금
포스터
전자레인지
##000
입이
##모으
취하
관두
변화
##마요
과학
고마워요
입니다
가벼운
세종
팥
치약
잘라서
시설
통과
월급날
물가
비주얼
스페인
##기구
##냐면
하늘색
##밍
##아닐까
##몰라서
굿모닝
앙앙
천사
##잃
탄산
##셀
오프라인
부리
놓치
해줄게
##으려구
##놨다
망한
##연습
신랑
껴서
구조
약하
대장
겹치
걸어야
곤약
##칼국수
붙잡
##벗
##을께
##보낼
입주
뻥
마찬가지
모시
정성
##자식
예배
귀여움
##걸림
##걷
##민
몰라도
봤었
자살
해외여행
##봉지
크림치즈
들려서
요번
##일어났
##까먹
나듀
##게유
프랑스
해산물
##할땐
멍청
옥상
아무렇
##여보
혈압
##휴가
할라고
교대
부른
인쇄
웨이팅
조립
부서
장만
##쟤
날씬
쌌
##몰랐
수입
A
국어
가져갔
일자
스콘
핸드크림
엄청난
레이저
##봐야겠다고
##졸려
##만날
##맞춰
##뀨
##누나
##혼
반값
##조절
보일
버틸
재택근무
##붙이
##!!!!!!!!!
더우
##뎃
쒸
##아하
연하
스캔
뜰
주임
만한
톤
안쪽
구로
할리스
민족
아시아
태그
기달
##돌아가
##사자
전쟁
##도시
##려다
##선택
인식
배탈
놀리
##자면
##따로
들으면서
히터
띵
잡히
번만
터치
권유
메이크업
잇몸
##건물
##갈라고
연구
춤추
구름
##시킴
##자주
##안함
허허허허
헿
##으세요
요양
타자
##냐면서
사이드
표시
재킷
##깐
##출구
흐흐
무거운
낄낄
발생
##카지
##논
상큼
분전
포토
마르
닭볶음탕
식비
꼬치
애플리케이션
왔었
딥
##세대
브라
##다만
##나온다
##굴
재수
##걸린
송도
##이렇게
##취향
구분
##파일
모여서
열쇠
##바게트
##사도
레전드
500
폭발
##인데요
큰언니
다치
호에
파랑
##줘야해
##척하
##어떻게
가진
높이
그랴
두근두근
남색
영양
회계
##터미널
출시
꽁
##마셨
고개
##공개
##갈라
분홍색
##신경
즐거운
얼릉
웃겨서
번개
##바다
빌려서
##얀
##알아보
맥북
관리비
19
##하하
종종
붙였
중인
통해
##시절
비율
으휴
뽀뽀
##모드
들어옴
##비번
야무지
어엉
예산
살만
소재
해석
##을려고
브라운
스파
당했
소장
고용
##플러스
##므로
등록금
##첵
응모
자다
막혀
##마실
순두부
##쳣다
##방금
##인간
##즙
##큼
##미리
마을
##증명서
뭘까
##맞추
?????
피하
조기
육개장
##맥주
빡빡
성향
로고
느낀
이체
일부
줄여
신선
번역
오트밀
##남음
특가
전용
##사지
안감
##주변
고백
메모
방해
진통제
##씨방
멸치
##야해
##불러
차서
챙겨야
##구하
##자는데
##고르
가위
배고플
인수인계
한도
입기
민폐
##까봐
배운
마블
샤넬
시시
##에겐
신난다
백종원
##온나
무한
타입
어쩜
사망
우정
습하
드릴
쌓이
아이보리
가짜
근대
엄니
틀린
##해조
인제
야스
날아가
##했잖아
토일
쟁여
후배
마약
##덴
미련
베라
##쓰이
##뿜
개학
제모
해킹
##노트
정품
##코트
열일
##포기
졸업식
##나감
하긴
곤란
응가
##써요
이리
베스트
##중임
##데리
눌렀
##젤리
##날짜
##켯
##폴
매트리스
깜놀
추위
바퀴벌레
빡시
세우
##머신
##?!!
엑스레이
급식
물량
수습
##진대
경비실
공강
내시경
상사
겉옷
의정부
열려
##한번
아푸
##해유
사이버
한정
##내려가
낙지
한창
담요
셋째
블루베리
실버
착용
결말
개통
##발급
22
패턴
##머글
갈라고
줄줄
갱
쏟
라이언
##예뻐
거부
팁
커튼
합쳐서
온수
추측
베이컨
회장
하체
서현
올려야
크로
공동
한화
80
발전
##한다는데
##쿠키
##야대
비벼
젠장
미스터
호박
왁
##랏다
부드럽
바부
예방
정해져
볼지
300
뱃살
##옵
꼽
아울렛
##삘
오프
에엥
연고
##비앤비
우아
알아볼
땅콩
송금
꺅
배고픈데
체질
휘
##매장
##지모
조리
유용
엘리베이터
라디오
눌러서
얼려
##효과
무제한
솔로
솔직
##러지
##드라고
##절
##아픔
아구
##버렷
분명히
몇일
덮밥
으으
##쿼트
돗자리
채소
##모름
싸이
코코넛
풀렸
헤어진
##에용
모른
재생
보여준
호오
##딘
인물
가까워
##도로
##어울려
지겹
##약간
판다고
##시즌
고깃집
냠냠
보태
개오
비온다
##낌
돌아왔
##갚
##꽃
놀랍
옵션
##퀴즈
방식
정문
##마지막
환율
##린
목살
섬
##곱창
돌려서
원은
노량진
수지
파트
##터짐
일어남
지웠
뚝딱
어젠
##라고요
내부
육회
분리
샷
박사
떳
중국집
믹스
##찡
출근길
올라갈
##의자
##데요
봐줘
##겠지
외부
화해
배고픈
으음
반성
##땀
##코스
##볼게
원만
팍팍
##므
머그
##딴
죄다
어두운
간대
목적
사정
글자
장비
잡지
##자요
##이해
##부부
눈뜨
해놨
##제발
지저분
아리
역사
번가
구독
데가
##보드
재수없
##타워
동료
바른
끌리
수유
아트
##달비
사무
키워
알뜰
##을라나
운명
질투
인절미
##생각나
##관련
분노
리스트
한자
##부를
##이여
단순
##뱅크
모지
우울증
캠
생각난다
떨려
##페이지
민원
다녀올
오른
유니클로
발송
외롭
한마디
##선수
로켓
버텨
##고생
올라와서
##일정
센치
지나갔
탄산수
지급
망해
##길이
##안대
단종
전문가
인치
변하
한계
다신
근력
##결혼
발바닥
모텔
##후기
온천
대중교통
볼링
##릴
##월급
유니폼
##짬뽕
쉰다고
##비싼
제로
##인분
복근
21
전원
플레이
##을게요
런던
전환
노예
##룰
##터져
가평
잡채
##이래서
##골라
한국어
헠헠
##이사
고른
##힝
##젼
견적
양쪽
독서
!!!!!
구찌
폴로
쉰
##이모
오리지널
떨린다
또는
##짠
색감
간호
정지
캐나다
내과
구워서
스포츠
스탈
노원
##바람
헤어질
##즐
빌려줄
재우
##잊
##랜
여름휴가
떠들
##갯
후보
##묘
마신
구석
타지
주가
감자튀김
덜덜
##벌임
이대로
저걸로
어니
##주소
하오
담임
고럼
##으라는
아재
깜빡
신부
저리
리터
영혼
클릭
마크
날리
##계약
##르네
버스타
킹덤
히트
채용
23
##교수
왠만
##파스타
체한
특정
##그리고
##다녔
##드려야
##고양이
틈
오피스텔
현관
걸림
자막
##합시다
줄어들
산부인과
명의
지퍼
무언가
리더
깨우
에고
##시네
맞췄
##걸려서
열나
무서
##탱이
##패스
폭식
##이체
##만든
미션
공기업
잔인
로봇
녜
##불안
라섹
뺀
##대기
위장
향기
까만
괘
##떠서
목포
월초
조끼
소속
브레이크
게장
중복
세차
사물함
마요네즈
##액
살려
싸울
인연
##걔
##녀석
구했
파악
##휴
##기도
##됌
##뭘
시국
##깊
##볼게요
아앗
비상
남겼
정해서
##화장실
서울대
##우동
##맵
된다며
70
마미
##힘드
##부러
태우
후다닥
##조차
누우
하얀색
퇴근길
용인
스마트
분홍
지출
##시켜야
분식
##팜
짱구
틀리
귀여우
##쿡
핸드
고추장
가까워서
야외
닥터
보드
깻잎
유료
머쓱
##금방
색은
팔로우
##햇대
결심
##혹시
##되게
##느라고
##헝
##시미
사탕
리필
준거
##습니까
접시
##다던
검진
##떴
##평가
어젯밤
##부로
##콤
목록
##살래
파주
꼬막
북한
편해서
중간고사
##에에에
##친다
오케오
쿄
로제
##만족
##방학
런닝
마장
##마자
온다는
##무시
##요새
가래
##퐁
##프리
장이
제육
볼일
연구실
찌개
언어
호불호
인공
##검색
##덮밥
45
26
달라지
히히히
그람
##작업
##러서
키즈
후쿠오카
됩니다
##숑
호수
고장나
넘치
##였으면
쌀쌀
##궄
열차
여의도
미드
고등어
육수
기구
##딜
28
##가려
##룽
가라앉
밤낮
##콕
잃어버렸
이나
한꺼번에
##흠
##갔다오
끝냈
##가구
최신
##하삼
빨강
##해봄
줄서
군인
##순위
노인
오때
티몬
이쁨
웬일
##이랬
##간데
월은
우주
집값
##영어
쐬
스프
소화제
할로윈
벨트
코디
순수
아내
##뚫
통증
서점
누룽지
중식
박지훈
영하
지정
꼈
##다이
니랑
진하
다짐
멈추
##드립니다
##올래
꼬리
##금지
연극
##장애
취해서
##심심
돌렸
##플레이스
버린
기획
##핑크
원대
해야겠다
황당
유산소
배울
주스
##방송
삼성카드
배스킨
보이스
나아지
기말
##엑스
팍
아니면
##누가
##누르
##천만
어마어마
쳇
할걸
취급
조타
##어질
##엨
국제
##쉴
##정신
바란다
상해
청춘
##들어간
##끝내
꺼지
합의
롯데마트
##릭
장보
##려니까
의료
당기
인터
카디건
##흡
##에엥
##저러
비자
나타나
잠은
##먀
##아닐
이메일
깨달
##송
##평
싸운
집사
단거
장미
엉망
##리가
수제비
러닝
대략
##기의
음식물
출연
두기
수당
27
스무
##농
진동
꺼져
갈수록
올라갔
마중
합리
그나저나
##내역
##두기
지네
쑥
부어서
던지
무서움
피지
##오랜만
##히히
식감
책장
구할
광안리
오리고기
시야
##찾아보
인바디
이삭
백업
##뉸
##긍
일안
배추
##상담
##킼
중학생
##컬
##힣
##닝까
##결과
그러게
발음
웹
##성공
중국인
얹
##져야
세탁소
성장
공복
토이
단호박
##아웃
##버려야
샌들
학식
신림
예술
정거장
신났
기억력
##학생
맡겨
시댁
##들어갔
##껏
정식
##득
분석
사투리
썬
계란찜
초콜렛
##느끼
##맡
미리미리
캣
##경
##재료
공격
다닌
러브
가져온
##놀이
##샐러드
닳
이별
강남역
가지마
##>_<
##꼬야
해본
쇼파
##바퀴
##그것
아보카도
요런
키키
비대
##아무
##주심
##할려고
나빠
이론
대여
읭
##기능
눈감
##보일
##사장
의도
어쨌든
가르치
으앙
나았
##균
예쁠
##은데요
라이트
대사
출국
계약직
단골
쌍꺼풀
29
그랬음
##그림
##바뀌
트렌치
널널
##빠졌
허어
내려갈
원본
장례식장
##아까워
하얗
##라규
##인사
기생충
스마트폰
성남
유치
##비도
##점수
운동복
만날까
##콜
보안
##튭
무기
##죤
##든다
어둡
##한당
골프
미술
자궁
성형
##한잔
##차려
얻어먹
##터로
올까
##킬
성수기
##미쳤
사만
유에스
암웨이
팩스
사인
31
##색깔
##아가
##자니
##자아
어딘가
천국
쏴
왕창
스케일링
주먹
접촉
껍질
##침대
##기회
##꿀
에구
##축제
지문
##정거장
챙길
잃어버린
깨지
##치마
##고마워
떨어짐
##사이트
그런가보다
##바라
방역
##트리
##꺼내
방귀
혼났
##따구
국민은행
##도와
꺄아
일반인
역전
##대여
##지마
히히히히
인스
개마
##치과
##기다려
##나중
##오르
##군용
바깥
##갰
옼
머신
아메
이겨
##재질
##고추
유효
야구장
밥집
짱짱
##등급
##튀김
포스
유독
##보도
세월
##게나
##댁
평화
개별
순삭
##긴데
괴롭히
##계란
뒀
떡국
쉬엄쉬엄
와라
탄수화물
##지머
빨대
머니
##충전
항공권
##봅
주름
팔뚝
뜸
성분
앞자리
행정
편도
베이글
##빈스
아앙
옙
오라
사상
##저기
그러면
풍경
골라야
곰돌이
자신감
매워
##구용
##분위기
러쉬
##른
본가
이쁠
내역
각질
##상관없
월화
체중
##만두
어때요
##심하
깁스
수액
##이쁜
##꼐
벗어나
##쓴다
문장
애정
##가져
꼰대
##야하
##맥스
웃긴다
울리
파인애플
진도
제육볶음
가져와서
이비인후과
달콤
허억
##나쁘
힛
안다
더러워
훈련
제공
환급
화장대
##신가
##바리
##자신
자취방
통해서
스키
정해진
닌텐도
복귀
슬라임
종료
선글라스
##핳
홍삼
볼펜
##쵸
양보
##라두
##고고
자존
지치
##스러웠
거품
면역력
세제
남이
해준
솜
##들려
어르신
##택시
##용품
당뇨
렉
##프라
싼데
토너
퀸
##항공
의논
##닌
##배고파
사오
와중
통통
##구역
##소름
멘붕
요샌
##양말
사원
전신
보충
물품
샀었
의식
##텐디
vs
##해줌
##됩니다
##소식
##대단
모았
나시
수령
##스러워서
가자
바닷가
컴백
##동기
펭
쪼끔
튜브
순식간
말려
##딧
입지
##도서관
##이틀
올래
거래처
분도
매워서
상한
크로스
쫙
프라
파우더
##비빔밥
지코
벽지
시세
말랐
##야행
쿠쿠
##활용
보드게임
어이
서른
드가
나아
찬물
##아따
##학
전시
##!!!!!!!!!!
##썻
간다며
##자켓
느려
큰데
발랐
윗집
뮤직
스탠딩
##부도
그곳
배워서
분리수거
내야
초음파
냄새나
자존심
##할껄
아악
##데여
##삐
유학
마른
##기운
식품
비추
##맞춰서
##불가
부츠
##굽
##서여
빠짐
놓쳤
어떨지
##드나
얼큰
밥솥
고속도로
성능
매물
고생이
##딬
개아
흐르
##당근
##설
##름
귀여웠
##아아아
씨씨
엠티
버블티
##들어와서
뉴욕
월차
찼
환상
해먹
트레이닝
늘리
굵
여주
##일의
사러가
##내면
본방
호빵
밀려서
정규직
자구
고집
악몽
##록스
##려던
코피
면담
런데이
##사건
겨드랑이
##체크
안마
기온
##인형
##버튼
복도
##어울릴
견과
##학점
##텨
익산
##가태
##클럽
##대지
승인
##부샤
콜드
스튜디오
배워야
##을겨
##대학교
댄스
##어떡
##엇거든
##젠
트레이너
언젠간
##맞음
손절
잠수
드립
감탄
치워
부위
##입장
마케팅
##마치
##가드
질러
붓기
##서비스
개이
##사무소
매도
물으며
##따위
위염
케어
##잔다
##컨
주세요
갈게요
##냐니까
##위험
##인척
약한
미친놈
장판
부들부들
##커서
##로워
총무
하우스
갈수
##정류장
예비
심플
마스터
##초딩
##사용
##할머니
예쁨
아닙니다
##잠깐
올게
##습
씨제이
##만났
정해야
인지
디스크
생파
##깅
언급
달린
##당한
##밴드
군것질
비트코인
차지
대리점
무거워
##원비
##모아서
포켓몬
학회
드렸
헤에
##어떻
눈알
카누
밀린
와요
밭
##계산
##쪄서
막막
##시포
##캠
차가운
내주
##수강
비빔국수
##한다면
##가용
오만원
흔들
예뻤
욕조
##떳
##목금
##렛
참기름
킥
원주
여쭤
##섭
얼만
오메가
키울
##대비
##끔
##얐
앓
##다거
월이
어떨까
고래
##터질
추첨
쉰다
화났
고속
들어간다
발리
이분
식겁
##왘
포스팅
생명
살인
##체험
분량
풍선
##쓰레기
따숩
급행
동전
비도
일월
##캣
공공
매장이
다크
원어
##kg
약도
더웠
##준거
마주
##들어갈
왕따
내복
##어쩔
##꺼지
약사
##깈
##구해
두통
빼빼로
##럿
##거랑
편히
##과정
대타
부대
시가
##모아
바짝
##필름
요구
페이스북
특유
##접수
빤
##팝
##솜
슈크림
자격
알콜
안자
아닌가요
##해본다
스카
화난
##보냄
##질까
지독
주의
##됴
창업
##을가
설렌다
##와의
##넓
옵
##그대로
자두
진로
트리
퍼센트
##주택
대한항공
확신
물어볼까
##입금
착해
##볼라
봐줄
##대루
##회의
쌉
낄
##더라구여
갈비탕
##헤헤
뭣
명함
가로
방치
수선
체육
거로
비안
코로
진단
문법
대화자
무한리필
상관없이
지성
규칙
별명
시술
티나
##가장
##핀
##다님
##못해
설득
뜨끈
다친
##가야지
##아퍼
뱉
기한
무려
##어차피
##머그
지니
사냥
테마
하래
스위치
얼만지
##월드
90
호다
##태
##빨라
정작
단식
여러분
##드가
##상의
빈속
야경
##갱
두렵
무사히
발라야
##실수
##정상
출산
그쯤
줄여야
##아예
시럽
##새벽
##워시
##구마
맞은편
키오스
저축
##원대
실리콘
샤이니
##피닝
##을라구
입양
##서리
##감자
쌍수
정말로
보스
그니
하지만
##상품
등장
##원피스
##고픔
왕십리
##능거
다듬
디테일
뚜레
보람
어뗘
가발
불법
갈만
감바
부러워한다
##절대
조치
##다고요
##다방
빈티지
질려
터져
##채우
구역
쏙
어따
##화장
아퍼
##갔다왔
프렌즈
나약
##솥
##다녀야
##얻
##풀리
##기계
참내
생산
다닌다고
디자이너
푸드
관광
종교
##어떠
케이블
##으니께
아까운
##그런지
##빠진
##누워
##다더니
먹여
시리
##곱
부끄럽
##들어와
붉
##감기
##치우
잔잔
가타
룰루
꽝
범인
다름
상가
사온
##회식
연동
감이
존경
##졋다
비하
##변경
##여유
##업무
강의실
정시
치즈볼
케이티엑스
지훈
만날지
정전
위약금
봐야겠다고
후추
과식
조율
##물어봐
하시
##셜
도미노
이이
논란
이딴
미만
놀이터
##넥
##해준다
##나간
오티
된장
##고시
자른
##론가
깍
##바빠
옴마
관한
##계정
##장의
직거래
물회
##복지
감기약
에센스
##잖니
흐엉
쉬익
풀려서
다이아
##냐구요
버림
##힌
##갔었
놀러오
더러운
어쨋든
진짜로
살아남
내림
##냐고요
##계시
##일걸
##폭
##씬
선임
데워
필러
##해장국
개구리
개당
##놉
##관심
섭섭
##위치
어뜨케
트럭
쏘리
빽
##렌
##공주
##올라오
##블랙
껍데기
선선
##공기
##만남
이모부
##치가
갈비찜
##솔
##게여
##력
옮길
##라더라
##비티
포카
대면
오랫동안
비우
징그럽
스마일
꿀맛
헌혈
커트
공시
노리
틀렸
##어스
손잡이
임시
후라이드
##기관
물류
화사
된다면
빌린
##디야
##오져
연락도
훗
순한
##셔츠
##툽
##아플
애니메이션
옆자리
##커버
사양
앞뒤
경유
설빙
터진
내놔
취한
##녕
학과
교시
정정
세븐
광화문
현지
##게장
마일리지
##했으나
즐겨
문제집
분장
##스가
손질
##복권
##발표
##치를
용서
개시
임용
##^
##놬
##삶
생각난
엄만
이른
##을수록
함부로
##지랄
##신나
##서류
##견
돌려주
느린
##명의
##겔
##추카
블라인드
##별루
던져
##주의
으잉
단추
##모자
들어간다고
##발라
옮겼
단호
부실
장애
미숫가루
##그레이
폐렴
복싱
흐리
페이스
가져다주
모가
##흙
##응께
휴우
고대
소형
제정신
말자
빌라
유로
넘겨
##뜬
보석
물놀이
바뀔
고속버스
##염색
##행사
포켓
분실
##라벨
##:
반말
번갈
##아푸
특징
나눔
##식사
쓰이
도배
모아야
##말리
##족
괜츈
##올꺼
바꿀까
방어
심부름
조져
산타
여시
주라
##주기
##라이트
정형
경영
##백만
##걸음
밥값
등이
엎
멤버십
홈런
##시티
배차
크롬
주꾸미
##이라두
나아졌
호구
##온데
근가
고쳐야
x
놀람
후반
##함께
아련
식이
##렼
라라
태도
##팔리
보너스
너구리
##그라
심했
##당함
##으셔서
쌓여
윗
쓰여
##바로우
가본
식장
##자료
잠바
##오일
수상
보낸다
칵테일
한우
바쁜데
계란말이
준다는
어울린다고
다가오
썻
소심
##시국
##지용
##봉투
온갖
질질
##조음
생일날
스위스
본격
눈빛
kg
간지럽
바뀜
어지럽
가나
해야함
##가리
구린
어린애
##멍
찜질
핀
내려갔
헤이
고파
싸가지
리조트
##봣다
당한
입국
난방
##아트
##제의
퇴직
##브랜드
팔렸
##사와
원작
안다고
가계부
들어감
홧팅
자나
##빌려
##뺄
유형
금연
##연
##무리
차분
괴롭
##배달
##다녀오
마련
갱신
사회생활
일식
##토스트
시위
동탄
정가
##장에
슬펐
레이
콘센트
##캐슬
내장
공유기
올림픽
관해
플리스
임산부
분식집
냅두
##가네
##찢
내지
자국
해줌
흔들리
##편해
##텍스
##따가
나물
##걱
##래유
쪽지
올지
요일
성질
섹시
알아듣
액자
원서
증거
대본
##단지
소음
결석
##파이
수납
대창
테라
만화책
##쓰리
골라달
유전
>_<
고칠
행운
##쏭
쩜
즐거웠
존귀
무늬
소품
하핫
##으셔
##텔
##좋아해
##대충
관장
숨기
실감
##럭
쏠
에잇
버킷
체인
##완
##롤러
##느니
##크기
스타트업
##습니
파전
모던
이북
임대
표가
모집
##애매
사라짐
뒤져
##왔었
조그만
접때
오산
아무데
애완
주황색
기다려서
##빡세
##터졌
피드백
싱기
##유명
무러
건들
신청서
우연히
길드
청양
배틀
직무
##???????
##아팠
졸린
##랴고
##하장
잠자
진한
러시아
내린
##난당
띄
사업자
##접
악마
운동가
##해줘
꼼꼼
##자용
숟가락
##사업
##라지
육아
##사가
오메
##욱
신용카드
##스트레스
##이스
아쉬워하
##듀스
##뤠
##썰
스틱
찬성
촉박
##공간
분야
달고나
공용
무인
쏠쏠
원가
##직전
##팀장
##충격
타코
##지방
반년
치매
뱀
강한
##자세
##어려워
##아닝
버릇
##재미
##댄다
본체
##뭔지
##지나가
##빌리
##롯
세시
곱창전골
붙여서
숱
매운탕
쓱
방수
##당첨
사거리
매매
체감
자니
쓰레기통
빗
오라방
혹은
##까말까
##장난
증명사진
한편
##이레
스펙
##뿌리
마셔도
##그니까
설문
만점
소맥
##곰
##닭발
체온
신라면
##갈아입
댕댕이
배도
초장
노우
발레
미룰
횟집
부드러운
##이마트
##겠다며
글고
##정해
빨리빨리
##인정
위생
##다나
슬기
지쳐서
들러서
##님의
##어떤
망함
틴트
폭풍
##촌
##도시락
##어어어어
과하
공휴일
디지
클라이밍
겹쳐서
느껴진다
##펀
파업
##엘
나이트
뮬
##리터
느려서
##렌즈
식혜
다른가
상세
쉬워
돌려받
시트
중소기업
던킨
그딴
항생제
코노
##믄서
##시도
##상자
지적
돌아올
골반
##커플
쭈꾸미
모은
소리지르
측정
##역시
##디만
##아픈데
긴급
##식품
타이어
딱지
가난
##따뜻
기저귀
부엌
##신지
느긋
겨울옷
평점
사리
거니
##수영
##로션
당직
빠를
##우산
##제거
클래스
##아쉽
체크인
메리
##연금
머릿결
사직서
비치
가까운데
까르보
##칼로리
##청정기
##방탄
기묘
35
느낄
##오픈
##아래
폭탄
느껴져
소풍
팔자
끼워
작동
당시
##환자
간편
끼우
가네
주년
냅
질렀
##국밥
유자
##허버
##말씀
어마
그래라
##대국
##챙
추워져서
둘러보
걸으면
##둬서
취했
서울역
달걀
치맥
이겼
쓸까
##다이어트
##리의
##장려금
수목
탭
기다린다
##알려줘
지쳐
##삭
정이
아아아아
##스러
##입음
갑시다
확대
마쳤
##표정
깸
##매운
보네
세팅
손바닥
##걸랑
사무직
얼리
마당
##던데요
##구워
##얇
자소
##그랴
##첫
롯데시네마
아쉬운
브라우니
##고딩
키스
무척
편입
##품절
놋
두툼
완결
##6
이성
큰일나
주무시
##부네
##다섯
감각
자러
##셔도
산지
왤캐
##쿨
어떨
박효신
##전환
##이크
빌릴
##달까
빨라서
태연
부추
몬스터
마포
대회
짭짤
판매자
##장소
##꽉
##부러워
차갑
문제지
쌔
##당연
합치
##아줌마
개부
절레절레
내일모레
헷갈려
##예여
무서운데
영통
B
펑펑
다와
##롴
##봤었
##이라도
머금
땀나
워크
일리
##데이터
줍
와이프
어려웠
##뷔페
염색약
구해서
다쳤
건전지
공방
화학
##시분
바게트
유재석
줄지
##/
마냥
##줄라고
##오지
쇼핑백
시차
아유
##젱
시킬까
##긁
나갈까
세워
뜬금없이
어울려
##오름
쪼매
사연
아점
호랑이
고무줄
관심없
해장국
깬
##아마
빠이
에게
할매
##해진다
##인나
말랑
##드랑
##근육
##식스
봐라
새롭
단독
파김치
##그만두
땡긴다
형식
허니콤
화목
버블
##레이
뽐뿌
싸구려
복습
수하물
##슉
##담배
기자
치열
동창
##쌍
##스토어
사라져
디엠
영원히
##쥼
베이비
싸워서
남동생
요약
사가
출신
음원
##카레
흐름
나도야
테이크아웃
슬픔
문서
돌체
잡혀
##기전
실밥
프린터
##빠짐
파파
신박
구미
##총
##머니
##타르트
##녹
##대에
클라우드
외장
복구
해리
전기세
1000
꼬마
다녀와야
안내
##흘리
서럽
##닛
나머진
깜빡했
##가시
간판
##그래두
강요
복학
가실
##올지
구체
##^^!
범죄
배고픔
##쯔
##@
갤러리
중고차
진리
부인
합성
허전
원정
##콩
##다녀서
날개
피시
괌
가질
한다면
걸어오
##들어야
##사갈
##덧
조커
합정
월남
상했
보톡스
교재
수원역
미스트
무배
주휴
바루
##떨어져
댁
왔어요
닉네임
한적
업로드
##난거
!!!!!!
넘어지
유모차
샤오미
##딥
##당황
만난다고
가이드
잃어버려서
사귄
##해소
##설명
##저렇
맥스
장난치
보라카이
비워
스타킹
##동의
##뺏
데일리
유아
평이
##유기
낀
비둘기
##가터
잉크
대청소
##옼
어금니
##컬리
싱글
와파
이천
출고
##는다면
레스토랑
노동
일한
땄
##비로
맞출
휴대
##왱
##당장
통일
##부자
##사리
##잖어
우우
됏
뜬다
##하래
황금
##했으면
개판
반전
##대면
척하
??????
매형
##들어옴
입음
##먹이
번거
잡혔
물집
하차
손흥민
교사
통닭
태민
무이자
수프
##인강
연회비
150
##연애
##십니까
보류
극단
##교회
##맛난
끊기
다만
부지런히
불리
##패드
##들으면
##라오
##의식
##얼른
구해야
봐요
피크닉
##낀
밀크
##증말
##마세요
기쁘
##떤
나와도
거미
파리바
퀵
낸다
외투
엄지
색도
송장
##는다구
##제대로
##메일
##됫
난감
##건대
##기로
##필드
졸린데
하모
명랑
##고푸
고향
##종이
위아래
남성
##달러
하루하루
##섯
##전날
압박
고장났
전복
관절
그녀
파트너
##연결
산다는
##핵
##하네
스키장
스킬
알려준다고
습기
차선
자가
시티
밀푀유
##청약
걸까
아쥬
왔다갔다
합시다
아네
##답니다
##고구마
정색
금융
##반데
재워
누군데
##만난
콩국수
##깜
##심해
환절기
변했
##해쥬
상식
##나야
##사라
보수
##모닝
몸매
달렸
##확
백숙
대량
필리핀
새삼
교실
저긴
축축
##겁니다
했는데도
빠듯
해동
넘나
그렸
##꺄
도안
폐쇄
심야
##당면
##지점
도깨비
논의
##레이더스
갈릭
증명서
흥분
읎
##빠질
승질
적극
##어엉
돼야
내보
##의미
##힘든
뒷자리
하여튼
근까
##촬영
옳
멀티
##나기
이열
크리스피
모의고사
고데
##댕기
토핑
##도림
##일어남
아슬아슬
박수
##테이블
진라면
##차별
대용량
알아봐야
##힐
싱크대
##모델
어울린다
##도리
오브
특강
##배민
##슝
##으다
보고서
##예전
개도
똑바로
마주치
##수록
절약
살라
##깼
머릿속
실컷
비빔
보낸다고
##됔
맛보
뒹굴
됬
##런가
에잉
써먹
허무
##비행기
슬쩍
##쿵
##슬프
##찔
##등록증
##니까요
준비물
초과
바이
##닉
##토리
양성
천호
뜨겁
시동
피디
동백
신곡
섬유
##트랩
낼모레
##마나
마나
##넘어가
##오구
댈
제대
##섬
##x
보임
드럽
현명
돼요
##날까
메가
##자금
눈앞
##롸
##헉
그저께
##앀
모공
장식
##으믄
##거니
##맬
##한단
펫
드셨
##!!!!!!!!!!!
몰라요
##댄스
자요
##지구
교통사고
업그레이드
다래끼
전산
##새로
무서울
정원
##대회
불러야
떠오르
아구래
닭다리
스몰
거북목
지하철역
조작
바베큐
호르몬
로맨스
리본
##덮
지식
외워
경량
와사비
부품
숍
신뢰
거여
찹쌀
간격
##오라
싸인
##강사
##졸리
간신히
##눈치
간당
##구우
##플란트
##사무실
##피부
쓰러지
체인점
글렀
##리그
##합격
##움직이
학습
심즈
##으께
통하
물어
##튜
세미나
깨져서
멈춰
흘렸
적절
복수
스프레이
*
건너편
##나빠
##현
주만
##교사
허브
쉐
어려움
미세
##콜라
선정
수화물
##소득
개추
놓쳐서
베스
신도림
바지락
숙주
파운데이션
##사귀
##대체
시선
식초
##했어여
##뻥
##부담
위안
##쫄
##밬
태어난
##더러
풀릴
아닌디
##똑
##록
등교
빨갛
반죽
안쓰럽
루미큐브
윙
가까우
들으니까
긍가
칼칼
##나무
##까진데
##으네
##오후
쫄깃
모을
국산
편리
##8
생생
##서부터
##인거
재촉
##놔도
##됭
거나
기어
미소
필통
##어이없
알아들
##엊
해봄
입학
목감기
##턱
어필
꺼냈
##출
그만둔
##우우
욱
발열
##항상
사라져서
미역
##들렸
빨랑
갈려고
##스터
강력
##분의
끝나
##시가
네모
##개발
잔액
##주제
오래간만
##지비
##신사
막국수
이탈리아
##브라운
##투썸
##다녀와
##방구
가라
개소리
꾹
스크린
배불
데려
##줬었
##더니만
배신
##드릴게요
덩치
휴게실
##잘라
##자도
특별히
##킴
헥
##주로
날라
##수의
##왔음
##댕겨
아산
##베리
자바
카트라이더
액상
##옌
##워터
잡혀서
##내려서
디카페인
##잡히
상반기
듯이
##쿠우
##기기
막판
삼각대
앎
걸음
##버릴까
못생긴
효도
응아
##쓔
방충망
##볼려고
##븐
##감성
숨겨
##돌려
##하군
케케
낯설
이르
인거
##놈의
##써야지
말아먹
##입니까
텅
##과장
##막혀
##찼
집중력
베이스
배치
치사
이어서
더러워서
탄다고
전무
껴입
버려서
전입
이하
남지
##진료
현백
##세븐
레고
개안
거제
##니트
냉장
비쌌
55
##넫
##준다는데
잌
##<
배꼽
으어
겸사겸사
##대학
헛소리
햄스터
코딩
공모전
내거
푸짐
그라
##슬퍼
승리
##지지
한때
##나간다
극장
케잌
##위주
나이스
마신다고
알려줌
쨋
##옥
##이건
##수다
메밀
바늘
바람막이
우한
신서
붙일
##일자
##!??
##인치
파이
삼각김밥
성신
삼성전자
트리트
폭염
오픽
구직
##자야
마다
트러블
##땈
##붐
할배
##된다구
밀렸
한심
넘어갔
귀요미
임원
낭비
손발
쉐이크
시식
##이기
간절
온제
##썩
내려와
식구
용도
청국장
##본대
##오전
##그런데
대통령
##경기
달려가
년차
##봅시다
구독자
줘야지
치즈케이크
##인물
파나
개편
뷰티
애견
실행
매수
##무침
시끄러워서
##왕국
바코드
##식빵
막장
미미
젓가락
##&
##할수록
##희
##연기
귀찬
또라이
상체
성당
섬세
##장면
오마이갓
기특
댕겨
바꿈
##했어야
별말
늘려
##불렀
올라올
##인대
약해
동해
등기
##였을
##바닥
자잘
뻐근
폴더
##카메라
##범
쾌변
여행지
잔고
쭉쭉
빌렸
약해서
노브랜드
유혹
수험
운동장
산거야
차트
##답답
##덤
쳐야
신한은행
보호자
##줄지
순두부찌개
당부
대변
벅스
부가세
##놀라
##들어온
화이
##멋있
시나
월드
이래저래
##났었
##?!?
어려서
한옥
##강아지
아미
##둡
모하
으이구
남녀
개짱
한지
##시청
##타로
즐거워
박혀
내려놓
##줄라
##불쌍
트라우마
낯
##산책
##교정
재채기
바뿌
##그래야
로망
저스트
막혔
살도
##라매
마심
##광고
전동
걸어갈
돌잔치
담양
패밀리
##조타
발치
옮겨야
클래식
수거
##소설
쿠우
##불고기
쌈장
빕스
끝난다고
##깎
##라더니
##빠져서
시집
시안
가두
지겨워
경찰서
바를
##긱
파스텔
별론데
텀
그쳐
형제
##숙소
어려운데
##라뇨
차별
##로서
훌쩍
놀러가
##십쇼
##먼데
함정
##깍
현기증
승진
##잖여
사소
##카트
우비
까페
편한데
구청
마을버스
스토어
##좁
효율
맞춤법
흑임자
빼먹
콜라보
주워
쓸데없이
링거
김치전
금식
글램
돌려야
어벤져스
편이
단위
##기록
찾아오
쫄면
##콘서트
비올
윈도우
상영
행거
##7
##타입
##컸
##실패
##여대
##킥
공룡
사수
또래
##내림
요고
귀여울
##간식
깜박
설계
꽈배기
##터져서
달리기
어떤데
믹
##공연
##확정
관리자
텔레비전
##응게
잇대
원도
티라미수
살림
난리나
학번
고름
##외과
##가스
##무료
##까요
##페북
마법
사치
볼라고
##케어
기아
볼륨
이브
에스엠
정책
숙성
왁스
##D
데로
##들려서
넘어갈
타격
##일어
##은대
##테스트
##참치
##마셔서
저녁때
여우
##고얌
##반지
추리
##붙여
김천
##다기
학자금
삼마
미뤘
데스크
서명
##그룹
안타까워
##올린
요플레
##택
##면세점
녹화
게이
##바꿀
고시
##할까요
수세미
발령
##직구
이건데
박보검
##벤
##카세
올라간
무급
말일
빠진다고
이율
훌륭
꽃다발
태권도
##송이
갔다와
토했
개귀
오므라이스
동그란
하와이
누난
##보스
##그린
캡처
하셈
꼬박꼬박
소녀
##수가
레이어드
쎈
생수
##소만
맞춤
만원
##느냐고
##윽
##그걸
실용
일시
환영
외할머니
##져감
그제
##못했
스키니
##식의
가져간
가여
룸메이트
홍시
뒤질
웜
##할라구
미스
컨트롤
##눌러
시금치
##목소리
한결
출출
리디
선반
강도
망해서
##토익
##브라
##불닭
훈제
국민카드
조화
##간다는
다닌다
##뮬
사귈
걱정하지마
##라우
##두요
##샌
##자녀
아구찜
##주라
프로모션
##설마
개그
##뵤
첨부
지켜
하악
##쳐도
만보
매너
올꺼
취해
##공장
##사기
들릴
프리랜서
##이드
##지났
놀란다
##실습
치즈스틱
단풍
##어딨
겁내
낡
팬클럽
외울
##우가
##줄걸
부피
##난대
##설정
##줍
##아메
죄책감
을매나
우도
시민
스팀
한라
혈액
카키
질려서
##페
간헐
오뚜기
샤인
퍽퍽
쉑쉑
##투표
시험장
박람회
##바가지
선거
##세유
성실
##을고
숯불
조직
얌전
극복
살리
건강식
야호
갈치
##리오
몬데
##보소
##짬
난이도
##으실
오매
기념일
횡단
이내
##대한
멍들
얀
공홈
##뵈
##여요
장단점
남방
##옮기
어려우
갯
개로
까진
##한겨
##툰
은퇴
오와
오더
워킹
##둘까
휴강
##개념
내려야
메세지
물음
면봉
웰
##젖
마루
원격
통째
에이에스
마신다
법인
빼놓
불금
아아아아아
꼭꼭
움직일
##라기
##거림
##뒈
변호사
##쬬
##으라구
##혁
편함
##!!!!!!!!!!!!
계약금
야기
##가래
제시
아녔
플랫
##키트
##성격
찜찜
손잡
##야가
붐
재능
서랍장
##오더
조앙
모드
##사회
앞이
밀려
##찮아
##설치
##올렸
기관
##엔딩
애니
##보삼
치워야
돌릴
웁
검토
어딘
기차표
횟수
브로콜리
##시급
별도
액체
제습기
깔깔
처먹
잡음
반영
##편의점
##거둔
##윤
##달도
##쀼
할무니
조음
##색은
연달
살찐
밥그릇
납작
신중
##감동
심한데
미칠
격려
허세
마산
##뚱
큽
낭만
컨버스
깔려
##건너
바구니
##랬어
##쿠쿠
##묶
##는구먼
할께
농구
##교시
이유로
교과서
##국물
##빙
시킨다
놀란
재산
힣
수량
생긴다
바탕
##비씨
##공사
뛸
품질
서핑
수요
선약
##19
##싸우
코앞
멍멍이
다정
##애인
쓸모없
지리
주도
대가리
##상품권
중반
자려
##조합
뭔디
체지방
단단히
##맄
사본
섭취
이뻤
해두
##댕이
탑승
지나간
##한다니
##벌이
코끼리
##하궁
조선
하객
반드시
누굴
##환
장거리
오랜
개무
화난다
그릴
##볶음밥
재방
나주
아스
세포
##안감
중심
##의사
본전
대우
##결
매점
문어
##쳣네
##릅
상견례
##결정
하반기
안개
극한
철저
##카로
보강
흡수
서울시
그래픽
요즈음
쨍쨍
##A
남부
##30
##다냐
어허
아찔
지나갈
못자
##싸움
##삼겹살
##멤버
튀긴
탄다
난로
마마
구구절절
친했
기다릴게
보여준다
정치
##퓨저
망치
들으러
##갗
##편한
채워야
##밟
불어
##스퀘어
메신저
쳐먹
##기술
고작
동그라미
막힌
글씨체
##토요일
린스
##고맙
받아들이
흡입
부업
##꽈
재현
붙인
통보
##직업
##마취
내려와서
스위트
납부
세븐일레븐
만든다고
적성
폰트
발주
##샴푸
껴야
주나
당일치기
막힐
##TV
막말
집단
뿜
##라다
##마감
##신디
대처
##냔
##든디
##인줄
인화
입히
##납
##어나
데려오
##붓
##기여
##경험
##에게서
잠든
바래
말린
##어색
##으렴
##냉면
미정
버정
대접
논리
공대
라이
사모
##구가
온다는데
프랜차이즈
##내요
##라곤
해보
고등
통제
기다림
##최애
고장난
##방향
스페셜
중단
팀원
게시판
##자전거
##라이프
식도염
집의
신축
루트
슬퍼하
안약
시비
불면증
사진관
##쓴다고
차비
끌려
구내식당
##자여
경상도
##때려
##립
신체
죽여
##팍
메모장
주니
따르
마그네슘
계신
##기념
##갈라구
무도
##질러
##실에
##패턴
흐아
위하
넉넉히
깨졌
맞춰야
##다니깐
##문화
##예상
이니스
오열
남산
##딸기
##쏙
동서
쓸모
노을
##에이
팔꿈치
잔금
차례
끓여서
셜록
주신
컨텐츠
검은색
엄두
사나
##프로그램
을지로
히피
레터링
온다며
메이
인적
##그라운드
스파이더맨
공제
방석
외워야
##더워서
##꺼라
##야스
운전자
##킷
스님
꼬시
냅둬
깍두기
의상
##더래
##버린다
맙소사
삐졌
할려고
멍청이
##엡
##에서부터
깜빡하
농장
퀘스트
##마심
거꾸로
등본
##문의
생존
조하
##옛날
사우나
단단
구거
회화
##저장
사모님
비디오
현질
일전
##사의
키트
소통
##대도
후문
살수
변태
시점
##못함
##사원
하수구
##디자인
##안정
도둑
본점
인종
##전한
##떨려
쇠
간조
네비
관람
##뜰
##주차장
양념치킨
전송
먹자
톨
그면
남긴
쫀득
##공구
콘텐츠
갈일
##멜
##확진
##깃
##바보
마땅
비트
##지우
계셔서
테슬라
##피치
##반찬
##윰
##져도
##충이
세로
근황
##상하
보단
압구정
특수
짤리
##확률
금주
감자전
##땜시
##시야
놔뒀
##핑장
최소한
##그날
녀석
##세끼
갈리
떡갈비
삘
공단
물어봐야지
##피스
기름진
창가
##이요
살쪘
##도전
나훈아
뛰어가
확장
일차
아마존
보습
에그
방울토마토
혈관
기스
타도
신호등
텃세
막힌다
젤라
난다며
소나기
400
올라옴
효녀
게시
##갤
운다
채로
신이
캄
반갑
희한
##탭
포크
개명
##미치
##낭비
키웠
호감
맡겼
조급
그냥저냥
뒹굴뒹굴
하품
표지
##뭇
##기러
결혼식장
났었
짝짝
##챙겼
##족발
그런다고
비행
##졐
##샐
델러
앰
아이파크
동화
찔
##주년
헠
##끝날
줄넘기
##랑가
환갑
D
##뿅
댕기
단무지
남양주
##주래
와아
만난다
명작
과메기
야시장
##이불
두산
##잠옷
토퍼
##대용
시간대
추천인
루프
꽃게
##거울
해변
화수
##투자
무화과
예고편
다낭
콘셉트
##9
##기자
##중독
뾰루지
##랗
##킈
청량리
##걸요
##놐
타이틀
##목록
골뱅이
엽서
##제랑
맞이
##한다니까
체하
호두과자
신비
개심
소리야
##질문
쪼개
##모이
##핸드폰
연상
##데스
낮추
강추
##여섯
모라
인하
제때
두근
##꺼만
이만큼
혜화
워홀
언젠데
아쉬웠
풀린
욕실
##지진
큐브
쳐도
색칠
모카
##으려다가
앞부분
사례
돌아다녔
##바디
##낄
블러
심해져서
라이프
닭꼬치
껏
##구청
##따움
개수
비린내
그쳤
##10
##야근
풀려
독해
소변
예예
냇
칩
##인식
##해결
아임
##맴
##드려요
주자
여름옷
와따
##열리
장르
##긴가
돌아갈
##기차
##어따
호로록
##고치
그럴걸
바가지
##뺐
##클렌징
클리어
##부니
까다롭
##난데
추리닝
샤프
인줄
드려야
포즈
고쳤
일과
대천
거슬리
##결혼식
##입구
##키키
산소
##졋네
츄리닝
휴양지
멈
푹신
화보
##는다는데
##마인드
성의
##베이
드실
생긴다고
##메가
실천
짰
발라서
##이포
##온도
동사무소
역류
향신료
보디
경로
2000
해야겠네
추어탕
컵누들
##슴돠
먼일
그럴지도
수저
##반응
쪼꼼
##다우
아가씨
맘대로
구만
##리얼
소용없
얜
의무
판도라
잠그
##루나
##일본
##배고프
감시
지난달
##나보
연관
##기본
돌아와
##땡큐
##달리
##증이
활발
##맠
##거긴
대패
그만뒀
##던대
퉁
고춧가루
##싳
##취업
##방기
##버티
마요
##지하철
와야지
##이어폰
종이컵
미터
기념품
##직장
뿌려서
눅눅
건드리
연출
스릴러
M
마카오
양양
적도
신화
세무사
조조
트렁크
구웠
##꼇
존중
##아이스크림
허접
살쪄
L
음력
더욱
##보당
수시로
##하셈
나왔었
충동
부러운
##빨래
씁쓸
파도
##해줘도
##쓰여
##놀랐
##작가
따른
터키
차근차근
소액
우승
##쐬
롸
##핫도그
##실력
감싸
##제출
훈훈
대머리
전생
##벨
##엣
송년회
빅뱅
물렸
##어가
나올지
예금
만기
부치
##보관
##장사
##이의
정수리
##헤어
##해버려
##가을
한다는데
쌈밥
##돔
시그널
점프
##스나
서브
튀기
부채
루이비통
##된다며
##지워
진해
사이렌
##학과
월화수
포트폴리오
후라이팬
패치
터널
숙박비
##파트
명란
##벨벳
진급
전골
목동
금리
보풀
당긴다
##젴
##지키
##봉가
쓰러질
##단위
깰
날려
##쌌
플래너
당해서
목사
##푹
심정
몰카
요정
진실
퍼먹
유도
##요가
##폭발
이웃
닉
할게요
즐길
##근디
거잖아
##심각
통관
따갑
나빴
경고
빠져나가
##대상
물어봐도
##증상
개비
##넛
##하드
울컥
안부
펄
수서
두드러기
##쥰
보리
말라서
개설
##나나
쏟아지
상여금
쟁반
슬플
##고선
별게
##청소기
골고루
동일
기종
규모
붙여야
퍼지
면회
영웅
##독
알약
새우튀김
##적금
방지
벼락치기
동작
부스
단가
##속도
부러
인디
장보고
보세
##느껴
##한다던데
빡센
##화이팅
기다린
줄여서
명만
##갈게요
이루
갈고
##한대서
양주
해줘야지
저금
##편집
##예쁜
시퍼
날렸
##먼가
##둔다
##저게
내것도
##굳이
##떨어졌
배구
##은고
##대표
쌍둥이
##나서
하리보
차원
##서도
베리
소진
논술
가든
아이콘
압축
운행
씨앗
분해
나온다는
메이커
당해
사설
마녀
##화폐
##시리즈
##인터넷
찢어지
암기
서치
회차
메뉴판
결항
배정
고시원
##벽
정신없이
##얄
##보인
##니야
##금요일
히힛
선명
집어넣
몇몇
룰
##쟠
김선호
나대
##편히
##위해서
해주
##미터
수염
왔음
이상형
왘
믿음
따시
거르
저럴
##지기
##끓여
여러모로
##스러움
때려치
삐지
##샤워
##자서
##이벤트
정자
헣
된장국
##엏
강조
##생파
##엎
위기
##멘
상승
##바비
바리스타
걸어다니
가산
묵자
병행
아쿠아
정규
##뻣
플렉스
##이걸
스탠드
헌
귀마개
유연
덴
뚜벅
지장
안목
유령
유기
##간격
##판매
##켄
상해서
호우
##스테이크
##s
##식이
처갓집
사마귀
일억
연남동
등촌
너모
##른데
꼬르륵
##죄
##쉬익
##^^*
##드립
폈
들이
일치
##갬
암만
그놈
데릴러
##정의
오지마
무사
민감
고거
미아
##줰
##바꿨
각오
괜차너
이어
로즈
알코올
##으면서도
피해자
##껌
##친한
가로수길
탄탄
##끝났
기다린다고
##온다는데
몽골
##가로
싶어요
cm
제니
들어온다
##자격증
##덜덜
##추워서
양상추
##검정
시외버스
수명
부려
싱싱
신문
##고지
##고가
살아가
##망고
##이쁜데
##꿧
사유
시그
자금
##트롯
서산
들러
##스에
##쥬스
양고기
양평
산업
무한도전
아웃렛
##스러울
백수가
주무
##꼈
에라이
##마신
##겁
##구랑
전형
##아끼
##인감
##기보단
소멸
차액
##건조
##주식
질릴
저격
##자자
문방구
##소비
맞춘
타르트
가져올
##볼꺼
##려고요
##허허
##데려가
예비군
기력
##함다
말렸
##슥
쟨
당사자
##달린
외주
몰입
때렸
##가타
객관
##펙
심란
아나
이진혁
다님
##소음
##갠데
체해서
팔려서
워너
코팅
분후
##스도
##나을
만료
현대차
##지의
핸들
장례식
##오가
사항
양은
##주차
광어
마늘빵
범위
후임
홍차
##피아
저쪽
개의
런닝맨
오션
출금
##통운
변명
##대나
바꿔도
커플링
자네
월드컵
수면제
도중
오랫만
##월요일
##썸
##코로나
감수
쉬울
비해서
##하공
##녓
자율
##는감
##보라
##밝
##줄이
식은땀
##아내
##놔라
##잠들
##드라구
경계
##서기
##물어봄
짜릿
키워서
하락
즉
정한
내려왔
회피
득템
##빤
연유
##일거
곰탕
##큐브
무지개
기달려
##네오
##역사
버텨야
발라드
청포도
뒤늦
경리
회전
돌아다닐
##들으면서
##요일
위쪽
마스카라
##칫
호흡
거만
그새
##감독
내게
아프리카
불매
원단
##헌
상점
##필수
나사
샀으면
임금
##공제
##베라
워드
##제작
##코노
잔치국수
여행사
블랙박스
##방울
꾸역꾸역
지긋지긋
뵈
팝업
어쩌면
채웠
##요정
##!!!!!!!!!!!!!!!!!!!!!!!!!
드러
씌
불타
##악의
##래도
내맘대로
아자
현상
##봣자
자아
슬푸
할까봐
장수
노후
절대로
##야말로
##단어
##산다고
##찹
##가야
펭귄
여행가
##????????
징징
헹
저절로
후유증
##쉘
##와유
##책상
고냥
##한국
우디
##탁
##전해
##중순
바라보
##조건
올림
보증
##st
리뉴
일교차
일러
##걸린다
##흔
계산기
불평
##브루
용품
싱가포르
다담
뒤쪽
교보문고
분차
장조림
리모컨
함수
전구
##전용
라벨
파토
##대답
슈가
##짜장
졸릴
본다는
중지
##위한
캐리
##귱
논다고
폐기
현금영수증
꾸며
##이가
단타
##보호
인맥
챙겨오
앖
##텅
##부려
인스턴트
##집중
깨워서
포차
히익
##픔
웃긴데
트레이더
힘든가
##접종
반스
폭력
그렁
듬뿍
##비랑
리그
##앰
걸레
칙칙
##렙
##쳐야
조이
##켰
##아두
##메이드
라이더
빈자리
수련
명단
플랜
소송
##좌석
##숍
##에유
차돌
##맛없
궁합
##어다
잊어버리
전라도
##빅
등장인물
##바이
##번개
##스프
고픈데
해제
네스프레소
##오프
쯔양
습도
시지
직항
기출문제
저분
할미
##알아듣
아잉
스노우
쥐포
아까우
##케케
냉정
끙
##도요
##냬
캐롤
##그래요
키위
##떨어져서
##배경
경복궁
##주네
줄임
개배
인수
##웩
얼추
물려
스윗
성경
시무룩
##잖소
##셍
목숨
큰엄마
대강
허겁지겁
엔터
남포동
##엽당
##무네
설계사
합류
혼란
##혼산
동태
학부모
콩나물국
스텝
자수
##퀀시
##마늘
빠진다
##가깝
##올랐
분류
치석
##일전
인중
액션
##호수
툭
걸치
중임
##내렸
내려올
채식
광장
잘라야
불쾌
##으므로
라운지
구슬
##볼지
고무
##들어올
당겨서
기내
코어
로퍼
재방송
##품의
렙
쓸쓸
##빠른
##내야
토르
##짖
##불러서
놀라운
쵸
##한테서
정국
서프라이즈
##쪘
캔디
지민
허용
현관문
불구
잘래
아진
##이쁨
회상
간다면
길고양이
치웠
존댓말
아무거
아포
##풍
괴물
길러
수료
학창
##스킨
거치대
미침
해남
부사장
##모를
화성
결혼기념일
놀러갔
##쎠
통했
피자헛
묘하
드럼
##엘베
##풀이
헷갈렸
##드니
개고생
부여
지속
##외우
푼
##돈데
브이아이피
급해
어뜩
친정
라벤더
핳
##물건
##노래방
청라
##음악
뜬다고
##헹
##싹
##소독
##워크
##놀람
아동
포스트잇
##스티커
또르르
스쿠터
해체
##준다며
포장마차
강진
내성
##터리
김치냉장고
등갈비
##파오
600
##연휴
바쁨
##쌓
예시
##프피
바쁜가
스냅
사라진
시체
##이소
##니랑
##괜차나
대지
수록
##가득
본부
##앸
##유형
술자리
##보통
들르
올려도
차마
##유리
##둿
##라가
##나쁜
비어
##안행
시름
##시럽
기독교
##데몰
들어온다고
##조앙
시어머니
자영업
##색도
##발견
통이
##오오
축가
몫
멈췄
쉼
그리워
##춤
갈라구
정석
##보여줘
간당간당
선택지
제조
##놨었
##아만
수월
들키
포카리
잡아먹
##인원
해소
사대
##쿠션
호환
편의
돼지갈비
##쉐
바꾼다고
쉬워서
석사
##판다
##연수
트로트
##입력
캐스팅
플라잉
##인기
쓸지
##회원
##해진다고
워치
판타지
시흥
##파바
악기
##네잉
기적
여분
##아네
##피싱
##빗
뻥치
용어
##좌
한듯
##매직
##와따
쟀
부쳐
##게끔
##안경
##수지
##슴니다
멍이
##입맛
당구
비즈
증명
신인
됑
뿌렸
개피
##덕분
##갈겨
흔한
##추억
##센스
##낸다
##마이
거려
굴리
##먼지
설렁탕
수집
래쉬
스무디
##가부
유미
개그맨
이과
##예보
##방식
##수목
##라이브
체했
일찍이
아이린
개야
아침밥
##예스
옆구리
##공고
타이
찬바람
레포트
머리숱
프라다
이자카야
헙
로비
둬야
병실
덩어리
소울
인용
한라산
흉터
팝
수시
알로에
##엔비
이수
##혈압
계열
가늠
##시그널
체계
통합
데드
다루
임마
##아바
초면
##하거
##켕
장담
##떠나
##섞
넘어졌
접종
어데
##지경
##나름
기뻐
##시반
##뮨
##부서
##통닭
동반
발등
목구멍
##남겨
주구장창
무서우
##겝
##혀서
온나
성별
기미
내새
소감
옮겨서
##>?
##이브
##우울
느껴져서
##구들
##볼라구
##글자
수학여행
##갈려고
스쿨
키워야
부딪히
일시불
꽂혀서
##마마
분기
대세
##직이
마사
생으로
##플레인
가상
##약국
독하
##로라
변동
앞쪽
##집의
락스
독특
고랭
업자
##대리
파프리카
흔하
잭
평택
체크아웃
에스컬레이터
층간
리퍼
가락국수
핼러윈
##무조건
##라라
##선배
일등
잎
운세
##하진
흐린
넘어져서
혼인
드세요
##임다
까묵
살걸
채워서
일당
가르마
면도
##블루
##초반
도구
리틀
##실까
흠흠
연착
세면대
##고양
닭도리탕
##자유
##전공
##놨다고
##국가
##조끼
깨물
자판기
찍히
부끄러워
##쥥
엣
손재주
몰리
틀려서
##떡먹
느낀다
##부가
##더군요
석류
짚
정직
끊겼
소요
##녘
입안
어땠어
##맡기
유니크
##방문
미뤄졌
한다면서
도박
탈까
다큐
안경점
누락
ktx
보낼까
##밀의
유선
kt
재직
국장
짝퉁
아이언맨
엠알
정한다
에이치
##나베
미러
건성
내린다고
반미
##진지
전해줘
에피소드
##해뒀
##케잌
드셔
밥맛
##해줄까
##만유
뜬금없
만성
변한
##하심
명치
따라오
##담날
##낙
사이비
##회중
유출
##편지
##왔어요
누군
경산
불려
야나
다람쥐
나올까
드레싱
삽
##부모
여신
문정
X
문과
정할
콱
핫바
부시
과천
찬양
##린다
드릉드릉
그른
##쥬얼
##을랑가
##다닌
##라는디
##순환
##나갓
배변
##표현
스펀지
정돈
##컬러
부어
찬열
만세
때우
##방이
##링크
신발장
미용사
회가
벌기
미싱
##가실
눌러야
##스터디
##으라며
오를
거진
스트리밍
피자스쿨
##봣지
흑발
영주
컬리
카니발
올레
페인트
밍밍
##헬
부침개
##스랑
피클
트렌치코트
디지털
##정원
시나몬
항공사
##허브
포터
광광
##혔
##먹방
주량
벤츠
얌전히
흑백
시킨다고
##만지
병아리
##반차
##읎
꿔서
움직여
내용물
##환경
일일이
일간
협박
청량
##마라
##도의
##깸
##주세
항의
세련
분안
심할
탐폰
싸워
복장
##나눠
##문신
##큰데
명상
볼수록
##인듯
##데이트
땡초
쾌적
##댓글
##성의
##덩어리
서가
반대편
##밭
왜구
비키니
감안
##게라도
개선
물린
##우내
대한민국
도마
##서의
친해졌
자판
평창
꽁짜
그늘
##것어
화날
##대사
##일기
복불복
##로부터
군만두
##라던
아시
아껴서
무야
박물관
광교
기쁜
머핀
쌓였
뜨개
달인
##바를
팜
순댓국
##레오
버버리
에뛰드
튀겨
시드
충남
교보
지불
sk
원금
##펜슬
세입자
##S
쨍
아인
별생각
##에에
##올께
거마
음주운전
##농장
닥스
봅
##원인
왕자
조오
빵꾸
소아과
##교환
항문
감옥
##간다구
수동
##찻
우씨
가지도
코치
생각없이
놀랄
##노트북
관세
as
장인
야아
벅차
##뉴스
우기
하소연
##최
와이드
비켜
원숭이
후련
슥
##대화
외삼촌
##레스
두께
##입지
##가진
##첸
검색어
민초
괜차낭
게시물
경치
라임
드려
도토리
낸다고
##한다면서
섰
##연장
점퍼
구이
레진
##달려
##보가
##빛
돌려먹
현빈
코너
##독제
##뿐이
팔릴
관광지
교통카드
한컴
들으니
그라운드
오피스
닭고기
초코파이
육포
캡틴
전세금
열린
##회수
원임
동래
화재
매웠
렌터카
##귀야
윤기
##말라
마칠
거길
이어지
신기하
##가져오
##다녀왔
##말자
혐오
!!!!!!!
##쟁
인한
쌩쌩
자괴감
따져
씌우
비상금
멋쟁이
##통하
##드린
##확실
사골
커피숍
마비
꽃집
버텼
##비디오
##온겨
푸들
도면
금전
텍스트
상금
만천
깊이
작정
##어니
바야
홀리데이
박카스
식탐
망가지
져서
깡패
하아
뵙
보컬
지낼
##하규
##봣나
적자
##당할
##가수
##가까이
레슨
퍼즐
유전자
소박
사시
##솔직히
찾기
그럴려고
##마셔야
확고
감상
말릴
단맛
꼼꼼히
##소바
트럼프
예식장
들으려고
미키
틈틈히
폭주
알아본
실검
김제
난시
제이
흐려
테니스
작곡
##비와
##곱새
미술관
뱅크
보험금
위내시경
나을지
어벤저스
##CGV
해준다
네에
##어서요
##어뗘
##로써
##아선
유산
구니
전도사
끓인
여럿
아무런
오락가락
일러스트
미칭
암말
코딱지
##큰일
사내
절친
벤치
G
설리
농사
##타가
터짐
승무원
##천국
밴
##기타
##협상
될까요
잘리
소모
손등
사요
##긴지
출동
멘토링
아이고
거하
갑갑
면허증
##날리
##순대
이민
저금통
##이익
덤
##깨끗
렌트카
##간다며
##분석
우등
중도
##벌레
영광
우대
고르기
종각
머리띠
파닭
공문
카운터
##영업
##으려는
들으라고
##존스
서귀포
##유지
##경력
##이동
##키런
퍼플
김지영
내보내
파벌
##인상
어유
누울
볼살
지대
혈당
가운
흐으
##죠니
화낼
물기
부직포
##체력
##어려
살려줘
##차단
누리
##광
포근
대파
쌓인
울지마
산대
꾸준
아쉬움
##고나
덩이
무음
메디
##부렀
뒤졌
혼잣말
##타올
여사
때릴
종목
잠자리
노출
##가끔
기냥
렬루
물욕
##B
##샌드위치
징그러워
예측
##을려
##엔가
개신
##간의
뻔하
##웁
협상
##이따가
편견
잔업
무너지
나아질
나을까
사용법
오키나와
며느리
kf
##정하
##에스티
해열제
요요
병가
삼월
##생선
##수정
줄어드
##헬스
한파
##니버
##전문
인증서
베이커리
다이렉트
지름
정착
##지여
기말고사
즉석
자궁경부암
##부츠
계장
귀리
빅맥
삼전
##요금제
비말
프라이
줄거리
##주간
영도
##믹
식대
뭔일
뒤통수
ml
줄일
도어
##여야지
##자국
##공유
##올라와
어째서
뻔뻔
##쏠
##니더
거봐
제자리
##동이
슬퍼서
천지
안동
토닥토닥
##지유
##일요일
우우웅
##같애
##들어도
##물의
아이라인
##개웃
헷갈려서
##겉
대가
##귀차
진미
욕구
##시여
##시계
갭
##무엇
나돈
##후회
윗사람
##살짝
##줄려고
사극
연구소
킼
플립
##하늘
가물가물
핵심
본죽
##vs
##열공
떨어진다
##점검
##더라니
요렇게
##막혀서
다녀옴
해본다
섞인
어항
잉잉
전후
스파이
편했
경남
태블릿
하지
즙
테라스
풀로
##오브
##쟌
날라가
매미
##라야
버스비
##연차
##궤
옷걸이
치실
디톡스
일지
##효율
질렸
취성
##사거리
##이전
##막창
옥션
##센티미터
호호호
달성
텐션
##윙
두통약
오래오래
쳐다
울지
##그럴까
##라니깐
개기
일진
죽전
견딜
내버려
##남기
열흘
여동생
##지망
틈새
##비해
##손가락
불행
도와줘
잠드
##렉
그르니까
느껴졌
##솨
중형
분의
들켰
메론
##몈
효자
연구원
##가가
꽁꽁
##드셨
##랐
##^^?
맘껏
우짤
##소주
##부산
강변
##고픈데
##생길
##한데요
부른다
라서
##가져왔
##골랐
탐나
네이트
메리트
후하
달랐
김밥천국
##차야
화정
스물
##수수료
토로
고스톱
##g
골든
수리비
로드
젓갈
언덕
##골목
어지러워서
문학
댄
##정식
참가
심판
예고
포테이토
유성
곡성
에러
파운드
스피드
소바
바삭바삭
애쉬
비서
다방
두꺼워서
셰이크
소득세
레이드
만날래
연한
까맣
##주세요
요양원
##인걸
번지
##느리
태어났
##화장품
##??!
##비교
오죽
##블로그
뀨
##기억나
빌려줘
잦
##괜히
##심상
가도
##코코
넘쳐
비슷비슷
세끼
리조
고마어
와장창
의리
와나
멕시코
##고모
시출
##해쏘
정각
##해다
비유
##국의
##박이
그럭저럭
뻘쭘
##댔어
##야죠
##해야함
공학
월도
##크크
진화
이휴
##서용
계획안
문득
##겠는데
##스러우
##머지
깨닫
##리도
##나이트
젊은이
아닙니까
직관
코스프레
의아
재무
켜져
구도
캐릭
노랗
##결국
고문
##쌔
##챗
주유소
구우면
나스
##이론
##푸치노
폴라로이드
정형외과
머시기
엘에이
골치
노선
썼었
반숙
두꺼워
##대전
푸른
##복이
독학
##양식
사셈
장롱
고를
내로
마들렌
지하상가
배드민턴
##하로
##후의
제습
초파리
##히트
지원자
페스티벌
##청구
대중
성대
풉
저랬
찬찬히
노가다
##?????????
고양
##며칠
##로우
가디
텅텅
음주
##으세
자랐
##힘내
어두워서
꼬셔
본적
##호호
나른
##한댕
등짝
##인다
##대해
할라구
##작년
##렄
##스면
손수건
고만
##부여
내린다
디스
선이
##제주
튕기
회수
##저렇게
##으신가
##된다면
##여어
##아오
예정일
에에
매복
##건데요
공채
##치도
##공인
아껴야
##앨범
##도넛
##측
##모지
부케
##마사지
훠
##듸
##cm
##라던가
##모기
##a
##러쉬
비웃
고로
##정인정
명곡
믿기
##헤이
논다
##은데도
##땟
군고구마
청소년
##앴
큼큼
##말투
##양념
출입
주네
##로리
##닐
##거도
##갇
##화나
먹지
아마두
##어보
##우와
##볼땐
증가
##될까봐
꿉꿉
타인
마피아
방음
고척
물려서
바비
앞니
동호회
재발
포장지
##살인
턱걸이
##장터
##추운
나트
보급
에타
아반떼
통신
##세사
진입
주회
바비큐
파견
아고다
평수
스포일러
##휴무
그럴라고
폐업
##뉭
헤어져
아쉬워서
헐렁
정체
무식
욕해
서열
전략
##아포
납치
##사러가
한달전
##성적
피나
이의
##사과
##려조
##라소
순하
##다치
##간단
주황
금이
##들어감
##영수증
##긴다
##믹스
의향
가치관
뽀로로
##은우
##치러
펑
강해서
##할아버지
양반
다녀야지
영문
개성
강해
##자연
한다구
##테이프
개막
열라
##눼
타일
##냄새나
사이클
##장도
폭우
##우린
연필
대선
구천
초점
패러글라이딩
##걸어서
가져간다고
넘겼
혼내
엔딩
##센치
원샷
##물질
배고팠
뚝배기
가격대
공급
혜리
제법
##둑
견디
벌리
담그
전단지
시끄러워
참외
우야노
꽃무늬
##러스
담부
돌아와서
요리사
##명수
초조
구급차
필링
비타
입장료
##피티
전통
바느질
##포카
꽂혔
안타
놔야
강습
동구
##조회
연예
##제한
스노
##시설
격주
개발자
홈피
등의
##갈일
##알아들
##보인다고
##해봐도
엎드려
졸고
##필터
생각날
열렸
##졸업
롯시
##격
##열려
떠올리
구월동
##춰
아니요
배부른
##한가요
구비
##으려는데
흔적
올거
##돌이
무얼
심해졌
들어
##주자나
저주
주장
##꽂
##였잖
##차지
일가
##취급
##친하
동원
고마운
강연
몸통
목도
##전자
원해
갇혀
##고함
스프링
부름
소매
##구두
##시펑
##지옥
##뿌려
##넘기
상위
##클라우드
##말론
##무거
##찮은
넘길
하튼
##뽁
##날라
써져
##단발
##본지
죽였
돌아보
소분
발달
발볼
동묘
털리
크루아상
후루룩
##일월
##라스
인대
비즈니스
흠집
백반
쓰려
##근로
범퍼
비싼가
리터치
찾아본
티저
안드로이드
격상
근로자
보인다며
##더기
재개봉
##티브이
32
땜시
죽일
그루
삼실
공익
찍힌
##캐릭터
##먹장
아늑
##패션
전남
##와우
가서도
##해지지
말랑말랑
유가
갑자
앞산
해조
##놔두
움직여야
##갔다와
비리
아크릴
방광염
조은
가벼워
##찮
##카봉
지친
재작년
##가져갔
##우웅
##자면서
제본
##행동
시켜도
##벙
찌르
편두통
괴로워
##모루
##바이러스
송이
##메이트
소비자
봅시다
추구
늘어난
키워드
##됐었
##빙수
##대구
일층
##내놔
정독
아빤
##넉
고마우
##츈
밀릴
일주
##반대
바글바글
귀국
나으면
냠
제도
창이
주려
킬로
##후드
##깨지
저녁밥
달릴
라인업
##줄줄
음음
규정
댔
어울려서
오디션
##달치
호러
셔틀버스
백현
##트럭
분위
소량
##커스
사운드
마쳐
크롭
끊겨서
비판
후진
주연
##향이
##접시
자를
제약
단축
스킨로션
##루가
첨삭
쓸래
##탄다
퍼스널
##플레이
펀드
확보
크라운
수납장
도보
##감정
까불
지쳤
동글동글
##아나
##떨어짐
##이젠
더더욱
구질구질
##나잇
꺼졌
개정
##순이
##멀리
##둘려
침착
##늙
##이것
꽂히
풋
##남편
##등등
부캐
##갈까요
##미쳐
##여라
명도
##세우
##무난
##당해
시나리오
##꾸미
##미가
맹
##기견
##아부지
##해해서
나서
##G
##렉스
틈틈이
삐진
쿵
몰르
안사
##가져와
선별
간지러워서
설명서
##논거
##물어볼
찌질
##실험
##할려
신의
##맹
밀면
##냐는데
##서로
소면
분유
차차
##각이
쥬스
##표시
##쮸
동방신기
채점
목줄
##만한
쫑
방영
부재중
미신
최초
끓일
근뎅
거창
무드
찡찡
##채워
뭥미
##봐두
##베개
한정판
주유
##중야
##욜로
추워졌
##당해서
루루
급히
##야구
하남
하장
이익
전했
캐치
전화기
손소
##계획서
판정
탐탐
문구점
이곳
하이라이트
비투비
수족
##학습
익스
불친절
발라도
##패키지
찢어진
피임약
통로
사보
러그
왕국
경차
se
700
120
빼빼
은데
라도
##으으
##땐가
##던가요
이태리
어뜨
완치
거구
느그
개사
##민망
아쿠아리움
그래그래
##생리
##될걸
훙
뿔
넨
##쓱
입문
백마
충무로
연초
망상
##원장
갱년기
애착
##감염
마주쳤
조심조심
무족
##비에
영역
##쓸까
뚜렷
꿈꾸
##나마
진단서
##포즈
##추울
##습관
##풍기
##이미지
돕
##일어날
에스프레소
아픈지
콜라겐
공부방
물병
학대
현수막
영천
##현실
갈려
연재
##할라면
##반복
추진
슝
반대쪽
##봉사
##일치
콜콜
##아울렛
모를까
##잠시
착불
##고사
##쑴
방울
클립
##토마토
어두워
아야
뻑뻑
이석
향초
묶여
카라
##달료
##드세요
찾아본다고
##과일
빗소리
##비누
카스
달라진
잊어버렸
코감기
트롯
싸가
글쓰기
잴
투석
족보
아비
수비
반송
##쌍수
쉬웠
오른다
2020
5000
##귀신
계셔
야야야
가오
##즛
##안주
##팤
병문안
##살걸
유익
콧구멍
호기심
일행
동의서
의대
##는갑다
##거릴
포폴
명언
클린
우잉
낚
자래
##뿔
챙겨와
쬐끔
뾰족
##힘든데
##*
두려워
놀려
킵
바뻐
##넘치
##나누
떨려서
##내년
##다용
##승
헌팅
한가득
##그까
##모도
찍자
##괜춘
##끓이
꾹꾹
##볶이
##레알
빠꾸
큰아빠
##긴한
추울까
##글씨
##계의
##드디어
##쉼
그레
가지가지
차안
기쁨
##밀리
이슈
울학교
나뉘
힘주
가졌
##숭
동공
배신감
티파니
윷놀이
아물
척추
마스킹
센텀
독한
묶음
##꽁
##반점
날아갔
철수
무스
요소
##을라면
위원
침구
쾌감
다가
##잎
수달
##보험료
감면
뉴코아
##될까요
성수
##질까봐
##공단
##났으면
형태
잠금
배달원
모모
은은
개똥
##네일
익히
인덕션
루지
##현장
왔으니
서구
학사
번호표
##적립
##차비
##돈가스
줄였
직방
##원이
텐동
##원봉
인건비
매크로
발사믹
미샤
##사수
##GS
##20
##샛
비바람
흐흑
놓칠
##비벼
쓰지도
##니라
친해질
##곤가
댕댕
통계
##쓸모
닥치
##!?!?
##머치
부질없
노려
이란
강철
맡길
고앵이
공통
끼니
이응
퉁퉁
##아무것
쇄골
찔끔
줘라
과대
정면
##퍼서
##개봉
역쉬
밥상
##밈
함양
눙물
##박사
그르치
싹싹
됐었
도라에몽
##느꼈
감흥
##책임
##는게
지경
등반
##다라
##따라가
면제
##고용
별개
그랬잖아
항목
##용돈
머시
##슬슬
반절
##마져
##웃긴
방도
감히
불빛
##환불
##딱히
원조
빠른데
##선이
양치질
담백
모종
##빌라
##온다는
보름
짜르
달라졌
찬스
몸보신
습해
##복잡
##깔끔
##오만
끓였
은색
물통
뚫려
##미니
##낙지
달라붙
오름
##해줄게
납품
##민중
가용
빅스
질병
##편할
깨웠
브라질
신장
제의
##가까운
피카츄
담가
에이스
세무
앙금
촌스럽
품목
##례
새우깡
##우도
해본다고
갑상선
##리온
광탈
감량
익선동
군무원
잡일
입석
스토브
##삭제
상당히
##안가
##레기
##갈려
##어찌
##뚀
말래
그만둘
##네영
찍혔
암것두
##준대서
그런다
##떠요
##잡혀
##연속
흐미
프레
##더울
##볼까요
##아자
##드린다고
##바꾼
비꼬
울회
##진자
##옹이
인구
##한건데
마구
##채움
양털
아파도
후원
스카프
이목구비
나두
##해봐라
큰딸
##폴리스
##평일
닮음
얄
지우개
지울
##쳐먹
과실
##읍시다
백예린
##달랬
강렬
데워서
##꼽
기약
시라
##져야지
##조라
##레벨
시끄러
##재산
##훅
구나
뒷면
버벅
##주머니
내손
까까
당할
가본적
사라질
대피
##사정
반박
##시푼
##겹치
##생의
무역
순둥이
형광
질린
법원
개개
미투
##미까
##오디
기왕
##추어
젤로
누른
##고만
상장
아작
질린다
##웟다
방향제
일반식
회사원
##셀카
##주의보
연체
동물원
초복
상환
그란데
소용이
##무도
래퍼
첸
전액
##캡
입실
조승우
간호조무사
##M
페리
포맷
불꽃놀이
38
3000
누어
중대
사춘기
인자
##숩니다
##졌어
##가슴
오월
##지각
닫혀
입혀
##사료
##찝찝
##싳다
##주전
##해봐요
##다간
소유
쓸데
광희
오려
부랴부랴
조졌
장난아
인재
##보쌈
홀리
아랫배
##십니다
##냉장고
희생
디비
벌크
뒷모습
##하눈
##어쩌구
##기력
##다공
라오스
어어어어
깠
##시려
시트콤
입욕제
배움
##렇
##카츠
##천재
##비스
착해서
사다리
은우
뭇
축복
쑤셔
악세사리
칫
보인
떠날
팟타이
육만
소라
매실
##떨어질
##목표
원형
꽁치
##다녀야지
##놀랬
##로울
##젝
전번
##퉁
##가사
파인트
지점장
닭죽
다녀도
인공지능
##망했
##무대
평상시
진열
늘어났
##문인
수사
##중국
##누리
싱겁
갈아탈
이용해
파산
아기자기
##가든
박서준
연비
조미료
일출
##성역
피치
타미
분당선
##이스트
##코리아
커뮤니티
나온다며
어니언
휴업
전어
##산의
팬케이크
고마워한다
뭔들
##엉엉
따땃
홀로
##귤
어렷
##봐줘
가래떡
##공감
말짱
껴안
뺨
성과
뱃속
물놀
##인들
쨌
조정석
##븜
시사회
##껀가
이왕
##랬지
잖아
중화
티엠
움직여서
##올려서
치명
자정
시크
##욕심
지시
저의
마세요
##라테
##지대
두르
나쁠
또한
##노력
들깨
우수
팝송
##앤데
##나와야
중동
##구도
##!!!!!!!!!!!!!
코미디
추어
지그재그
##부위
트윈
무거
##랍니다
디질
##썬
하려
##센티
밤샘
치이
그리거
시엔
가져와야
보자
세세
뒤짐
개면
자란
##퀘
##태워
더러
##나의
##추웠
개불
열무
좌식
##린지
##어울림
커졌
##해본다고
배신자
##나시
##가라
뜯어먹
##다아아
##지난
##시내
##거애
충동구매
체온계
석촌
말려서
##챙겨서
도서
몰려
가산점
##수령
괜차나여
하양
일본식
처벌
디데이
입덧
##가져갈
영양사
원랜
##블럭
##마루
##고파서
암막
해고
##완성
##럴
떨어진다고
##바꿔야
##지랑
소셜
임재범
커텐
##냉증
원목
우회전
##폭탄
##할려면
프레임
##매워
채울
##충전기
##재난
먹장
구간
대란
##가디건
최저가
세대주
##브레드
종현
돼지국밥
##림프
슈프림
지킬
아파요
윤
##비밀
##습니더
개조
전역
무당
##조심히
##티슈
형광펜
##거자
벌벌
부디
##괴
##을려나
##장님
##그지
뜻밖
##는진
##친절
##지니
비록
##예뿌
##라따
칼퇴근
부드러워
##천천히
##랙
##가두
주행
##물리
포천
##하필
맘마
##쉐이크
##무서운
##소다
##공방
##빵이
꺼져서
##부룩
헤어짐
##니까는
##도움
주어
흉
부셔
차돌박이
##야제
##터진
힙합
##나리
아제
울려서
##촉
대도
알아주
쓰레기봉투
이겨서
겹쳐
중성화
낱개
연대
엊
##빳
##찰
마라톤
판대
##삽
##쉰
쉬운데
뿌린
##착
##교실
뱃지
##대매
##뿌듯
온데
모서리
##바사삭
vip
이처
##음다
##나아
갈등
중앙동
고무장갑
알고리즘
키운
##는단
##시리
##렐라
##오뎅
##셔유
찹
공중
알지
각이
##타운
##라꼬
푸딩
주시
##모리
##기다려야
경쟁률
꾸민
달려서
##끝난
상시
##우랑
##미러
전개
병동
##여부
오락
진료비
산더미
##임의
##탠
##수치
풍성
##심사
불시착
##나온다고
##다네요
묻혀서
동아
비중
##스로
##내시경
음질
##알리
뚝섬
리포트
지오다노
렌탈
삿포로
이삿짐
성산
사재기
직영
피파
##표가
플랭크
##배움
##북리
공영
원의
왕좌
애기야
##까진가
##피해
##굶
##바요
##무겁
더부룩
##신가요
불나
교직
투게더
##하냥
##도우
##켘
지만
들으며
아바
##대장
볼꺼
변신
알아냈
지송
##티즈
두병
##치곤
##폈
에이드
목적지
##다던디
직급
돌아다녀
돌린
옮긴
짜식
##담당
##팠
일본인
##디스크
입대
해맑
아깐
usb
열람실
##블리
##훈련
불꽃
##산대
##몰래
왼
##마스
##소린지
대왕
응답
음침
양해
##골드
##향수
누움
##는디요
접히
##마디
쫄려
이너
들어와야
##어야죠
물이랑
적힌
텁텁
##한다네
돌아온
전등
녹색
##찌개
동행
콕
달라질
놨는데
알아본다
##장학금
내밀
지냈
슬림
통학
##전체
파자마
캘린더
전반
토해
##햄버거
외국어
##모집
협찬
이맘때
##클래스
##실래요
모기장
대인
##이럴
시끄러운
다이슨
카이
현미
터미네이터
##처해서
모일
##놨던
허쉬
매드
일박
청담
수성
엔진
의왕
##걸린대
부상
사각
##양의
바이오
노동청
옷의
실무
근로계약서
800
180
##당시
아플까
노이
귀한
상영관
##올라왔
귀염
##사놓
##바래
##혓
##맣
대결
##딤
##빵빵
요건
장모님
세전
##정지
왜냐하면
미묘
반장
핼
클라스
##어어엉
##시름
특실
거북
##손해
깜찍
에브리
##꽤
##고쳐
반주
##진행
친다
##수고
##질지
난중
핰
뭉치
오야
##마러
탕진
만이
##죽이
세균
##땡긴다
단정
자장면
깜깜
잔디
흑흑흑
알려줘야
##모여
갈아탔
호칭
추세
가뜩이나
코코아
찐따
더움
##했어도
긴데
이래도
##햤
##따지
부러움
할게
일화
##올게요
태양
삐끗
##살라
##알림
##사냥
음색
##웜
고화질
##든다고
콧대
바이킹
참견
##피트
으으으
밉
##사려
연습생
흰머리
기원
평타
주거
안면
대행
##찬스
장치
집회
가져옴
고리
##으란
##러면
미친다
기상청
뿅
따로따로
##여러
소용
##바빠서
정의
아날로그
재즈
싸이월드
##상가
들린다
시크릿
##현상
도자기
##넬
하단
##경비
좌회전
아랫집
빌려야
##에어컨
연도
절차
머랭
##체가
시각
집게
날까
##보조
선불카드
선발
변환
활짝
##비타민
pc
에스티
휴관
##시킬까
##명이
체카
여행자
강풍
가리비
녹십자
##약정
연석
##유연제
페스
정우
48
##공강
##나부
짠하
##고감
뜨신
##형식
토나
으이그
놔둬
본받
남길
사셨
##거여
풍부
##드릴까
이날
즐거움
##슈퍼
섞여
승부
##예배
##부장
##모든
금정
##아재
##다와
해명
잠결
##잔뜩
뜨거워
소프트
오모
##올거
잡힌
간간히
##드러
꿈꿨
##견이
눈물나
쬐
타고난
##고왕
돌보
##오리
줬었
##잰
핫초코
##기표
##늘어나
##날지
꽂혀
실명
전염
돌아
된다구
무거우
불러도
애용
꼬셔서
통조림
걸릴까
니까
##졌으면
커야
##룜
미나리
구르
리딩
테두리
남매
응시
이월
흘려
합의금
깨져
빨개
##데유
이럼서
##소녀
치러
크러쉬
##고침
본지
옥희
문재인
오타쿠
폐지
전과
##샴
유턴
아닐지
##가의
놀토
불륜
카키색
##온당
보이차
##장갑
맡겨야
##했으며
##착착
하프
가전
매니큐어
메모리
라볶이
##비자
헤드셋
교정기
남원
치울
만능
사기업
스피
성형외과
수플레
서초
회의실
오토
주부
엘사
햇볕
##m
보리차
렙업
인원수
##싼데
루머
분할
비요
개장
꾸밀
계란밥
##국사
감독관
받침대
37
햌
##부림
##통해서
만취
##자격
##든여
걸어도
##지름
##거져
##조야
자물쇠
타워
헐레벌떡
##말려
##상대
##십시오
##구조
모찌
##슬립
잘나
##주위
전래
##키워
대외
으흠
##룡
바꿔야지
주면
##예민
대체로
##거둥
익명
증빙
##비오
건전
권태기
신가
##세영
아픈가
##모의
쀼
해바라기
겁먹
오답
캠프
안전벨트
##억울
##럈
흐응
아닐걸
될라나
털렸
##뺀
전담
진짬
##귀여운
참자
쌓여서
##동료
갈대
##시차
개열
육전
##으로서
돌돌
##쨰
무증상
##흥
국세청
##야채
서너
피포
기름기
신데
##일가
##갈고
진돗개
##요트
빛나
##디지
낙이
##할고
##이업
주워먹
홍수
##돌아다니
심신
흑인
성대모사
톡톡
확답
기내식
##휘
대화방
월로
방과
##떠라
##메이커
##화가
저세상
조그마
해설
##식단
##뻘
외할아버지
개털
휠라
만이천
아이라이너
미개
장도
##수역
북구
마디
쌀밥
수고비
캐드
##껴야
단수
상주
사케
사월
종식
예쁜지
처분
##호떡
써니
##추운데
트렌드
##세제
자급
플레이스
장려금
##가치
##달달
메롱
빗자루
각도
구월
##스러운데
##외워
##나인
참기
##집안
##어려운
##뎡
지켜야
##셨었
유후
##거린
##카노
##친해
##된대서
##워라
##역할
##련
##과학
오진
나와라
명확
##언능
##합니까
입시
##거린다고
소상
편백
##치워
외웠
조상
깨진
뻘
소모임
시우민
내후년
청정
협의
티슈
구박
상지
내놨
맞대
방황
서양
지켜봐야
sns
태리
불교
방사능
따끈
##안타
##멋지
체육관
웃길
##재미없
흘러가
##단데
##아다
##큭
##기름
##습니다요
##연어
or
##모래
드라이버
시려
원리
##바서
##페스
보온병
킬링
오페라
회비
##비에스
번역기
아름다운
미워
##바도
낑
연가
커져서
간섭
걸으
세미
만둣국
유기농
띄워
빈혈
약과
나왕
##수리
충고
과사
##거용
구몬
강서구
충청도
몰려서
경품
##인용
경대
버려도
개더
키움
나베
곤지암
##와인
나열
##깜짝
##월일
선불
외치
유명해
##채널
##해안
##미드
비난
##양파
휠
티백
##PC
경력직
##때가
월수
##몰러
실험실
쑤시
희안
일방
미모
갔다올
반쪽
새싹
##면허증
밥통
이리저리
##홍대
##엄니
짝사랑
내것
##피곤하
##가도
들어줄
##전부
리즈
울이
탈수
##실화
병신
그럽시다
무단
##떨리
##답장
한대
오아
##찾아봐
햇살
두둥
##위로
##실망
찾아왔
떵
##허리
##꺼져
야자
토해서
외로운
##못가
하심
아참
##다녀와서
리스
##이터
##믈
##으라는데
##이잉
##X
얄밉
달도
##주먹
댑악
보여줌
공책
대응
상여
##싸인
서리
##나도
##씌
현생
##!^^
코타키나발루
간직
##심히
찔러
##나진
감귤
##뫄
낮술
##분도
백두산
노화
걸러
신라호텔
아이고야
##회로
그런갑다
가까우니까
곁
더치
미니언
##얼만데
##커리
마쳐서
시상식
뜨거워서
굉장
낯선
##방도
복합
##다곤
태워다
##닽
정해졌
##레드
학생증
인정받
##내주
##고객
의의
##거늘
##컨셉
서부
사니
다닐까
칠리
##창고
##르면
야한
##저격
##무러
씻기
포만감
검수
무통
##주토
스케일
##조지
수기
##캐리어
##유에
바꾼다
##녀의
시드니
띄우
접근
##주안
##나와도
당산
메타
월금
##토스
양념장
폴라
##현백
투수
사이판
애호박
딜러
로데오
말차
에어부산
전기차
캐시미어
리브
33
36
##디요
##마블
##앎
파인
후리
서터
발도
보더
##홋
두배로
만우절
##간다니까
##일세
바라지
이효리
##이라
##차라리
학생회
미얀
참지
시르
##래나
양복
으아아아아
지나치
감겨
##내라
야곱
##운디
##드레스
오신
생가
오로라
##상상
크흐
연주
##갈수록
흐릿
##우니
##전혀
부른다고
팔려
쑤
생필품
고이
흡연
세네
먹였
가바
##자니까
친가
##챙겨야
신세
고로케
##타나
##다쳤
##조리
##바꿈
##지렁
##아서요
##야도
##고럼
지친다
제안서
곱슬
라이터
사진첩
##국민
##시더
##드라이브
##매력
##타자
##내릴
##학번
밸
붕대
인출
로그아웃
##로다가
특성
부기
별자리
롤러
뭐시
##!?!?!
걸어왔
유무
오가
일제
##작정
계기
##방가
후훗
볼라
##퇴사
검지
습한
물리치료
##통이
간데
난데
땡길
##느려
하난
청원
##계열
찾아봐도
계획서
감염자
걸린대
개중
한정식
##컴퓨터
퍼프
스킵
새치
##종료
꾸리
##피넛
중문
치질
바이탈
루테인
재학
##프라이데이
소떡
교토
통신비
프리미어
무궁화
##MBTI
##KTX
무례
잘려
장착
화남
##숙
멋대로
않아
##거어
##나왕
불났
서술
##시프
큰소리
모였
##숏
동그랗
길쭉
##확실히
리액션
##어머니
괘씸
##내려오
좌우
배거
관상
그다지
조원
놀림
옶
##가운데
웩
단속
갔다온
주전
##꾸리
제리
하고
여직
과태료
완존
깐깐
배너
##올릴
차릴
##겠다는
##거린다
##취해서
핥
성숙
##기나
##오용
보물
##내구
발작
우중충
##다드라
##띄
솔깃
광대
한신
조마조마
##브로
##껐
나비
다이어터
차만
까만색
싱숭생숭
외가
가주
달팽이
##신분
염탐
##하도
산적
혜자
코도
##신포
전진
##티나
따끔
제빵
##마르
므
딜레이
##공무원
송파
진영
깜빡이
##타일
##중고
앞두
하네스
헤드
이력
##시트
센트럴
반짝
식자재
##고장
문상
어느새
현미밥
천연
##대만
##땤
조깅
놔둘
감격
모음
씨티
침수
나기
##쭈
##못한
반포
관광객
##뻔했
중계
토리
##군산
할껄
자차
##스틱
상수
깨끗이
말복
영롱
불합격
통밀
##제목
아쉬울
브랜디
두장
세후
라탄
올드
방방
복부
시킬지
사막
블록
통풍
올리브유
전세가
##"
##25
부를
해줘도
##목걸이
##도니
후아
##꿈꾸
##채팅
##아녔
노숙
실사
##태우
또르륵
##슼
예에
통금
##순삭
아웅
##걸어가
##지수
신난
전도
##해줘요
##몫
씨도
지은
##우야
##회복
청순
부끄러워서
별론
##야아
##준다구
날파리
##인도
참아
##보태
납득
##쓰여서
##취한
명량
##낀데
희귀
타협
귀도
##유행
싣
오실
##몰입
gs
팔다리
자책
넘어오
##부렸
##핰
에펠
오지랖
##기적
##해했
##특강
가위바위보
화끈
##조림
송편
고비
짭
방토
야탑
잔치
부처
##가꼬
방전
##빔
##이쁠
취침
랄라
프롬
리셋
##너무너무
솔솔
예뿐
##말아먹
미디어
자습
불럿
갑작스럽
##나방
##쉰다
든든히
일루
말려야
##려야
연보라
올인
아름답
빙고
##보래
거도
칠만
##급하
##한판
칼라
##마랑
서빙
##뒤집
##시킨다
##어머
##없애
오노
사네
페트병
##껜
윈
##조용
##우의
조짐
송별회
젭
챙겨왔
주관
대상자
##뚝
쫓
##쳣나
##토끼
로맨틱
지름길
코믹
##가르쳐
##돼야
##내놓
보온
본드
죤
예리
##루루
올려놨
대탈출
##왁
호로
확산
주안
자퇴
##불량
줄무늬
대출금
##닷컴
##리조트
강동원
##장치
##방지
생강
드물
비데
마리가
##나갈까
##지식
##대행
작전
##니스
명당
당겨
##육수
규제
이랜드
만석
인력
공항버스
고른다
직진
피오
스타일러
흑당
##였으나
##부스
##적용
제철
##소떡
##택스
연계
##아의
101
900
##점점
들려야
부러워서
##뜬다
패티
귀야
##초대
##로로
##계신
##일수록
##라바
타이거
거칠
##깟
시려서
키킥
피지컬
재단
글루
##라지만
##질려
갈겨
##찍자
##빵집
##심한
##쥔
##져요
별것
구내
어쩐
걸어갔
##취하
배부
회덮밥
##싀
튕겨
친해진
##어어어엉
##뒤지
잘난
##조치
##후우
디게
##핑계
치치
첨보
부수
##그르
깻
##스톡
##암튼
##선가
미고
????????
나와요
##까페
##잔데
##통수
서서히
아따
어으
연령
##해져야
##키는
##한티
배아
##펜션
샌드
cgv
암거
아이다
뒷담
##움직여
용지
##하이
##씅
정적
간다구
##웃겼
##현금
##라믄
걸려도
##바쁜
자석
##어염
##새요
##거거
즉시
다물
퉤
##주지
돼도
붙임
네임
쑥쑥
##따라서
비온
예식
들어갈까
##안다
빡쎄
아토
##진데
풀린다
훔치
##진다는
##자누
딸내미
##을꼬
스크래치
##푸치
괜한
끝낸
스파크
##구멍
##운거
지워야
영구
갠가
가달
이달
탈탈
사래
노려보
첫눈
##어의
지팡이
루즈
올수
##발랐
##요청
얼매나
##라임
##됏다
##해의
시들
고독
발색
##아찌
경북
절망
알아내
알탕
노이즈
##슬링
##오케이
할까요
롯데카드
꾸덕꾸덕
안마기
청도
##진다며
수호
모나미
리가
##진이
사생활
개와
모션
램프
차이점
##전시
##걸즈
로마
##인당
크리스탈
망원
멀티탭
문명
합격률
부산역
기본급
"
모마
연탄
분하
수락
##놀래
##종의
마상
##바랑
##험
구함
추움
가망
도도
명심
##옵니다
##타이밍
친목
##원도
그림자
##벌리
뽑히
꼬매
실은
##모두
광복절
##아스
묭실
##축구
심함
쿡
외향
##쫑
태극기
손상
먹일
루이
연청
스톤
집합
##무거워
거짓
자취생
여전
한다던데
##들림
##축
기프트
##바꼈
소질
벗어날
##딕
이짜
##한걸
##생신
티케
감사히
##해사
씻겨
우육
mbti
##?!!!
##질렀
##마는
##따오
따라갈
관찰
열도
수첩
체형
줄인
바버
거슬려
##뎅이
참새
##하대
##바나나
고모부
갈구
가세
##머이
##해버림
교장
콩깍지
##어딘데
성급
힘줘서
소나무
극성
연세
사망자
쿨톤
##햅
##아닌가요
끌려가
솜사탕
지식인
##일까봐
노나
##뜌
왬
돌아다녀서
##똑똑
난대
##수금
주웠
##더든
풀이
줄줄이
##폴라
흘러
청하
##덩이
구울
코레
바뀐다
풍족
카네이션
##개개
##갠가
재판
##베이스
따라잡
거대
합법
이마에
##돌려서
배낭
우드
시행
바랍니다
##반팔
테스
면역
외래
스니커즈
세일러
##인천
##파여
##반가
원더
야상
단디
##준이
자사
풀기
번화가
##이자
##들으니까
땡땡이
##개꿀
오락실
##스타드
뚫리
##디아
장화
시중
가벼워서
##라미
아이스박스
평촌
##스카
공연장
청경채
##색의
헤라
커리
멜로
뉴이스트
크레마
먹통
##재역
꾸미기
남포
돌출
하이브리드
핫케이크
##버정
##부름
##해해
쉿
##늗데
##거보
그만둔다
둥둥
외갓집
대야
뻔한
##부의
쥐어짜
##넠
꺾
자본주의
작작
##도임
##으래서
##보여요
따라다니
헷갈릴
물어뜯
눌리
##깨워
가려서
##아여
활성
보약
구한
코다리
준다며
함해
검은콩
##구의
비수기
레디
##일남
##계셔
정화
##실가
##올리브
해방
도란
##출신
말레이시아
차감
꺼려
뺌
##옮
굴러
신년
먼디
훌
쟁이
cctv
##해복
한단
한전
한옥마을
##할매
까매
팔린
얼룩
코난
불참
속지
##모금
임상
사태
##러버
될걸
히히히히히
##분명
외계인
##이때
큰가
##팔릴
난장판
##짚
범죄자
##보군
이즈
tmi
보조개
아토피
하여간
반나절
##고라
히든
##잘랐
##역가
숨쉬기
##힙
와오
하의
보도
##찾아볼
각인
##쇼핑몰
임팩트
##쏟
갈치조림
어학
고픈
##렝
피크
윌
##금이
낙엽
생지
##면세
예서
구우
묽
##온다며
라텍스
디너
간짜장
입꼬리
##보상
퇴실
##전도
##지하
디럭스
얼얼
##트레이닝
##스팟
##웹툰
보유
##내기
도매
##잡음
##타이
오레
호가
##연의
전선
리코타
식스
##비쌀
우버
제휴
사바하
육천
##밸리
##구간
##500
64
구별
사냐
잡생각
##두유
중환자실
##건만
격하
슥슥
##눌러서
신혼집
들려주
##희망
뗄
##와두
휴대용
##몸살
증사
쉅
멈출
돌려도
호치민
##헛
키카
하찮
##시민
신행
하구
악어
충실
##줫다
둥이
##!!?
누군가의
처지
##줏
##마무리
누적
##갈리
원했
##마비
매니아
##제공
##딱지
아지
##싣
동성
이구
##밸
그러니깐
박나래
외제
조장
##일곱
##리전
자각
튀어나온
다이아몬드
다진
밧데리
##두국
고쳐서
약발
손예진
고고고
##터도
짤라
##코너
지면
##승리
금색
캐주얼
꼬박
##공학
힌트
##떨어진
라니
울려
염병
##동산
##이궁
길러야
##인과
##을려면
뚝뚝
##주민
##바꿔서
##d
식습관
나인
바리
근방
##블라
##올라서
모인
하눈
호흡기
##쭉
벌이
##펑
단대
##원의
##꿔
원무
구명조끼
##로다
임직원
오설록
돌아갔
##무배
냉동식품
이중
##고임
데려왔
도망갔
해용
##준다니까
##샥
뗐
넥
##리진
##진단
입점
아령
얼린
미지근
필라
페소
##달째
차키
경각심
찢어질
비위
에디션
쉴까
알파
레이스
피맥
##심해서
pdf
##배워
토닉
##분야
흐려서
무광
미룬
사파리
##리수
빌딩
식량
남대문
소방차
##오징어
어스
밸런스
비벼서
타이트
##웅웅
##파우더
김이
##혜향
세무서
캠핑카
동대구
놓친
객실
##선좌
복비
패널
아이피
맛과
와이어
중급
소보
##채공
아귀찜
알린다
##래야
모닝콜
##또한
##어사
데려와
주공
예지
???????
어정쩡
들여
##박싱
기껏
##스마
날릴
중립
##리야
단발머리
갈까요
##알려줌
##마크
##라던지
##젓
##누웠
##흫
야옹
증권
소환
라구
##헣
고오
##다이어리
갈매기
##리라
옥천
복날
부러지
미린
끝판
##세염
숙면
##주랑
##구라
카라멜
##앳
##땄
##깬
냉동고
##태풍
기간제
##쌩
화냈
##지르
홍합
##만져
잠기
정들
인감
기죽
구제
##리좀
이래야
##능이
번호판
가심
등심
화딱지
아랫
##즌
물음표
##줫으
친해져서
##나고
우럭
우이
올린다고
배부른데
##어리
##칠까
스쳐
##목적
담긴
##C
##근대
##풍선
##숟갈
##비빔면
##갓네
졸립
다육
영영
##연구
고슴도치
##으으으
누베
##곤란
##미만
까탈
##기장
##리더
날린
트름
나온데
챠
욕은
##흰
몬지
나눴
더더
응급
##된단
어지러워
바사삭
선지
##태그
##보진
류준열
견적서
복학생
말귀
##며는
릴리
##니즘
##가서도
언젠지
##뿡
우르르
태워서
클났
##드렁
가전제품
울음
저작
다리털
천이
원할
서방
폭신
너거
자발
천만다행
##건데도
컥
귯귯
음청
입천장
##맞춤
##마버
##그른가
모태
익혀
##보시오
자허
주전부리
##개야
추후
하자
도미
당건
연두색
##갑시다
##롯데
##유도
제왕
을왕
자본
##알람
아일랜드
중년
따위
내라
##반품
타요
노로
죽도
낙지볶음
실내화
군자
철판
깔창
울트라
리무진
원치
##시스템
정신병
올라간다
##흘
동그랑땡
##그렸
파라다이스
선인장
고요
행정학
##익스프레스
##슈즈
돌파
##파마
복원
##관이
다이어트식
맥반석
로딩
면도기
팽이버섯
##옵션
보보
명세서
##남주
떡꼬치
##부팅
퀘
##SK
뉴질랜드
세척
외워서
##전세
찾아본다
카야
압출
브리즈
게임기
사업장
슬라이드
스웨덴
장칼
몹시
둥글
##b
외숙모
##본당
##슈가
무스탕
피료
##뻗
두어
가져야
##손님
##핼
삐삐
툴
##미용실
알찬
홍익
헤헤헤헤
은혜
땡땡
시험지
내꺼야
피싱
늙은이
##드실
다머
안내도
##고통
만질
에헴
면세품
##아닌디
챙겨줘
충족
트윗
크리
재혼
##쏴
##용량
##후후
##봇
##쨋
문도
##처먹
대꾸
국시
##아짐
모른대
##앗거든
형아
##제이
##귀여
걸쳐
asmr
내려간다
나태
상할
##들으러
가신
##강도
곽
오글거리
부근
##쿨링
전북
##놩
##귀여움
대책
은행동
써라
##쓰려
퍽
##씽
상징
아뉴
무침
정택운
##거렸
퐁
녹여
채움
##나간다고
해골
킁
책임지
살펴보
떠드
빠져야
이여
가둬
제트
##먹여
##쩨
이온
##팔려서
차면
##연말
호스트
이승기
플레인
포스트
술값
일수
##우선
##명회
##미루
카시트
##할가
움직임
해수욕장
튀어나오
##망하
장문
##럿다
##었겠
한바탕
필사
##리자
억지
마실까
모범
사마
금니
움짤
와구
주류
듯한
##사탕
히어로
가태
쫄리
##염약
클리닉
##스쿨
##에에에에에에
##껰
##그나마
내한
야생
쥔
##거개
동사
담궈
다함
##회관
##질환
늪
##패치
스푼
##헤드
수출
바세린
가티
##전역
가져간다
##기획
들린다고
아래쪽
새콤달콤
##공지
섀도
생년월일
##치의
##비치
퍼펙트
##아이돌
##더운데
수확
노른자
민간
F
기안
크루즈
개방
하동
마동석
##화학
설화
##필기
준다는데
##됏네
리메이크
망가져서
잔돈
두루
상동
오리지날
나초
찾아볼게
우먼
소다
##간장
멘토
##중개사
누드
##탈까
간염
##명세서
대용
##센트
경기장
##북스
마시멜로
토플
1500
15000
##여성
##한태
##거요
##스런
없앨
충성
##과외
##오려
하진
##울리
가유
동거
##배치
탄생
살아나
물질
##했을까
고지서
부딪혔
두드리
잃어버림
##날래
엎드려서
뇸뇸
유난
##노예
##꿍
대학원생
어두운색
방심
##어울린다
똘
##질리
쓰다듬
염소
##기르
툭툭
과다
요로
##목요일
삐져
##실장
##달라서
어머나
들으
##규모
##사로
##처니
##잠자
띄엄띄엄
##는다니까
술병
조림
개꿈
##자극
##씁니다
##는구
##!!!!!!!!!!!!!!
느껴질
중독자
떡밥
##탕수육
헤매
건축
전염병
##개인
##웃음
크레이지
일의
로스쿨
##껑
자고
치지
가렵
##난지
##아잉
영원
하이볼
구구
##리뷰
##만보
##코야
올라감
차사
##와봐
##으셧
원천
##아워
프라이드
오카
연보라색
으윽
##아껴
유부남
##수저
모밀
나쁨
지렁이
##사여
##아닌지
##걸이
##다지
쌍화탕
이라니
나참
the
화순
그려서
날아갈
##동아리
생겼으면
##갈껄
카스테라
##깝
##더럽
도래
지수
##뷔
##햏
기다려야지
꼭대기
##제주도
드롭
##돼도
##물어본
권한
##오류
교감
험하
##와아
수현
방송국
위층
래시
##직접
번다고
대림
##평생
##바뀜
저어
##수학
데우
거주
티끌
샀어요
##팸
토크
##덴데
##교체
##읔
키친
도너츠
우편물
휴게
부풀
##훨
사당역
##열차
떨어뜨려서
사계절
##마우스
세브
##란스
허가
찾아볼까
자이
가라아게
실습생
섭외
스리
가까움
미니스톱
하이디
보헤미안
동대
영상미
삼진
첨단
##채용
호스텔
중소
##조정
오른다고
일급
엔진오일
드래곤
느껴진다고
성게
프라이팬
사인회
모자르
마음가짐
##정했
##마장
보들보들
하마
나눈
##말랑
피드
피스
##추우
욕심내
##맨투맨
티오
달라져
금발
##재고
##키즈
함덕
봣지
찢어져서
보인다는
쯧
무라
도비
조신
케이쿠
비려
##올까봐
##빨간
##근가
성희롱
이건가
헤어져서
균형
##멀쩡
##비우
으아아
피해야
친해서
##보리
##다니엘
근거
응응응
##온지
##죙일
어떤가
강박
##동시
##파서
딸래미
오질
끼워서
정신과
지분
삔
돌아댕기
##쳨
롤러코스터
모터
삼각
주르륵
##불럿
사조
올려놓
냉방병
##쩍
사복
그만둬야
일기장
##창문
##연예인
간지러
##!???
탈주
##셌
##사래
##인해
궁예
가드
##산가
##쎼
다른지
평온
앞치마
##다함
##쩜
체코
##져라
##백수
##보정
유난히
뒤풀이
##멤
##섰
구토
위대
##곱슬
##도랏
##늉
으슬으슬
##눕
상실
뻔히
어둠
##부른
태어날
방구석
서서
##??????????
비긴
##징수
버린다
코리아
돌봄
##호빵
##추석
저쩌
##해성
화제
##릐
팔월
##한게
한다니까
턱관절
빠름
##군대
즉흥
사악
##무야
둘러
출고가
기차역
##그나
분배
단팥빵
속보
섀도우
즐겨야
너덜너덜
##다시피
밧
왼손
주물러
##찍히
봣다
씌워
##가임
스타벅
##분기
최곤데
버릴까
양면
야이
결과물
크리스
##해선
##쩝
네네네
##오때
##신다는
##입원
시공
기다릴까
홍천
그려진
##참고
##빠름
##흰색
치유
유예
뻥튀기
##아까워서
##문제집
슬로우
위탁
##산역
떨어져도
##구성
ai
된다면서
한탄
##물품
떡집
해돋이
##크래커
머플러
스튜
##가보
무상
쥬시
듀오
아스파라거스
##사전
##펫
가계약
에에에
전복죽
정안
민박
앨리스
인셉션
전자파
단축키
오염
뽁
누텔라
상술
황사
##디지털
신풍
##거로
스투키
액세서리
교동
워크숍
서울숲
##뽀뽀
##맑
돔
돌아옴
##의견
##이징
##태어나
쿵쿵
##이공
##끔찍
엉망진창
##거랭
숙이
기겁
절제
고런
##단말
다가가
##씸
잠잘
케미
##거던
갈기
반개
한남
부엉이
신종
##봣네
##무사
##최악
##젊
##입히
보드카
그래프
기세
귀여워하
됫
외로워
##헤어지
##수이
##상처
끈기
##백이
##납니다
묻히
##왠지
가재
황제
##앖
싸대
민소매
##도다
##오호
코로나도
시범
##낟
아이스티
재활
##라서요
동굴
##때기
##풀려
우습
설렘
테러
##난고
유동
샜
꺼낼
뉘
까스
##본다는
나아가
미쳐서
바리바리
##호르몬
##을려구
근래
##이내
##빨려
흔들렸
콩가루
##시간표
세관
##비실
##아행
##편의
동문
##다닌다
동상
##버릇
일어난다
##비비
##술집
##증후군
##첫날
풋풋
##차장
톰
다급
삥
된다니까
밝히
서재
이길
기둥
싱어
부끄
밑반찬
줘요
##웈
독수리
저딴
##단식
미친년
웰컴
##통해
김칫국
##셔틀
길러서
가늘
화도
스타일링
타이머
##열받
잡힐
##루트
발언
멀랑
##막힌
양가
알록달록
철학
##친다고
지운
고졸
to
순차
##빠진다
##냌
##멋져
상단
주러
상업
뿌셔
##민족
방청
경보
건더기
##심더
하나야
드러나
엑시트
##막걸리
덧
계란빵
##죄송
##자오
##오른
재료비
전지
보여야
쭈욱
워머
비법
갈비뼈
##게염
마버
##타투
##영통
##슴당
##전할
##아이폰
##파운드
##작성
##나염
##몰랑
이긴
윤아
간다는데
##고와
실종
옆방
##빡시
각종
셀렉
개고
마인
하혈
##모았
##비싼데
##대포
독도
각막
장터
박하
천차만별
칼질
남한산성
나갈지
약물
고사리
폴리
찍혀
오들오들
##오니
망토
##유의
쓰인다
파츠
##행정
말레
##특가
살까봐
##공짜
몽블랑
##메이플
송혜교
받침
바꿀지
가스레인지
##처의
##란트
장당
##로페이
용산역
탈지
140
드셈
아조
야옹이
##리기
##죽음
입체
##는교
##돌아오
박살
주심
##야게
눌려서
부러진
##데려다
##새오
##린데
!!!!!!!!
외로움
울적
엮
징징대
고우
##하하하하하하
##한참
##칭찬
##와바
##짱나
상어
##용지
늦추
됌
##실지
측
드루
##특이
토토
국회의원
오카이
##샌드
##스푼
청결
허류
##아버지
남겨야
##주름
회도
##일제
슬픈데
##석이
##식량
잊어
꿀꿀
##휴직
끼리끼리
느껴짐
채식주의자
##운가
##휴일
빻
##투명
태몽
회랑
##스레
해줄까
조그맣
##된다니까
##수원
햇님
얼만큼
##잡혀서
##미뤄
##갈까봐
##쭘
##기다렸
##대해서
##테마
짐승
편식
악의
##차서
##윳
예이
##올림
우찌
찢어졌
차렸
이끌
코다
##끝남
워커
앞서
노상
열지
##조명
##차례
##면의
종대
나와야지
##다름
벗겨지
소방
##구서
챙겨야지
오시
그만둬
##봣오
##고아
##이쿠
쥭
##잔치
스승
파괴
휠체어
오능
ppt
내려간
공과금
차려서
따스
나눌
리코더
거북이
##^^^
##쟛
뒷머리
잔나비
망가
나온지
##구파
본문
##포차
베드
홀린
##저건
##놨다가
죽인
틀려
##범위
##묶음
##더군
마자마
지오
감자칩
##다더라고
함박
뷰러
호일
적합
렌지
대실
밝은색
어치
유사
##갈릭
테이크
손빨래
사립
유저
독후감
##입사
##장남
우엉
분갈이
상담원
동쪽
잘릴
##디바
계피
워라
열려서
도톰
마곡
##듐
쫀쫀
##기온
샤워기
수돗물
앤디
전대
##용의
카센터
갤러
유연제
재수술
커스텀
소액결제
배송지
케첩
##로그인
전문점
티맵
2500
만들어진
함가
##*^^*
##거짓말
후자
##붙였
##이럼
본데
막대
##저리
혁신
연약
##꼰
##미래
##차내
넉넉잡
##벌여
##당일
두고두고
메로나
처방전
##모니
##낸다고
##재야
혈액형
##웟음
간접
어미
더러워지
졸림
##끼치
##수행
롭스
##왠
##둥이
답지
##쉬운
##콜리
킬킬
##매니저
##드셔
끈적
나빠서
부러웠
##걐
말없이
죽인다
##크리스마스
펼쳐
##겪
담이
##베이지
K
오른손
f
자게
##별거
후시
스피킹
블럭
나우
##너스
저혈압
대마도
구한다
mm
창조
세심
쪽팔려서
바랄
##구로
금수
물러
발휘
배속
##여긴
이영자
누런
##천사
당구장
##놧다
우래
이야
리빙
##린이
##써라
놔주
##줘두
은근슬쩍
칼바람
##이모티콘
사무소
##떈
##륜
망쳤
감지
즈그
간지러워
##순서
진에어
만졌
일인
도우미
해시
##꿇
##네이버
주선
당선
올겨울
##즐기
##광주
교류
##떄문에
법칙
정서
덮개
##눌렀
내려온
관리도
재탕
모험
커리어
끼치
알긴
##키가
##사라지
##운행
##만점
땡겼
소견
나갑니다
##아뇨
시래
굴러가
표기
쓰러져
##사유
##우먼
##수랑
##죱
빼지
위례
기억났
##쌈밥
따질
착륙
죄인
예약금
악보
킨더
네트워크
쿼터
정주
불난
인삼
임영웅
##체리
빨랐
갈아주
스타트
향도
일대
##역서
서현진
미뤄야
윤곽
표준
크런치
범벅
미르
##송료
##그러가
##주만
한당
로아
수경
##려도
설현
포지션
##구천
신분
리치
신중동
##초콜릿
##수영장
아카데미
피터
##전의
회로
결합
우려
##짜린데
##블링
##작품
##업의
##비안
꽃놀이
##혜택
성수동
극찬
물총
도적
xs
피트
##회의소
바캉스
친다고
미금
버드
구미호
특약
하겐다즈
기변
블랑
소프트웨어
국비
##e
중도금
##94
95
160
##24
##다를
그런대
아으
다야
##이닝
신생아
안구
##능가
시네
##오노
드러워
꼼짝
##잠아
홍조
##파우
텃밭
이상하
앞사람
커다란
##란가
단양
위경련
##부지
갈증
##혐이다
백일
##구했
올라간다고
##조서
하나님
##챙길
가출
맘모스
##파리
##런지
##숙제
##자동차
##속의
##가재
유리병
꺄악
##자지
##갓대
책임감
뜬금
어젠가
##단체
##인제
##규칙
##버텨
##어랏
##준댔
원어민
##똑같이
##사본
계셨
##을래요
창밖
예수
봇
한몫
오마이
##멈추
주작
##못자
##의상
들어갈게
나을지도
간수
##껍질
룰렛
동지
##모른다
탐방
방바닥
엘레
쥰
식용유
##나와요
간다니까
##갈비찜
st
봅니다
##일어난
##자마
곰팡
구수
한곡
##@@
오다
씐
개복치
##살려
미국인
##트레스
##알아봐
##마당
지붕
명란젓
라방
기관지
명예
##텀
##밀크티
그럴래
술안주
아닌감
초심
나발
##얖
##돌림
##다뇨
모순
##식구
##화질
수십
##나말
##온다구
열씨
##여주
##소가
뺴
튀어나와
##더가
플리
쥐꼬리
안은영
무서워요
하신
##냣
광양
생성
##윈
##이까
주체
##뒷
새워
##차렸
먹여서
겨자
산책로
캐쉬
##유우
##어우
아까울
접촉자
레오
##지러
##가까워
아낄
뿌시
카피
열기
##문구
빨강이
##도장
바뀐다고
준호
산본
찌뿌둥
산모
울진
탈거
몬하
##셀로
##펄
번데기
펀
주토
색소
##터널
와퍼
신점
게이트
##차량
##지정
벗겨
봐둔
몰랐다
관객
소염제
문항
ncs
##프라이
##사오
과락
유니
주정차
본식
전면
할증
슬링
시카
주소지
헬멧
##캐릭
꺌꺌
홍루
날아다니
눌러도
채플
화창
토니
고성
##옥수수
경험치
##플래닛
##이시아
##자름
##우체국
산재
무생채
펜촉
##요법
신지
효능
이제훈
비닐봉지
##결재
##설계
논현
메탈
##발란스
신작
리넨
식권
##심지어
쓰레
찾아와
들어온대
##멈
##괘
##곻
몰랐었
진물
울고불
##어깨
망가졌
떨궈
##해야죠
다녔었
##서운
스르륵
모유
##헴
##나대
뛰어다니
작은방
항체
##긴대
체할
예사
##조작
차가워
불로
진전
그럴라
카테고리
응원가
비숑
서민
##가징
뿌옇
##로와
이색
##구할
달라져서
대낮
초중
##거절
전투
##된다네
철벽
##죸
동양인
엥간
숙연
##놀러
##터진다
##세포
얼룬
요긴
최강
근게
설렁설렁
장가
고충
우당탕탕
든다는
세이프
##왤케
휴직
##랬더니
떠난
##자석
##버드
아꼈
##모아야
##고개
열매
플라워
##좋아함
뺀다
찾아올
##틀리
구지
피팅
우루
##플랜
##갈아타
의사소통
멈춘
했어도
##틴트
안쓰러워
##짆아
##무라
긴장감
살색
첨가
##외가
사교
그죠
##케이드
정신력
##착하
##짛
줄때
씨름
기승
시부모
##질의
바이크
와유
##깜놀
돌림
##산지
맞아
비대칭
교육청
향해
##진다는데
##모밀
대문
##후반
투정
까져
양호
##화랑
부담감
##졋대
##트레
##행이
##리다
할려
##냅
##동사
특급
##쟀
하이틴
기네
##가져와서
까이
시디
손실
##우장
노곤
럭키
서든
##와구
##몸무게
해뒀
##우로
멍든
그려져
거즈
##파워
캐서
고지
개뿔
메르스
알아본다고
휴양
##러닝
소화기
##한도
옆머리
아모레
까마득
김우석
단장
##돌렸
무거운데
##환전
후면
##그람
##수제비
교내
수석
순환
만보기
들을까
##한다더라
##구미
##주인공
교통편
험담
늘어날
미인
마티즈
일몰
돌려놓
부천역
질염
인사동
올라온다
##게이
뿌려야
씹는
북경
분모
내달
##깁
블라디
사격
##러브
큐빅
송중기
실외기
다우니
##위원
할리퀸
스윙
무이
##국장
보라매
남김
파손
영종도
가족력
산다면
밤고구마
##레이스
더블유
고기만두
하정우
토트넘
##임대
75
##파악
yes
##슈페너
찔리
난거
##원가
엄살
에이프릴
##라셔
##거먹
##샀었
##옶
##당연히
전적
의학
건졌
끊겨
증후군
##해야겠네
비몽사몽
##무늬
##마야
조폭
루비
소문나
걸어와
페인트칠
달려야
##보러
##으신지
그럴까봐
##해석
##합쳐서
라코스테
##건진
남일
##애요
##거디
##거서
##양심
부당
##키울
현지인
위협
육성
해탈
수용
##찾아가
##어잉
##낑
원망
네버
##신어
게으른
기다려라
국립
무신
##유유
골골
씹히
박명수
길바닥
##로워서
##한다길래
호곡
##망함
##더러워
분수
잼따
시렁
싸매
유급
인센티브
탄력
E
실제론
부안
네모난
##사친
긴가민가
소중히
풀림
##쓴대
튤립
버틴
^^!
##향기
빙그레
생전
##가주
##심리
##잖음
도가니
거자
어중간
##페어
세계관
창의
건져
##왕자
보답
##여와
##인진
##배운
생물
##그리드
##내자
##마주치
취할
육마
##졋지
흔드
경과
자택
##운동장
봐두
줏
한의사
당빠
교육비
##뽐뿌
웨지
##비하
따라한
봐준다고
손맛
##옮겨
##막힐
색연필
뜨끈뜨끈
##주금
마실래
직종
##봣니
뒤꿈치
봐준다
##편함
##수박
##이치
자부심
요상
##산거야
개론
##분식
여고
가셈
명정
집구
##!!!!!!!!!!!!!!!!
##구망
촉감
전지현
템플
기린
업계
해커
미녀
##툴
템플스테이
##중계
빨래방
##증도
미트볼
코스터
##라요
코나
쓸라고
늘려야
소독약
넥슨
신천
마카
##대야
페퍼로니
입도
##수요일
파이브
그걸루
##계산서
찐빵
교직원
여길
까마귀
##탘
##면바지
신형
##사나
##관광
##쉬워
철도
번쩍
껴도
스폰지
뽁뽁
물난리
성서
팥죽
##페라
##밨
웅진
완화
사서
시원시원
강화도
메이트
고봉
##쯍
외곽
##다지만
떠먹
차이나타운
스트라이프
소란
##직도
휴무일
점핑
면바지
스페인어
상공
철거
중구
구스
패브릭
공병
연간
##노동부
국내선
모델링
엑스트라
LG
##공홈
캐논
팬텀
화곡
김희애
구문
구인
인피니티
연인의
99
250
##행깃
##이겨
##들어간다
##거만
코랄
아지트
빡빡이
거서
옮길까
##무서
##담사
노랑이
시멘트
쾅쾅
##니꺼
##어느
뭥
하렴
울렁거리
you
##냐아
##해가
##롱이
##띡
마스
담겨
##오심
##카나
무의미
도토리묵
자여
보소
##러네
##우이
##셬
##깻
##각도
##캤
##배불러
##끄러
다녀올까
지그
##로움
씨익
##영양제
##시지
##헌디
흘린
몽롱
##팔찌
윙크
참말
##래는
나타났
바위
##겠어요
##였었
반신욕
게을러
##만도
##피하
##바쁨
##뚜껑
스커트
제네시스
장본
간병인
달려들
안니
나아진
안타까운
##노노
##능자
나드
밤바다
##어째
정비
##봣냐
##껴도
##차인데
##봐야겠다
##맘대로
본능
변해서
##러요
던졌
도마뱀
##건감
##중심
충주
##당께
호박죽
##익숙
거참
##우짜
틱톡
##이즈
띄어쓰기
##내의
국회
쓴다는
케이블카
국도
늘어지
##찮다
##합니더
개업
##갱신
영지
흐윽
만끽
##줄여
속의
와야겠다
여운
학비
##좋아할
닭똥집
##졌어요
대륙
롤링
절교
말기
##통도
산이
##한대요
노랭이
얼척
원정대
쳐다봤
##후하
경전철
##영향
크라임
##대가리
왜관
##마셔도
##는데두
식기
##점장
##타구
##적응
##귀걸이
##래퍼
들여서
도야
고마웠
곶감
부산대
수혈
금은
잔거
클러치
권장
앗싸
##유가
##예쁨
##그래야지
##잠바
##팬츠
##체질
킥킥
쌍욕
올린다
##어게인
##날개
빠빠
성추행
속편
##려는지
##파나
분발
엘리트
##아메리카노
##서랑
지압
바본가
##어만
##잡힌
하룻밤
비싼게
넘쳐서
추정
##탕도
양손
실전
넷째
##보더
##질러서
##눈썹
쯔
일거
좁쌀
친환경
##이연
##소모
통근
##디도
##솝
쉰내
팔레트
자산
지폐
##워홀
반올림
전포
방문자
세모
##비추
망원동
기어가
##벤트
알씨
##클라이너
완벽히
천은
##용도
신나고
뭉친
맥심
모둠
네덜란드
자동차세
생소
##문장
베네
들러야
신청자
황민현
단말기
다녀온다고
##으려니
##붙여서
##구스
라스
시사
v
영양가
단기간
휴먼
경제학
##인턴
디스커버리
그리스
##스테이션
지원서
주중
##켜져
브이넥
포토북
사두
##장비
라즈베리
카지노
특근
스쾃
##스토
이동하
##적립금
새것
##보증
완납
미디엄
멕시카나
메소
합격자
##라빈
엔드게임
만근
특정인
슬퍼한다
4000
##40
보디로션
먹히
언젠
짜잔
잉여
으유
##가트
충돌
에르메스
지움
##새기
마지노선
##봣엉
어쩐다
##토막
##빌려서
밝기
번하
푸하하
가터
루틴
##마로
##끌리
##잔다고
지혜
##캡쳐
아파하
놀자
짙
##휴게소
##와야지
선전
##랬자
캥거루
##프로필
폐가
##뭄
떨어뜨렸
##전달
맡아보
##흉
따신
멕
##고픈
기싸움
##계셔서
##초보
아그
고플
수국
담보
##버네
본대
망원경
##깽
##얼음
가식
손대
##벌기
꼬이
애쓰
협조
##웃겨서
##처방
비엔나
잔머리
##선풍기
주실
##쮜
스윙스
스릴
강된장
##뻔해
텍
한혜진
개임
##바뀐
##시점
과한
##멘붕
##피우
##돈다
카펫
시강
비와도
칠월
##킄
육식
이매
##인겨
이소라
시다
동감
전망대
##쥭
땃
꼬맹이
##먹자
정반대
##등부
물감
##인고
우에
##왼쪽
트리플
##봣음
굴려
##꼬미
##쑥
상견
##예방
간식거리
##흔들
뺀다고
오져서
##기엽
제어
##스테이
착색
##성분
##컄
화투
갈아먹
##털리
약값
##채로
소모품
요것
잉어
해머
##타시
##먹눈
착착
김재욱
홈즈
자비
네다섯
졸지
교훈
멤
##경제
##장만
찾아내
간질간질
##입니더
로스트
떨구
##수능
연연
비전
##적당히
패스트푸드
속상해서
##부턴가
눌린
피도
거시기
코카
쓴맛
##브리즈
합쳐
할수록
남겨서
쿼
##먕
##무서워서
글로벌
귯
##세차
증발
오직
섞여서
문제점
덩그러
스쿨버스
식기세척기
미성년자
한양대
공덕
볼땐
밀양
##아이디어
오셔
장전
##일반
헤이즐넛
죠리퐁
##분만
오모리
황태
##앟
똥집
##공산
트루
총알
부적
아래층
시청자
망설
교생
납입
비스트
봄옷
의류
##놨나
메모지
##는다면서
라운드
결승
낮춰
뜨개질
볼케이노
찌지
순정
##제약
냉방
슈퍼맨
##카를
##치노
튀겨서
건조대
엘리
꼼수
##김치찌개
쉬기
##회차
도라지
돈키호테
관하
발품
##코인
cj
창틀
모른다며
##L
당첨자
포트
에이아이
결방
##KT
39
170
혼난
##오이
##생명
건가요
체스
서로서로
##매우
##다물
##대유
앞다리
잊어버려서
늠
무서버
##눔
##샄
액땜
모사
심리학
참신
겸손
생색
##느껴져
나트륨
##대역
업고
친근
##부어서
##몬드
장례
##엽지
까칠
진이
차곡차곡
##부대
##토하
오심
##됀
##는걸요
블로거
애터
알갱이
반달
식히
여지
줄어든
##동창
도사
##비야
##해드림
##시다
숨차
##팔린
##근래
벽돌
##드셈
칸막이
고마워서
대에
##을게
##특급
##으오
버틴다
상냥
##변화
글라스
부항
##입술
제보
##큔
맥윙
끝난다
대서
##다거나
놀러왔
##등산
찹쌀떡
울렁
##우째
인서
수트
히이
##어릴
간지러운
모셔
유쾌
굴러다니
##사량
체고
어쩔래
험난
거저
##껨
자원
##함의
##오금
재벌
알라
드린
맥락
일나
타령
본다며
##슴둥
SK
노릇
스틸
##삔
##사각
우니
##뮤직
##다닌다고
고학년
밀어주
하루치
##매도
고전
##졋나
꼬라지
챌린지
때린
먹여야
진즉
##감각
##삼촌
로이스
매월
##!!!!!!!!!!!!!!!
##만시
##탈모
와아아
애프터
대나무
##수건
아머
##지로
##한듯
산만
식당가
넘긴
어그
##풀려서
그라믄
##헀
##박람회
늬
##고잉
##오기
오르막길
##가꾸
##허락
고퀄
##접속
##특
복이
보육
쓰러진
짤릴
##지출
실크
##싱어
가동
똑똑이
R
##기얌
색다른
멍멍
##앆
토한
진드기
##더리
수행
무심
##이군
방의
##안내
##거머
플리즈
찍찍
##다른데
##날까봐
##홀로
##도래
묵직
체조
오자
쾅
흘렀
##해제
##청년
감소
##이긴
청계천
써놨
##성운
##아쥬
##지바
##러시
##등기
탱탱
고친
##놨더라
싼가
문짝
변비약
깁
##두부
상호
맛깔
하노이
##동영상
알맞
이준기
정준일
##실러
본건
해뜨
##성당
##??!!
##드롭
경희대
##소문
회계사
물으
##물어봐야
프렌치토스트
풀린다고
##비의
쓰여서
나노
구형
잘렸
엣지
이오
보지
비린
게살
##업자
##왈
서둘러
수단
마지
##USB
두부조림
건보
##캅스
##쁠
##백도
케이비
##적혀
상인
표절
##인력
아치
낙성대
##린당
구매자
스낵
지상
폭행
기름지
겉절이
##설탕
용달
##밥상
열악
고발
포스코
##키보드
##놋
##화재
얼려서
달째
##ml
##트립
데나
로밍
##스캐너
주전자
##구직
입장권
##스탑
밀떡
톳
토드
소노
##퀸
##어때요
##졸려서
가꾸
등원
##살리
뒷목
그건데
##테크
서러워
어지간히
##바쁠
골프장
##톨
##준단
훑
짚신
깨달음
##튜브
우릴
주섬주섬
##올라와서
##들릴
##겁니까
##뀌
##시렁
##께요
끙끙
학부
쏟아져
해독
##텀블러
때로
육공
뭔진
꼬집
혼수
뒤돌
빠이빠이
꼰
딸리
우어
사감
##탈락
짤렸
다이
쪽팔리
##자매
##고니
##망해
##노우
어머님께
뒤척이
그제서야
심한가
다름없
촛불
##끝냈
설렜
지배
솜씨
##풀렸
주글
##수사
포부
별별
##짢아
##도대
##간다는데
척척
싸악
##앞머리
괜찬
##c
##한마디
놀릴
##로지
##바른
##오른쪽
유라
##맷
숨통
각성
귀욤
끝장
##정돈데
##두나
마리나
별점
불호
기호
으이
맘놓
매입
##끗
자시
뚫린
끼리
새드
##놨더니
드니
만다
호이
도색
회충약
주접
외대
##몰라도
저색
절로
눈치껏
들림
##단디
철저히
##봣자나
속상했
##뷴
##만약
##핌
따수운
데려갈
사이코
반항
작업실
##크로
아효
꾀
##마틴
만찬
##쳣음
그럴만도
##당게
폐차
킼킼
뒤져서
##팔렸
그친
땅땅
져지
루피
##냄비
소망
억양
##요기
지능
박지선
##무서웠
재정
핡
##가져옴
수급
##뱀
한인
먹거리
##봣으
##약이
건의
##켯다
허공
유진한
##정장
##윗
라비
지우펀
초봉
출장비
##찮지
디디
앞차
##심의
주워서
로얄
머리털
절식
##들어
그름
스테이
##애플
러버
##공책
발만
코미
천마
##다닐까
불러줘
근종
꺼야
##다카이
천생연분
소수
관뒀
알러
더빙
반짝반짝
##그걸로
찻
해치우
맹글
양키
고라니
지겨워서
속상한
고러
##갈색
어리석
##정두
충북
좌절
프린트기
##?!?!
##치만
밀어
스쿼시
##체한
꿀떡
아라시
##된데
재테크
물치
곱하
항공편
##올해
##버틸
##관은
##텐트
##돌릴
슈가맨
송정
모리
소자
아까움
취합
곳곳
아삭
##다녀도
##페인팅
레일
##제외
가릴
자메이카
세웠
브레인
한다니
검찰
싼걸로
접이식
복용
약수
덕천
된다던데
교통수단
실온
##질리언
강북
인계
##소의
##산업
결핵
##스콘
배란
대학로
귓바퀴
대게
경락
커피포트
운송장
주문서
엘이디
딤섬
##SNS
성우
포레스트
##배라
신과
쿨쿨
내릴까
티눈
지니어스
능력자
새내기
키로가
농락
둔다
##자노
난리난
윳
##끓
지기
세기
##기세
기다려줘
홀수
##오지마
##분양
삼송
다녀가
구강
##어른
##햣
##이응
마친
##배고파서
뿡
##후보
찾아갈
##찮네
움직였
예외
시내버스
귀염둥이
##잿
##해오
##사감
이지
##예용
##더더
##나눔
원한
흐뭇
##얗
고의
기괴
판소리
범계역
큭
뭉쳐
##문제지
##진다구
하노
##거마
스킨십
중성
여정
구찮
##힐링
##장인
됏다
##탸
멱살
꼬질꼬질
신사
서두르
##냠냠
눈꼽
볼려고
내려갈게
튈
파티션
나으니까
##해할
완저
##기달
텀블벅
##뎃다
##응거
팔로
망설여
흥미진진
##지남
##나노
열심
조롱
트림
인심
##고마
##신다며
개우
지멋대로
##다로
아녜요
내래
작사
고운
항시
사왕
호야
지나감
합친
아고
##이력서
강남이
##손실
##힛
##고리
약대
떠보
비듬
##피로
로우
##미국
##브로우
스치
##의심
도우
붙박이
여리
어째야
##얻어먹
쪼만
##겅가
부활
연락줄
울면
##언제나
##노코
헷갈림
##땃
페퍼
##파랑
햇대
수영도
나르
##피의
물릴
유자차
##메이
##본인
시뮬레이션
남쪽
드릅
질색
얕
던킨도너츠
못정
소불고기
초인종
베이직
##어휴
개미지옥
인터폰
##프로젝트
들기름
공략
흘릴
연골
맺
생겨도
떠야
##구워서
요래
야하
마니아
##횡단
친해져
삼둥이
##다닝
##발라서
##트기
경쟁자
스태프
찔려서
##레깅스
숨겼
##라잉
##스타킹
##에르
##피부과
프레첼
내이
##차선
물들
니스
##바베큐
절개
바랬
비공
외관
##슬리퍼
경조사
꺼낸
장지
암사
할맥
간혹
우렁
공황
##선의
소년
##만화
맡긴
##금의
밥도둑
풀떼기
남구
##포트
그건가
대추
태안
꺼질
휴가비
화폐
민호
동백꽃
##충분
##시험장
##분당
따가워
배지
취재
##팔려
##버들
##볼려구
교구
쓰래
상암
노니
학력
합해서
##신입
##슬랙스
힉
##그레
장흥
무나
수어
픽스
##및
분초
끝물
##계절
완공
차콜
조질
##봣는디
##더운
##소득세
비포
##블라우스
오리엔탈
사처
##계란밥
##홀리데이
용병
추운거
##실의
캔버스
##자동
유지비
바이든
원화
아이오
호차
##실적
되팔
스케이트
맛의
회독
행정법
피겨
드론
족발이
고추냉이
덕구
쇼트커트
##알티
어떤지에
##밀리리터
82
110
뉘앙스
맣
##???????????
빈손
눼
##구자
##아랑
##^_
스판
챙피
##색모
##더블
꿍
지금껏
##조카
뮨
치곤
대견
##중학교
구디
구칭
안겨
##인갑다
쪽쪽
##아파요
##보충
##놓치
비참
온통
##얶
시인
##눙데
##차릴
##둘지
매정
##전주
&
싸이코
관대
게으름
투데이
##라다가
넘겨야
심해진
여파
성취감
##고급
가마
어딘디
##지라고
##포레스트
얘길
생색내
##닭갈비
##마구
던데
딩동댕
앞발
##밤새
작업자
오메기
꼬끄
해쥬
나갈라고
##쨩
##어서리
##바뻐
##신부
편지지
해둔
시랑
##잠그
##은근
쬐금
애틋
오냐
##는대서
배출
##지라
드립니다
##원서
배추김치
응용
넥스
산뜻
##상해
아티
장실
##꿀잠
쪽파
##클로
##밴
##고를
##수니
용평
명분
##가랑
##뭘까
##캠프
잘려고
##달력
끊긴
사겼
뒷부분
##야드
자진
##리원
##원해
흐흐흐
##소중
징그러워서
##번역
수퍼
다가와서
##이빨
찍혀서
금고
꺼진
골절
##근종
슈퍼스타
새서
##구유
생각혀
징그러운
부딪혀서
모란
##타드
돠
##고정
본당
욘
##몰리
돈다
사세요
##다의
코아
정함
##가정
검암
##댔지
큐티
고되
몸조심
호들갑
팔굽혀
화만
##겠죠
단련
##시의
살렸
연근
유추
살찔
찰스
정당
중이
벌교
완전체
##재생
##셔야죠
천에
가해자
부려서
유명하
총대
거치
##난다는
##라멘
##지궁
느껴서
찐하
##계약직
전설
칡
비형
##추움
넘겨서
박힌
##똬
눈동자
법률
도심
##현대
내려옴
패기
##눠
##엉덩이
##마래
##라든
개떡
##매출
배불리
##오른다
##피지
##날려
##나면
##스킬
##쨍쨍
마음껏
##짰
이기면
웨이트
##미스
##뒤져
##봐줄
##갔다온
##비나
바스
##카라
##기초
##쁠원
##증명
딸려
약관
##아조
##구나아
놔둔
##미의
##기모
신음
신문지
치자
스케치
자랄
##활의
깐풍기
##홈페이지
벽걸이
열쇠고리
##오마
관둬
부들
덩달
##됫네
삼산
유아인
인격
마킹
점차
최대치
##뱅킹
##학식
반월당
꼬꼬
과감
배상
##담당자
걸린다는
해오
다리미
캘리
오피
삭발
##바뀔
##티셔츠
오리탕
알바로
##포스터
깜장
무적
장아찌
상온
죽치
태아
니키
구림
달랑
아이슬란드
저널
##음식점
유입
도운
##아이스
##밥집
썅
사우
본새
한산
물때
으뜸
잘린
둑
##원은
건빵
##원에
루카스
##패밀리
창작
따라갔
##타우너
트랙
##T
##역이
복강경
수압
입생로랑
찐다
##바닐라
채우기
비비빅
어울릴지
##교자
##가입자
다큐멘터리
수포
##간염
푸주
유방
변형
##킵스
지속력
수속
실로
선릉
스탬프
위의
##치알
반환
##관리사
랭킹
##엠알
지에
고사장
##취성
2019
34
##50
세워서
써요
##집들이
프렌치
걸루
여새
##메세지
내쫓
멎
막둥이
##라메
##썻다
지침
어찌나
쓰러져서
말랭이
##쳐다보
길치
운다고
두리
방광
##쳔
트렌디
제부
듀얼
##쪼가리
조차
아패
빠져도
##꿈꿨
지남
##거다
숭
##뤈
##잏
##럇
##바빴
자꼬
행보
짠해
넥타이
서사
##싸웠
어쩔까
##말라서
##자래
##복구
한발
빌보드
조인성
##된지
창구
##설레
닫히
요란
##싱기
팔랑
나눠져
꺄륵
엔젤
서러워서
입자
##망치
##흐흐
##안와
생축
되도록
쫓겨나
##신전
##알아먹
떠났
##쎈
##부당
타이핑
##주한
낙산
후려치
간도
사표
유유
##어지
올라프
팠
이방
##본곳
마리오
##그쪽
향긋
##는개
디스플레이
##구네
##쭈쭈
리듬
지나다니
벗기
답례품
어지러운
푸르지오
##천지
내자
##번의
인문
허언
이곳저곳
##당당
늘려서
##욱기
횡
##라든가
##닮음
나간대
실질
잠궈
욜로
하울
글제
##뚱뚱
얼라
젛아
의원
번장
광명역
##하하하
##보여준
외운
##비아
근교
시상
지워서
##어머님
헤드폰
비롯
칙
##모음
애증
##웨딩
유머
피신
##끌려
!!
상봉
낯가리
서포트
종점
##여드름
중단발
데려갔
##또래
##인트
##단가
##흐름
살아났
##떄는
##등본
##팔자
##찰떡
수술비
개입
##몬데
##얼리
떡보
심술
다고
보트
잠겼
창동
장마철
온다구
이용권
쿰
##해방
안녕히
##게시리
체중계
그케
미열
사둔
##포스
아메리
죵
##건들
##매너
##레몬
##초록
증세
시달리
##노라
##배추
겅부
얼음물
쪄죽
셀린느
겔
우석
솔드
##가거
##라는지
##절개
다녀갔
##을진
영업시간
아메리카
모자랄
통수
끊임없이
정밀
##으랬
거든
한양
모기약
##유로
빅스비
##국어
##채워서
번다
##스케줄
##젯
값어치
##유치원
##뭉
뛰어넘
놀이기구
브레드
##오티
##중앙
##바이텐
뱃
하당
구상
돌봐
인체
유진
에이티엠
협재
텔레
##전기
충만
##본의
내려감
동방
##물론
매치
송가
화공
##번거
동이
논현동
설악산
동참
아역
산후조리원
##핑이
##된다던데
할라면
##올라온
##세월
##라이스
##지오
연다고
아서
두부김치
내향
인사이드
당첨금
##인구
세인트
##사발
따놓
해묵
줄자
치수
새콤
시큰
신맛
보일까
폭포
교행
이민우
##마카롱
아로마
음향
막힘
놓쳐
물개
의존
씨네
방배
##밋지
어글리
##어회
미대
제작진
스페이스
색조
성지
빅토리아
밑단
휴가철
##품목
재입
##발신
가입자
수협
전망
배드
초급
##캐시
##호선
만하
액티비티
해감
##코노미
##PPT
##CCTV
130
##킬로미터
바란다고
7000
##KF
웅아
알자
##남동
##오우
여덜
보배
##서랍
##해와
신남
예물
##만여
##껀디
##내말이
진짠
##재단
똥줄
쌓일
넝
떡메
써줘
고것
##지예
##통의
야금야금
켘
중점
주무세요
찰리
##부지런
눌렸
로이
##찌찌
##한방
잇츠
##야랑
##물어
꺼도
과음
##취했
##절각
##시렵
매니
##졌었
덜렁
##니아
의료진
들이대
건너뛰
하우
흨흨
##착해
친화력
괴롭힘
##긍가
##스튜디오
##자른
##아지
엔드
##가셔
##떄도
##거사
##더라면
뒷다리
##무이
##중반
시일
개지
대환
장군
과잉
##드려도
##마안
##한다더니
노안
흘려서
적나라
용납
##저자
##잡혔
##이것저것
심보
##심장
철분
아애
쩝쩝
##스무디
어린데
젠더
펑크
현대인
패트
구례
도망치
I
진짠데
발랄
##시라
##출장
srt
##니자
미사
아랫니
##그릴
점집
외로워서
쏜다
우야
##베스트
힘쓰
팸
연희동
##안전
뛰어놀
##발라야
무표정
##찬다
온리
프러포즈
입어
무뚝뚝
머물
호강
##문학
고건
##젠가
러블리
데려올
##파스
영덕
##리에
와두
잊혀
향상
뭍
일직
##화요일
##도저
근본
뛰쳐나가
##대하
겨우겨우
##으려다
##일히
##홀더
아닌데요
데려와서
나란히
##꽝
시카고
렛츠
##근거
차타
물렁
##썹
월안
잃어버릴
예감
유태오
##닁
##딱딱
인해서
마법사
묻혀
쳐져
사발
당도
데스
넘어간
졸린다
절정
집어먹
백인
취약
##냐니
창립
##생각났
##가즈
궁금증
버디
했었잖
할튼
넘어감
##연봉
사바
##관가
##훨씬
빕
다임
조온
색의
##발전
때려서
뽑혔
간소
니거
애칭
정리함
물려받
##소장
융통
##래미
TV
자용
##가운
미납
자름
먹먹
가고
돌팔이
겨울철
##지먼
교도소
티타임
밤샜
##계약서
안조
안경테
소매치기
이쁜지
사라다
발인
괜찬아
모닝커피
매칭
식전
##아디
습진
##뱌
고점
##쿸
놔서
##약해
변이
실외
귀지
빙빙
사색
아나운서
##두가
당진
애월
금사
##살돈
떨렸
##상공
##췬
##높이
비만
입병
##예쁜데
바름
걸쳐서
##아까운
내려간다고
너머
##는댜
벼르
늑대
##시파
##부동산
##불러야
선방
유행어
##몰카
하궁
##고른
맞히
##쓰가
매울
이슬
체결
꽃구경
보검
출처
##아바타
둔다고
모금
치료비
##서가
원카드
채운
기발
##난다며
##번방
불스
추워도
파랑이
##경보
입소문
따끈따끈
녹여서
##어택
연기력
재야
조항
삼주
크림빵
##천에
##스텔라
##야해서
펜스
##젘
세정제
머스캣
##레이크
오아시스
스탑
역세
동부
학위
##광장
##선당
금호
총각김치
시큼
##투스
##색병
예보
기재
배당
베스트셀러
##락스
닥터지
아르
둬서
정경호
추적
매화
##탕면
##온댔
찬다
##재방
사직
미즈
감염증
페달
메이저
##만료
##어묵
파타고니아
풀무원
팬츠
할부금
철회
시승
거래소
무비
안내문
출연진
밭두렁
켜졌
사람인
우박
리소토
2021
65
차대
취사
맘고생
##멘탈
##준하
숨소리
모르자나
복면
누운
수위
홍홍
##배불
그럴지
##신세계
##단기
우겨
사여
##네예
##엄만
떼우
##랜다
한진
##다쳐서
호피
단순히
사후
빠삭
##우우우우
그령
##초과
##너희
올께
유리창
##골라서
구내염
심기
질림
서강준
##라데
겹쳤
##줫음
##정신없
내고
##빽
##졋엉
##자꾸나
삼키
글러
넘어져
탕탕
##신가봐
고마움
녀석들
마전
파랗
때메
##짜르
냅뒀
##급해
친오빠
##무서움
사방
##그렁
싸운다
##댑
난생
벌어지
##사셈
내키
허나
##응원
유노윤호
##파도
기찬
##정확
##즁에
##팬티
##무게
##콧물
진흙
##타령
숨길
##쓰임
인내심
설쳤
사다
현역
##텐데요
##??!!!
##캠핑
멸망
온전히
##참여
##신라
##미용
##쓴지
##올라고
참된
비결
돌아간다
##울산
##한편
작아졌
힘겹
##아리
##더우
##라차
설렌
안절부절
희열
##나사
##간질
올릴까
돌아다녀야
##껍데기
##미소
##사라짐
##리디
처치
##지웠
만사
진통
##직히
##양반
챔피언
##자다
분산
정모
레어
##투성이
##홓
N
##아까움
여윳돈
##올라갈
누렇
리드
##들이
PC
커진
시루
만든다
으엉
만져서
새똥
태클
##졸라
##자농
##짱짱
##제시
멧돼지
##짤라
존재감
눈가
##뺀다
구걸
인류
##준다면
##는둥
##테이크
##얒
유발
##이마
##노랑
무산
어리둥절
편해졌
데코
##찌이
카페모카
책꽂이
##독서실
개취
말해줘
들어와도
##주야
##에엑
어찌어찌
##거당
##역의
소가
쪼까
##터야
뜯어보
박쥐
##기라
우체통
##불로
찾아갔
로운
삼치
##관도
##질겨
##배부르
##소도
홍어
들린
##알아볼
암호
##꾹
##우우우
소곱
원한다
서해
바싹
초능력
##취해
빙의
변덕
##최대한
사물
##에이치
##꺼두
투싼
##혜
##맡겨
##로케
더군다나
##양이
자증
시방
하삼
썰매
도네
접어
폴바셋
숯
연두
면적
그릏
대빵
##임마
수서역
만두전골
스케치북
둠
##버린다고
회기
마술
털어놓
##치아
레저
비계
##조하
##볼개
결막염
발행
과도
##주장
##가심
무가
##야된다
참깨
시음
산불
전당
로디
쫀득쫀득
어버버
왕눈이
##프렌즈
봣나
심해질
던진
귀하
견학
##각의
온다면
가면
과소비
등산화
백설기
##젓갈
임박
차린
후이
##숫
역이
##남의
##싴
식도
특집
##행인
율무차
명륜
##버섯
##배기
박막
##사이드
연남
##사무
뻔해서
뽑힌
근장
초여름
조거
##구해서
##발송
깬다
당함
등받이
부각
다닐지
정갈
캐슬
성폭행
마테
코스모스
화이트로
식중독
비나
쫘
##도구
버린다고
##이오
몰래카메라
무시무시
올라온다고
옥수수빵
지려
아마스
원주고
정우성
##우터
##민트
##린카
##시인
금값
팥빙수
##세탁
인지도
검증
국악
브래지어
휴지통
발효
##기국
큐티클
진해서
라프
용이
##문고
경부
올인원
발암
제이티
힐튼
청정기
##보료
프레시
호밀빵
익스프레스
솥
곱빼기
퓨전
##해변
반도
기본요금
파크
배관
왔으며
44
캐러멜
바람직
도리
##평소
꼬리뼈
먹보
##랠
##불이랑
그랜드
##통약
말거
##레서
시끄러웠
##잉가
##애박
걸러야
이요
##의지
모로
멈춰서
##신화
꼬여서
##기상
##아치
다지
이뤄
코고
##모시
미스테리
##피플
차암
주삼
##렀
##잘래
##빕
고래고래
이대
전성기
헤어밴드
##건거
화낸
어울림
쫓아내
##쌋
매운데
##여오
나갈라
##냑
##깰
경매
머리통
낙타
##반전
##잫
동화책
모아야지
관심사
##쇠
##야기
##지급
##특히
놀렸
생략
##바구니
##우정
나방
관건
해봐라
팽
##인갑
##에오
밀림
##가눈
무좀
구피
잡티
자격지심
가셔
저래서
쌩까
넘어와
##노나
##하의
##붘
내외
##어감
호출
의뢰
포켓볼
##동장
##면도
살치
##다녀올
베프
##약하
군복
##도마
##낚시
어게인
##일시
##받침
##라그
##해영
##최근
##야야
그럽
가시나
받쳐
오딘
박근혜
##발톱
##저것
곰국
간만에
쉬움
턱살
꺄르르
변수
물어봤었
##올라옴
##쏘리
마땅히
잠복기
울딸
시네마
봉봉
안티
##용임
##다다닥
##간호사
개스
쳐내
고렇
##헤서
##다이소
##가볍
별건
밑밥
##아홉
##해어
진출
##그야
그러긴
텔레파시
올게요
이백
##부침개
부글부글
피부병
##치약
이상태
세뱃돈
##는다니
##아영
##하오
치르
십자가
보관함
케이윌
##키스
와여
일거리
벌떡
거인
멜로디
묘
##위기
박자
구속
지켜봐
야매
##공휴일
슉
줄래
서포터
꿇
##아닙니까
대리석
##비율
뛰쳐
가까울
##치맥
등도
잠겨
넘김
##듭
비마니
생어
##거스틴
##아우
직후
##덬
평평
##분장
##소재
거이
보이즈
합석
자작
##웨더
조진다
구건
뽈
##면어
##뤄
##개그
항정살
##볼께요
벼락
델리
##워킹
##샅
!!!!!!!!!
뽝
산골
들를
노린다
Yes
앵무새
베베
##당가
한철
고체
허기
##걸린데
배부름
##너겟
사간
질러서
##회화
건설
##맼
일보
액수
##준가
주사위
##바쁜데
크래커
it
##말구
느낀다고
타보
임의
클리오
##얘긴
##한다구요
풍년
주요
독서대
간다면서
##걸어야
##진가
##술의
##한입
어구
하원
뺏기
흔들려서
생맥
##빠이
유제품
서늘
##리알
수작
사기전
난자
이름표
웅장
담타
##으니까요
하얘
##캐서
돈의
언더
페브리즈
##불만
##야식
겁난다
##엄청나
##신상
##할께요
미뤄서
봉고
##머스켓
박아
스탠다드
계신다
##????????????
##망할
머구
메트로
솟
##메시지
지정석
##날걸
전사
가오슝
파이썬
여왕
##초기
읽히
##별곡
안무
##분과
심화
깎이
##보거
##봉봉
안재현
앞트임
굴이
##아고
비뇨기과
##재의
쓴지
별다른
삼성전기
##격의
미달
##시오
학습지
동치미
유월
레인보우
안시
타운
##다마
홍준표
스웨이드
토토로
톨게이트
장도연
##경심
살벌
강호동
한국식
온돌
더워도
##체육관
주문도
##정품
##코스트
주근깨
다시마
부침
반점
상한가
##업계
지브리
##입고
캉
##비어
##바이오
주안역
영등포역
출판사
인크레더블
아이튠즈
캣츠
##오븐
칠리소스
##기변
브론즈
##롯시
카스텔라
콰트로
대금
안양역
용호
신분당선
##홈즈
##레온
##크래프트
12000
94
8000
어기
##차림
##누군지
##누워서
겁쟁이
##윸
함서
토레
벙거지
천주교
카페베네
챙긴
품종
##언어
##아기
노비
프링글스
궁둥이
##거주
##췃
지낸
##실비
클날
역겹
요놈
##싸리
김종민
줄라고
옆모습
역마살
시향
가르
신념
서술형
##안자
결혼반지
성사
##깠
헤어져야
살려서
CGV
잃어버려
감금
##라아
##나드
줄라
안고
##설사
망칠
포식
##페이스
뭔줄
##서유
##소세지
게으르
어떠세요
어지간
##맞췄
##적당
한눈
##너야
뿌릴
##블로거
총체적
난국
##로게
##답변
떄문에
와버렸
##랑께
##마신다
##막혔
힘든지
##박물관
화병
##는다던데
##청아
도덕
##꿨
##일안
두지
토피
봤잖아
다크서클
잠꼬대
으으음
zzz
##팡팡
사과즙
##가소
##촬
졸음
매달리
##오드
미남
##성과
##난다구
##난게
##지루
해야죠
인위
습식
본명
하다
자개
##야간
타고나
영양분
넘어왔
온지
점주
비눗방울
빳빳
##원하
해내
미움
지칠
##?????????????????????????
함바
##회장
이잉
엉뚱
##녹차
##색상
꼭지
##드래
떨궜
##졋으
코바늘
미룬다
재미나
따라했
##이투
##텐션
운치
수작업
맞벌이
##못해서
니나
##언니네
소홀
##쨈
수의사
다이어
보냈었
떨어뜨리
쿠마
살길
##다죠
##마가
조수석
뙈
한남동
풀리지
집간
짱이
쭈구리
건디
산화제
##고집
##장가
##덱
##스파게티
탈이
착실
수금
##지만은
##풀린
미간
##노릇
안일
##막힌다
##온거
피폐
디바
발성
운전대
분다
##폿
나간다는
헌신
##일으키
줄기
협력
##볼려
##귀가
달려오
나뿌
차려입
##디스
##부야
물냉면
당당히
##관두
소미
생김새
##고름
등치
이라
조시
##이뻐서
이식
빱이
반기
유트
인가요
할리갈리
부러졌
##사역
살림살이
##성비
이탈리안
전파
##할래요
감칠맛
이동욱
비니
?!?
아차
시골집
토가
바셀린
뜨뜻
내줄
##인하
현아
서현역
##늕
할려구
간적
##들러서
##겧
샐리
스토커
압력
##어울려서
##띠미
##이처
##국수집
서쪽
심오
##설의
전교
애타
견뎌
붙박이장
자외선
울렸
##달콤
그란
이겨야
바이올린
##거실
큰손
꿀밤
단색
##골라야
##흐르
뗀
공효진
블링
통역
##아이파크
개천절
다룬
##허지
바까
까다로운
교무실
작아지
하와이안
떠올라서
날림
##지인
자재
마우스패드
펀치
특기
헷갈린다
##고수
국은
엑스맨
시제
##후르츠
야광
자습실
스퀘어
정액
그려야
철사
에릭
##스프레이
할리
순대볶음
위반
자로
코오롱
챙겨준
##앤드
돌려줄
고유
치앙마이
체크무늬
##수기
세이브
부찌
일처
미뤄질
기름종이
##온천
##기점
허술
내신
##삥
이용한
이음
##분위
매뉴얼
칼륨
##체해
대상포진
병맛
강낭콩
롤렉스
크림색
킹스맨
오크
##공급
##라운드
##품평
골덴
극장판
초당
##토너
시세이도
슈즈
캬라멜
기네스
강좌
##쿵푸
Web
리버
임대료
쌀떡
##료의
발매
어댑터
신상품
르완다
노려야
관악구
꼴찌
진구
##사인회
##유브이
더우니
3500
샥
##스포츠
##용기
##한숨
##올려야
##쿰
진천
붙히
##상실
##폐
악역
##할꼬
기질
##관업
꿀꺽
사육
생굴
##마침
다쳐
찌들
맬
##씹하
잘까
약해졌
##긩
배랑
수컷
영양소
캠퍼스
##암것도
준수
딴소리
##땨용
##고우
##구영
쩍
어때서
손녀
우연
쓰러졌
흔치
으쌰
협업
이런다
신입생
##변
##트라
딸아
##대임
소릴
##닢
##줫자나
온게
##가질
##둔대
미뤄진
현찰
##체제
신데렐라
갗
배고파요
##청첩장
##갈려구
##읶
##맞이
비트윈
욕한
책갈피
맴돌
쉬러
후레쉬
##보영
맛동산
결벽증
고음
이럴까
##테라
해유
언성
몰렸
대이
##마무
##더냐
##오를
##러니
##풀릴
답글
세울
욕함
골목길
비스
##됫다
뺏겼
##야자
##소진
bhc
난주
##오의
돌고래
##아버님
최후
온전
손주
공허
고질병
##입니다요
##소릴
해치
인류애
독해서
내시
##지리
구게
셔터
푸르
##친척
쪼잔
도청
##켬
갔으니
##종시
그러신
##눤
유교
분실물
##남불
##돌아와
넘사벽
나아야
욀
독점
##싸가지
##라면은
식후
독기
슬라이스
##막힘
##새로운
이걸루
약자
화풀이
보살
##해줘야지
비례
##디마
다냐
돌아간
축소
중당
가마니
저려
혹하
낟
##아이템
퐁퐁
##다감
##만둣국
초라
썰렁
우러
정글
떠올라
##필로우
노가리
말썽
고릴라
휙
##남이
몰라유
실현
주어진
##알려준
##레시피
철인
소울메이트
실어
##듴
토탈
속마음
전제
오렌
웰시
##절의
욕망
인어공주
##민폐
캘리포니아
생애
##막상
##세오
##구린
##제모
##마려
생화
##복의
흉내
인도네시아
질환
안보
해냈
으아악
횡단보도
급할
타노스
조을
##생산
학벌
##무행
볼보
##밀려
밀접
##고등학교
괴롭혀
분무기
##쫘
험한
##리어
##수입
정차
앞집
울릉도
##펜데
##차돌
봉구
아쉬운데
##막내
아모
##위안
획득
얼핏
홑
챱챱
톰보이
##오염
하대
##물렸
원빈
##닳
카풀
욱기
##긴장
찾아와서
##건다
부서지
##체의
##풍의
##논문
##바중
##모자라
남양
묻힌
##보로
##가마
##갴
##캐리
무기력
##지안
##쌀국수
저지
베지
kfc
##고장나
##야호
##족건
꽃가루
묵지
흑화
신경외과
상경
##느낀
한다더라
알기
숨겨진
철봉
전업
건넜
저지방
##뺴
가뭄
체격
슬립
##티피
##오자
한걸
끓여야
고침
굴비
불도
노농
##식탁
##자막
##우대
볼링장
장땡
##걸린다고
##장벽
슈렉
박정민
잽싸
##월말
생강차
Sk
만삭
##될라나
뛰어나
캐럴
##깔려
책정
##연고
설기
##데카
요점
##측정
논산
파이널
막대기
##창이
구글링
##거스
##통과
##사업자
퍼야
정관
##플렉스
고속도
오미자
다이빙
##캡슐
러시
비제이
##노동
열무김치
##회색
탁구
박신혜
유래
##개장
로스팅
와이셔츠
암울
이용자
깨알
모발
트랩
트레이
메종
##본다며
비씨카드
스테로이드
에어로빅
북부
수변
아티스트
##후루
투피
금천구
##세범
##우드
일어난다고
삼청동
##양품
빗물
건면
무렵
브러시
케일
##웰
그랜저
김을
##멤버십
송리
밑창
홍게
평양냉면
수납공간
##전당
##식초
방송사
##간조
캐리비안
포르투갈
녹두전
후참
다코
양정
관악산
혼영
든다며
2018
##900
13000
##쪼끔
단골집
하규
야마
독촉
섞이
군밤
##로고
수술실
##두우
##놨어요
일으키
##앍
잊어먹
##역전
됩니까
콜레스테롤
##여왕
얘긴
##휴지
쪼꼬만
났으면
앤데
보채
종양
췟
뭔데요
봤으니
##후배
띡
##사해
장래
그네
##혼나
##걸까요
김주혁
우걱우걱
나쵸
별수
##꾸준히
##자궁
##마셔요
##전우
격렬
효리
##솔로
##순두부
산발
문젠데
##표도
##취미
##깡패
##다면야
드신
자만
찌찌
##수료
##개지
##칙
드러내
##기스
허위
##이짜
##워머
##진상
##발의
수질
쳐다봐
##아픈가
안의
더불
넘어질
##틀렸
한결같이
불려서
도망갈
##@!
##재우
주더
##부치
엄서
##진료소
##자시
준게
각박
빗길
꽂힌
##또는
##기절
하거
건질
봥
뜨끔
넘어진
계심
홀쭉
##간다니
##픽업
##끼워
태구
##뱍
돈독
답안
견주
경악
장날
##한댔
어라
오덕
##쓰였
두루치기
공통점
##때로
##카누
##자목
##내린
다쿠아즈
멍하니
래서
가혹
왈
켁
아안
고립
리허설
##운다
##사준
##나융
가르칠
##집서
##좋아
오트
아수
남소
##게인
##테일
사흘
변해
##플립
##전형
##인지라
##개요
파격
낑낑
쓰일
딸랑
사사
##오케
감은
적음
점원
##어려울
등수
##논다
##능겨
지져
가질래
카디
리락쿠마
축의
퇴장
탁상
지리산
형수
##부에
##영역
어지러
수긍
##야할
##점프
발악
쌍방
##노무
불안감
소시
차기
해봐도
##밀크
님의
##회가
박히
안암
해봐요
나갔었
##짜장면
단원
강퇴
##상승
##그랬음
##매운맛
##링북
마제
주물주물
성범죄자
##지고
선언
##그런대
소주잔
##겤다
##전략
쓸려고
젊음
##기다릴
로즈마리
침침
워매
아시안
suv
부심
##사온
내비
##바사
족족
##독감
##뚬
탐내
뒷산
샴페인
투박
괜춘괜춘
##지시
원피
##곺
##돕
총총
에이비
##내려갈
작음
토막
외로울
##쌓이
##옥시
##립니
##회계
부숴
##자제
##배워서
는데
피워
주까
##갈라면
##욕구
##세기
멋진데
옅
보삼
##성급
안장
발판
에라
박재범
##후라이드
##늘리
볼록
지어야
##안사
넘어간다
비단
##초의
마즈
##대안
##복판
##바뿌
권리
##해외
##반납
임산
귀농
강형욱
##켈링
오로지
삼양
비웠
##더위
밀폐
교외
하두
중개
열릴
비싼지
동경
##어둡
갈라면
##공의
양송이
##다양
##봣거든
노스페이스
##닭강정
##애지
##방콕
##버력
##시용
피할
수식
##마련
##아점
위장약
##개비
##이라니
뛴
고기반찬
##디포
##가량
##발목
##라네요
부가
스노클링
데자
증정
##장아찌
오목
반칙
무민
##용어
모형
##색사
##여일
풍월
국수집
혼난다
유닛
##여고
중국식
터진다고
##덴가
삽니다
인소
일관
주니어
독산
##이랭
##커튼
졸업장
료칸
상향
효소
##입기
##칫솔
##관의
사무장
무거울
##경로
##직무
소고
온양
##로사
대부도
포테
물약
남이섬
덧니
인피니트
##오에
써볼까
구석구석
최적
시려워
티머니
하림
명인
##화이트
베토
사수가
감도
##바나
##만원
앤드
##한두
##토어
후의
고층
구단
소금구이
하이에나
##게시판
점포
상도
안성
적정
질도
생새우
제형
함량
김민희
센서
크루
갠데
##디즈
화덕
##베이컨
##립스
##출시
우천
수산
온풍기
##실기
최태성
##F
국화빵
##참시
굴전
봉준호
수진
##LG
수에
52
##말랐
악질
날라갔
##진거
요게
##계단
고영
야밤
##드세
##한건
전전
전봇대
짜내
연명
머무
##우면
보낼지
##댴
사나이
아이쿠
비면
##사이다
##친데
##구먼유
남다르
오라방이
##깨우
별류
그러지
실례
헛헛
깨울
폐인
##샸
동년배
갈려면
꺽
##고문
왐마
정처
##시끄럽
##을걸요
##복사
칭다오
눈떠
여건
##올라올
끌린다
악화
##잘까
모처럼
##퍼지
낯가림
헐퀴
##글쎄
##상했
##메인
내눈엔
가눈
오세용
정복
피부염
근께
##가공
나가네
애벌레
##저쩌
맥시멈
안잠
명령
생일상
긍깤
##아플까
초도
갈라지
늘릴
##닠가
##오력
##딧냐
수두룩
터진다
이명
##태도
##뱉
추진력
기흥
불똥
부렸
중이염
성심
##강추
철없
갈켜
머리채
케티
##변하
떨어트려
산도
잰
##쟙
팟캐스트
##거유
##다녀옴
이궁
경사
원보
염불
박진영
##지만서도
킹크
##는지요
신경질
##집니다
##으아
이세상
##깽이
장발
마는
##효녀
이명박
로미오
##잖애
설명도
힘차
지디
드린다고
##합리
따순
일임
피스타치오
비닐장갑
미로
##왴
대나
권력
##동중
##견디
##최대
##슘
##라죠
##까나
이눔
아난
객사
사위
도련
도용
하더
어찌저찌
##곘
##빚
질럿
##라유
나왔으니
역삼
##쯩
스파클
탈룰라
##시집
##거부
공포증
제니스
내사
국적
법정
연두부
##시스
##의의
##뇌
길가
똘똘
##마쇼
##몬스터
세탁실
##이엄
갈려구
들오
널찍
재서
##코기
친언니
써브웨이
플래시
오랬
그리로
##풀림
##요양
##비빔
##버디
컬링
##반애
차가워서
##흡입
서울우유
##흣
##방어
##반함
접하
후방
가공
스쿠버
불가마
찾아다니
생방
초대장
특식
##복숭아
##청바지
반면
겁니다
올리고당
##큐지
날려서
달기
부른데
##저렴
엄청났
##문서
대미
##줴
##할란다
생맥주
짤린
##착각
##뿌셔
##아동
사봉
##웠
혹사
후반부
데미지
##근각
쏜
직계
도입
정유미
귀찌
먀
##감당
궁전
김혜수
##제하
##어옹
푸우
##어기
##슐
##수집
h
말다
팽이
절절
더치커피
##보린
미각
시스루
반짝이
비지니스
익혀서
##펏
될까봐
##고래
##포토
##때렸
##자수
전문직
##가비
가려워
##다려
##젛아
##나이다
내려도
##차원
미디
천상
끽
##쑈
센티
괜차
칼집
##정부
럭스
리플
세잔
사귄다고
리스크
##러너
##쳐야지
전현무
악마의
웬디
낼까
##의료
허름
미들
가오동
하얘서
할고
##뎋
미자
파먹
연안
##가왕
쌋
백은
치안
볼까요
고관절
까치
가급적
연수원
##됐으니
##통신
연예대상
노이로제
이입
따져서
맛보기
스테인리스
오믈렛
운도
트라
한문
##마스터
##멧
##그면
개복
##분다
잡혀가
전력
##시르
커질
군위
##월화
막노동
떠넘기
스투
벨벳
곤충
상이
##수익
##신이
새끼발가락
##다이가
왕뚜껑
만엔
원터치
미란
##대인
##점퍼
공무
##포도
교육부
걸이
##메론
미니어처
국자
호식
결제금
##교양
##하임
##수수
됭
트롤
##초음파
##사양
팔천
##머핀
우회
##킵
고도
##너글
농약
두류
용액
세타
##라방
후덥지근
##무제한
##아몬드
택스
기아차
생고기
##싱글
비틀즈
호그와트
신참
망고스틴
영풍
##정책
글리
소니
후숙
skt
은평구
크린
##토피아
즐겨찾기
칼림바
##피디아
##놨으니
쇼트트랙
스도쿠
파트타임
공업
오리엔테이션
##전골
##소세
오프닝
유키스
중견
원곡
윈도
열람
융자
##AS
포르투
##국숫집
쳐다봄
##불금
누어서
쨩
만화방
줏대
실속
##하가
미뤄도
##키어
##부려서
피코
젓가락질
옷차림
맘대루
물으면
부릅
간사
##넿
대명
스탭
##레인
##엄서
고마울
##훈제
열림
거슬린다
##키웠
마음속
후후후
##정기
팔아먹
인기가요
욥
##운명
##집사
부류
##소이
화팅
설레발
##오히려
##해질까
리니지
꾸몄
플로
##초콜렛
##싱하
비명
물림
결근
##지연
##했는데도
##갔다올
닭백숙
데려다줄
##나온데
##노곤
##샆
일탈
행주
##훔쳐
##남매
낙서
방출
한없이
순진
옆쪽
고인
건진
##끼쳐
으으으으
##깉
##스스로
얼음찜질
##이프
##주임
랩소디
##라이너
템포
##순데
까리
프랑스어
태반
빠져나갔
녹번
무안
더러우
말론
##내래
슬럼프
알음
##더라니까
멸
재회
데려온
##가노
##만용
흠칫
##노야
봐준
##더라는
##챔
##걸어도
##아랏
##경찰
속세
자장
첵
##준다네
##샀으면
붕어
##짼데
##대기실
살아갈
일식집
덤덤
롬
##곡이
##태리
버려라
헹구
##타오
긑
근질근질
##사주
못생김
원칙
컹
##다도
##머쓱
##부시
꼬우
장구
학업
##말의
아깝잖
##쓸래
빈말
조인
잡동사니
##디가
피임
이건희
공립
##벗어나
##봤으니
몸치
다짜고짜
##가져간
##으로써
장난친
##으리
도가
##아감
차홍
공작
갱장
미끄러져서
##운대
##찬데
##호감
코일
##뿌려서
뭉쳐서
복대
##상사
##륙
날카롭
##구치
마셔요
##폐렴
##방해
##살빼
후지
됩니당
##긴하
가관
##무릎
##훌쩍
간호학
##지아
들킨
##싸워
머리핀
어어엉
##퀄리티
##랄라
빠리
브로
##륑
주주
##미인
고새
##껩
마흔
짝꿍
벌컥벌컥
상기
쪼그만
##깢
보렴
이치
서론
걸으면서
##나빠서
비극
기대감
틀어지
한수
##선정
식곤증
##시킨다고
분간
##기부
때려야
위시
##요건
##파인
츤데레
쓰인다고
##차려야
찰떡궁합
차분히
##한정
##주징
##심정
화랑
계산대
백설
흔들려
관여
날라오
뒷정리
주기도
저런데
눈꺼풀
빼놨
##자분
홀랑
##래이
카카
빨간불
##감도
소신
장로
졸작
날카로운
반입
글쿠나
백지
으르렁
개답
##원치
중앙선
썸머
##러라
##탈퇴
사비
##라드
##기숙사
단자
레귤러
경찰차
얼떨결
과민성
더러워져서
##범벅
따러
is
가져다가
월미도
화환
##상한
##게다
##입니다만
배분
아이스커피
신현동
누름
##라마
##빼놓
쪼끄만
촌스러운
##지를
청담동
##해서인지
먹눈
진즉에
블레
##루보
엔지니어
어쩌구저쩌구
##판대
##홈피
스팀다리미
##말지
km
컨설팅
들여보내
토종
노크
국사
##우려
##정해져
수수
경성
헤헤헤
##놨을
임무
몰려오
부페
##났으니
로레알
##속상
일요
그간
##잖아유
꽃길
##뎐
소방관
##반바지
민현
늦춰
라이스
##바구
자담
##분리
총회
설사병
##시거
##파스텔
##당건
약수터
##돌려야
상권
##케이티
공수
석화
부과
빠질까
계획표
##스피커
뻘뻘
대각선
##손톱
내려갈까
자가용
스크롤
쫙쫙
##나지
##거가
멀미약
부스터
블랙베리
불과
영업직
관자놀이
꼬인
수험표
판사
##차면
시외
달린다
해파리
정통
서대문
윤달
선착
플레이어
찐다고
레트로
떡값
토마토소스
##응답
나으니
조잡
별사탕
동대구역
낙원
파투
##자차
계열사
개코
삼생
절단
만언
유방암
덴마크
리스닝
단편
국제선
##라상
기증
방한
도영
##수동
고스트
수신
구식
경력자
코스로
토요
땡볕
인근
경수
교원
긁힌
부러져서
기립성
로로
명칭
청사
밑위
인라인
윗몸
외과
##오렌지
##전문점
샤워실
##데드
로컬
관리사
워시
공항철도
데님
반도체
헐값
##렘
##수스
##온라인
드라이클리닝
##와파
물만두
슈팅
취득
##러플
챕터
소래
건국대
타기
곰장어
주급
##어록
##SRT
##문상
42
6000
105
##오예
##유투
살릴
중자
뽀송뽀송
생길까
##드려서
후잉
##홍보
##만난다
흘러서
^^*
부자연
##립스틱
불판
단게
##랐다
##다녀온
이만
##뻐
영비
##스팅
뺄까
##지켜
##감기약
##튼튼
문젠
채찍
모함
##로니
위액
박제
꿀벌
##프레
##성수기
얏
달려갈
멀리서
발차기
##착한
암컷
사다리차
사슴
패션쇼
차였
눈매
미워하
죠타
괜춘할듯
바가
##로스트
헤어질까
지사제
존나
##통통
까망
설문지
##한쪽
도울
원한다면
##취직
##줄래요
저쩌구
##치울
고롬
팅팅
전집
##관념
반사
모른데
퇴출
##구만유
비버
##일과
태생
야보
타면
##해옴
어덕
생길지
주저앉
무덤
무그
##가려서
밈
##신다면
덧나
##아껴야
헛구역
동네방네
상종
신당동
##해거
쿠크
쉴래
저질
넘쳐나
분내
##텤
형성
##이추
콕콕
십자수
브릿지
!??
##나마나
##줄기
##나타나
인계동
리트리버
마누라
##조이
포커스
##앞자리
튀어나와서
꼬옥
나온다는데
슈슈
남치
드세
##웟지
##다신
##만추
달라도
둔산동
흰옷
강구
##원증
탄핵
허탈
버려진
왤까
##줄라나
사와라
##마누
진료소
광합성
##놀리
까다로워
호옹이
사라진다
언양
냉전
집집
배란기
윗부분
##시유
##산데
용감
울퉁불퉁
##신다는데
저승
##소년
재워야
덕수궁
아메리칸
건네
오라버니
총각
으아아아
육처
##한고
징글징글
뜀
망가진
루팡
지존
##스키
##강제
넓히
나빠졌
##다구리
##못할
##상추
##개미
보여도
##빡센
##버나
##체어
##타카
개였
##법의
뚫렸
뭨
##일상
선뜻
##소용
복정
모노
##구르
뭐요
천보
부회장
그럴순
휙휙
금속
여리여리
본사가
실타
##가위
##농협
알파벳
양력
점대
##잔하
룰루랄라
방앗간
##장아
배수구
##두께
환생
쉴드
##어쩐지
##제사
제자
즐거
##뜀
##성향
##일나
필수품
멸종
접선
올바른
발상
##호강
##들렀
##공용
잡아달
me
내놔라
탁월
양다리
##시랑
초창기
격한
반지하
갈아엎
##어하
인포
벌어
인덕원
밝혀
해봐야겠다
아바타
간병
독일어
빽빽
##리임
가다니
오렴
지워져서
팬덤
상당
##스스
호의
##뒤질
킴
##한데도
##앤스
불키
##꼰대
덜컹
총장
와와
##자가
##리안
짤려
앙고
##이임
혁명
오호오
직행
##부나
진득
울림
마렵
##이하
##치워야
##먿
##호흡
해효
##자긴
##꺼냈
##꿰
노티
##생겼었
신디
드셔요
##햇살
##더하
##냡
임시완
아니유
때려치우
현우
정두
털려
아이즈
바이브
##흔이
눈두덩
##즈음
무더기
##매가
##렷다
졸라
하수
RGRG
피죤
곡이
괜춘한데
뭐뭐
질러야
재물
유해
##도면
승모근
파니
기반
##팝콘
##였으니
##신청서
백기
줄리엣
칼슘
포에버
좔좔
주당
보따리
원액
저울
##k
##대생
책방
걸레질
앵그리
나미
##탄다고
석양
익힌
정전기
진진
잡채밥
##주월
돌아와야
##세탁기
##대점
힘줄
들어간대
호이안
잔여
원상
##글구
도미노피자
궐동
굿바이
##금은
##반디
구충제
##환승
보부상
##여권
##대래
##븨
타짜
주최
##질럿
관자
최상
##모을
##중지
분일
##채소
##빠져나가
##둔다는
역도
##깁스
명지
원산지
##툼
끼어들
모배
##페트
신차
하얏트
##티크
##해지
멈춤
환풍기
피엑스
유연석
세라믹
##설이
망년회
##형의
들락날락
떨어질까
사라사
급격
일회용품
##예술
##인에
매끈
나올래
달랏
소나타
##홍콩
스티로폼
시래기
##도리탕
##비서
##현의
##나올까
현충일
포화
총괄
비로
둘코
슬퍼했
꼬깔콘
장범준
세정
급수
땀띠
차이나
서울랜드
고양시
##지문
왓슨
##소폭
찜통
##+)
##써져
도합
##오버
코스피
메인보드
듯한데
##비시
플리츠
시즈
건포도
에스이
문풍지
##K
카타르
중개사
객관식
충원
##그인
탕화
##탐스
비자림
전자책
캐디
유니버설
걸릴지
중부
56
9900
##15
85
##캐도
진다
##진짜로
##일땐
##낼까
삿대
##봬
##주면
킁킁
##서든
##믿겨
올빼미
이면지
##다던가
얘끼
##장난감
폭파
악당
##생각난다
목말
##이웃
##공격
우물
##으쌰
하와
본업
와줄
허리띠
##어야쥬
분다고
아닌데도
이김
##까리
운정
돗
##스루
군기
##지사
##켔다
##실타
##뻑
##그등
##으려구요
매사
권고
피멍
꾸벅
태어
##실로
##구분
##다친
졸전
찌릿
브이오디
##보여도
화이트데이
위너
강원
윰
즐거울
괜찮아
##이나마
내줘
어려워요
잔이
요령
##훟
##라이팅
쇼부
##해아
인문학
급체
##려오
그니까는
달라요
워너비
커져
일딴
##맞춘
포키
째려보
##해줘서
막내딸
##만자
반병
##언젠데
오붓
비축
한껏
신뢰도
어쩌다가
푹푹
##킬러
##촤
##바꿔도
##멎
##시시
짤랐
##나쁨
인조
녹음기
준다면
판박이
##배웠
##임신
가려워서
쪄도
##잔니
##장실
아키
##아무리
##여덟
발끝
##비지
이사장
이외
프리뷰
결핍
화원
##땐데
##갈만
뻣뻣
자거
완주
##무기
뀨우
##주거
순해
##트임
아이고오
갈래요
##야요
헤비
밨
할머님
협회
섹시해
가기
오니
##안녕
거일
##모라
##참으
막바지
##바부
##보수
봄날
##타리
물결
한량
정년
##일까요
표면
##안쪽
##른거
홓
##시골
##둬도
고팠
##쳣나봐
##데쓰
티키
##갈꼬
이단
장동건
##아쉬워
고단
보자나
희미
점심밥
다른데
##프린트
괜차늠
##잠잠
##서점
삼일절
##완벽
수성구
일남
마주친
깨끗히
답사
개지랄
엄지손가락
찾아온
별의별
민원인
##썅
요상한
한다네
고여
자의
이웃사촌
아이런
##액정
터트리
달라짐
난지
##왜지
놀려서
허하
##다드
민주당
##으려니까
쫓겨났
##개마
##경주
##이데이
욕심쟁이
도망간
도입부
깰까
자중
질주
##일리
못내
좃
반가워
오디오
파지
고사
추워질
##거닝
차인
##가르치
##잇세
##그립
잔디밭
파미
괴담
관람권
적기
##슈크림
공평
수줍
돌아다닌
버너
##말거
목덜미
바꿔라
노동력
##외식
심해져
##라이더
##목도리
영재
안지
키운다고
브금
이상황
단화
##할려구
식성
##서방
군포
##소야
따라와
##반의
심상
산속
쫓기
##정동
##읏
초과근무
관해서
마네킹
##임용
찡긋
카운트
##대오
##요거
아려
##가영
##업도
##대부분
##모레
##세워
습득
착한데
녹이
##금토
신도
##공식
그러다
##크리
##떻
##걸러
##요소
##리모
맥시
##예능
치위
꼬셨
수목원
##플리
던져서
목격
퓨어
##루지
관전
구엽
##줄까요
##습하
##마쳐
##포의
타과
가소
쓴대
붙들
##ppt
사주자
##머스
차인데
인권
##네즈
##몰르
먹자골목
##환장
##소금
선결
##사라져
번들
내려요
넘버
커널
##무지
##마름
어울렸
##가염
##니이
##위반
목발
킬러
오동통
시베리아
##r
짐작
경추
광택
젠틀
에피
작심삼일
테레비
해결책
건다
김우빈
대따
배워야지
##두리
##홉
꿰매
시린
동양
갖추
괄호
승급
종전
파라솔
##발생
##쓰래
가마치
송은이
마찰
암벽
뱀파이어
법무사
아이덴티티
시렵
##노리
셰프
스며들
##쉿
##드름
메이드
다락방
tv
##배울
##자몽
대보
##육처
##납부
##크루즈
대니
레이디
곡물
##변의
장학
##부인
모다
숙지
프론트
화통
혼혈
##세금
염려
역주행
홈마
파라
##와이파이
연다
썬팅
##땀나
주지훈
##화분
장관
인터벌
##cgv
파래
고바
##서버
잡곡밥
어울릴까
끊어졌
연산
##경영
##붙인
##칠리
왜사
화이자
평단
미트
무거움
근태
##필러
레모
윗도리
밥반찬
변색
비제
##교통
##악기
레인
이누야샤
##보림
레일바이크
##도둑
##심당
경주로
늘렸
됐으니
##평수
단일
##수단
종량제
##발행
돌린다
##오션
##페스티벌
두타
##부착
매표소
히트맨
삼시
콜라도
전분
##내과
덱
##나치
버피
##견과
건당
홀딩
##천장
형과
##웨스트
질기
sd
##최저
서문시장
보증서
제시카
화산
광역
설민석
서우
##퀀시를
진공
동결
##타코
공조
헌법
##행중
크로켓
##리조
놀린다
장혁
세작
##레전드
잭슨
류현진
밤새워서
무서워한다
57
아이엔에프
내비게이션
엮이
?????????
##여따
온다더니
어처구니
##흘렸
후폭풍
치여
걸작
##줫나
뒤진다
##머구
##유럽
비춰
##볼수록
나타
##뭥
관계자
파탄
##꼬락
한상
##동갑
##헌데
##논리
뽑힐
뜨시
물으니까
##스트링
돌입
##가지마
예민해
##섭취
##사조
본의
띵띵
제말이
##빌려줄
금새
##귀여운데
##낮잠
못나
칰
아어
##량의
##친해서
말린다
탐라
그으래
##흘림
##탐정
숨긴
개새끼
##더웠
몸뚱이
##욮
드릴게요
주목
##굵
조선족
곗돈
##온댜
들어올지
스트리
##네이
클수록
참어
예단
##끝날지
아부
치밀
##껄껄
졸려요
##샨
##개시
돈나
##바루
다달이
제값
##메모
##기행
굳은살
##부대찌개
##룹
##욕먹
시부
씀씀이
##섹시
세훈
##베이비
개박
노동자
단데
오호호
##안심
약올리
##마사
##나쁠
성매매
트램펄린
네로
##mbti
취지
비워야
형편
##아싸
궁굼
될랑가
##개선
##는대요
상상력
##멀미
##따와
쳐다볼
부조
풀러
슈나
뚱뚱이
염두
성과급
부채살
##겨우
##심이
임자
##지나갔
##상쓰
안내견
##욯
알딸딸
진중
차야
금세
남해
##부심
##각자
##미역국
##깨져
붙혀
##우편
관절염
과감히
앟
##준다던데
##주자
화법
##숄더
##올라갔
고막
##오도
여서
##나눈
긁히
메밀전
닥달
친군데
##훔
##오래가
과해
##주공
한대서
토리버치
더스틴
국수나무
##쪼금
호봉
대놓고
##의도
냉큼
헥헥
##주먹밥
눈코
##짜린
꽃병
피했
##날아가
##공포
근제
##해서라도
논거
##더라두
##랑게
보령
빙글빙글
날렵
어재
혓바닥
##선거
##구행
부착
깨운
부끄러운
그럴만한
염통
컸으면
##할껴
태산
##이로
##긐
나진
##다는겨
떼돈
##일러
##실행
뛴다
##밀렸
벌집
##쳣나바
와줘서
심히
##넘네
거민
폐백
수표
##기당
넋
평생직장
복사기
한줌
보완
##놔요
더러웠
콩밥
##또라이
둘리
##끊기
비티
##동도
쫍
보리밥
벌려
주례
##마용
노홍철
에구구
금은방
##다메
엄한
##들여
화단
##종목
기피
오묘
안행
탕탕탕
생계
초성
석고
슬개골
기생
##써먹
루나
꺼서
##붙임
##소프트
주무관
##주무시
망가져
##치여
진찰
날뛰
자길
악용
월중
농땡이
##숀
##슬픔
##쭁
닭살
##으랴
육군
##낲
##바름
팬더
##왔으니
##폭력
다녀와도
##갈매기
갈매기살
서래
흐림
경영학
별밤
##시킬라고
##피아노
##벨트
##메리
니마
##왕창
##갈께요
호소
##돌려받
##급한
##메밀
갸름
온다니까
풀타임
##개당
##대통령
스파르타
췄
개구
아잇
박박
##혹
포워딩
접대
##유튜브
##느뇨
선미
묘미
리프팅
똠얌
계실
##믐
꺼짐
등판
##하명
^___^
계석
강영현
쏙쏙
청광
불린
##뢔
할리우드
##협회
어짜
건망증
강남구
##다노
##준다면서
##생일날
##사망
신정
경강선
차려야
##주수
사거
묵음
유치원생
##조바
대학가
해볼래
형사
똥배
##루프
##처해
##이대
##횟수
##로즈
라스트
예뻐요
싼지
에도
##피디
블라
아궁
다인
걸으니까
모자이크
들인
##하제
갈까봐
##나루
##찢어지
목돈
##파라
##E
앨
직설
도망쳤
##타인
수백
##타용
##아주머니
##사라졌
##지노
스노우볼
저래도
맹장
##나우
에탄올
##지는
##어짜피
앞날
왔다
조세호
이프
##게이트
##프시
체다
함도
저흰
##내려와
서양인
물방울
얼룩덜룩
##내장
짠맛
퀄
북어
##만하다
##소생
##리리
##개론
in
##댕겨야
속바지
열감
##나와라
해다
국을
타블렛
오르골
황리
하이코
커트라인
##전쟁
##빌딩
세워야
전문의
들왔
##나자
##쌓여
##일부러
계대
풍미
##봣을때
하위
##비꼬
시끄러울
정량
농부
재량
분거
으깨
뱅뱅
성시경
노천탕
일체
##딛
정수
##나스
황금향
배수
##경쟁
조곰
던전
교육학
##바위
피라미드
붐비
##운다고
##디엠
##리부
수미
돌아간다고
##랩스
보진
최저임금
애니팡
부평역
##조기
##이어
정육점
클라
##메이크업
군침
인사이더
##운동화
##프랑
##키친
##약품
##파전
투톤
핑거
은행원
외야
모듬
바나나맛
물갈이
프로그래밍
게스
##행지
살균
강동
베이징
베니스
##웹
빼주
적다
붕괴
페이퍼
녹번역
붙여도
수채화
배울까
##리프트
##웨어
쿨링
기별
추워진
##키위
##철의
추출
바우처
##체크카드
피망
프라이데이
원석
고가
복리
AS
##비디아
최신형
##수량
스쿱
번대
스트로베리
##국제
멕시칸
칠천
##민초
##위원회
목차
관악
기능사
모의
기후
조가
물바다
평대
쓴다며
멍게
감태
비빔냉면
##샤브샤브
치토스
덕평
##스와
##PT
생산직
판교역
중기청
인승
##km
##더라며
나들이
4500
128
##SM
놀라워한다
-
53
43
##80
내안
클나
다투
##랬는
##지야
단절
##?!!!!
의지박약
##잘라야
##농사
##독립
##거하
약통
커지
no
^__^
##중이
##맞춰야
##기침
##본다구
칠순
*^^*
편해요
미끄럽
보편
빠진다는
##이겼
과속
턱시도
대입
다향
스윽
설교
##간다면
편들
스티브
급격히
여태껏
재면
다마고치
##해논
하하하하하하
심경
친분
바빠요
예에에
##쨍
지켰
목뒤
##결석
엄격
페이크
청각
알아먹
깡통
##졋음
##구지
##평균
더치페이
##애오
호박전
도지
밀어내
##저걸
웅동
##해염
즐겼
이빠이
부비
##울려
zz
##낼라
혁
##보여야
미어
스텔라
태어났으면
넘어서
##상해서
내가
재민
쪽팔려
##엍
##어이
아랜
누굴까
노동부
##나으면
##쪄요
##가니
지망
휜
온유
##둘째
##가만히
우우우
##보루
##시전
오에
##다꼬
옹기종기
##데려
예뻐해
콧바람
기다려요
썸남
위드
떡먹
건방지
매달려
밤잠
항암
휴휴
치통
관점
기름져서
##오거리
##송금
삑
보복
##시에
##틀린
녱
##속이
##제때
받으
##쳇
튀튀
이봐
수완
##눌리
후욱
빤쓰
##도인
##정비
동성로
개밥
거위
생겨야
##넘버
굽히
##모그
질척
요호
##드루
##돗
백색
##하닝
##갑지
여대
세뇌
##삼성
처남
##사만
개찰구
##꿈꿔
흐지부지
지목
##심행
##로드
호프집
##떄가
앝
##귀찬
자고로
##세팅
##생겨도
##황
##솓
##수면
##분량
돈줄
벌수
##망한
부으면
##대학원
##타고
달려라
베풀
조연
##엮
##가삼
들여야
##계발
##판단
##그로
타바
망나니
이불속
빤히
뛰어갔
##지두
##귀지
##넘어지
방장
##된겨
##안해
##사바
밑져야
##멍청이
날지
갈꼬
##체로
##전번
##한복
털실
##반사
##고랑
안날
무너졌
언저리
##주터
전수
스카웃
##텐더
뿜빠
옮김
털릴
일어서
##디오
그리운
까졌
떨어뜨려
겹친
##시일
밍기적
재보
##헌다
오랭
그만둠
드러운
바빠졌
##낭성
지위
마논
##앞이
상록수
##군아
짬밥
##마렵
##어욧
##에어
##그치만
가자미
야유회
피시카
침대위
##어라고
##디저트
돈부리
##승의
##살도
##자임
##빠꾸
날아간
##쪗
찢어져
고심
서식
##마이크
워뗘
게을러서
쓰린
##게들
##산다는
딸린
##각지
##녹음
뒷문
기만
흰자
##다이빙
강압
유물
살돈
##계심
##목어
반가웠
야수
떨어트리
##해고
ct
서평
##작용
왱왱
##기리
정재현
##기시
운전기사
걸린데
이어져
##신난다
찌꺼기
##밤바다
##타월
티아라
##달렸
##과사
##없인
절실
패러디
##시켜도
하하하하하
삽질
pt
갈테
뜯겨
##무의
##얼만지
빠졌으면
바벨
벌칙
동명이인
##식비
아쉬우
다닌다는
민첩
애나벨
스럽
뚜뚜
행사장
찰밥
##분전
일터
##얼렁
##광역시
##아이패드
곪
##겼
망한다
문은
처참
신거
##디페
지어서
##시아
##버려요
커브
정자역
##시려워
해부
부잣집
수발
##로군
##카카오
일용
할인권
카더라
##무가
다이너마이트
최수종
코리안
패디
증인
##해수욕장
우려먹
##존의
##일부
##버스타
언재
범어
번식
가렸
펴지
당분
##로운데
##린스
열불
살얼음
느릴
퍼질
나뭇잎
추려
모셔다
##이하이
전문대
역방향
코타
어려워하
자이로
광천
##숫자
금요
##형태
##추적
유력
응대
진저
정준영
할래요
눈병
런지
부을
궁동
신포
싹수
##합의
쏜다고
##!!^^
하이퍼
입김
바에
틴탑
화채
노하우
빼내
해물탕
##한의
##탐방
시재
메추
장인어른
안치홍
식판
차림
캡사이신
장윤정
라빈
지어내
비틀
이억
스톱
##안과
심폐
권고사직
##레리
##!@
##폴더
##사나이
본캐
##핮
팡팡
땅바닥
할당량
풍기
##란국
표고버섯
##디유
전곡
강수
전필
불태우
하드만
챙긴다고
자스민
##해머
지하층
베타
##탈거
유분
스와
미식
##최소
##묵자
빈폴
열린다
싱거워
톰포드
안경알
헬기
zzzz
정사각형
켄
와봐
합성동
차슈
##피도
육즙
털린
어메이징
##레페
차준호
찬장
##계란말이
##굴비
까르띠에
묘사
분반
##국판
잠실역
##라식
빨라야
태평
쏟아져서
개표
따악
체해
통한
롱부츠
##이큐
잠적
바바리
뼈다귀
구한다고
오드
##통합
그럴려면
양초
해상도
강식
##매진
물걸레
팔마
발명
해줄지
수빙
순록
야들야들
줄여도
켤
##월세
##코로
신원
에밀리
##쿠퍼
빠짝
외화
룸서비스
줄인다고
한성대
박멸
비급
더워질
녹두
이만오천
##스탁
##매대기
ost
저점
##xs
날라갈
넷마블
펀딩
##쿠팡
메리어
판매가
##사제
합산
카라반
선예
증평
테이블보
폭락
루돌프
##낙죽
흥행
##어딘지
성남시
열린다고
차학연
마포구
드리프트
도핑
식물원
레모네이드
철산
동호
라미란
초아
존박
아가미
위젯
누수
명과
##0
놀라워하
240
##CU
350
##11
##남긴
말행
##아련
구축
##어영
##더블유
##목욕
##간댕
떠올랐
바빠져서
아시나
가셔야
시누이
이얌
##줫대
차전자
퍼져
##뽀짝
##넘어갈
동급
##인게
##거해
너야
업성
##깜빡
##케말
뺑소니
##듄
##묵음
찌릿찌릿
흔들흔들
##싸가
##소린
똥구멍
u
##로구나
##가져온
말싸움
##명절
별안간
꾸벅꾸벅
동글
그래소
##아아악
여나
##으라면서
캄보디아
##돵
엄망
퇴폐
똑부러지
한탕
소화전
농도
가져다줄
##줫지
아응
##외국인
##닏
변함
##부차
표출
황금기
갑작
거릴
소주병
##사귄
저놈
##치료사
여주인공
##자려
##텈
##기다림
뭉클
청개구리
올공
일괄
호고
##기요
영향력
##먹히
평민
위축
속상할
##리니
지겨울
##지겨워
망가질
허구
공백
샛
밀키
자볼
야박
모질
꾸지
메기
##허허허
새치기
당그
##유아
##함미
##어린
마조
사드
##으련만
화정동
낀다
전광판
헀
##보자나
집구석
스미
두꺼비
고산
팔목
##갘아
지날
쉐프
##련다
##댄다고
괴롭혀서
해쏘
P
운수
이대은
건드려서
##모여서
##봣대
극대
불길
이재용
##표지
기둘리
##만하
그럴까요
온댔
신기허
제사상
지나간다
봉변
##떨어진다
세라
흔쾌히
##번짐
##저하
##래스
악수
##해보인
##명서
##양치
남직
건드렸
사기꾼
##숙이
찍힘
일났
##솟
미운
##거삼
뉸
문단속
진부
초고추장
##놧지
고마운데
##장미
노년
안뜸
부끄러웠
##엠티
현혹
장농
##쌉
거뜬
유람선
##관람
나루토
월급쟁이
도형
알맹이
##주고
한층
##콰
숙모
생긴다는
##사요
차오르
##가져올
주래
개요
꿋꿋
침뱉
눈웃음
영월
투척
##나간대
##필욘
힁
내년도
쳐다봐서
산채
##들린
##라니께
트이
##마왕
실상
펌프
##기하
##체하
##언서
개간지
기른
마리에
##멍청
##겅데
실격
청심환
전의
납니다
##비들
배웅
꺄앙
##부끄
제티
뷴
타나
##줄때
##삼다
##퇴원
자른다고
##장국
##창업
넘어간다고
끌려서
마름
부릴
##아일랜드
밤길
##천히
앉혀
걸쭉
아우디
무르
비상약
##걸릴까
락앤락
당요
대전역
허망
##로또
강하나
ok
경향
욕지도
야망
곱씹
스웨터
투구
지우기
얏호
겁주
쭈글
아른
대장암
##내도
##봔
북문
방패
기화
##슬픈
##소리나
##됏대
소외감
##하나하나
##맞은편
빨려
##으로부터
부러질
살아온
독방
##다른가
마로
비에
환멸
##멬
떠올려
##팽
zzzzz
##뿌렸
##퍼야
푼돈
##그대
건드려
##크레
##비중
##풔
근무지
온거
##미아
쨘
##고징
모입
##극장
티어
##굴리
알려줄까
뭬
##헷갈리
##여소
훔친
에헤
앵두
##거업
##디치
##대론데
저조
##웍
##미트
##호의
##러거
피에스
옵니다
방독면
바빠질
##러드
댕겨야
감명
아까웠
원일
##왑
본품
원해요
꾸겨
박혀서
##한수
술술
차주
##라니요
환갑잔치
##모은
마주칠
심장병
##바케
이집트
다림질
##홀릭
아파지
##어뜨케
##연령
##머의
패왕별희
까딱
##분해
순찰
장남
##짤리
합병증
##합니다요
챗
##요원
찾아냈
선택과
난일
작용
누워야
##렌트
##할배
동동주
##찍혀
허미
불태웠
몹
삽입
##혼의
##왔다갔다
부담없이
부루
##알레르기
무너질
##와플
중후
망친
##쌀쌀
빗질
반다
로브
##세욧
##운지
##갈걸
##잔고
행위
번의
두드려
고고씽
컬렉션
단면
따졌
미쳤었
제노
문세윤
쟈니
전인
##여시
원탑
강간
먹구름
##뿌린
하이패스
주눅
칸쿤
농심
아오키
##올라감
나조
???????????
남아돌
##흨
빠다
생체
##뎨
##뜬금
##가복
찐한
변할
난린데
##추위
보글보글
미끄러지
##거함
급성
##든동
썻다
무뎌
##중도
##오낭
##강하
##네비
에버
##병동
##진작
챙길까
아우라
글쓴이
솜털
춥다
초청
여백
라마
여론
무채색
명대
##쌰
초상권
##라든지
##가죽
통상
뉴트
##포크
##잡지
몽촌
발권
비정규직
쪼이
구겨
##틀림
직렬
일생
##석의
기다려도
볼라구
흰밥
##약도
##증사
살려구
학교의
##교의
##검색어
백도
##훠궈
황토
덕지덕지
공사장
전표
이상의
vr
하숙
아삭아삭
##댓다
##현관
계량
초짜
피쉬
권했
숨바꼭질
##교대
중앙역
##다진
널렸
시월
쉬우
금메달
윤식
예체능
제기
황금연휴
교차
항거
통유리
##영가
##혈
쇼룸
걸어간다
소설책
모자랐
내준
다듬기
##숙박
보조금
##야시장
갈려서
지사
토목
물주
수두
들여놓
난소
표도
아리아
돌아온다
체험학습
수유역
한성
##궁사
상표
쿠페
육교
문단
##염의
흑설탕
배운다
##면적
후불
밀대
통기타
##긴팔
##삼전
##키도
##비색
디지몬
투기
##코팅
팔기
김연경
##시백
트립
포티
헝가리
단팥
화요
차단기
컬쳐
현풍
우레탄
##바인
제주항공
돌린다고
마진
##개통
흡입력
옥주현
건반
책의
답안지
엑세스
광역시
병점
##짜라
폐기물
##에타
너겟
홍탕
규동
담갔
황도
무주택
##줘야겠다고
##200
##서벅
25000
49
66
##VIP
다스리
##흐엉
##대타
살코기
저자
쯧쯧
시임
##역대
##줫엉
괴롭혔
올라고
##똔
##!!??
##차려서
강정
##오줌
애써
##아니야
##결심
구정
무너져
그리울
##미워
of
그닥
폴드
인트
##수학원
##우아
부를까
##육개장
취한다
##도중
더킹
##얘길
연기자
##띤
갈순
푸푸
냈었
약한가
당혹
젼
##키워서
널러
커도
##썻네
대기실
대백
호적
견제
거지꼴
고글
미끄럼틀
##각안
요러
성물
##웟나
줜나
##숟가락
챙겨갔
타려
취소수
둘까
##땁
완도
아버
점보
경험담
##오래됨
눈깔
뽀샵
닥쳐
##대접
##베란다
못가
##부쳐
발길
성씨
스팟
손놓
어야
김태희
##주파
##헤어졌
저길
영감
sm
기포
쫓아가
승용차
##녴
숙식
##바삭
##나랑
물아
##순은
오래갈
##파파
낰낰
시루떡
##때우
후려
##우하
기니피그
##려두
자른다
##둬라
##멋진
개인주의
꼬장
어머머
입학식
사심
착함
##실임
재가
은제
눈썰미
##맞대
반듯
들릴까
##졌으니
##존재
##주대
느껴진
##만일
혓바늘
안달
듦
맞혀
나올까봐
야후
##긍정
##내려갔
작곡가
들어라
강점
딸꾹질
##먹일
##양보
여장
다녀올께
##빸
w
##잇단
##럄
다락
##왔잖아
듀엣
태형
참으로
저하
들이밀
까매서
##화의
GS
지켜볼
구하라
##야미
##딘데
화장지
놀이공원
가느
##섞인
치대
##닊
버프
풀어놓
어수선
지혈
겹칠
깃털
규현
정읍
##관리도
주운
##오빤
##갈구
##으음
##시루
체육복
밀집
##라리
##자구요
##온다더니
해몽
지랑
##나빴
##홈런
무장
##환가
언론
##부른다
##으시오
##간디
##뭨
##기함
##한길
김연아
J
앙꼬
된다니
##웃긴다
##개임
##쳣지
##우우웅
##벚꽃
태세
재재
동업
##츤
##점해
##성대
어딜까
갈아탄
찌우
하루빨리
##틐
케냐
##난단
##으셔야
흘림
##닪아
##어야제
##가라앉
라이벌
##드라구요
망쳐
##페가
조성
만렙
갈께요
막무가내
##리핑
##차타
##꼬매
조던
일퇴
세력
흣
눈길
멋졌
##구함
시빌
제재
탈의실
병도
신앙
맥박
##가져다
##떨림
봄봄
소문났
신검
##다행히
높여
재웠
kbs
라운
품고
##보재
맞짱
깨워줄
##또오
꼬였
나뭇가지
술마
##낚
##블러
그류
##잠잘
부칠
심시
##계실
드릴까
##계장
눈높이
세안
일류
임대차
자백
나도
##보람
##신호
북극곰
##둨
##운영
##델리
저음
쑥떡
##미스트
##공시
배짱
쥐똥
든데
로꼬
##씈
하마터면
압도
쫄깃쫄깃
##테러
##소속
스폰서
어쨌
##무튼
for
##다일
##고이
##비닐
척도
남미
원체
##컨트롤
##따윈
쭈쭈
##올걸
##통증
##가하
옙옙
마려워서
찔끔찔끔
##급식
##댔자
미생물
허루
##밥솥
실시
##어본
##솔트
연습장
채택
##기루
끊김
##을란다
사옥
##지움
##천안
##에염
##흐흐흑
##지존
로스
김요한
조현
##옆집
혼날까
중야
##븟
##샀어요
수직
안구건조증
##마실래
아가리
##경기장
아리아나
##치즈볼
봉인
##부석
테일러
디폴트
체어
##ktx
한샘
보름달
이경규
예습
하피
드라
아즈
##나듀
헨리
##자취
##!!!!!!!!!!!!!!!!!!!
텄
##올라간
사업주
정해인
##인회
흥청망청
내줬
투성이
써볼
##오타
강하늘
펍
##구양
##트여
반짝거리
##노스
##스파
빨개졌
두리안
##허자
##이안나
슈바
##보따리
금단
페어링
널어놓
주점
##카도
급발진
시프트
마그넷
미끄러워서
##피시방
##싷
##먹였
평발
##생활비
##나물
드라이플라워
드십
##빨강
몽땅
안내서
##일출봉
싱크
##혈당
노타
거거
뭘루
##누른
허파
제천
##코볼
지른
##편한데
순번
추운가
뒤집어쓰
만드신
비하인드
##쌐
지질
실리마린
이유식
해촉
##or
##결말
윗니
가독성
노무
##치고
끄응
베끼
##계세요
##키카
꼬여
##어조
##당신
진료실
##매콤
작별
메이비
머스크
##버블
테크노
##큐어
맞춘다고
##춍
캠페인
조승연
튀김옷
호스
##단호
준대서
KT
##놨으면
##백신
칠성
##류바
문양
요트
삼다수
물맛
나눠야
가맹점
##강릉
##리카
너비
볼거리
찐득
봉숭아
도져서
찧
치케
##으셔요
##보건
랜드
주사기
책값
##으먼
##스테린
감사용
몰릴
##도어
샤베트
트램
넘친다
팔릴까
##반반
마려운
##제비
파이터
##잘라서
지나쳤
##수육
쉣
농촌
향후
미드나잇
##역도
뇌출혈
##복합
목만
킨텍스
##상환
발산
##심함
삘이
이사랑
무단결근
기울
범퍼카
더러움
병천
##설계사
겨드랑
모아나
세스코
##서적
##서원
다슬기
네트
##중석
##짭
이하이
##se
수도꼭지
헌터
하이닉스
솔트
##으미
남극
주룩주룩
컨테이너
산미
##클릭
##데스크
물안경
##댕길
해안
날아오
완제품
간결
온다니
##섬유
##세로
##어려움
옭
치료제
부제
##연동
중량
##양도
회오리
mri
다니엘
휘날리
합정역
##카가
김동완
차나
##단의
일복
##촌의
신경과
비품
해초
토치
콩나물밥
오역
안압
난해
결산
쥑이
##이력
##으으으으
법규
비지떡
헨
##베스
페어
정자동
타월
특대
의료비
##고랭
버건
시립
가습
똥값
비회원
디브이디
미끼
##매물
삼바
심평
인터라켄
만우
중고도
광복
왕왕
특전
##번가
완충
힐라
##택트
##베드
침낭
스티치
##곤약
포드
##식회
특허
종신
에픽
##차트
탁자
죽임
깔린
징역
##계곡
조현우
박봉
딴다고
##포폴
양지
명물
조개찜
크레이프
##던킨
미란다
미더덕
이태오
종영
전소연
윤미래
발레리
페닌슐라
걸린다며
상한다
68
2900
##100
77
58
##혼났
##곽
쳐야지
실루엣
뛰어난
널리
##살아남
옼돜
##보낼까
##듷
말풍선
빠짐없이
##라로
##치웠
괴로운
갘
대려
가정집
##말렸
##성우
방사선
족욕
해산
##출혈
베인
##벡
피웠
백미러
트집
히야
##가융
갇힌
##치는
장모
짠돌이
가져와도
##후딱
##잭
##한단다
쪼들리
##방긋
##맞출
꽃밭
트랜
에다가
##질기
연주회
##주무
##렬
만진
짲응
통원
##여사
된단
##방과
##토할
##사징
목어
포옹
후두둑
주막
##여운
됏지
더욱더
끌어안
##다인
##발자국
##학대
괜시리
생겼으니
미스터리
##뺀다고
##너무나
개원
올까봐
허스키
##바탕
탔었
지지난
##즹
페미
rgrg
을마나
##동가
뒷발
##쯰
사스
독박
순순히
사납
분수대
##때릴
##봣엌
##매워서
##박수
애드
일내
약주
프라임
견뎌야
약한데
가문
##붙일
물어야
피워서
##한다던
씌운
늘씬
##토크
세지
진쯔
세나
여명
##되잖
##치사
##거아
코골이
##충분히
외로우
해줄래
##씨익
들켜서
지뢰
고물
콩국
##달인
꼬치꼬치
성적표
지날수록
##짤까
##헸
##해보
##이규
##발랄
시구
재수생
니코틴
돌기
케빈
##큽
##정수기
##비해서
##함당
##연락처
유부녀
이병헌
만져도
##회안
근심
##한강
지워졌
뜨거우
들통
##다듬
취해야
##못사
##스리
##드신
##**
##옮겼
##거제
##빠를
##해감
##^___^
##날씬
여차
스레
넘어와서
나갈려고
하난데
골라도
얄짤없
족구
푸쉬
##보여줌
##천성
기달리
초코하임
조라
##커지
무직
육쌈
##노란
육지
##라사
침묵
핏줄
천일
##드린다
##멩
##라조
예대
##허벅지
우편함
##예뻐서
돌진
##퍽
짘짜
젓
교포
찢어짐
마셔라
##너모
##파괴
##캐처
그럴게요
분과
추적추적
부농
종말
##반집
홉
##기말
##졸린
##젠장
##주워
##거들
##심부름
경련
와일드
코르셋
##췄
재롱
사신
삼척
진성
봣냐
눈떴
##미침
발걸음
##오눈
##나무숲
압수
##부다
대거
븐
박력
##샘플
놀부
때려쳐
으리
##금리
##삽니다
##희희
##사셨
동요
동정
##줍니다
배포
산고
예뻐졌
##늦잠
초저녁
림프
##줄어들
##장찌개
##톡톡
억대
##심했
##신다니
##기념일
노라
##해졌으면
##렐레
##싸이
시즘
이루어지
##와여
##매니아
쫄쫄
다는
##흘릴
디피
침투
하물며
돌아다님
##잔인
##애액
전학
숟갈
##댈까
갸웃
##각인
쉰다는
##깅이
##얃
트임
뒤숭숭
##사처
##사촌
광어회
##니거
##멱
##본디
신림역
새우볶음
##해져라
##봣옹
삭막
심박수
학술
##맀
##리까
계양
혹해서
대부
색다르
도차
부네
유채
뭔갈
##부르스
하재
명중
빈다
##으랴고
##엇지
수법
##년차
금일
##와이프
욕심나
꽐
##마신다고
성함
오한
##아보
떠난다
갈쳐
오르락내리락
빨개지
유별나
이니셜
티오피
된다네
잊어버려
##설거지
갱차
##내린다
##장어
흡연자
##쳐라
엉엉엉
약품
쏘울
용산구
##색기
##줍쇼
보성
헤나
Z
##소린가
대치
##신행
셰어
모빌
성균관
샅
몸살기
##꿀맛
그림판
군자역
짝수
간절히
이종석
##버노
노렸
이지만
웨이크
##다조
##로자
##꾸마
혼돈
##가닥
##개아
##봉다리
어쩔지
방면
##싸울
윌리엄
##흘려
산후
별표
껄껄껄
##덜이
##으슈
##화려
농산물
아지매
도끼
안나
##쨔나
출퇴근길
거봉
##머스캣
##인은
##미술관
탁탁
##웃이
다칠
모토
##떸
##대소
##는다길래
##엔젤
##셔두
이고
영동
안습
자연인
##미디어
##겹쳐
원신
##물린
H
쌍문
인내
오래간다
일동
출생
##쉅
다려
살인마
##달려서
##벽지
##승인
##싸매
씁
느슨
무방
##기미
놀라워
하루살이
뷔스
##주방
##난다는데
명대사
##중독자
##핡
##파유
합창
맡겨서
블락비
##된다니
온기
##과라
##봑
##무래
##조요
싸돌
##찬지
##형제
키운다
그쳐서
##인사이드
모기향
미루기
취서
탈선
지으
##절임
지루함
##식물
이따위
콸콸
곤드레
다수
##쓰일
작심
판결
##모텔
##떠들
공정
##된장
브라더
##와사비
##열일
##신용
##관장
일중
소방서
##지약
##라자
##저축
##영웅
견인
##강남
##움직여서
##줬으니
##원정대
허약
##자거
돌이킬
뙇
##룻
허벅
틀림
부서진
훈수
어학연수
발굴
##다큐
##어려웠
##닥터
가방끈
싸이클
홍초
##어래
##돌아갈
횡령
##곹
##식도염
뜻대로
당번
별미
빨아먹
##그닥
신혜성
바닷물
백배
재건축
##한국인
##등장
##토가
마담
아이러니
바나나킥
꼬지
##씨티
잠겨서
변종
숲길
##월이
##끝난다
##정돈가
읊
동국
##조개
선스
창덕궁
첼시
목숨걸
유학생
염분
용의자
##여수
구혜선
##투게더
##지밀
오거리
화명동
바트
##튭에
치히로
한다길래
##수상
경직
선식
라이온
##따숩
턱스
역량
선진국
갈아줘야
켤레
부종
프렌드
##통제
##짤랐
##듓
조대
슬로건
뜨거울
##소면
원활
떨어져야
##N
영접
AI
##as
분분
##무스
체류
흑갈색
카푸치노
빠삐코
호미곶
레이어
##원행
##탄산
고구려
완두콩
옐로
아이보
플로어
##칀
망사
편한지
천엽
죠스떡볶이
도봉산
##본이
##애니
시칼
##럼블
이탈
필라델피아
팥빵
독채
가인
광주역
유광
끼웠
마더
농민
동편
솔루션
개재
킬로그램
갯벌
제이미
##새내
아로
초이스
모비스
흑맥주
맛살
##타이거
장우
유린기
##캐스트
방안
휘핑크림
##청결
배트
위스키
연식
##이베이
분말
##체크인
인어
비프
작아져서
볼트
##걸스
담기
갑오징어
비스킷
에이미
어려워졌
감상문
여진
스크립트
폐강
봣음
버그
평촌역
무협
이시언
미슐랭
백김치
파가
수내
섭지코지
##유원지
루타
전편
외전
편성
디카프리오
박세리
백이
리얼리티
에어백
##실검
헤드헌터
프라이어
앙코르
##AI
119
1200
59
28000
국숫집
##KFC
강지
갹
유세
어련히
옐로우
비엠
혼쭐
##난식
##텡
##마상
들어갑니다
혼전
딩굴
거두
자대
##미도
몸조리
조류
##요언
##앝
##사투리
##할라는
안타까움
애기네
절벽
치카
##꼬리
그럴려구
##뎔
##껍
매국노
윤리
##투정
고얭이
##소화
부유
부시시
떳떳
MBTI
##경색
##충성
##배건
##쎙
심난
##봐야겠어요
암시
싸늘
찰칵
반가
스피커폰
서천
튼실
##보너스
##럿네
##놓쳤
가계
흉흉
진청
나빠질
온누리
##나왔었
##조선
돈돈
내뱉
네발
수화
당간
화안
맞장구
말구
##다녀라
##클라
그럿
##떨린다
##!!!!!!!!!!!!!!!!!!
##펭
##애앵
##푸들
젛
##턴데
부작
##마슈
문고리
##컴백
##지질
개속
들려줘
##우러
시스타
독보
물면
바란
우아아아
맹세
지낸다고
이재
##아야하나
##귀임
##배려
다마
잡다
##할라믄
##쳌
시요
##망해서
##로랑
##미당
긁혔
##연하
##살림
따가워서
외가댁
입혀서
조바심
##읗
##언닌
월간
##한자
##언젠가
밍크
여진구
##부릴
^^?
##_?
##여기저기
##온단
##단점
공금
V
꿈꿔
개양
성림
##면소
석계
사라진다고
기획사
아케
##행의
흑역사
##회비
박탈감
터덜터덜
두근거리
모녀
##프레시
물마
문지르
가물
##시감
폭신폭신
범람
봉다리
보여요
뭉개
##쇄
##감음
댄서
##버니
세운
가이
그만둬도
##습기
멋져요
발병
아스팔트
##호박
##거말
##유부
##관절
설탕물
##욕기
반겨
##빨개
돌이켜
##떄마다
##동선
##양역
암말도
꿀물
##나아지
키티
리바트
쫄딱
탄내
##모른
##팥
초롱초롱
묵혀
##음료수
찌찌뽕
##민의
비지
##출퇴근
헬로
아홉수
주책
시끄러우
##계셨
지어
##된다면서
##옝
장기간
파국
인걸
##젓가락
짭조름
봬요
한귀
흔들림
외동
초가을
##댕겨서
세배
##사함
##할꾸
메로
몽이
발마
천성
##서자
뽀개
남사
목청
유심히
안락사
##넘나
부딪힌
길더
##네임
삐딱
##가나
박유천
지후
##다닥
클레임
시아버지
##애도
무교
근접
일으켜
포대
##자루
뛰어갈
자상
나눠줘
성병
되려
##눅
토마
뜯어내
##급니다
착장
뉑
도피
##린트
금붕어
##일보
피공
하복
릴렉스
반영구
주고
##땡겼
물어봐요
오수
북대
##구랴
뇌물
샤핑
##어면
##끼우
영탁
퍼진
여지껏
##브렀
벌렁
담음
강인
아사
##쟁여
넘어짐
##통보
반창고
회의감
딴지
버진
##왁스
말모
어림
흠뻑
##본적
##연구실
낙태
##내보
발아
##과다
폭죽
드러눕
양일
##정국
글서
##지켜보
##파이브
하공
##터서
토지
고려대
내향성
오작동
류진
##다면서요
설겆이
##지나갈
##고백
##도우미
##까까
써준
웨이보
##지국
##작전
육체
질감
수많
##돌린
##볼일
약해져서
마음대로
살집
##장보
##방안
##튀기
##른디
##판도
##모인
완강
##각해
끊어질
##복귀
일마
풀장
장식품
##켤레
##쳣냐
##박혀
느낌표
외형
신조어
##즉
##우어
그럴려
##구염
##콜드
넘쳤
오리온
꺼버렸
델구
조그
응사
버벅거리
북유럽
한턱
##버즈
영화제
시연
##상회
##반시
마파두부
책임져
##크러쉬
##여태
##빱
##n
마벨
사다리타기
##세가
화로
##레슨
##나눠서
시모
이런가
용가리
동동
싸자
돌아감
등골
스크랩
극과
##스냅
##거두
##댕댕
##애슐리
항구
##?!?!?
거렸
##제육
##응가
O
##맏
부하
생로랑
##오옥
연못
##련관
##줘야겠다
곁들여
##무랑
떨림
산사람
##호일
생화학
번졌
청색
케이트
그래유
##객
거림
괜차나용
##민이
##곰탕
들어갔었
시합
##줄라구
안거
!!!!!!!!!!
##그든
##원정
엄마야
우라
그래그
걸려요
##연대
힘드실
천막
##진사
영진
오리발
체대
쁘띠
미백
##에바
살찐다고
도르
성동일
##금도
캐이
얄미워
해녀
##파이터
악귀
##소고기
##바꿀까
못난이
물김치
이주만
##켠
왭
간략
##고고고
울릴
이상해
닭장
떠도
##어다가
##오규
##그미
발자국
##보즈
고열
원한다고
개집
봐선
편찮
혼낼
억제
샬레
##회담
챙겨두
손난로
##이럴까
##달걀
##고추장
되잖
##두꺼운
##어선
믈
##음조
어린이날
##주실
체면
##의외
##자비
도모
담근
##붜
배진영
여행용
대두
가렴
가가
구현
맞교환
혈변
혔
엉터리
홀드
쥬쥬
억만
간간이
##포테이토
늘어남
##요구
설레임
##탈래
##그쳤
길렀
홀라당
끌린다고
##트러스
씽크
블로
설렐
##날라가
활력
근현
##내지
깔리
##장판
본다면
##도야
##요도
돈값
장나라
멀루
갉아먹
펼치
입추
신기루
##소감
##우라
청량리역
##롷
브리핑
박원순
##톰
##장점
오데
충당
엉성
##천의
##개수
강변역
엘피
절편
##쪼개
##가디
노포
##팬서
탱크
뜨거
주술사
쓰봉
##미세먼지
벗겨져서
타르
##둔지
##챱
낙하산
##스왑
##운도
아루
누끼
##사사
잔향
공백기
개국
발밑
바선
##기어
##돌려주
어는
충장로
예선
영종
기수
철가
##도개
##뇬
용종
아담
페레
##간답
##통사
주치의
배열
태울
야당
##회견
정치인
때웠
태권
##말린
소갈비
총선
개연
##광탈
##이직
재앙
봉쇄
##대천
##위생
##불리
##삼계탕
##일수
복무
##금고
##균형
바랐
두입
##불과
습한데
금호동
이영지
여인
지이
장시간
여력
수도관
##기채
사강
여산
##유비
냉이
##배상
##기청
신세경
##초등
뺑
마션
광사
추워져
##아시아
리코
로사
##넉넉
접착력
##해물
콘솔
##매장이
##장보관
픽서
##운의
박민영
목과
오즈
##느림
왕건
촘촘
현식
##시세
삼각형
헤맸
통바지
셀러
##니즈
사포
개봉역
##청사
키미
##모니터
머드
##톱
몰린
당길
풍국
보카
터보
동계
할인율
에듀
신발의
우량주
총기
히말라야
거래량
환급금
##수하물
젝시
선팅
##야크
크레
임대인
이글스
단감
권리금
슈트
##프로젝터
##잡이
아이링
가채점
옥탑방
##본부
출제
##남대
합천
##스테이트
꽃말
경의선
김민
동점
##마요네즈
끝내기
우진
문어숙회
콥
청귤
달빛
스트리트
초행길
거와
주원
문복희
볼드모트
노동요
작은아씨
이어달리기
##신곡
니엘
힐러
부암동
근속
정비소
전임자
뱅킹
세면도구
230
밤새우
190
35000
18000
47
2017
##대거
해볼게
단짝
##인건
##넽
##로스
퇼에
출혈
##쓰레기통
##으라면
##으십니까
##그럴듯
##부셔
##도망
부르자
에이씨
열한
고지혈증
김고은
한큐
##사상
사냥개
속터지
##그만큼
##더닝
대동
필기구
##기야
약했
햤
기복
에리
##언가
##트인
심어
아킬레스건
##따시
물배
##들어온다
##도대체
보노보노
하이파이브
일오
해성
손자
떠지
구석탱이
##리여
휘파람
내심
##음서
난민
##만치
배란통
??!
짜샤
##하농
콩콩
##소품
돋보기
팔짱
안물
훔냐
모자란
##거듬
디카
살맛
아너
##열정
들켜
공과
부쳤
떨이
##새끼야
잔상
##오해
말똥
##시각
숙명
##묻히
빚쟁이
##이이인
싼다
##오세용
구여
살아요
고뇌
##v
봣오
개욕
##해당
##밐
조울증
##발이
뒷골
그렇겐
##붙잡
##매려
##아노
##갈테
##보인대
경연
##창피
##놧네
##운세
##땅콩
갈라서
유하
##올수
절미
##잘생긴
들어와라
박살나
##자세히
적반하장
데려다준다고
진학
눕혀
원투
더샵
##굉장히
다가왔
모가지
쫓겨
##틀려
읔
##는대도
##기실
##해피
유정
암묵
아침잠
쳐박혀
알콩달콩
개최
##과대
유서
##실제로
우케
##원작
경상
마스트
주무셨
##랳
##앓
숨김
카리스마
비욘세
##가버
아름다워
##어떤데
##으셨어요
##고려
내발
##별도
##던고
살피
##빳다
##아소
친할머니
찰싹
환하
벗어난
부쩍
학학
앤트
번복
##고나서
거친
##정적
연을
##한통
점호
안다는
##는다네
음악회
##하락
깔깔깔
##멈춰
풋살
수없
샐러리
들킬
##라구우
포동포동
회신
##다자
##캔디
##^^^^
번인
부러우
##컨디션
계세요
##뭄에
내구
샤랄
조르
떠졌
##퀴
사귐
##소보
##귀염
뒤죽박죽
##전지
##체중
##구한
빈곤
감쪽같
탐정
실랑이
요론
##흔들리
수영모
여보세요
개나리
##뭘로
##붕어빵
##들으니
하디
싸워도
왯
베르
스타일리스트
나타내
칵
따가운
음중
두루마리
##수영복
##시옹
결혼사진
하염없이
##지겹
##탴
##유서
##뭬
안아
당여
##뒷자리
##조져
학사모
요오
된겨
탈것
##깨물
바램
##정해서
##안찌
바치
미동
젖꼭지
##싸자
지켜서
무럭무럭
킄
퇴군
뿡뿡
밑바닥
##허허허허
##두르
love
##받으
가벼우
남발
자갈치
종자
##주화
##편도
##아무래도
##알음
나빠져서
지극히
##매운탕
꼬투리
##프티
피난
속아
충청
구어
연예계
아하하
##무서운데
꼼짝없이
참을성
##찝
촥
뻑
손들
온다면서
##상관없이
박찬호
##확인서
싸하
##서에
나타샤
등신
병언
이박
한이
##은께
챙겨놨
애끼
켠
##레스토랑
##우주
막사
##필라테스
##궜
##짓거리
##셔라
깜찍이
되돌리
찹찹
##줄게요
놀리지
스무스
세탁물
##곶
##염도
중일
##비온다
##본점
먹힐
피부색
쿵쾅
배스
몸짱
표본
올라도
압박감
눌려
뜯기
##녁
##군인
##신남
가려운
##을껴
##남겼
##자를
기리
##깨진
##브레이크
##낀다
##콩나물
새록새록
##장기
박보영
##채울
이겨낼
실실
사제
정승환
##보낸다
##아임
터서
##램프
완조
##온난화
##간지러
의지력
빠진대
그득그득
하산
여배우
##o
편인
##썼었
짱박혀
수중
##가셈
과소평가
##학관
VIP
떠다
##상식
어영부영
망정
##캥
소취
들여다보
푼다
매기
뽀리
암도
##밀려서
##달림
멍해
병균
##뵹
##타지
구론
보람차
설이
##말랭이
슬라이딩
cu
치우기
듬직
##뽂
역학
구해야지
##수련
##비싼가
프린팅
##청이
##괜츈
##일임
##줄서
직책
반함
초안
##망이
비활성
##사노
##생사
##타의
파상풍
##걸으면
##픽스
##방임
##눀
##꼬이
##을께요
포도당
##사란
노어
##그러면
##넘길
해졌
으아아악
##썻지
파니니
올릴라
보험의
##반죽
##워낙
공존
빌리지
##조립
낯익
괜춘함
냈으니
찔러서
여깄
쓸라
넘긴다
##별론데
월요병
두자
##찌지
##갈래요
##보공
떨어졌으면
##빠른데
주노
##잦
##띄우
원슈
##네다
##자규
가져서
##냐니깐
줬잖아
묵사발
순면
밤중
킹콩
이스라엘
휘리
다닥다닥
명시
##안다고
둘쨋
봨
##유산균
왕만두
##미션
##주진
##임파서블
사파이어
몰골
##컵라면
버겁
구마
열품
변기통
##그랬었
폭설
##사배
도금
아귀
오르막
무죄
비아
입혔
상심
##빋
##내줘
반통
##하얀
적절히
##호우
##힘든가
##편식
##배워야
시판
##포가
동유럽
이다희
애완견
파타
최양락
##탈라
비울
크리에이티브
선유도
끊어져서
차질
##대교
바쁜지
##행위
미숙
##든든
##구입
##디비
능률
지름신
안락
버텨서
##장가서
이하늬
##얹
##잠겨
손목시계
##갈껴
만난다는
강제성
##모마
##천보
최우식
똭
##습해
##왼
##이스라
아린
##목보
##호대
##주각
서약서
농사지
들였
##헤야
##자율
식혀
천식
인명
##보건소
##트림
영자
##조장
칠판
##뚝배기
##허구
난도
##모태
법학
참김
##두껍
주관식
단어장
땅값
창의력
##키를
##조퇴
자연재해
주다
리무
몽글몽글
일까
잔도
아배
덜컥
##큼큼
##비츠
지나칠
##온제
지미
볕
밀봉
뭇국
##대란
마가린
삭스
##디크
된대요
문어빵
오돌토돌
럭셔리
lg
김수현
국내산
##잔도
부서졌
대관
데세
무전기
윌스미스
##넘겨
노스
##체인
승우
적어지
냉찜질
##엔드
알아냄
뽑혀서
위도
이제껏
덧신
신비로
비엘
몸살감기
경쟁력
스카우트
##여행지
박음질
##막차
주걱
처박
와이퍼
연화
글꼴
채취
##상평
고미
노원역
스크램블
수도세
텨
연정
쏟아진다
한미
##럭스
찬다고
가량
쓰려서
##부턴데
써두
##키나
이매역
기모노
##오랑
##봣엇
토에
##목살
쓰였
쓸려
뛰어들
가오리
돌솥
걸스
양궁
##아르
네오
희석
우장산
명장면
가맹
검스
형의
감점
##바스
바이어
##인데다
##덷
실링
바스락
##비쌌
페디
##베다
##디의
##포로
리안
##동쪽
##오스
걸칠
디아
퀄이
거품기
팔린다
차종
게이밍
##조식
핫소스
원익
인쇄소
월정리
위클리
##준의
메달
사또
밸브
디어
여긴데
이승철
##시료
트와일라잇
연쇄
고구
##더움
삼단
살충제
김태균
히나타
달라진다고
예매권
누들
넘네
##동역
청와대
원권
##환급
고명
고득점
##약본
박정희
라이선스
부사
리눅스
클레이
대리운전
브루클린
생마늘
##사부
랜드마크
흰쌀밥
##이브스
텐진
승차
반딧불
유해진
캐스트
엘리자벳
스미스
지상파
우취
벽난로
치일
정동원
화물차
미스티
머라이어
##놀토
##훈의
##pc
##일자리
그칠
##우자의
##kt
##SUV
54
##101
##12
41
365
햄버그스테이크
오도독뼈
##OST
67
##400
##구구
머리말
진상이
##걸지
구루
닥터스
##보디
따먹
군데군데
고난
무의식중
##출도
쓰시
우예
대주
누님
##!!!?
입소
계급
워워
##보낸다고
벌초
자손
심취
##챙긴
##빌린
생이
##매매
해야할까
도졌
##오소
비플
지른다
##프레임
##건조기
탄생석
##으셨는데
##찤
쏟아졌
##내거
##알차
##뭉치
부린
알보
##맙다
빵떡
##반성
##쫙
시들시들
재결합
##다대
##쳐요
셍
나타날
##혀야
##일간
철철
굵기
만수르
궁리
울보
줄려고
##사임
##모른다고
##하난
호치
##근행
추운지
##졋오
##묭
##곤해
마일리
돌려야지
##?????????????
뒤돌아보
췌장염
##외출
##첨부
##그분
##다믄
한스
석박
##성인
##만질
##물감
##슐리
##리네
##화내
테이
##갈려면
사탄
아자씨
##금주
직모
##한담
##파구
##폭주
꾀병
사형
##좨
민방위
샴
j
대성
장벽
노약
##박힌
몸부림
정신줄
##명도
참맛
시련
만도
웃겨요
두둑
##발음
##쏜다
##시위
##시비
##소래
##뺌
처묵
만두피
##토킹
종업원
##던걸
##여가
유흥
##건너편
##색옷
##만세
그라인더
##웬
##함여
벅벅
이러면
중하
고소공포증
일어난지
실신
악순환
또렷
어후
가까워졌
##교복
북치
##봐선
##꺼져서
##??!!!!
푸욱
##합네다
괴로웠
커밍아웃
##철도
##생이
##깨웠
##키운
##거드
측면
##둉
##지낼
##라잖아
스펠링
잔당
공군
낑낑대
생명체
올려져
##올림픽
거들
무용지물
##협
##찌르
우당탕
지겨운
##거품
레드와인
보청기
치였
##사간
##어고
##됩니까
##못생겼
##가아
맘속
##티야
##아다가
##기원
남동
승리자
찌든
##신대서
엿같
?!!
상극
##월초
보구
##하위
홧김
##문어
불신
##미미
선구리
땀범벅
댄다
클락
##오야
##좃
졸사
행방
##할라니까
사과문
앙증맞
애절
##닫히
##늫
하세용
##어거
##속옷
##거장
##간이
혼미
##곁
##금포
##재미있
##찌질
##결핍
##몽이
##다머
##속상해
##따왔
기필코
##주목
##렐
##대갈
##옿
돌아온다고
이래요
##고대
엨
##양산
괜탆아
##주노
##횽
##색약
##편안
월요
##버릴라
혹독
유니콘
##구독
간부
주렁주렁
분조
##마도
##페이퍼
##건드리
##세수
한솔
병나
##드릴께요
##영의
##래쉬
##하핫
##놀러오
나래
##지면
봐주지
##특선
필욘
##그쯤
##당히
##꺼졌
##놔봐
졸음운전
추모
##고하
틀니
스케쳐
##유야
소린
##어답터
##래드
끊이
두꺼우
식염수
아닐까요
실려
##서사
즐거우
볼까봐
증권사
존무
##느라구
##로망
##아껴서
장부
양아
놀구
##집착
##암내
##라냐
분담
##푸딩
에세이
달랑달랑
받아들여
infj
##단거
할퀴
지워져
묘한
백장
조종
추노
지나쳐서
잿
##듬뿍
멀쩡히
알렸
##애용
남악
온겨
파워에이드
동반자
어두우
난가
##징어
앞줄
쫒아
허옇
흔히
구절
횡설수설
##박도
##만이천
믿음직
선천
동성애
아이큐
백운
뛰어오
##만언
##커야
꺼주
##소나
광기
##기지
##늪
##전철
상황도
##^*^
연회
봣는디
재주
##비엠
괴기
해드려
##다니요
헐크
화살표
모니
##빨라서
호되
##내로
말랐었
다모
##길러
일용직
##에너지
##후군
깨어나
일찌감치
##간지럽
##땽
??????????
추나요법
시에나
갑부
##빈후
##베이글
민국
지양
퇴치
##이수
##소맥
##고쳤
##부정
사렴
내줘서
젖병
욕창
##잉잉
##개강
##손목
##꾸지
##뮤지컬
이찬원
공실
신구
물어도
지체
텍스
##박지훈
##라디오
바보짓
##갛
잠재
때깔
##유혹
##슈트
##더러운
들었었는데
##액상
##번데
지나왔
##략
국경
##뛸
빠졌었
생간
두벌
몰아가
뿌연
안들
날것
지낸다
##셨으니
저냥
경포대
##니깜
xr
그럼에도
산악회
도키
##언급
평판
숨겨놨
귀연
바닷바람
##물림
##솤
##신랑
##대상자
커녕
##오진
##겆
창백
칠곡
##포고
발찌
알바라
암담
손짓
귀족
##병사
##돤
하리
^_
##온다면서
수행평가
구리구리
아웃소싱
목캔디
켯
신중히
##싼가
통쾌
##글라스
감지덕지
##사랑니
##흥미
##받침대
##회도
신동
시너지
뒷배경
##대니
서장훈
##때려치
페라리
반가운
밀랍
밥알
##발리
열대야
거슬려서
태웠
##진도
이동해
오케스트라
석쇠
처서
##가이
멜번
민주
디제이
밀치
패배
라이너
부딪힐
##봣눈데
##천둥
##리버
나빠진
끓인다
민낯
##꼬지
##지공
##번지
무해
##i
##이타
거란
##플라자
다녀라
##들린다
##케이쿠
불한당
헷갈린
밑줄
##어려운데
정동진
계산서
샀으며
바깥공기
옷핀
버팀
##돌방
뜨거운데
나월
##으실까
중구난방
모근
백제
##놀러갔
##뚫린
비겁
클렌
##어딜
##싸대
쓱쓱
귀인
##간가
##재택
센트
걸걸
##모바일
안경집
등뼈
##빌릴
전전긍긍
포르쉐
##노선
뉴비
감방
##는규
골골대
##루네
쨈
##우네
추락
튄
괜춘한듯
##혁명
##구울
##수통
모여야
보송보송
현자
불경
조나
안추
처형
##로봇
##개설
신권
##크림치즈
데모
복전
반경
신식
##수거
##까라
강동구
그러실
고량주
##훠
흡연실
입마개
##뤠잇
##플랫
맞먹
마왕
오리가
김남주
귀로
아랍
안성탕면
스테이지
역겨워
시켰었
메르시
상조
쏟아질
##관료
영환
가로등
가락시장
채혈
제각각
알파카
##항생제
망이
담학
시킬라고
라오
싸이트
##인중
출판
##벤느
문체
카오스
로젠
우원
잡곡
건담
배당금
두더지
훌라후프
서초구
꾸러미
달랬
복어
라푼젤
##초상
랜치
성덕
할로
드래곤볼
생태
광역버스
떴었
시오
트로피
향하
##양자
##외국
##조항
내리막길
##부페
##휴강
##이용권
##피린
입출금
##리색
##스치
나인뮤지스
신축성
세리
퓨마
##코어
배워도
장성규
쥬만지
위닝
수수깡
##밪
백수인
##가문
가조
##얼려
##트러블
담구
화장법
알아볼까
##부담금
직선
##유심
더워졌
##온어
충격파
쇠고기
송촌동
망쳐서
##물치
##햇빛
견미리
##스펙
허닭
익일
##원임
카멜
밤도깨비
시거
공적
##매수
쿨러
##탁스
아우어
##페리
로지텍
##플렌더
케이준
호날두
캐널
일예
##지에스
석남
ssd
솔라
인석
##규정
구매처
송정역
대릉원
##슬라이드
빈츠
##과자점
드로잉
랜딩
서초역
##크리스피
수산물
##kf
승차감
악취
##셋집
계약자
스타워즈
안암역
베네치아
영단
기말시험
영작
##국사가
페인팅
길잡이
정권
##티에스
##영화제
거주자
##추첨
체르노빌
닷컴
김영철
##자허
비비고
크로크
##푸파
게딱지
##스낵
주문진
실거
##김천
투력
이민기
메이즈
개막전
고흐
마드리드
무궁화호
이지아
계양산
듀티
신주쿠
##광선
취득세
남향
##sk
##지와
앰풀
맥줏집
##800
72
92
11000
98
비에이치시
16000
##열려서
##해줘야
따님
##합세
볼라면
커뮤니케이션
로보트
##자란
나타난
어감
##도도
조문
대들
사벌
기댈
샘솟
??!!
##빡빡
부딪혀
##마네
수준의
홀딱
쳐묵
통틀
듸
날라왔
##전개
##눗
##무거워서
##스러워졌
##뎊
##괴롭히
##장염
##진정
이제인
##개소리
홀가분
내추럴
울기
고마와
어두컴컴
보듬
목마르
##싸운
난이
어렴풋이
##억지로
##부러지
화살
##할순
##볼테
##젛
지창욱
신성
##잔거
검열
이카
노르웨이
중학
##마유
답례
##따듯
뺏어가
##소개팅
치와와
개주
이어질
이뻐야
##구칭
화자
콧볼
##카이
소리치
##전임
코오
앜웃겨
##나니
##사귈
##로데이
##대놓
##으지
키워도
##윅
불러봐
질수
##치이
##잔당
##흡수
##법칙
##어린이
##피나
사르르
어떠신가요
그런고
외면
못난
건드
칠까
##다다
##귴
더디
##프레쉬
훈장
##우스
구황
##작물
암내
##매웠
##루팡
##힠
솜뭉치
찌그러져
##아드
##에휴
##뭔들
##읕
미쓰
배식
발버둥
##써줘
빌미
##그라스
##입네
##아어
석식
미취
앞도
미니미
##제리
분단
KF
##열쇠
##간댱
빠싹
붕붕이
##괴롭
괴롭힐
##교살
가랑이
##메도
졸기
헤일리
##초단
가라앉히
##는다더니
피울
마친다
##보고서
##보일까봐
##의대
##도망가
##을껭
끼얹
##꺼낼
처녀
##그만뒀
가위눌리
##죽여
삼재
##카페인
##아까우
요리왕
징징거리
##개판
##물어봐서
깨워야
##온다면
##논다고
아가야
엡
산데
##괜차나여
##여신
빠방
저린
드려도
##시술
##바알
믿겨
##고칠
##지른
##정화
##숰
##실물
##톧
##드릴까요
##드노
##조교
##솜씨
다사다난
감감무소식
##흐리
예언
##공포증
선점
탔으면
삐뚤
hoxy
**
시여
나트랑
##야래
흐읍
##큰가
##어울린
두려움
##당기
통채
태운
##백은
하제
이양
##해부러
데일
##보일까
##대대
뚝심
아멘
##쳥
열중
##누우
##전애
배고픈가
Wow
CD
나임
고스
가노
택하
##쏟아지
쫓아오
프로페셔널
댕겨오
##제술
##쫄면
##대우
##든당
마스코트
분지
블랙리스트
살아왔
키득
##주역
서둘러서
##비충
광대가
##꿧다
깟
심지
##복장
##논란
배기
자해
##코치
똥차
바아
환영회
가까웠
방탕
##웟엉
##맴매
헤어진지
은어
스텐
##외롭
##강해
겨울잠
##즐겨
둘러서
혹했
승객
##준지
시킬라
##데넘
이뻐졌
곁순
##갈수
##방촌
잠정
피넛
다자녀
팔씨름
악착같이
##이김
##치부
##뵙
에메
SNS
##어울린다고
##옥의
호전
아드
##럌
간다간다
특화
라이센스
##졋나바
거슬러
이실직고
##봣어여
유감
##구석
노즈
타당
자색
##고팠
저지르
훔쳤
##요미
##냉이
##진하
평안
##척도
쉬야
옼케이
슬금슬금
딜레마
##발언
흐흐흐흐
풍요
##당한다
지향
도루묵
##갑시당
온건
otp
선잠
그따위
구석기
매몰
상투
강행
온열
돈스파이크
##소원
굴려서
##V
##갈거라
뿌림
헐링
까다로워서
##태의
##셰
##이니
화들짝
##안지
##야항
노노노노
드릴까요
살롱
##바이저
##???!
##란데
움찔
최강창민
##가졌
무서워해서
##일테
부계
시누
데프콘
냉장실
##와줄
후끈
##프레스
허둥지둥
휩쓸
쪼그라들
익스플로러
위험물
##이바이
희희희
##까만
단것
모아도
어두울
혼종
드신다
##들러
비관
콩고물
막공
##눙뎅
##있는
타오르
##찍혔
##기조
치여서
##뷰티
##해야할까
보래
##장탕
딜리버리
##경대
보디가드
들어올까
지탱
빗이
##곘다
사라졌으면
##팍팍
##려무나
##오로
밋밋
##스윗
추부
순발력
최고점
가림
충무김밥
져도
##중의
##동호회
열풍
##잃어버린
##해버려서
길몽
밀린다
업종
##코코넛
##렵
로이드
##페에
으흐흐
섹
두들겨
sf
김나영
##바늘
생겨나
##호야
딴딴
##이온
##마쓰
개척
헷갈린다고
##스쳐
##센다
##항거
지워도
리유
##버프
##껫
동남
##생긴다
##세정제
아슬
애플파이
##그려서
따져도
어지러움
민윤기
중랑천
거금
##쟜
##챡
##잘려고
영아
##언스
신자
갑시당
##백억
연지
##껴입
##뻔뻔
설대
##평범
##땀시
##로웠
할려면
그리움
##비키
달의
##무슈
##트윗
##젆아
테크
지으면
##한께
의한
환산
##치유
##업데이트
시간제한
##일식
##요요
기저
들려줄
모양새
##퍼스
교대근무
엄선
##신거
말림
##촉촉
휴양림
절인
당겼
##시방
프로듀서
가벼운데
마래
집서
노린
자라나
나전
##데뷔
##거조
단돈
##잘사
희소식
재봉틀
##거첨
##구니
##한다오
는다
이태
민속촌
홍빈
최곤
금산
클랜
##절약
번거로우
유인
##쟄
물어본다는
앜나도
윤계상
글체
국토
##t
마일드
##토시
햅
##노미야
회개
##사진관
부팅
에스테
##훙
서바이벌
뒤져도
쉐어
밑부분
쨀
##프린터
##루도
##동동
led
슬렁슬렁
##신음
lh
북쪽
유키
##쭈꾸미
모호
##간단히
희박
발뒤꿈치
쉭쉭
주마
##선도
옮겨도
쑤신다
##베이커리
달림
포괄
네스카페
##밀도
끌렸
틀릴
게임방
##레일
피눈물
구동
양현종
감정이입
##당도
컴포즈
가사도
주택가
휑하
월전
침고
##사에
캡스
이강인
##라이언
##놨다는
크레파스
은하수
열라면
방부제
##간호
##는다더라
콘칩
##남녀
썻네
##헥
##수선
##해보일
고갈
##티저
##득인
터트려
##버릴라고
선우정아
##워커
마그네
금강
챌린저
중화요리
##국시
실체
착즙
국그릇
매대
실강
오소
##칩스
##디자이너
빅톤
세웅
야동
옥수수수염
갔다와야
바르셀로나
##벳
##꼼
신관
결승전
정체기
##봉도
복선
승승장구
##켈
##수칙
##소울
쇼크
##물회
큰방
##유저
텐더
준공
딤
녹슬
##에로
##본드
##출국
배운다고
김범수
투고
##씨앗
##!????
##모어
박준형
##낭시
호화
미끌
넘어올
주길
별똥별
도둑놈
박이
레프트
고추기름
가점
창모
전자사전
무관
죽여버려
##부실
흐물흐물
글리터
쉬려
구관
물새
아포가토
##삼실
악녀
정신병자
페디큐어
##실내
파장
##중단
프로젝터
##탈색
##개오
무너져서
방대
비지엠
상추쌈
따라부르
스카이프
길들이
##캠퍼스
##대금
우림
송주
##>??
##역과
호반
##바까
##개맛
에트
배제
소연
##특집
늦출
털신
김장철
서대전
선릉역
라미
##수화물
##강화
급정거
##발령
강황
고동색
발포
커버도
가정용
노래지
##표준
##방역
송화
퓨처
마구잡이
아이섀도
##무렵
##시업
도톤보리
##사왕
오류동
제하
판다는
##선반
##과세
오리털
깔깔이
푸마
기계식
단차
베젤
우롱차
제이크
아노락
사세
예수금
##트렌치
어도비
심의
합숙
가열
##통관
바이오팜
사이공
##이페이
흥정
##캐쉬
가로세로
기입
##시안
토스터
채권
bts
##탬
조청
데스크톱
##블레스
타피오카
수업료
소극장
주인집
포털
연세대
##교과
대마
아라비아
조리사
중랑구
사용량
한림
지티
소지
사퇴
윈터
구워도
물엿
가든파이브
글레이즈
보말
눈꽃
정후
##횟집
고구마튀김
촌놈
마키노
##본방
##정역
##탐탐
##체카
계주
##왕굴
권상우
디스코
랭킹전
레이싱
태용
하카타
오티스
벽화
덩케르크
스토리보드
한지민
##VR
스모그
##카운트
엑스포
소래산
보홀
##사업체
본관
확인서
도곡
삼동
##CJ
기억난다
14000
1300
3900
88
280
##LA
63
96
62
고된
번뜩
##저럴까
##마쳤
캐비
업소
매달려서
내피
아닉
##식감
##주고받
와르르
마음고생
우애
!!!!!!!!!!!
##앙금
##누움
##낼래
자던
자부
심고
##어울렸
날라간
##오랭
##묵지
으흑
##보세
널부러져
가불
봣으
꼬실
##안낭
##tv
##곘군요
음식사진
알밤
아리랑
쓸려서
##외면
##띰
문다
##으신데
##안보
질서
함보
##펀치
눈곱
시애
도림천
솔로몬
##졋냐
##가없
해낼
##건축
##구왕
흘러내리
어린아이
땀날
소화력
##빼먹
##지나감
어김없이
나갈게
쫓아다니
어쩔려고
##으휴
##준다니
잠투정
대사관
##쓴다는
##어딘가
떠돌
마세
##였을까
말똥말똥
##당분간
슐
맞춰야지
놓아주
뇸
##말릴
##케도
##졸린데
##유웅
내루
거미줄
드문
##강색
막연
##감이
##치진
들떠
출연료
##헐헐
도저
훑어보
다람
##올건데
##다쳐
##외비
여간
##댕긴
공약
##스튜
보낸다는
##주니
##가효
건져서
모아놨
##좋아한다
##꿔서
##도막
터프
갈껄
##집단
##보구
##치수
매회
인생무상
활활
시계도
##원감
계양구
##건어
병들
목장
bbq
퍼스트
##바짝
쑤셔서
늘어져
예당
은하
사부
##울엄마
호박잎
##쓸께
##갓나
##아마도
우다
스머프
##주려
가거
##부린
얼굴색
##마일
##걸려도
편해질
공손
썸녀
##사연
여학생
##땋
빵실
도태
##속상하
##라군
사업가
영정
똥개
##파탄
들뜨
##으르
맞출까
##합성
따라왔
##과연
enfp
이모님
##진리
질척거리
##스트레칭
##누름
목요
날벼락
경이
##쫍
##온다니까
##일중
금여
커요
##두근
포동
입고
##으려고요
집요
백날
##생리대
서러웠
피똥
##까르보
미식가
##노인
달라진다
##된다구요
둥근
씽
##합치
##도지
##나르
놀래키
음치
짱깨
벌어먹
자주자주
##깨졌
##뻔하
##재수
얄루
뫄
맥주병
다져
도란도란
봣엉
푸념
어깨선
회충
##면사
빈다고
##땸에
##갈순
역곡
푼다고
진짠가
##화남
몹쓸
저럴까
##가딩
뺨치
건들이
새침
##놀려
##빠진대
##줔
사귄다
인마
##인가유
이야길
걀걀
##울음
뽐내
##까자
이민정
엄지발가락
##판임
##수제
##시나몬
심호흡
콜록
엉켜서
애새끼
용건
겉보기
구애
사약
암요
##마른
##추이
하희라
##멕
아세요
##포터
항아리
먹인
##했었잖
##주주
쥴
##액자
꼬물
고정석
말벌
한태
##학위
##리듬
##별일
나락
나설
재력
##싱이
##종합
젬
소문내
뒤끝
##목사
방정
다소
먼솔
##동반
##한거
##선일
데려간
드셔서
줄어든다
흐른다
##데워
떡칠
##시임
체념
출입구
만회
뭘까요
낙낙
번져서
##뚝딱
##리치
##!?!?!?
망신
뻔해
무덤덤
예쁘다
##외용
동산
준비성
별장
##??????????????
잤으면
망신살
야아아
책자
##메이즈
토시
##꺾
별반
야니
아연
이청아
##점서
##사세요
큼직
위독
갈라진
살아라
데인
생긴다면
##뒤짐
드르렁
재미난
췌장
술맛
##떡집
들을라고
##라던디
코밑
##거근
내진
무인도
찔렸
##됏지
자립
##청기
##봣어요
어지르
##간다던데
##정한
##한식
무효
##혐오
여한
페이스타임
열어
판국
야레
금형
##나비
##뎄
##봌
생명력
##천향
가려져서
##이별
날까봐
사찰
다를까
아니오
어림없
##글고
##프란
##뜩
불러오
##면대
점잖
교무처
##심보
경호원
진우
제스처
##물가
##원두
법성
##식욕
##신대요
가져온다고
##느낄
버클리
두곡
데바
극락
야잠
갑작스러운
사그라들
고창
##고파요
앛
유어
##오백
##오유
지난날
##잖냐
파출소
뒷좌석
##시사
##밀가루
##리언
##놧음
웨하스
##편해서
칼국
##히히히
##안네
차음
##신다구
남아도
##짇
##궁합
##차차
얹혀
따박따박
치인
윗옷
##서구
블레이저
쌉가넝
작명
봣네
게이지
나무늘보
자크
화한
단골손님
저위
체인지
##펐
지병
##아구
안검
##자이
엠피
만복
원츄
일후
##쉑
자장가
받아쓰
박지
생겼어요
##내방
기우
##울이
대조
##시강
##사극
주권
##공복
유칼립투스
일절
던질
##턍
정돈데
유시민
춘곤증
중의
민경
##매서
염치없
에비
정렬
##진진
끼여서
##나해
멸균
##메라
온당
허기지
토대
##걌
부셔서
##는가요
##돌아다녀
##청춘
##여우
##z
출전
리버풀
뇌동
##붙여야
과시
##도르
##이잔
트롤리
##거암
##돼지고기
##자두
부지
##냅두
##땡길
먄먄
##품명
철제
##충동
불시
붕붕
용케
##구운
##냘
아낀
##정확히
##쉰다고
침도
##잡힐
##와간다
빈방
##석도
재대로
스고
##으신다
개새
도통
이공
이용료
##틍데
육사
양만
느린데
##발달
간의
복직
##민스
즐겨라
##어딘
##담요
맞혀서
어죽
##카우
##디게
##실거
이긴다
##초이스
자필
받치
병맥
세보
##다루
관계없이
##뒁
퍼져서
##톳
선비
조촐
안계
완벽주의
에엑
##모찌
호랑
##글루
오똑
상봉역
대일
허한
##제야
공덕역
대절
봉제
허각
따져야
##귄
##스다
##배정
##@@@
유원지
해야겠지
##탕진
귣귣
plz
위암
꼬불꼬불
김신영
전통주
헤르미온느
일석이조
##선임
##월급날
##접촉자
협소
회원권
대포
대방
졸업앨범
파편
##안왕
시펑
##대문
왈칵
##백의
반삭
##디카
커보인다
환수
재울
##귯
카라티
##번개치
##몰라요
오래가
##역점
드문드문
음량
부림
이터널
##늗네
기숙
##마세
직업병
##믕
송송
##판다고
##그녀
##정가
직속
##쾅
손수
##명가
가저
##묵장
뿌셔뿌셔
논쟁
가벼워졌
##목토
뜨듯
흥얼거리
보자기
부진
손금
정강이
주일날
도산
##간적
필력
##질수록
어택
연장선
##대방
현직
거생
##포대
꾸며서
씼
써지
##남방
선동
늘어난다
##성경
아이비
서촌
##돌아왔
나갈래
김정은
##cc
##내심
어려워져서
버니
##시드
##질주
해양
서비스업
파기
세신
##지어서
수색
틀어져
테마파크
##계산기
##추의
##습네다
##조을
무너진
얼른얼른
##특별
##포켓몬
유엔
##슺니다
나아요
밤색
공이
##볼란다
##만든다고
##픙
튀어나왔
앞둔
스트릿
학동
##살찌
콧멍
##광색
##한계
##졌을
작살
현란
##어는
##염이
유나
##잉크
야부
##식겁
설경구
깬다고
봉침
##질텐데
콧멍에
명찰
기다릴께
##직의
물어내
착취
##냉동
하천
프레스
월급일
주저
비오틴
##잴
##고싶
와주
고역
식용
##깻잎
##분이
가져도
##글의
착석
##질려서
##감자탕
##까레
기법
알집
##혁신
##채운
백호
밀키스
페이팔
쉼터
클라란스
마르지
이파리
향남
떨어뜨린
##모종
필로우
닫혔
귀때기
아보
딸려서
펜타곤
##볼래요
가닥
##깦
경마장
##가까운데
반숙란
##댕댕이
기술력
##겹쳐서
구처
토모
삽시
스펠
툇마루
##보이즈
무용
rc
즈음
전우
##원룸
##읻
##꼇네
실업자
부킹
##확보
도현
##영하
프라이머
결함
버스표
킴스
보냈으니
드레
떨어졌었
##치히로
##사거
번거로워서
허당
한댕
아쿠
꺆
##온대요
##나올지
은행가
##트리스
##테스
케리어
어울린다는
##비행
품위
##바에
슈주
북카페
재환
떨릴
가격표
##자살
파뿌리
##어부
##하수
낮출
은파
낀다고
출입국
산사태
구호
펌핑
키르시
정조
추돌
들어갈지
비립종
##산사람
클로
##스크린
샄
##수급
미포
타조
포도즙
웬지
회색빛
사이코패스
더러워졌
빌림
##고서점
##워즈
메이크
##훈
오를지
##리필
상고
광명시
찰랑찰랑
이름값
떨어질까봐
골다공증
찐만두
인파
##계죽
##리크
방배역
타본
킥복싱
초진
임파선
손끝
##알아봐야
축농증
약산성
검정치마
푸석
현금가
##부제
귓불
사선
신논현역
탈래
레그
##퓨전
피켓
한댔
현진
아이싱
빗방울
월부
##찍힌
오른다는
뗑
##회용
쿼츠
커리큘럼
중금속
온천천
신논현
##H
목표치
강서
##가발
##코르
맨즈
혼합
##수미
##싰
##밀이
XL
송민호
운임
CJ
cd
로렌
##집값
북마크
##동넨
##료가
##매해
숀리
육쪽마늘
안국역
테디
군옥
##결합
조립식
폐점
뮤지엄
트래킹
무맛
전기요
짬짜면
홀릭
셀룰러
스콜
숙대
정육
분철
문정역
브리타
고잔역
##그래픽
익혀야
앞면
안다며
##과즐
사보텐
생수병
법대
##함수
안전교육
물리학
대졸
법과
대리비
성악
로버트
후렴
박승욱
정정아
고베
채집
소나
##장마
교자
머스터드
민혁
옹심이
김공
시먼
대너
송강호
세터
##작곡
청계산
손호준
##투수
풍뎅이
레비
이수근
유화
포켓몬스터
레베카
우지
연승
여벌
공명
브라우저
직통
스테이션
랜섬
큐에이
##으냐고
고정비
끼어들기
이사비
부서져서
장롱면허
진눈깨비
##MBC
##치디
##겠다면서
호찌민
에스에스
##스러워한다
##NCT
7500
61
##600
##CT
##MRI
프라이드치킨
##데모
보아하니
수송동
폰뱅킹
탐색
올려달라
##평등
무너
##나공
잘라야지
##문은
자버
복도식
루미
참다참다
PT
##움직임
##제자
갈궈
##번주
다비치
꾸러기
퀸스
저기압
받아들일
##외웠
##구름
##아야디
##우울해
달려간다
때려쳤
걸렸었
##배드
##안목
셔서
##들어간다고
##병나
져야
##비워
##어싸
##만코
귀이개
졸졸
##형부
##건설
##구면
안중
##찔리
기염
해약
형수님
정감
##샜
바이바이
비야
##빨린
뻔한데
##케일
##쳐묵
##닭볶음탕
##꺼짐
끝없이
올라타
외쳐
꺄울
민주주의
##지려
젖살
##오라방
오뜨
갇혀서
##정해야
버르장머리
왜이
후각
##분홍
##챀
쐈
털갈이
주서
##따라오
열과
맏
지나친
##지엔
흩
마네
사하라
감추
탐험
걸러서
제야
##라거나
가린
##쓸라
미우
##귘
##도여
들어온지
팔린다고
##꼇다
##더랬
그로
##국슈
투입
반질반질
##증세
##서래
##야야야
##져다
##음용
초연
##제왕
개거
강판
얼떨떨
##마고
##펔
##데코
말티
##가자
추하
##으유
회당
##라이들
둥글둥글
갈릴
취기
비흡연자
사뿐
봣자나
드려야지
걸기
##비래
굴뚝
##할로윈
##내려올
끌끌
##뒀으니
스펙타클
우욱
##만행
##둬야지
감미
가려져
실력자
##감겨
치운다고
##봡
##칠지
##두세
누워도
핀란드
##지냈
##지송
##빜
철물점
##한증
종결
알아채
성장기
##니여
오그라들
머슨
##^*
##루머
중재
코멘트
무던
박탈
가버
만병통치약
벗어났
부리부리
말끔
##이근
끄덕
후쿠시마
긴박
곰곰히
지제역
내공
피식
바빠도
날아다녀
간다던데
깽
쫀맛
흡사
산다는데
##김장
##꺼진
거쳐
##날일
##정돈지
##경찰서
야들
##내유
기다립니다
##아파도
##미남
##사겼
##진출
##생물
괴리
젖소
푸하하하
##눌려
갈테니
봉이
##랐나
술사
##괭이
일주년
##고면
가져갔었
##버릴까봐
몰래몰래
방송실
##찌게
##옮길
##더러워서
진땀
애썼
슬리
효과음
양상
시끌시끌
똥통
##사당
그럴라면
##아야죠
쳐지
탐구
문연
몰두
##두용
일걸
##눌려서
##서야
튕김
##열나
##다정
곤욕
##벋
찔려
선입견
친군
##당의
##어뜩
승자
##만든다
내짐
##멸망
##일행
##공중
##배고픔
##으니라고
##!!!!!!!!!!!!!!!!!!!!
호상
##<<
순탄
과즐
##공해
경청
펄이
녹초
가르쳤
##지쳐
브리또
##기억력
일분
김영란
##대왕
강남스타일
추방
##젹
쪗
뭣하러
강당
틀기
##니지
##과거
정든
쭈삼
##블루베리
##겋
등분
실하
어덯
사각지대
겐
뚝딱뚝딱
병자
##일주
##방석
버터링
##유출
선두
로골
비키
봣을때
날라다니
괜차넝
드래그
앚
퍼졌
##후아
##밀린
정로
##갈러
##먹혀
##비리
##추리
건식
##볻
달려갔
모른다는
발림
##탈라고
예치금
작지
##유산소
##오랫
가삼
##아픈지
연참
##미화
재취업
일품
한시름
사채
##으라니까
##민박
아카
##올려고
차가우
참가자
##기저귀
터득
담배꽁초
##그랬잖아
##컼
백수일
##뜨겁
##했잖어
오양
덕담
기로
번쩍번쩍
꽃잎
##내외
##남소
칩거
##돌아댕기
살게
지끈지끈
##최종
급급
##순수
부재
무턱대
허비
##이슬
폐경
돋보이
적적
아이코
똑딱이
까망이
콩알
##동화
몸싸움
##신났
내마
이월드
살찐다
쫘악
##사인데
##입이
주둥이
오늘날
##후추
서지
하나다
##그러나
##베프
끝자락
##탱탱
스르르
이히히
##야레
잨
물린다
짠다
##트래
느글
풀가동
잔대
역하
페미니즘
스티
##때려서
##한글
고등어구이
##아파하
중세
내스
워메
맞춰볼
은인
##마셔라
앜아니
##인권
##애초
아른아른
거추장
##봤잖아
##빨러
지롤
징조
넘겨도
팔순
오픈카
언짢
##다니께
술고래
신혜선
##진마
##변태
퀭
그리핀
##감싸
주디
##내려야
초스피드
신대방
참이슬
친절히
식상
죙일
##릴라
엘자
우악
##올라구
짝눈
싱거운
잊어버린
##들오
##섵
##동인
꽝꽝
재배
야미
찾아뵙
홍보가
##늨데
##해간다
졸라서
##똨
##백숙
움직인
문대
말년
통도사
중얼
##강전
##봫
네이처
##뒤쪽
빨개서
##주의자
##놀랄
##둘러
뎌
##마찬가지
앵글
쓰윽
##으냐
##해봅시다
겸사
오독오독
##네모
클까
유성구
초상
##묵국
계보
기함
우히히히
부점
##오아
똥물
훔쳐서
아이맥
아까워서라도
해코지
##아취
두건
##레잇
바이트
만장일치
결별
잊어버릴
##성장
##신박
##요네
금강산
##구료
다닌대
##나머지
##베트남
모그
유한
##궛
타일러
똥오줌
초월
하향
철들
삼수
스타쉽
##네야
계신데
##샤인
##격차
##이입
##매번
트레비
##놔주
##나발
##진다니까
나아진다
근육질
##까진지
##됰
##다발
가취
##으응
웅성웅성
##너도
##플라스틱
나연
##잠수
되돌려
긁어먹
##평화
아이엘
극악
정떨어지
##텅비
초절
찍힐
시진
품은
곁들이
나잇
##켔지
수간호사
##제기
풍년제
가해
낑낑거리
급전
피아니스트
빨러
##오랬
콩고기
##성동
##가조
##노면
금가
낄낄낄
##테토
와예
바들바들
##혼주
복분자
도베르만
멋질
우하
샤프심
##그라피
넘칠
##장수
적셔
##존귀
아스트
열장
상하차
##입자
대단히
필히
살랑살랑
아녀유
##뱃
할가
##뗄
김구라
내용증명
맞춘다
세쌍둥이
##음직
##삳
##다녀요
##쓰린
##미자
급속
##자잘
걸려야
##고간
잏
위엄
잠구
걸지
더덕
실효
##바자
겉면
##빠진다고
분출
##닥치
세조
##짼
##고바
##퍄
##써두
법안
급증
헬프
큰일날
양면테이프
정준
조흔
##비갑
##인임
##영양
포비
##병도
떠오른다
##합니다만
이비
레스
지드래곤
트인
극도
미끄러
에이형
영입
##혹시나
##블랑
매쉬
##이길
##빠다
몸뚱아리
감질
##무서울
##정정
내선
비볐
주변인
##다워
번거로워
회용
뽀득뽀득
테트리스
##팔로우
목공
##으니까는
##살만
##^____^
##f
##부랑
봣엇
돌멩이
내적
대령
강매
##뎤
빙구
하스
절레
##서보
고게
만리장성
우렁이
와가
##깨져서
연타
클루
꺄르륵
##프렌드
옮긴다
##환율
포고
휘둘리
내려앉
되찾
##닞
미혼
##^__^
황찬성
허물
큭큭
##유료
##타거
평상
내의
조개탕
해미
##늗
그럴싸
오시오
마개
촌시
##고저
미주
자빠
막지
휑
베테랑
##안하
##햇따
벗겨졌
떙큐
만지작
##쉐프
외벽
월용
탬
다기
맞기
##플라
우등생
##그른
밀리지
들떠서
강동호
@@
빠른가
사범
계산법
사드리
주방장
중위
어래
엠씨
불상
아낀다고
세대원
철심
마통
##섭이
금반지
##이파
##베르
역해서
지아
안지영
창경궁
애호박전
손민수
됔
방수포
가려진
##모스
켈
##소라
##제로
식순
발연기
삼화
개교기념일
오곡
##됩니당
##접촉
젝
파절
작문
##머시기
경비원
사상충
모은다
주이
고쳐도
중산
잘사
철분제
가려야
무작위
브래드
꽃등심
부자재
쭈글쭈글
지중해
구린내
##요라고
셰
지푸라기
췌장암
##다담
##지점장
연신
장보기
합병
##옥집
반발
선셋
우영
다트
##소미
가족의
##산행
마이너
대참사
##구처
##세집
들으려면
##전후
##샌들
투바
##백마
그물
장산
박정현
##양아치
꼼장
거쳐서
바깥쪽
##스몰
니베아
해변가
##수에
동명동
쭈
수빈
교과
반수
##플래너
행성
##로맨스
##갈비탕
가그린
베르사유
프라페
##이디야
##전동
부화
코타키
이서진
##신문
포지
초계
고삐
##공은
쉐보레
헤르페스
##리트
##포켓
##버블티
개먹
서희
초미세
##바질
##곘네
성조
##두비
갈라져
다래
바른다
폴리스
바른다고
##트리트
소도구
##담보
소강
장내
배영
채광
나짐
흥국
훌라
예약자
벗겨져
릴레이
배와
먹물
##준대요
##샏
별관
동강
##센타
원스
아쉬워했
##베가
시슬리
마노
삼정
마니주
알싸
##%(
##유입
##이오페
멜티
보석함
종가
투미
##랖
솔티
황후
판매처
치워서
까보
프라하
앵클부츠
입간판
##출고
등록증
생존자
우쿨렐레
##응모
소랑
아크
검색창
국적기
홀더
이베이
선호도
##기록부
지프
##도서
일양
까르푸
##조커
전직
애프터눈
##주니어
바자회
모니터링
넘친다고
스위트룸
##vip
농수산물
##토드
블루문
퍼만
##천왕
몸값
##로점
삼립
과금
자이언트
레이디스
오뎅이
윗반
##단원
##회독
연강
이재모
셰익스피어
판례
시신
##파업
퍼레이드
신설
##자동화
수료증
##현질
아웃사이더
##PDF
맞혔
##가규
스필
동파육
개미집
경양식
세화
어사출또
빈대떡
유후인
추로
##점인
짜글
타주
김만복
##락과
도굴
##황후
은메달
남궁민
저스틴
최민식
킬미
##힐미
##던전
출연자
태수
장식장
초로
##렙업
혼잡
일인용
##무나
소년단
실무자
행정직
##진흥
##탁방
안산역
레트리버
46
##17
곰보빵
##300
##중국어
따라야
사진사
##친했
까꿍
네온
수락산
최면
몽자
##겎다
침입
집세
시어
##괸
##딸려
##가느
고친다고
버거워
##월드컵
특권
걜
##쁘다
##혘
자린고비
##틍
풀밭
##떨려서
##따갑
##태워서
##왜구
##꺄아
다녀요
김종국
##갈켜
여거
##드럽
스트레이트
##마미
삼색
##메롱
삑삑
순복
그러다가
처량
##일겨
##어떤지
##오장
##처에
진술서
공산주의
##심할
##습의
##멕스
어떻하
##아앗
전호
아팠었
##깨달
프라이버시
김재환
선행
##퀘스트
고부
뎀
##슈도
##느린
갇
신겨
꽃미남
##나온지
흑흑흑흑
남아나
##최선
뚫어져라
##꾸며
##퓌
강탈
동그래서
##뼘
##쓸라고
만났었
남여
갈거라
##공평
됀
심해짐
##깅래
밝혀졌
캔들
내요
##집개
졸린가
앞모습
빵점
##비보
##봣당
돈벌이
##나갔었
?!?!
##타도
##탈이
속상함
월임
##라카
삼가
##고인
역무원
##쳤었
소극
흡족
헬퍼
척척박사
무주
##앞도
연해
오랑우탄
키워본
누규
내료
단번에
##큰일나
##카스
싸여
쉭
대흥동
점쟁이
##임이
우측
##비켜
풀풀
몽둥이
라디오스타
밧줄
##들켰
##놓쳐서
##촉박
되야지
사적
##다짐
##도감
부추기
어고
고물상
만년필
방석이
##잖나
아누
나말
깨도
##둬요
##전원
##파당
본론
병명
##쇼파
가미
##압박
아마추어
공감대
##드려라
##손질
구먼
레토르트
마니사
##수속
찰나
퐈
##그네
##해냈
무거웠
##였자
##시끄러워
##고등학생
양껏
##다주
추궁
애비
식료품
##물고기
확확
##하년
##고등어
대할
조잘조잘
##그든요
##인방
##워프
##섷
쒯
핸디
##유어
##흘러
보이지
요지
에릭남
찡찡거리
구질
편도결석
##웟으
쌔리
간지러웠
<<
두리번
하아아아
반석
두근거려
##근심
아델
처장
깨워도
포레
콘티
악세서리
찰지
##툐
신협
##물어봐야지
독이
뒷담화
절여
##난가
줘패
##초점
##따져
먹성
운동량
##면식
##으이
간다니
편입생
놓여
구부정
지근
칠면조
##코미디
##지으
##퓨리
큘
abc
부끄러우
##졸업식
발려
항번
##하비
목말라
##니나
미처
볼려면
##여리
##든다는
##케바
시험관
헛된
##안마
마님
##다는데요
그카
오매불망
##먹임
왈왈
##까이
꺼져라
##반장
버팀목
##바유
평행
등기부
밉상
##따라갈
##재민
허기진
읍내
##염증
부릉부릉
##자린
퍼래
얄미운
##스물
##뭉이
개소
냅둬야
울타리
##이놈
모욕
꺾이
업적
새옹지마
보형물
댕강
해달
##내준
버릇없
##피어싱
반미콩
cc
굴러서
##출석
빤짝
쪼그려
미금역
시아
##온게
술의
다중
##고라도
##럅
회복력
##돌봄
와리
끄라비
##시품
##바쁜가
##변했
ab
주자나
기일
점시
나병원
##날렸
후두
떠다니
집념
##생각없이
##순도
겨를
##달릴
대여섯
##끊겨
쓰레기장
##다녀와야
##원할
박살났
상비약
##운고
바뻐서
홍진영
비바
욜라
##정해진
##인걸요
미화
##을라믄
Kt
가지치기
단합
우띠
개차
##뿟
##꼬임
잘께
이길수
##세워서
##해버릴
주우
##로쿤
##드라고요
환청
##기타고
##본능
끊어진
##런던
##렌치
갉
뼛속
이려
실생활
##친가
##돌아갔
우네
놔둬도
준댔
##슷
lte
닷
##최강
##핟
##디다
##혐임
##달라붙
도나
놀랜
##으고
으면
##로되
##p
##우버
##한약
##랃
정샘물
##미련
##태어났
##파이팅
##휴식
##리타
갈팡질팡
사오기
##성찰
악랄
퀸카
##청정
전해들
자셈
시바
##가만
다사
##모구
##울려서
배고파도
##그랬을까
주진
##부러운
서준
김영광
쥬얼리
오션스
맹물
모해
##오야지
심심이
역변
##칠까봐
주워들
##보인다는
##해리
##셉
##올테
얼굴형
윤희
만조
##이루
##였어
지나쳐
##영혼
누르기
됴아
밤샌
선사
질긴
##쁀
금도
의하
비친
머로
##세미나
박시
염주
터뜨리
하비
##지향
롯데슈퍼
이민호
##빠빠
통도
##꼼꼼
카프
양모
##구연
##씻기
슈스케
미모사
무소유
##헷갈려
깻다
##여중
착했
##인화
##배고픈데
##제과
##겧다
##물려서
낚였
##시식
##나와야지
어버이
흔들린
##원해서
##시면
흐른
##고로케
##는다구요
공동체
석남동
드러워서
김숙
##는갈
이륙
##바기
##꺽
돈지랄
##중얼
쐐
##시요
##집어넣
##응대
도난
##래매
접속자
##장임
##자우
벌새
레지
##꼬니
##불러요
##놧옹
말의
불가리
화이티
간디
물려주
##그쵸
##거등요
잠귀
고놈
미쳐버림
##약해서
주치
괴로울
##고데
##드라이버
##완납
충천
기독
케이지
벼룩
꼬인다
양갱
코마
##주우
##뭔디
깔까
##틸
국문
사란
포진
##자사
##달라지
주야
##기만
글귀
오유
##어지러워
클로이
비장
##테퍼
##덛
퍼트리
올른
으으으으으
##먹힐
복음
파리채
취함
##공대
##들키
##마난
트친
처제
##실용
##닙니당
##쑤셔
돌하르방
##반영
망해도
##움직일
##모가
개콘
동태찌개
층만
##내놔라
복막염
##나구
##동방
치운
배척
##아누
##인출
##바아
사자성어
##족의
무색
##깔리
##꼬시
##나온다는
연보
무어
들려도
##입실
##조가
실트
호잇
##긷
##다비
바리톤
병든
미적
기를
why
바오
찾아간
타네
##놧엇
바뿐
건사
##자바
따귀
##혼내
물주머니
두구두구
##체고
차전
##공이
입가심
##눈앞
핌
##인해서
##대영
타이즈
귀뚜라미
퇴임
##잡아먹
우직
##집증
신호위
권위
사유리
##벚
안쓰러워서
##!?!?!?!
부으
##담임
엎어지
빗겨
준다니까
##약의
주옥같
##츼
##코디
누려
##중식
헸
민재
광수
##스크림
영수
헛웃음
청포
논스톱
움직여도
분임
##오궁
##막이
걸어올
돈모
요인
##들왔
그런가요
딛
##모거
##너라
등신대
절임
강등
숭어
개놈
으루
요실금
경마
##본전
폐활량
##안기
스킨케어
##리본
감장
##베베
목격자
아짐
##반값
##떔에
##수분
##드라이
##쳐다봄
분사
미나
썼잖아
##뚫려
리슨
##하디
금천
달려와서
청산
##툰데
텐텐
삐치
만차
파쇄기
##안타깝
##떡메
##뜨거운
묶인
##도행
원사
젱
흥건
토박이
##증가
김도
속담
인품
벹남
빈도
선보
##다래
도리도리
##빈도
뿌려도
야속
카카오스토리
조만
##여울
##멜론
부조금
임명
##쳐져
##해애
붙인다고
이치란
##애끼
##그려진
산수
##다고들
##낄까
일레븐
놀러올
어긋나
쇼킹
##수생
걸어온
고른다고
##다서
##들린다고
가제
##무진
##징역
##고플
신설동
##디래
USB
구때
##그런가보다
##카카오톡
진보
##추전
세도
##심한데
싸운다고
괜춘하네
떠나가
싳
##커도
조우
##지장
##제부
달구
붙여야지
서머
추잡
##켯옹
얄쌍
흔들릴
해둘
##비트
감나무
##채웠
사무관
비보
핰핰
시행착오
워낙에
고픈지
##여행가
수봉
주제곡
오끼
##음의
##습죠
물씬
청록색
##네이트
징글
##착용
코웨이
##선언
##갤럭시
##로마
##고염
후르츠
죽여야
황정민
##페인트
##동하
두꺼운데
빼앗
조물조물
##고깃집
실바니
틀려도
손뼉
대수롭
쿸
트윅스
##안조
비상구
##리서
구렛나루
시포
선바위
버러
##불매
##데로
지명
필답
재기
##튀긴
마모
##푹신
##맛의
출석부
메추리
##들으
빠샤
기름져
##사디
되물
##시력
라디에이터
##아라고
아나고
##넌데
##품관
젠장할
핑클
공터
에이핑크
작화
목자
파닉스
병맥주
강민경
##정해졌
##거영
도복
##요우
##후문
##출동
경제력
##라프
신사업
근원
매야
##탕탕
천억
##용인
광진구
##준다더니
알루미늄
##판정
##육대
호시
편집자
헤지스
이어받
##쎄오
건조증
##서랍장
한해서
유류
##귀여울
존부
##스위치
풀빵
관상용
도지사
일석
##괌
국외
커짐
##제어
저걸루
선상
##지워져
##갑니까
벼룩시장
교육장
야심
##다데
두뇌
##김치볶음밥
완수
진압
홍성
##해둬야
##시정지
나옵니다
복주머니
##오피스텔
##리브
##리나
##빛나
무승부
은광
##꽁짜
겉모습
##김포
미시
광나루
매각
##누적
떫
조셉
만개
예린
##체도
무극
말뚝
장단
그리워서
들어간다는
도오
##기와
밀린다고
마차
라틴
수북
남문
청명
##챴
라이스페이퍼
##전어
직군
##텟
썼으니
알바라도
서피
##usb
찰흙
카츠
광안
복숭아뼈
##부캐
##연구원
뎁혀
##신단
잡힌다
##풋
삭감
놔도
##저혈압
최적화
가마솥
##부추
만년
##플리스
폭풍전야
##악마
플라시보
뽀글
물혹
보식
##셀프
옴브레
시초
아로나
야탑역
##유랑
켈로이드
##약제
길이만
합쳐진
불려야
샘플링
칭칭
울린다
짜도
배역
갈린다
##된다더라
무국적
앳
움직인다
비욘
현미경
접착제
슈에무라
흐를
침실
동명
화곡동
매시간
##프리미엄
선녀
인텔
조호
누빔
디오
##갈라나
삼익
덧대
화력
##소시
플라이
석이
쇼퍼
해상
부합
복조리
부속품
##겨자
보루
폴햄
##아센
도트
송파구
##떡국
사쿠라
건너가
지자체
특활
##슬리
##플로우
##채워야
휴면
플랫폼
서창
##샤베트
웨일
올라와야
##레이트
홀로그램
근무자
잠금장치
##범퍼
민법
##치케
뮬란
비씨
북극
정선
##였으며
##상점
##고소
일선
##탁이
##언덕
죽여도
임수정
##문법
##관리비
##망의
##특보
독어
평등
영환데
##적성
##금융
##토일
행법
병음
##정전
이적
고잔
##표의
견훤
##방비
##법인
난방기
씨마
##보호사
조용호
##여니
민물
사리곰탕
##사시미
송이버섯
##수산
주물럭
열선
궁중
##다미아
러스크
파운드케이크
동인천
신룽
##핑거
##골뱅이
의령
약밥
몽탄
태영
삼양라면
게맛살
##산동
미원
필라프
왕푸징
살린
대관령
억새
북촌
위잉
##게스트
여제
##영회
말포이
##전투
##신잡
조진웅
만루
##히어로
배두나
밸리
스쿼드
흉가
콘래드
엄기준
염따
로키
세일즈
벙커
포일
지게차
건다고
돈벌레
압구정역
방개
##열의
전배
면장
그룹웨어
네스트
파쇄
##ai
다닌다며
가벽
평형
비구름
##권의
난다면서
밤과
1100
2014
##70
9000
1800
메뉴인
39000
밸런타인데이
17000
93
220
카르보
1955
10000
이브닝
맹맹
##하하하하하
##모함
##귝
##안산
##꺠
바라기
##혓다
무리수
대성공
응애
갰
모조리
##특징
벌컥
근데도
##인성
상도덕
##고비
##강정
따름
개저
건방
##뒹굴
세례명
##^^!!
등산가
성취
장난꾸러기
대차
##장조림
##발가락
##앙해
##아뉴
##지척
##줫거든
흔해
##내보내
거슬렸
##비네
##마어
탄소
##조졌
트레이드
##뫃
소규모
불렀었
사라져야
##해본
##훼
굴복
##애기야
이민혁
안팎
##잠궈
LED
농후
##박자
##버려라
##팔린다
면전
##창의
##아닌감
##샠
바도
어휘
##조율
##잘나
##야앙
##어쩜
파사삭
챙겨요
##그런다
##꼬셔서
발동
요괴
숄더백
##육만
gif
알아봤었
내버리
##무너지
##해진다는
##걸가
입방정
##게야
##금하
##클리어
##만난다고
지하도
##싸워서
##축의금
##은어
##인연
존대
사칭
꼽사리
술친구
선한
보내기
##강요
여잔
쏨
##여진
##내가
자이언티
인복
대칭
##갈치
지어먹
상용
##아닙니다
가뿐
타고났
##잗
마세라티
##외박
포상
남달라
물그릇
##놧대
##갔으면
진탕
##이싱
##쟉
##살가
팽팽
대수
##찔까
입가
당나귀
실망감
키작
##라고는
받아들였
내덕
##소근
##빠방
패셔
##걸릴지
##멸치
안정기
##영장
##쳣다진짜
##스러울까
은연중
새기
집지
##내려와서
쿡쿡
이만오
사로
##애자
과체중
쵝오
도망쳐
이대형
##쭉쭉
##쑨
달려왔
oo
버노
주무실
##조어
##배고픈
##부드럽
모스
탑블레이드
상전
##스님
선곡
##지침
##이른
말문
##사이공
##주아
##자원
##신겨
면목
세기말
##못써
##초년생
##코스프레
무소식
##글렀
완성도
받아치
병무청
황소
놀이동산
##딸려서
머지않
입버릇
뚜드려
##몇일
기리보이
##앤가
동창회
##짝짝
어려도
고야
다맛
##아방
윤동
소린데
부끄러움
##정합
밴쿠버
##칠거
##쎔
##미뤘
##킨다
온찜질
좀벌레
##또르르
문안
##유학
꾸며야
##어함
오구구
##이모부
섞였
##빻
벌어져
척이
##얘긴데
하락세
##꺼낸
##듀티
##핬
한티
몰루
##트레이너
##됫지
오랫
##켯지
##사암
##하드만
소향
갈바
개근
싸워야
춰야
번번
##줄려
뭣이
극구
##고장났
##한다매
리사
##참석
뿌러
수모
##따또
태릉
##어떨까
##스톤
사담
초췌
새로워
후우우
용암
##체계
아입니까
##수유
불태워
##들어온대
##!!!!!!!!!!!!!!!!!
새살
##너머
##중턱
통역사
이뻐요
쏠리
쉬쉬
오금
##구집
##파가
##맘마
##토커
느렸
심정지
##닌깐
##가함
라이브러리
##바란다
on
정준하
강경
##난감
꽃단장
##_)
사이언스
민사
##퐈
멘션
##어를
택일
##볼펜
##다에
##분수
문특
한기
##우겨
튀어나올
샤샤
##갤러리
앉히
##큥
##사태
##이쪽
##진동
틀어진
##삿대
##인격
##다느니
##도만
조심혀
##죽인
##케한
작업복
##통째
넘어갈까
##온건
##이도
##할구
뛰어왔
괜차나요
##랑이
##!!???
연분홍
뒹구
아라뱃길
부르주아
##루리
##체불
시달려서
뛰어다녔
정상인
##오메
##기진
##스지
정중
삐쳤
상복
어르
개서
어두웠
##옸
건강히
브라자
구기
##뵜
운거
짤라서
삐친
쓰루
실버타운
장신구
##보자
감주
##까정
살려야
##대쪽
구량
왜곡
퀴어
##냐잉
찌통
초겨울
##핸드
대뜸
보탤
직감
##색감
기회비용
##갔으니
보공
봣니
##랍시고
##렵니다
##직과
기다릴지
염치
##퇴치
##웟네
##됏나
##문젠
##살살
꽃꽂이
끊길
플랜비
나아져
##지마는
반타작
##한탄
##텻
내미
##자명
앜진짜
sbs
우링
##과생
##점심때
물색
##기려
##라이터
##불나
##뜯기
##예정일
가천
##자개
곤부
해드려야
##연계
스펀
살펴봐야
몰아넣
##고향
##사옵니다
##외의
렬로
헤링본
배라
굴욕
거주지
해온
때울
고찰
##괴물
복실
비빌
코시
뭉쳤
뒤척
모과
됏네
멜빵
과방
##귀여웠
벌어진
##말다
infp
버나
천근만근
##이야말로
##루타
문재
##징징
##도쿄
쩌렁
동거인
내비두
욱신
##대결
##동지
##원리
##낭가
다이나믹
##촌집
##처하
브라이
동작구
전신사진
누고
##줜
##노출
도브
##기방
구석진
마야
사시미
##절수
##졋나봐
##다든
##온가
연장자
##뷸
##그니깐
비약
나한
##흥원
급도
##외투
나사실
키울까
##토로
##졋자나
베껴
##잠금
싴
수토
##로바
에이랜드
워크맨
악필
##마약
선부동
올려고
방세
##딧지
프랑
##시체
대행사
둬야지
내인
##쓴다구
꼬까옷
##얼만
골키퍼
캔커피
넬
짇짜
움직
팬시
한과
연태
봉추
무지개다리
정형돈
약지
##주까
##탄면
##넘어갔
##거길
##확대
아노
찔까
인천대
사이사이
고추잡채
비쥬
##스피킹
##구와
발라져
학용품
어쩐담
헤이즈
##고마워요
##냪
##농약
휘두르
##매주
##신자
##뱃살
잇기
##이나바
돼야지
##겁내
##난이
##다소
악물
##시터
니코
가져와야지
하년
타살
##드로
귀요
##포진
##포티
영등
##탈해
##그만둘
##알라딘
##퍼먹
주금
##로그
이어진
부운
##량도
강했
##차인가
푸디
의해
자파
##상어
벌어져서
##처지
##홧팅
알려진
터무니없
오냐오냐
닥스훈트
##뤀
집행
하관
무뎌진
##캅
해태
##걸린다는
유목민
##배틀
시영
칼날
##알아본
바르다
##심리학
##천가
##참기름
발렌타인
##굼만
##마땅
##서분
##놧더라
소호
무산소
##탈지
프린세스
볼려
제명
퍼포먼스
##찬양
##벵
##다린
미연
고착
삭신
내려온다고
##하마
백미
##웨이브
이웃집
알린
하란
##랲
##일어난다
땋
지를
뒤집히
말대꾸
##만찬
갈껴
고모할머니
해면
구출
석자
트레일러
미국식
느려졌
##레딧
푸시
##주웠
학생과
마고
하허
시레
안단
##알콜
##잃어버림
활기차
첩
##놧거든
##수첩
실행력
##버피
착잡
##총회
##윗집
##대본
원유
##엌큐
##버여
한류
우스워
번방
##병실
앜나
꼼데
미츠
카멜리아
잠가
##살인마
장사도
지켜줄
##샌가
##호프
뒷사람
##라에
내탓이
라이어
허해서
찐해
뷰티풀
구연산
할께요
은밀
통계학
소감문
뱁새
은거
##참견
삼계
##태어난
일사천리
저따위
고은
눈치챈
##분시
영악
유일무이
##돌아보
신동엽
윗배
아베
##호가
까치산
##마뉴
나으라고
##거공
능숙
유대
##향도
##컨텐츠
김숙이
컴컴
##진해
달전
##빨갛
액셀
백방
곧바로
##췌
##뎄다
##한결
동등
##*^
##파토
##먹찌
어떠케
##간다더라
옷값
맞춰줄
썻지
##뤗
##체스
Ok
##R
##웰컴
청치마
##느지
##돌아올
핑구
뜯겼
##뻘뻘
낭패
깃
##꿉
##탑승
조매
차다
이사오
노원구
순이
광견병
순기능
뒷바라지
후아유
암흑
atm
스타렉스
내수
깔끔히
미관상
사가라
버클
##돟
돌려줌
##허가
벌점
민규
상판
##일당
지워질
개한
참나물
모릅니다
pms
##놨으니까
##하재
프린스
눅
##어방
산당
파랭이
##백시
꼬일
구활
히키코모리
모교
피로도
암살
황홀
##감소
퍼서
검도
##해킹
##안들
##다령
##마논
##엊그제
##쪽지
##날림
철렁
당산역
고군분투
카봇
라며
양푼
기술직
깊숙히
군주
개보
##막막
소제목
##우승
효력
##가토
##독해
얼릴
wow
독산역
##배구
발린
에센
알뜰살뜰
##로브스키
낮춰서
튀겼
송유
출결
중간중간
주절주절
격일
교문
정할까
노릴
초고
열수
##유용
피로연
##싸서
##염하
직사각형
##즌데
외지
차승원
탈라고
##이성
슛
놓이
안철수
걸어와서
뒷주머니
양악
파라핀
소아
##마케팅
착화
몽키
목젖
어뎌
##밖엔
으슬
폐장
##그럽
##운전자
각지
성화
꽃차
치료실
무말랭이
동상이몽
말세
봉화
으으응
연경
갇히
더티
컵케이크
롯데호텔
들어왔었
##찌리
##휠
올걸
##버려도
냅둘까
고무신
##룰루
더러워질
##감서
하녀
뗀다
##라시
쳔
답인
영미
타원
헤메
##재정
긴축
##디나
##장학생
팻
과테말라
늘린
##INFP
바뀔지
후끈후끈
##스페셜
겸상
얍스
대찬
구원
바둑
백합
위함
철길
연이
꺟
징그러울
##원금
덕복
##팡이
##상외
##센데
끓인다고
이성경
아낌없이
##열림
피아
수족관
불국사
올테니
후줄근
##진다더라
앙앙앙
미생
##특성
##타면
상세히
획기
##챴다
굳히
헤난
##이트
##담가
##온다니
소금물
맡겨도
##러디
스린
##디이
##향의
공깃밥
급박
##사오기
##치즈케이크
페퍼민트
and
##링가
##갹
##블로
적혀져
키패드
창궐
##대따
물걸레질
##클립
온도계
튼다
식객
추첨제
개유
발코니
##주부
간간
장민호
도록
##분거
목안
##미세
##데린
##칠만
##된대요
##쓰루
아이티
공란
##깎이
##인테리어
독전
핱시
##겍
태화
##나조
트여
없인
올라갈까
ebs
넓적
역곡역
워싱턴
##닦이
##소송
지방간
##강좌
서동
##수납
##시간대
연희
##꽂이
불렸
주인아줌마
프로포폴
한승우
유리컵
쭐
다독여
구포
왕관
초급반
사각형
##포지
##여정
크리넥스
거니깐
딴다
##파고
##푠데
일구
스툴
##바이탈
포마드
아르마니
보조제
##카키
한회
##바이크
##뚫리
##이식
신대
##스웨트
##열렸
듀이
굴곡
가르시
혈소판
##쭐
다지기
띄워서
높여서
소생
##동작
세이
신민아
##토핑
녹슨
박지성
##항목
히알루론산
자궁경부
##고로
타구
##비드
##스마일
간증
지성용
##안방
##슬림
키엘
##질릴
으러
명일
마블링
테스터
미음
패킹
크리미
깎인
연포탕
담가서
쎌
돈다고
##대창
##십자수
상할까
##드람
##딜리버리
##트윈
이동식
##코페
삼천리
백석
링크드
이코노미
음반
구해도
##카포트
모듈
로미
두주
##임박
##경유
##즈인
합작
##웍스
셀피
단순노동
해치워야
##치즈스틱
사파
비원
##레샤
##어간
식탁보
동학
상수역
버티컬
써진
##동점
현대모비스
좌담회
##엘지
##짝퉁
피쳐
##당직
##페이도
숀
트레
차표
##부품
명태
##출력
김단
에어리
키움증권
마크라메
리워드
내셔널
온에어
객석
하인즈
판매량
봄동
##스마트
워커힐
##빙고
##세부
##근영
##단자
영등포구
##방토
투자자
규격
사유서
관세사
##렌디
설지
##인석
캐비닛
광고판
양장피
들른
단과
렌치
##리들
향로
범어동
직강
본곳
각론
군사
##전담
##외국어
서대문구
##스완
뷰어
군부대
mp
무직자
##비전
심석희
##면담
유적지
침사
##대옹
일광
피닉스
돌려볼
무주택자
##부찌
타코벨
스프랑
회전율
옥동
해삼
##부면
정해도
신효
##asmr
전기밥솥
탄두리
목란
도당
##하프
봉천
##야곱
##수비
구파발
호객
도감
사무엘
자쿰
##독시
리전
프레디
사냥터
에이오
한니발
##범의
타이타닉
백상
OST
복제
넥센
돌리지
##뮤지엄
모이라
죽여서
실탄
몰티즈
토렌트
김주영
시애틀
색인
이용이
효창
산정
시급제
건설사
KTX
벽면
양천
줄눈
익산역
쓰지
##재킷
선로
화재경보기
##ASMR
##세탁소
착신
알아봐야겠다
새워야
270
##39
거린다고
5500
##sns
97
71
256
750
옜날
호매
미끄러우
##밤중
##햊
하그
피토
이네
아셨
##화이
##장바구니
콤플렉스
발그레
서기
장정
어려운게
발대식
##왐
##난댜
##메에
짜뚜짝
교묘
##업로드
저마
원식
호탕
##어둠
캤
태교
정액권
##와아아
oh
##지낸
그럴듯해
##닫혀
분자
그런다는
호응
아넘
##깨워서
발광
##흥분
##토이
개싸움
흐흥
심근
산물
얼짱
##대러
내편
눈뜬
독소
다움
##사귐
졸라매
승화
가다
기나긴
##답안
꺄잉
##저희
요만큼
들것
끄덕끄덕
인후통
윤종신
원고
##챙겨갔
낄까
해비
어언
##야집
튐
곧잘
본다구
##떠오르
탱자탱자
##케나
허상
기어이
요망
저런다
##중국인
##씬데
##신아
##미칠
##지울
아거
부산은행
##어필
##쓰인
캐럿
군말
##놔뒀
가양
덤비
##모른대
##굥
잠김
##관심없
##거고
##명은
##끓일
곡식
좆
##가명
온실
화초
##마를
거져
##헌터
부정행위
##먹여서
##재수없
댕겼
야쿠르트
큰개
##난로
그리웠
해경
터뜨려
##만아
##마려워서
##냉방
더듬
##호두
##으악
돌아다녀도
##붙히
##푸르
보통이
##추래
성년
전원주택
##걘
감긴
##련지
지피에스
핫식스
깔려서
옌
떠라
##소요
임보라
마자유
##뻨
혹여나
무랑
맞선
등나무
했을까
가웃
##헤어져
다다익선
돌고돌
##분노
푸근
개겨
김부각
##나다
##올개
##봒
부스럼
물물
똥그랗
##견적
김남길
시밤
불도저
할라니까
##찟
유전병
##후욱
##주휴
부러워요
이바지
##으신다고
웅크리
##벌어
오제
공자
드라마틱
냉철
성남동
##섹
지켜본다
##고앵이
##실감
배까
##말림
##파의
빌린다
##인께
##꼐요
##시이
##앞쪽
##널널
##짜파게티
##땨는
##살까봐
##복제
아십니까
##의문
담벼락
##진짜루
##지개
##떠야
봉급
##변기
로드킬
##입국
챙긴다
##식혜
짜를
사셔서
##터만
최고봉
구더기
##문물
##못한데
가림막
테이핑
부쳐야
겅
달려와
##입혀
##닜
느껴야
##어뜨
털보
##기존
##내부
절도
##왜냐면
##베어
##이냐
걸요
줄어야
단칼
##만타
##가신
##라는겨
춘의
격식
##누난
까부
##시조
##려나요
엄제
열폭
제금
##싫어함
원시인
##정성
무순
수녀
주입
해수욕
##큰애
##증인
쿵쿵거리
훈련소
얘긴데
##잔대
화기애애
장성
##들인
##집간
##예고
상반
>>
##요잉
배고파아
##댕겼
##모션
##타려
퇴학
##줗
들어서
##개도
##받자
저건가
벌려서
누른다
찔렀
##됫나
##출입
토실토실
##어지럽
철통
@
생겼었
흐물거리
파종
##차린
나이프
잠간
동영
##두만
때마침
등지
##가개
서둘러야
아주버님
##쳣니
##밥값
쟤들
##하늬
떡실신
유포
두상
불효자
##자린데
##여쭤
병간호
##기해
##탄지
##따름
잘게요
사생
##귀여워서
적대
걸어간
##하너
##넘쳐
##낼려고
##구임
물러서
##다줄
##제산
제스
##스트림
체구
##돌보
##던짐
##뛰어가
광범위
##오열
##노랜
##정석
귤껍질
명쾌
##용용
맥주잔
연애고
##던져
##본다면
##생각난
말라고
끝장나
##금당
##구루
그린다
##머리카락
쓸께
bmw
애잔
##빵꾸
##할테
자빠졌
##순천
했잖아요
기울이
복사본
##거동
##호이
##호흡기
##야아아
##피피티
모잘라
태양의
파르르
난동
뽀짝
##백과
##목장
스톱워치
##마엘
##뢰
편해진
##둔건
일다
##슌
꺄항
파열
##앙앙
##고속
좌표
##부들부들
씨드
조진
##@!!
레즈
##해주
기영
##화난다
##하녀
##학생증
죽지
퍼질러
##기아
메주
설사약
엄청난데
탈진
탄천
따를
다가와
##카니
##올린다
사회주의
친해져야
자칫
언지
지팡
둿
본심
##걸치
##!!!!!!!!!!!!!!!!!!!!!
리프트
강약
##옭
들러리
땔
##맛과
비빈
에어드
##뭌
아이라
##됏음
상속
뵐
한일전
##잇고
##치인
세반
##정서
##개운
내츄럴
##믿기
날려야
경험자
비글
전조
야해
프리마
아잠
장기전
##앨
##아휴
아파야
세장
##따놓
지럴
공가
코끝
##한다기
##읃
##쑝
##꺼이
##뜬다고
사치품
피해야지
티거
약점
##때린
보내왔
괴로움
홀쭉이
망가짐
전포동
크라이
양세종
##유통
MRI
귓
isfp
저능
대역
뻥쳤
##전문가
멱
##브레
뤼
첫입
##클라스
##는담
찌른
건수
##출산
##올려나
##뗴
입관
길거
필드
한티역
돌아가실
##뤵
파하
##욕은
외교관
셧다운
##판타지
누군진
##도너츠
##원본
##말려야
과학자
##뜨거워서
싸돌아다니
총체
##난국
서러운
이젤
강냉이
쟝
자알
##가저
##행거
##보미
##부기
중상
##버그
가정사
##내려옴
##넜
눈치챘
드려요
나날
옵시다
대립
##기다려서
겸용
허우적
##캐스팅
어리버리
보존
##별명
무우
난쟁이
선도
말동무
특색
##지나간
부이
##드메
처박혀
찬밥
길래
고자
가차
태워준다고
조르디
##듈
니즈
##졀
##삐지
즐거워서
##마노
##인더
휴진
월보
##랐네
스모
##황당
##나래
##줄까봐
##사마
맞서
##아요오
##느껴짐
이빠
##탈까봐
달서
상부상조
##쥬쥬
##유니폼
홀짝
여가
훅훅
울렁거려
착실히
옝
견해
문진
##오사카
##눈치보
##따르
해질
기뻤
처맞
디기
손길
양옆
고생길
숫
대대
새부리
휴식기
가르쳐야
된지
마갈
초본
##다림
퇴행
인데요
시이
해운
##개용
##굼은
##싼다
아랫부분
##갈대
##칸다
갇혔
##로워요
전염성
##업소
##녓음
##위가
##반입
메들리
##이베
##출출
서러운데
창녕
##차려라
##을라는데
들춰
감촉
##돌아다닐
##장식
##깅한데
동조
미취학
오감
탐스
속였
둘레길
##방전
극히
심방
명목
##마실까
##뺘
그기
##영진
##여미
끄트머리
##물래
##낸다는
털어먹
세벌
마유
서글프
쌘
주무셔서
##액도
##허고
##깔깔
##담그
##내고
##쒕
괜차나옹
##강원도
세병
##뎉
괴롭힌
모자른
치루
##아까울
냉수
##반실
들러붙
탈세
조끔
푼수
아웃풋
##잘려
린다
강남도
짠데
진수성찬
하교
박지민
##벗겨
마쥬
자아실현
철야
##뒹
##배불러서
근자
##잡채
괜춚
대문자
You
##프랑스
##꼌
##뱃지
떨어진다는
참조
##오다
##테두리
방송인
역경
##소랑
밀기
개천
쪽잠
순조
자질
부드러움
인디언
머쉬룸
아득
사슬
출구조사
##찜질
##기질
##춘하
잊어버림
##엄청난
무에
흉지
결백
명소
##지심
드셔야
##현재
##주워먹
프란
블랙홀
대여료
고만고만
##고영
애어
##소용없
잠언
##만기
##설명서
##클렌
이소리
분비
##둘게
##시라요
슬릭
재규어
치워라
##지른다
##하메
가톨릭
씨야
갑작스런
오이도
에사
시커멓
뒤쳐지
##물이랑
번짐
형편없
꺼진다
세다
##달려가
따끔따끔
수평
높여야
##씌우
##세자
##언의
##해져도
딲
##가이드
보양
##체조
##얏호
##둿다
깽판
오형
누리끼리
##바랄
팔걸이
##버스터
##치르
##찐따
활동비
직불
안어
##호박죽
백조
배째
어자
##졋당
##킬라
맨들맨들
이군
음파
##다가오
포슬포슬
가락
제압
갑시
오야오야
##임당
가로수
소인
목구
대했
김민규
착시
청구서
대리인
##리프
##조의
##아안
##놔둬
##박혀서
원필
##철회
나강
##솔솔
축산
커피콩
##열린
강준
편도선
영업부
파생
비식
##통로
헐어
등극
##함서
보재
절규
두정
##밧데리
la
##보스톡
드링크
특공
봣거든
##수년
##위의
알려야
탱고
지킨
제멋대로
억수
위력
##기편
챙겨라
먹혔
나쁜데
##무한
호미
##약한
부러울
영웅재중
몰아치
##졋더라
가하
구겨지
클리너
##한색
잔화
##얼만가
함소원
뱔로
##쫄려
둘레
샌디
##코르셋
학년도
##적의
현상기
##부음
##보류
개역
되묻
없잖
청기
##찐다
시커먼
##핶
차태현
조아라
뗴잉
뼈대
##지퍼
부엉
중시
살구
노인정
##다더만
산행
괜춘아
아형
##사관
전라남도
심상정
##인명
슬러시
리프
재치
연마
##켯네
유리잔
##시애
튜닝
##밤바
기계음
입속
핫팬츠
광군
소지섭
토트백
셌
덥썩
##면안
섭하
회분
디스패치
훤
##퉤
##종도
삿눈
부황
오퍼
가입비
수익금
조니
##자랐
귀여운지
작물
홍자
##지킴
양재천
##장군
엄처
물소리
##질감
##뗭
함꼐
문빈
고과
피비
##쳐다
정크푸드
##다파
세양
맛대가리
방시혁
##요약
왠만해서
무지하
증원
자처
이화여대
포럼
컨퍼런스
그런다더라
과기부
##이냥
포니
허투루
대작
핀잔
부흥
##튀겨
턱턱
흑미
나부랭이
만난다면
뺏길
포커
대개
털려서
무박
CCTV
퍼블
지현
상록
전하
우수수
빠져들
치료법
화농성
겔랑
##렌트카
아스트로
##장착
현주
이순신
뭔가요
탄대
에즈라
가디언
##푸네
기울었
아사히
##홬
북적북적
벋
호지
공릉
다과
알렉스
걸린다는데
##인우
체급
##아낄
난관
바람난
##낭이
달래장
네스퀵
면발
##박하
기술자
##청의
조고
기다란
도경수
피검
별의
교차로
##죽였
오규
똠양꿍
영차영차
눈썰매장
둣
주상
못질
간지러움
##사은품
개금
##에도
##!!????
##건의
국공립
##뉜
박찬열
긍겤
##에러
회면
먹혀서
##평점
히스토리
연합
큰지
합쳐도
##댠
큼지막
##지상
망치질
익스트림
갈린
##소리지르
이닝
##세라
##봣는뎅
##역임
입힐
##아인
갖다대
##래빗
머나먼
##초록색
코칭
닭곰탕
##엑소
책사
##인공
레종
이랬다저랬다
버쉬
딱풀
멜란지
코스튬
초무침
딕션
##살의
귓구멍
##천은
##작의
토용
전산실
##어네
웍
##폭신
##도깨비
민아
부스러기
에프엑스
부대시설
##튀하
##마을금고
감전
쪼달리
찬반
공돈
##긴해서
##와가
##트릴
##태가
안기
붙잡혀서
때밀이
##호스
##굴러가
밝혔
##퇴각
vod
##조짐
불만족
길목
##냈었
##레이터
보직
킷
낙동강
한독
##줫던
물세
제성
경도
차리리
##약사
부우
##족구
종비
##줄어드
##뒝
크릴
##대형
양대
##완제
##튀랑
##산도
규조토
별맛
##고서라도
##진의
##박만
춘다
펑퍼짐
##보라색
상거
천문
자란다고
##영도
##예쁠
스트링
##모카
사노
은박지
오거
시원섭섭
프런트
한다더니
##나을까
##대보
준다던데
조리법
마리네
이랭
엘리자베스
##힐지
을지
징계
끈적이
간주
##라이드
공기압
##목지
사버
야쿠자
판매점
실측
전병
##중복
샤프란
##지하상가
##피쉬
##의류
떠안
##항공사
링케
##네이비
왤케싸
스타트렉
튀겨야
##빌리지
반원
티웨이항공
따진다
미스터피자
세이지
광장시장
##번장
급등
내령
##엘리
제이와이
새송이
도레미
코튼
##평이
핫트랙스
XS
뒷장
##이면
미끄럼
후집
법복
##쿼
외풍
신생
##마티카
어려운지
천왕
예판
공영주
##mm
파슬리
##코츠
##방면
분쟁
##%)
소쿠리
##랑드
로그
##부킹
에스피
퓨리
##가석
신흥
##난금
트리거
##피시
##관리자
과세
별빛
##폰트
감축
휘발
수강료
단행본
쑥갓
밀레
##뽐
너트
채연
쏴서
##구단
이스타
도슨
개개인
안도
넥스트
북미
김생민
상습
주진모
동아시아
구청장
##윌
##유예
디딤돌
##전선
전라북도
##ncs
다빈치
위비
##첩
##요랑
남학생
PDF
접근성
뜬다는
대필
이연복
커팅
데쳐서
##국을
나폴리
##무한리필
블러드
대구탕
진사
냉채
끓일까
성수역
질겨서
숙주나물
만리
서은광
렛
허브티
제과점
천하장사
버틴다고
백탕
맛조개
##야르
##슈프림
소이
계란죽
방이동
##페를
##배사
##누들
위트
한식당
봉화산
문정동
로커
갈빗살
루시퍼
무명
##포구
돌핀
##청곡
야구팀
청불
##간아
자동차극장
리믹스
군함
스카이다이빙
이용규
피처
스네이프
중기
노팅힐
##원법
무빙
윤도현
레미제라블
기범
염정아
창법
##괴담
마이클
##근로자
고아성
김옥빈
로하스
구병모
악령
북수원
이유리
모노레일
##suv
히로
집계
##CD
세르세
당갈
금쪽
순례
##sm
상아탑
##증권
사택
##봤으나
##동굴
레인지
팀뷰어
크리스토퍼
디지털카메라
금능
검침
간담회
메꾸
배수관
내방역
서큘레이터
간사이
재산세
##리무진
##급행
막힐까
났으니
움직인다고
인감도장
##세입자
##원역
##융자
변속기
화담
줄어든다고
SET
싹수없
##18
2016
00
블라디보스토크
##gs
별곡
51
##BHC
##BTS
1600
8500
##BBQ
104
22000
이쁘장
##정보통
오리역
##일진
##쉉
하라
##봠
##돌아옴
유동균
##취함
불타오르
##고왔
##절반
##들을까
여의사
##눌러야
##사춘기
##돌아간다
##쑹
##함정
동두천
##치매
자낭
급작
##시켜라
그려지
##거더
미친개
##일났
##라워
##보마
##음사
##결론
##올께요
발끈
는다고
봄여름
둔한
##건조대
##원했
녹취
초초
##넘어졌
##빌렸
##벜
세운다
리미
##한케
반잔
##엫
##통했
쥐어뜯
##조언
잔다는
스리랑카
##휴휴
##전구
될진
삭히
기어다니
불기
아미가
외로웠
원기
##오면
##갔다와야
응급처치
##씨네
##환영
##르고
데려다준
부원장
##명단
고삼
담담
##세연
##그루
학우
난폭
##옮겨야
그리도
갈길
##질려고
##까묵
##기다린
##툭
토의
##탐험
뜨거웠
아저
마셨으면
시작인
##디즈니
똘망똘망
이뻐라
##한꺼번에
걸으려고
##과야
##쳣당
노견
정오
##으윽
##이르
##딲
가창력
경지
코파
개고기
그러고
##스무
##소심
##대류
##순인
이뿌니
##아무거
##강진
##저서
미티
애미
컨디
##얼릉
##키워야
##울렸
돈벼락
맛볼
##따러
Mbti
윤호
##홐
##불러도
일렀
빠글빠글
##손잡이
##조그만
##이명
##점했
##본가
점령
향한
끼울
생길까봐
##샌다
##박아
##말기
노골
영호
박살내
##포스팅
결단력
미꾸라지
##들려야
송아지
U
헬로우
가정의
상도동
빈둥빈둥
질겨
##청소년
기똥차
##니카
##들밥
하가
잠버릇
그년
막아주
##넘쳐서
독사진
밥벌이
의해서
##퇴식
##식도
소카
무른
해버릴
머슴
드러누워
##졋니
감수성
나자
생닭
##놓칠
##가좌
살찌우
##왈칵
아드님
맷
##잔소리
##시단
##대이
뽑아내
심했었
시마
회귀
##이날
속성
기정
##원만
##친군데
##보인다구
면대
##눈감
첫해
혈연
봄밤
##했을지도
엌덯
만물
속시
완숙
##촌역
##신구
##흘린
시자
말랑이
따돌림
육류
##벌인
##정답
소오
##숨겨
뛰어내리
##병언
정떨어져서
##여나
##으마
망한다고
선견지명
##쒜
##봏
스캔들
퇴화
고아
마르키
농구장
##생긴다고
믜
컴플렉스
분란
##모였
옼키
치트키
살해
##웃길
##코피
##세척
인구수
##헤어질
슬퍼요
##쯧
읺아
##모람
매가
망설였
##몬지
거양
##쏨
##랕
장첸
##알자
안겨서
까짓
##뛴
##억만
##부전
모에
##먹여야
대판
##거비
##장화
잊혀진
시터
##신데요
씽씽
웂
백두
올렸었
전임
도벽
입질
##레나
##주후
##어마
엳
##로치
회춘
빈지노
##연초
##조만간
##우요
모고
화명
몸상
##포토샵
남긴다
출입금
##전시회
##실문
##놧나
우세
호신용품
죽사
##상도
##준비물
헐스
##프라자
우유부단
체취
거닐
헤프
##불러줘
가다듬
##하아
##진통제
##^^^^^
퐉
##치실
돌볼
두두
할애
##애교
##말행
식음
타닥타닥
저범
장교
여린
##비상
팔베개
닦달
뚫려서
앙고라
##묻혀
이쑤시개
##핮니다
##더즌
##대잖아
##내려간다
발렛
##허나
나살
##고든
떨어져라
##올라온다
돈쓰
도플갱어
##곰돌이
##잔사
##지훈
##의향
따라온
티격태격
바비브라운
금가루
##zz
##귀여우
몬주
도나쓰
##번은
시름시름
어려운가
엿듣
벨소리
말장난
시유
##맡김
##앛
쥐뿔
살갑
##연이
묻혔
갈걸
들이부
그럴싸하
그래봐야
##종자
##쓸데없
유치뽕
황남빵
매듭
띄어쓰
내외동
응고
나팔
주말농장
##과실
상다리
우승자
잔반
##품은
더콰이엇
두려운
차린다고
##소오
전투력
##춤추
##묘일
##지날
여의
둥지
강해졌
대해선
거둬
##청주
간택
##놨어야
##뜯어먹
베일
##버다
말끝
##해줄테
개인기
이랬었
후예
##똑바로
깍지
##오거
##니까유
홍대입구역
쎈가
빨라졌
푹신푹신
과로사
##편들
물금
##마아
도왔
번역가
산본역
구리대
##남유
졍
##난리나
##우신
튕길
웬만큼
adhd
##무에
##사막
승낙
##알바로
출사
##꼬라지
서예지
##마칠
합사
놀린
##고차
##친지
##어려워서
인삼주
샛별
심통
##P
##가오
##생축
##추리닝
프루
어질러
##창도
찌질이
인앤아웃
룬
김성주
뚫릴
##푠
##별론
##휩
##들르
본성
##지그
안왕
##아늠
모구
##레이팅
별나
보조석
슈퍼주니어
성진
기지
##텝
##정모
습습
백포
유이
초토화
술잔
##배고플
여중
##설빙
침범
##런닝
##끝판
성도
징그러움
##서우
##감고
감자볶음
시감
##주다
나잘
##급기
##씌워
##들어와도
도둑맞
그깟
##어뇨
열등감
적재
퍼가
##듕한
##수명
내륙
##슬플
새우탕
캐미
버스터
##릠
간질
심이
##뷁
##거미
빈티
어질어질
##사모
꿈속
##망가지
##경의
통할
##넘어감
##물어볼까
적시
나그
개울
데상트
##난의
섭렵
맹신
##프루
남천동
하반신
레아
천잰데
머루
봄비
##복행
동향
룽
세분
머물러
섹스
##응아
알짱
##예지
차체
##변비
##찾아오
##그런다고
로뎀
놔둬서
##보명
사나운
손톱깎이
##아웃백
굳혔
노약자
##성취
##될랑가
목부
수렴
오마리
##적힌
##니끼
##기특
##키움
쏵
##섀도우
##시자
##사빠
위임
딩굴딩굴
이상순
연필깎이
소기업
가져다준
연천
노라조
다녀간
##생가
푸석푸석
기도회
##단장
성민
정소민
##외삼촌
운전석
폭로
##해질까봐
족쇄
##블의
##뇸뇸
사암
폭격
대의
##찮음
##는데다
##괜차낭
##득템
##도민
##전화기
Tmi
##평의
##쿨러
다독이
##아미
외계
자더라
닫힌
흄
##차인
만날까요
왜냐믄
거들떠도
##읽히
##아모
##덜덜이
좌욕
##졋어요
##입거
##찌요
##어짜
풀린다는
##금중
속인
전단
##땠
이러다
##피타
##부처
권지용
준다구
##개별
##뭍
DB
사재
##유미
매겨
##앞줄
뜨건
!!!!!!!!!!!!!
##기면
##무서워하
##엘라
보여줘야
훔쳐간
##봘
##이중
##위하
호송차
##꼬셔
레옹
##축축
관둬야
뒷말
##우수
##으련
##랴나
##일선
마샤
군항
##스페이스
때워
##다크
김태우
##긑
보냅니다
수갑
늦춰졌
인친
넘가
아일
이준혁
##신천지
##씨래
##매미
상부
조심스레
여어
##셋째
만주
##남김
거른다
호프
심해요
꼬신
거시
##오랜
수장
##기다린다
##예뻤
##야옹
깔쌈
당최
##댛
블라스트
옜
숨겨서
할꼬
옥돔
됴륵
깊숙이
##블럼
날새
##멋대로
##졈
피부약
##방접
데스티니
성깔
##험행
박혔
##어둔
배겨
장수말벌
##경기도
건망
##이어서
생돈
띰
바닥나
구레
내두
##수우
청량감
코알라
장미향
구매욕
따라간
##마임
##내밀
##신분증
##노랜데
친숙
특판
부다페스트
##꿧네
차도
##자보
저래야
비슥
##도사
##통일
연꽃
멈칫
##알엘
드러가
크루통
내동
##현황
빠릿빠릿
아여
##할부
산들
##샤프
##거치대
지구대
##럾
짜른
##내놨
##옴마
배회
##상인
뽈록
##쓸지
부친
거슬릴
오무
서대
##바꿔야지
##가벼워
##질질
##찍힘
골병
뛰놀
위기감
슼
시켜요
핸드백
##이무
##내줄
##버렸으면
버네
메시
줄리
##칼라
##제인
뭉텅이
떨군
##강력
매끼
##뗐
풍선껌
##늣
소피
시키네
벤틀리
릴리안
헿헿
##스노우
##표면
헤엄치
와다
콧속
##웃긴데
오스카
##땨문에
한올
홀려서
송곳니
##씐
오리진
헤진
##시래
놀이방
마빡
돌연변이
미추홀
벗겨질
##혼모
##챙겨도
아껴써야
##슷코
방가
##생도
돌려줬
##외로워
##폭식
##퍼즐
갈란다
알도
위약
조였
낙찰
##통조림
##개더
스테이플러
모바
바라자
씨몽키
##지분
골지
꺠
##리셋
##얼씬
째지
기립
깝깝
##음대
어두운데
##pdf
하느님
##승진
온다던
##!?!??
오로
젛지
##아실
딸까
##멈춤
##아연
신물
본선
##둘레
노보
##정이
##리라이트
알아낸
##외워야
운동회
잡화
##맘먹
돌려준
강원랜드
##그려져
##볼까봐
육상
소명
##화성
교역
##규우
##사운드
서클
##그만둔
바꾼다는
중저가
김태형
편차
휘저
##부레
불가피
##싸여
##튄
##추워졌
머린
##얕
##주시
돌풍
##두근두근
벌꿀
웰빙
##책장
##쌓인
벙벙
레트
업무상
박차
##으으으으으
##연구소
##오착
##흌
일개미
군요
##낯
##변신
가져라
돈아
##만만
##갈개
##인한
지워짐
퍼다
##정치
진국
망포
학자
중요시
소홀히
김자반
##사서
##려고만
##미칭
마시기
##정함
퐝
##낄낄
잠갔
걸쳤
붙잡혀
본토
일하
다가올수록
##가시나
종교인
케이프
중증
단소
뀐
슌
##원단
페스타
##어때서
##바꾼다고
##일차
웅시
앖지
파이프
##군의
시뻘겋
##헤헤헤
그런다며
미니멀리즘
프레쉬
셩
##퇴군
날라리
하태
##조은
##러진
##탄탄
중비
피운다고
낑깡
담궈서
##실컷
##우기
##시킬지
슬퍼졌
##선선
##시끄러
##시들
##서임
돌잡이
##릇
##지킬
##느니만
##걀
##라운
##데릴러
둔동
##학당
##맛보
##머시
조난
휴재
애국자
##루즈
##가월
오순도순
##주깨
계모
섬뜩
미혼모
편행
초전
##말이
떴으면
녹아내리
흔해서
왕년
글래드
부여잡
페페
송추
활기
선금
##갼
골격
##존중
변심
찻집
##민주
##낮추
때운
##쳣으
##누는
루한
챙겨올
##걸구
##엪
##유전
마가렛
회정
송진
##그리구
녬
##사세
##바라보
##피에스
##잠기
취리히
수정과
##도스
과열
##치료제
##수프
염좌
##땨도
##호환
구해질
건데도
몸짓
가아
##통계
추면
얼룩이
나온대
##쉬운데
jtbc
밥심
호포
##거모
##모모
개모
실려가
티스푼
감질나
##예감
xl
우겨서
##!?!!
돌솥비빔밥
손안
나담주
후손
올려놔서
피부암
##넘김
틔
동궁
##어데
제조업
오른팔
의혹
##자판
외워야지
플래티넘
##고방
비고
월북
핀다고
씌웠
찾아다녔
##대리점
디젤
유달산
##차사
개자
모내
현대홈쇼핑
##리터치
##아작
원당
드려서
##미정
돌릴까
##표랑
수부
댕길
##챙겨와
탄식
수이
병어
물컹
끈적끈적
갈건
홈파티
##미룰
콜렉터
오난
오이지
##깐다
축협
##대개
묵장
연장전
##공과
자연식
##상할
브리스
긴가
##다미
페러
##오트
##놧오
##병의
##군기
##라모
들어온다는
진흥
들으려
##차임
홍석천
하모니
행동력
쓸모있
##생방
그래이
시킨다는
발난
##붕괴
시니어
서둘렀
올린다는
##무식
##개짱
충무
한낮
갈피
환자복
##매여
에픽하이
우식
육안
##중공업
##부작용
##원보
##감상
##오능
선심
팜플렛
일회성
권력자
구로구
따루
없앤
프리바
볼빨간
아이러브
아이스하키
김광석
윤두준
빠져나왔
조용필
김준수
주의보
추이
위산
오렌지색
##보톡스
##과도
##절식
##뜨거워
안건
##쇼크
##기서
##해상
##쁘아
##주정
유당
덧바르
천변
겹친다고
청력
작아진
착용감
##억제
##릭스
##클리닉
##쳣엉
##크시
쿨타임
작두콩
호밀
##이색
더운디
##혈관
Ai
더페이스샵
등산복
넙적
##거냐
은평
##보석
옿
헹굼
##운색
완성작
잠길
내원
라온
공임
##브릿지
반강
##질림
후속
유착
판빙빙
내려와야
##어린이집
##타이어
그런다는데
##륀
이끄
쳐볼
과육
미수
##스톱
명수
전혈
버츄
침구류
휩
유병재
냉기
##허접
위헌
팔음
하니
##퍼시픽
걸즈
부드러워서
##이태원
##항공권
##베리코
익월
후디
아샤나
##카라멜
드리즐
직배
코스모
세주
##에디션
##소나이
반야월
오를까
SSD
주식회사
게임팩
마비노기
투피스
##레이디
유상
브리
파프
cpu
몽니
##스탠드
버터크림
##비주얼
##옷장
레노버
통돌
아이파크몰
마티
로티
##교촌
끄라
천원
제조사
늘어난다고
레이온
##프라임
##대선
바니
##엣지
##사신
쉬우면
골라골라
##프레드
홍미
손세탁
##마일리지
데드라인
##유석
##도청
##매안
독립영화
영암
Ktx
리복
건영
##아이피
번주
좌석표
휘발유
##MD
신사임당
##어니언
불광
##세의
섬네일
전년
##짤릴
구성원
학문
익혔
##부천
음운론
##전필
##장학
지나간다고
글의
칼부림
형량
형용사
북한산
##한컴
센데
대법원
오바마
##인증서
낼지
선재
평가전
인프라
모자란다고
##협력
가속
정경
서베이
##배속
비료
##깄
타타
안타까웠
프로세스
셀리
죽이기
오송
##속초
재해
##메르
##존엄
##끓여서
우거지
달짝지근
새롬동
##쌈장
쭈꾸미는
탕이
옥동자
나폴레옹
##엔터
치커리
메밀국수
##하동
루이보스
대봉
김준현
특등
온면
동죽
##구디
달맞이
키친타월
탕국
마친다고
뿌려져
##호역
순무
정왕역
굽지
미삼
거름망
무등산
##야경
진월동
반윤희
떠올린다
산장
원종동
양의
##진각
논밭
하얼빈
##동재
##예사
닐로
본무대
##의생
##연재
##대축제
으리으리
##부작
이영표
사귄다는
##볼링
커튼콜
로코
##동백
쟁쟁
카이저
어쿠스틱
바단
빠져나간
마우이
문종
자유형
##플레이어
내린다는
유승호
규빈
립싱크
랭크
일러스트레이터
관리인
궁을
박봄
정예
엄태구
들어간다며
종각역
슈거
바기오
##그만둬
절전
##빠듯
팬서
현황
에이전시
장한평
휴장
다용도실
금정역
##잔액
강수량
문경
교대역
서면역
모뎀
탔으니
브라가
여수로
새울
새웠
2015
##13
260
모차렐라
계신다고
시곗줄
##;
##졸작
##60
107
##마테
##EBS
360
##인소
카르보나라
##밀리미터
로즈메리
##XS
크리스털
##NCS
지자
오반
그래볼까
찬란
##해먹
떽
고위험
분해서
물논
##해자
새차
##헤어진
자질구레
##졸려요
##신세
다대
숨겨져
완쾌
첨성대
##무룩
버팔로
소사
냄기
##머린
귀띔
##내려왔
마린
복통
##모하
고규
할란다
##트레이
##저랬
약소
에이전트
금마
신간
깍쟁이
##라만
위에
신길역
##해간
슈퍼마켓
##마주쳤
해답
태명
##목질
##주마
나른나른
감별사
##뜬금없
토안
골프채
##숙연
##빗이
접혀
괜찬나
방청객
씹기
##손절
선교사
날라온
##엗
##무더기
##헠
갓길
햏
하카
키즈카
잠꾸러기
기요미
팰
또박또박
내품
##어려서
##서감
주범
##클리너
제수씨
오미
##흔적
##변호사
##진건
##담겨
##나온단
캄캄
##생애
##불순
메세
부둥부둥
##고오
##될라
내친
종소리
걸까요
배고플까
단연
영락
눈꼬리
##기쁘
##움직
작은아버지
##갈이
뱌뱌
루키
##썻음
하세
주후
껄끄러워
##울림
##지함
##따니
##로워졌
역해
되돌아가
쥐약
##지간
세가
길티
개정판
얼씨구
경유지
잫
##마주침
##훔치
##작렬
##죳
흘러내려
##삼킬
속전속결
##엉망
샘물
##무심
누낭
##가린
치가
나날이
##악물
뿌린다고
추팔
부내
자란다
삐걱
##날라고
##마수
##깬다
파이리
##부러움
##라디
부러져
뼈저리
꽃바구니
##파소
부딪치
##전데
##문임
관저동
옹졸
과체
##쏰
##켴
##그해
초가집
먼주
##외애
##복도
살포시
부러버
##총무
상습범
##근중
에지
낼름
시집갈
##쿠가
불르
##렵다
##햇님
##토해
찝쩍
몸집
##급해서
천년만년
##시켜줌
데굴데굴
원안
##여줌
뇌리
빚내
##피부염
##나았
몯
늘어져서
이갈이
##즐겁
광대뼈
저고
##분별
##냈으면
##치안
몰라두
##거염
핬
##뽄
##고얭이
서러움
별러
##탆
마운틴
##헌팅
격해
엄청날
아이참
호비
청소년기
##개색
##다임
##보인데
##고거
오스
##변해
##리포
송어
##염려증
들려요
##맸
가명
중얼거리
##남역
무서워했
##무구
돈때
##뉑
##닙
대모
떡대
##뿨
##와이
죽여줘
재빨리
일광욕
##허무
이부
키웠었
##무비
던짐
남들
베니
부르니
##뭇국
##켯당
##야머
뜯긴
##치였
통삼
더구나
기웃거리
비좁
##지상주의
뺏겨서
뛰쳐나왔
뛰쳐나갈
얌체
소복
##는다던
Sns
Why
예쁘장
준돈
챈
##끊겼
튕긴
후딱후딱
##찢어져
벌서
##^_^!
##일만
악악
부른대
##쯥
꽃향기
##력도
내려놨
##내료
저지른
드르륵
알아차리
두개골
쾌차
친밀
빡센가
##깜빡이
오눈
불붙
##워랑
개잠
바까야
버무리
##는디야
동고
굴렀
비룡
디따
##개긴
##피그
서무
배사
날아간다
##벗기
##디머
마줌
도망간다
에오
##정리함
##룝
이상인
##필통
빈둥대
##엇고
##고삿
##폴리
##페퍼
##돌아다녀서
##천언
고액
##더이
##조용히
공교
먹인다고
##봣는뎈
##염소
##뺄까
##과금
##이럼서
제멋
베트
였으면
단물
##코앞
나배
##유발
##니노
눕히
올드보이
탈라
도니
##수여
##갑소
##부린다
고독사
싸해
느림
##마주
##어분
##라운지
망해라
털옷
빋
혹평
##누군데
고갱
your
중병
##보냈었
키론
옴매
오딜
높일
기브
쓰러짐
내립니다
##폭풍
##부른데
비운
##벌라
##감수
맥도널드
##하리
깨운다
##인데두
##빌려줘
##부운
##미라
##한들
##벌렁
##산고
##줄여야
만해
달수
##현우
흘려들
##치기
책가방
둘게
원아
주차권
Se
잡담
##아항
올건데
먹임
그럼유
##사인가
뇌도
시수
수축
##여두
무기력증
##두렵
샌달
시라니
족하
이송
눚
##줄께요
##도피
##고장난
##가락
사죄
##끝낼
##편이
##날라갔
##웨이스트
##강점기
##식가
맡김
거세
##이딴
##단추
마안
만납시다
절경
에일리
##하조
쓰러졌었
##화수
기공
##치모
아공
괜추네
##쓰러지
줘두
과도기
##깆
공청
##오라고
##웟자나
##쥑
교재비
위해선
동심
사명
김소연
##분에
양수
##꼬마
##카행
##싿
따라올
베어
##비빔국수
마난
##추세
누를
##복관
고얌
찢어진다
통지서
##분명히
##리모컨
켠다
높였
##소시지
##나찌
눈부시
##오센
##상큼
따온
##가릴
학연
##하세
치코
은장
어흐
쌈닭
##얼도
##이려
##의학
지슴
가말
##화행
##렂
출입증
##외워서
떠오름
팥죽색
##슷하
문성민
돌덩이
문맥
자보
##갈로
제빙기
해야제
따란
아흐
죄지
##세뇨
##신중
##일루
탄단
##얼스
새까맣
처자
##동공
##습니꺼
기압
##치료실
bb
찅
모지리
돌아간다면
낑기
정황
##깝쇼
데시벨
정병
실허
외상
추해
일조
다자
물타기
해벌
##살쪘
##개뿔
귓등
##챙겨오
시키지
Q
##유공자
밀어붙이
김제동
##데우
##밀릴
땅굴
##빠오
뉴뉴
##셨을까
하드웨어
저차
##뇸
흰죽
보탬
정점
싹둑
대담
다랭이
맡긴다
늘어놓
모대
스케치업
사알짝
##아압
##햌다
보일까봐
##대응
##궇
##친군
튿
##휴학
##효도
길동
된단다
덤벨
##나갈라고
##파와
쉬프
김만
보거
역겨운
##느껴서
신촌역
##고갈
##음청
ceo
정대
##부근
점신
##날줄
자루
매려
##돌아온
##졸릴
깨진다
삐진다
##보일러
이까
##올가
형체
사타구니
어절
##챌
##신다면서요
적막
##더러움
진거
양심껏
야무
##무어
##쓩
##네만
복작복작
똥똥
숨죽이
핑퐁
스터
명성
신빙
##유일
##특정
##헌혈
봬
찌푸리
##쓰레
##기엔
##번이
##을꾸
##잉여
굴레
##읏겨
물파스
집고양이
배안
##나아졌
##한다해서
전멸
##제다
##데이네
##마쳐서
슈나우저
##댑니다
마기
쿠사리
쿰쿰
설쳐서
수란
##린디
##밯
뫼비우스
##초면
본진
제인
##이너
탕수
쫀드기
##취할
청해
구정문
##쓸까봐
##은가요
##경관
사고나
##포장마차
##쭝
##출까
##그저
파고들
농가
##양쪽
감정선
##헨
람지
혹한기
##따라와
미소년
기요
##뺏기
돌때
빨간약
페미니스트
호통
드간
##통신사
##히힛
빈부
야무진
##망덕
프리티
운운
##교류
후음
쌈박
기어코
도무지
##냐구우
##고무줄
헝그리
쿵쿵대
##형성
##새지
단검
##씨눈
불릴
족히
##브레이커
낮춰야
##만졌
##할진
오골계
으스스
시켜줌
쩜쩜
##거르
역정
퉁명
##갈쳐
##혼란
##우에
##타이산
##소이다
##올려도
방긋
집어던지
어눌
구차
##서오
분점
하얘지
##대학생
가품
기량
시원찮
##질투
화신
##뗀
##렇지
떨어뜨릴
모어
개작
됴아됴아
살인자
##으라네
##개이
긴치마
빗대
위조
계발
오대
토도
주춤
성욕
##꽁꽁
마이나스
##방보
##교통비
스리슬쩍
뭥가
OTP
##산장
인후염
##진고
뇌진탕
GB
##인터뷰
나온다구
부리나케
온댜
계세
야화
##더이다
멕이
##데려오
채령
##빠져야
##없잖
##이빠
##껫다
##떠올라
쉬운가
모동
굽신굽신
울린
##장창
지감
무여
##음성
##투야
##종말
파블로프
오드라
##븡
풀코스
##멐
##획
##면유
우왁
##문명
바삐
추려서
##공동
오히
##망원
##무거움
##그딴
큐트
##다해야
바나
##찔까봐
##될진
비커
##로슈
수천
##끙
##요인
##잔줄
##시보
꾸질꾸질
시추
휴학생
##에버
쪼그맣
##뽈
##첫째
기소
이마이
잘려구
일정표
##뛴다
별짓
재빠르
파마머리
##대는데
어딘가요
대잔치
쩡
##복음
##쪽발
말린다고
통한다
my
눔
##다그
대식가
##검토
##날릴
비랑
댕겨서
##기공
##나군
##칠래
악력
난간
##파란색
장애물
##생겼으면
##파주
##스핀
떠나보내
##벌였
오로나
가경동
미지수
##동의서
##????????????????
로니
##지근
융털
##땬
##요샌
패러세일링
##거일
글짓기
##념
지방시
물장구
##플릭스
명부
##자산
제껴
디엔에이
하버드
숭늉
지단
게릴라
##전국
일어날지
##재팬
##개안
##끊김
몬디
##가람
가슴팍
계란장조림
어류
제과
##배탈
##열기
발렌타인데이
느릿느릿
공격력
##밀러
격차
터질지
인티
백경
보증인
반구동
##준다더라
터틀넥
촉진
출렁다리
간첩
##전해줘
##로켓
미우미우
##삼요
플랙스
##쓰인다
홍역
##단골
진마
##만가
##쏜
쏟아진
동족
밥풀
넘어섰
##계탕
##여로
##활짝
##내분
합계
##송이버섯
번두
##랐지
##금해
##놀자
딱한
갑니다요
##바꾼다
##카카
##옆자리
아름
의무감
##남전
천호역
어프
##교재
강한가
은둔
눈싸움
모낭염
실리
그리지
총합
신하균
##노가
기본기
싱거워서
유배
골짜기
끼쳤
##스크립트
##티스
##경직
이르지
##아상
스타크래프트
##이라구
아워
짤라야
소외
흉통
대웅
궁핍
쎼
자문
오호라
##atm
일부분
인벤
##체야
##루아
##유면
##윱
성전환
뗌
뒷집
춘장
##구거
##국자
##준거래
##반동
인방
민들레
최하
콜택시
스노보드
조합장
##스티나
##기론
들을수록
##사이버
무념무상
그리고나서
가까워도
일러서
관광버스
안다구
몰라주
##따먹
맹구
뚠뚠
인물사진
##개심
감자조림
##당해도
전국구
꿉
도촌
맨입
##갉
전기톱
##고곡
멱국
##속눈썹
붙일까
영화배우
바운스
태화강
##걱도
이겨라
##물주
##처분
##오신
떄가
##튈
##지투
##피더
##나려
##위크
##예산
띵동
애바
회의록
가야금
재일
##구해야
서도
입주자
술김
##라켓
건장
입상
수준급
질식
큰삼촌
##습지
무당벌레
꺄오
새시
##옮김
반디
퀼팅
우둘투둘
공모
##접때
건달
발렌시아가
레카
##했잖아요
##하려
##밀림
틀어져서
##발짝
##포스트
설아
##죰
수타
##앞서
##소소
올백
둘러봤
변발
##대입
선입
간절곶
##상영
재등록
캠코더
##선다
소린가
##정린
향미
이상화
운제
##니깨
빛깔
폐암
##비움
##초월
일직선
프레젠테이션
##나올까봐
은상
김재원
함박눈
일머리
##티백
##어울릴까
##혐이네
##조여
##당한다고
##체온
##국내
##카토
위태
시속
키로로
적폐
?!?!?!
##해래
##파트너
지킨다고
##?!??
화방
송일국
고등어조림
어설프
가트
##고퀄
키치
광란
병따개
##청호
##행해
자연광
##외야
오정세
##사례
바스락거리
불어나
대구경북
##육의
마셔본
전소민
심바
양세형
소도
++
뛴다고
##접히
##개똥
클라이언트
이어도
##픠
국영
스멀스멀
리라
갸우뚱
월경
꺙
벗겨서
폴로셔츠
스톤헨지
##대려
알마
영장
태초
##더락
##라시스
##가파
급상승
널려
작나
전월
플럼
##식당가
##애운
드린다
##운동가
##아더
피벗
무호흡
크리티컬
연패
개충
##구웠
예열
##박일
##난티
재중
커피믹스
이스케이프
마로니에
##자판기
식혀서
산단
##목음
##절차
신속
평탄
피피
유의
##왂
억압
칸쵸
에메랄드
##기념관
범고래
##드셔서
##불시착
##라서리
냈으면
몰려와서
##구림
공범
식별
##대세
득실
##월아
동인
정교
팔보채
##다던지
토네이도
##퍼프
미끄러져
태워야
해아
회관
##시마
라자
떠져서
##학력
모아뒀
알릴
##거치
##뫀
느즈막히
파파이스
##두꺼워
으미
##스퍼
##모한
부도
##지민
코코아색
수원시
금용
충정로
gps
각주
위임장
##전표
##붉
경동
##염주
추상
##불량자
장동윤
##단보
인우
어휘력
##워너
한반도
##인텔
##챂
진다고
하라주쿠
갓네
갈치구이
##캌
이정재
머치
##저라
벡스코
가시방석
상급
촵촵
##정문
##돌아
마트로
아람
##묻혀서
애플힙
갈데없
이만희
에누리
차릴까
미오
##음에도
이동국
탈려고
팔라
가원
기혼
오후나
##럿으
##낼모레
웰치
##보안
시부야
틀어졌
미니멈
메가톤
버려져
포로
##리틀
##파니
머라이어캐리
홀렸
구구단
##젬
파트라
##내추럴
배웠었
##대주
##구찌
밀라노
성인용
나방이
정성껏
##랜덤
##여왜
##크라운
##그제
된다더라
##징그러워
##인다고
편파
##선크림
체육공원
##레이저
고주파
노폐물
##활성
족집게
핀셋
엽산
저고리
편도염
사아
##시공
성모
샌드백
두른
##감지
##종양
##커트
포르
내알
잡초
대공사
단백
어프로치
저염식
잡힌다고
##모일
엘라스틴
옆면
부식
##어려우
초입
월계수
고온
레시
버핏
##크림빵
오도
월식
##염과
암벽등반
##쿼츠
와앙
##텁
##알도
회생
##조직
옮긴다고
요통
##오트밀
배나
##증과
##다망
굴림
봉지만
##송장
##찰리
소포
##기종
현판
##스커트
##분할
##변동
##꼬끄
병영
땡처리
##유패스
코닥
천도
적축
##오즈
벼루
##인터
확장팩
레나
대짜
##스펜서
##슾
모달
쇼박스
##남길
##페스타
봐뒀
땅기
##왕복
##스펀지
흑청
##산당
Xs
바이럴
##케이블
##켯오
##수트
카트리지
다녀온다
##너구리
필립스
##차산
양재동
송내역
물줄기
엔카
휘닉스
프립
도하
치노
나일론
하기스
##해둔
##냉동실
##노려
근무일
무풍
에이즈
감가
녹물
##혜자
퍼라
##고유
##크런치
##레제
무료입장
널린
펠트지
##머랭
만대
##부호
부드러웠
##장각
##관람권
##페쎄
삼각지
##성전
로엔
하이엔드
지투
판당
##데일
##파인애플
화정역
##감하
##간판
##어땠
제격
더즌
옹기
계기판
해치워
인덱스
과자점
황토색
##비게
하모니카
상일동
##양념치킨
그려도
채칼
혐의
##정학
아이엠에프
대위
##탐지기
액세스
낸다는
천자
트랜스젠더
##개혁
hsk
##연출
양천구
무한대
##학사
아그라
##탄소
##사인
배운다는
태조
폭동
성범죄
장편
##계획안
데이터베이스
LH
위상
받아적
##사강
행운아
해둬야
한대로
사교육
임슬옹
##무소
결로
암사동
선아
##민주당
미켈란젤로
승마
김대중
말소
가요대전
가구원
선샤인
운천
##굴려
다져서
##락의
구공탄
데치
사보이
본집
##두도
새우전
고추장찌개
미락
성훈
얼렸
절여서
언덕길
##피클
##O
##막국수
라돈
엔제리너스
구이도
시카고피자
도리아
코하루
연산동
지파
소머리
복성
카프레
모모스
앨리
토달
우미
##이삭
저온
타르타르
치요
생선회
완자
장학생
나고야
##쾅쾅
만선
데파
풍문
##단도
##통령
##인바
망원역
밀즈
이고은
이선균
정은원
에놀라
부요
조우정
화관
이태민
요원
한골
매연
에디터
조프리
감시자
볼넷
승패
타이완
안정환
우퍼
허지웅
쥬라기
김석진
제작비
##직관
에스에프
양요섭
레오나
자우림
문파
김서형
잘린다
모인다고
바셀
배낚시
프리즌
##개방
##대공원
##공예
깐돌
##ost
##OTP
몰이
디온
갈러
용역
조아제약
총무과
비상근무
하청
일근
관사
출입문
##급도
다대다
입춘
신갈
차편
입동
셋톱박스
##GB
앞바퀴
이삿짐센터
노선도
##득실
교카
악셀
도당동
광속
아우라지
올리오
2002
##완동
78
69
엠시
나왔으며
83
##IT
생각난다며
2010
102
450
1400
19000
##RC
19900
부리토
1900
비웃음
시약
##달성
##왕따
마도
##만잠
시더
약시
><><><
##떙
질까
##압지
##딧노
슬로
야행성
##소사
오웅
목뼈
보이진
초토
내막
##서러워
돈다발
##구강
걸친
빌빌
##모르자나
파릇파릇
나온다니까
빼줘야
##아찔
##생천
##는뎁쇼
몰라보
연소
##남겨야
##늘려
##야어
다닌데
##지자
단국
나간다구
라니까
##뀐
##악인
꼈었
한소희
존엄
##갑의
즐긴다
##배출
##소파
워디
마지못해
##쏟아져
올올
드렁
공상
##찢어질
##감상문
공장장
시끄러움
##놀러와
여아
꼴등
핀다
걱정거리
##퀵
##힘주
물거품
##신선
##부우
엌대
일개
##기프
주워온
바다색
본질
우람
괜챠나
이주일
찾아낸
최우선
##선지
##세울
##키킹
##음둥
깜빡깜빡
##복임
##졸이
쏘렌토
##라포
가린다고
웅자
##오셔
##느니라
까놓
##원츄
##함도
헤어진다
잡식
커미션
냔
권태
용맹
산길
##욨
##관한
굴려야
붙인다
##쁘
접힌
바람둥이
##껴요
##외울
장원
구겨져
##트름
##풉
클로즈
##타라
뭡니까
성생
##맥이
##연상
유유자적
껴들
##썻나
시경
할꾸
방청권
율무
##으으음
##폇
##설렘
기꺼이
끼운
##치움
##볼링장
빌어먹
##할만
##방약
병문
조어
##는구마
주워오
작명소
들여다
축내
이당
임시방편
##박살
##고가도
엇갈리
##샬
집가지
시뤄
##핑갈
##눙와
박장대소
양가죽
유식
폴폴
역지사지
원동력
##시선
식단표
미성년
아른거리
##봉구
##끼린
공경
조부모
##으뜸
##그래라
문수
##소지
##줄려구
적어
임기
가징
방사
사라져라
##티엠
##냅둬
내색
##도오
이행
더벅머리
##캔두
돌려보내
조공
제물
##각행
##럿스
##옛
##줄임
##여다
덤블
개오지
켁켁
아픕니다
##샤시
##복은
esfj
##실까봐
이재명
엄숙
##타격
갓대
##짜도
애물단지
숨겨야
범백
Zz
괴롭힌다
##심해졌
시한폭탄
안쓰러운
뛰어와서
##버러
##모자르
박형식
노처녀
오물오물
##놀러가
##슬펐
상중하
분권
##고전
투덜투덜
고참
##곺다
행진
타박상
##챈
안개꽃
사워
##눈뜨
옆길
##이탈
개차반
범주
점토
탈피
무지개떡
친할아버지
##!?????
크렌
사절
##베이직
헤어질지
노리자
##펑펑
##지아나
##나하
부서질
봐왔
건방진
##킹스
주정
개두
##세리
##숨기
##출근길
##이염
늠름
냐고
##삐져
어께
합세
##간지러워
##응의
끼약
##뜹니다
##괴롭혀
##어쩌다
##찜질방
##줫냐
##거려도
객리
대인배
성인군자
##아무렇
##수탐
신대방역
레파
간담
표범
날벌레
읾직
##만이
고마워할
대로변
열운동
##발루
##쨌
##벌려
하이튼
웅고
해봅시다
##수인
라자냐
말주변
손익
올라온대
##방갈
소지품
사부작
##이뻤
정내
접점
##피공
자각몽
##옥이
##빡쎄
운암
넘어선
사고파
##알아들으
##그쳐
##저려
노루
원료
패혈증
##고냥
##회산
으르
##빈다
실존
주철
##플리즈
울긋불긋
꽥
욱신욱신
랑만
보영
풀려야
##야방
##줫엇
##포증
##?!!!!!
저질러
##넘어서
##틴데
제지
아티스
아아나
채찍질
솜이불
##독서
놀라웠
##시군
삐걱거리
##번달
당차
##노아
##쐐
아당
##야마
##살쪄
헛기침
그래온
##이상의
##족족
##빠질까
##건빵
우겼
불화
이만저만
##낼께
제비
##허억
타의
##짇히
##몃
##욋
##옥시나
가없
누가누
찰랑
로라
심금
##깧
그해
##남색
파로
쓰라려
귣
##핥
##주중
##비염
##도네
체벌
##안잠
##몬하
##햎
실몽
##을라구요
##사복
과분
겁난
##옥희
헤지
괜찬네
##딴지
찟
일명
##파하
##머디
혼주
합반
##시킬라
사회인
##되거
흥하
##투비
넌데
꽈리고추
##사니
토블론
뻥쟁이
먹여살려
본래
키워야지
##이제야
끼여
##아빤
##드문
해어
신도림역
##한창
##늄
##해치
빠개
휩쓸리
몸체
##우울증
##주옹
##요용
제물포
##불감증
그르게
당현천
달치
표지판
급식소
그럼서
변한다고
##집회
##텻다
파러
##건당
##웋
지져야
##트루
찰보리빵
##이대로
##촥
무기한
초면인
##은다
##빙의
눙
벗겨짐
심슨
난처
##특공
##호인
면상
##화상
##자셈
합창단
##러그
##주요
?!!!
##뜽
뛰쳐나오
패스트
노숙자
속하
##랑의
근엄
##이심
바주
##감량
##구갈
껄끄럽
데웠
쉽니다
고쳐졌
##봐준다
아랑
##서럽
##잃어버렸
쳐줄
##신규
##레어
우쩌
없앤다
녕
고경표
불구경
눈도장
Zzz
암수
한집
노닥거리
꾸물꾸물
투지
##웟거든
##니라고
독재
다닌지
그랜드캐년
구실
철면피
##골반
결린
##일래
끈끈
평지
바라봐
걀국
##나이스
라이스버거
누린내
##거강
다가온
삐그덕
##으료
다친거
##휴우
이해심
술주정
키다리
심정은
말려도
병원장
##느낀다
##겨가
박하선
하투
지로
버틸까
스러
큨
이아
##커텐
##챳다
색종이
##보보
##장난치
미라
##행은
##생리통
##커져서
외침
##가인
##골국
##츄리닝
괜탆
##바오로
##구감
됫지
길다란
해와
봣던
지아이
##독방
마려워
봣을땐
전창
##기랄
생활고
피노키오
고교
살진
나코
속독
남잔데
푸켓
##떄부터
왜소
귀안
##가말
##손잡
##잽
하이드
엄무
##분임
##느른
지베
하러
쌀벌레
걸림돌
번져
충혈
깔렸
볼려구
가좌
오하
씨알
##물어봐도
부전
##깨울
##한심
이러나저러나
##다다다다다
충근
목장갑
##비만
##구궁
##예의
##배분
살펴봐
떨어져요
랄프
콩코드
##일기장
트라이
빱이가
##무거운
##꺼서
따라감
##야겠단
뫃
##상여
##보관함
어설픈
##웬일
##이시래
##파임
##하차
호떡집
인보
속삭이
##된단다
쩨
조용조용
여쭈
##스니
##그루트
##영국
##맺
##크으
나온나
##였어요
작렬
##나들이
##돛
##병반
주한
개살
급한가
##고해
##빠구리
^____^
##안구
##다바
##계신데
김로
나목
시골길
불평불만
픽사
vvip
##꽂혀서
잔망
가르침
##누군가
커진다
원호
제즈
##잘리
쓸라면
돼라
##달이
##케하고
와부
##정아
애지중지
##볔
##내키
소지자
하운드
남겨둔
##돈지
##푼다
판고
때려도
롱런
##드러워
##십시요
지켜줘야
##으라우
참구
낙지가
이루어진
목천
##놀란
##어림
토사
##도킹
배달부
미끄러졌
##아거
완독
##얘끼
긁어내
갈굼
##참가
욧
##요번
##흐려
옼히
##됫대
##클로버
정준호
도경완
꺼만
##먹지
##돼라
얼룽
반의
쓸리
리오
러시안
##어아
##크로스
열댓
칸다
피땀
##연도
##처러
##썻엉
##순의
##난거지
두려워서
##선명
워밍업
띠동갑
남바
쌍촌동
##매요
쥐잡
병사
사춘
귓속말
##멜로
신났었
##진디
자숙
##우한
춤출
예술가
더듬이
##성물
!!!!!!!!!!!!
##소취
##도용
손봐
무딘
헐떡
##지능
##치치
##짱구
흨
추파
읽혀
##태서
왜감
##워뗘
장악
부록
엽사
##화사
마식
##뒤졌
내노
질스튜어트
##나미
##두병
##개추
불량품
모래사장
외노
이동은
##러치
지주
##상차림
옮겨졌
양미
준다던
만다고
##으꼬
##좡
##쁨
##재끼
##형광
##으면은
이어야
##이와이
##육아
##엄지
##엄어
##변수
ADHD
##돌아와서
골라요
##짜식
##은겨
##라이즈
호석
##잉교
또라인
콰
어깨동무
해로운
짠순이
##위드
돌지
##쑤시
##쿠마
훠이훠이
쫓겨남
치어리더
인질
##배의
호위
##조억
##와조
놑북
##?!?!?!?
##듭니다
여잔데
갈이
##한적
한복집
녹음도
##번다고
카바
##행도
##잘까봐
유달리
##다모
##단순
##찮으
가지각색
##똡
##룔
불어야
##서명
매곡
##가배
칸타타
예히
상남동
사랑과
귀산
송년
맡아봤
눈독
마들
##아메리
변치
##문젠데
new
튀길
비루
발라라
##뿌시
##거구
펜팔
##고다
##슬쩍
서강대
변백현
##나심
까자
##예뿐
##숱
##기법
착즙기
##꼇나
##시노
안색
어지
##기노
역광
아실
도련님
아모르파티
달팽이관
물망초
소독차
지참
##작음
##그런겨
삼사
눈뜸
건널
##저의
쬠
어땠냐고
갑근세
##포제
펴도
가린다
기지배
승호
호실
##강가
개혼
##뺨
내조
##무그
##놀걸
##어떨
짼
육시
허참
##겤네
러면
##널러
에스더
누누히
거적
왤케많아
##시바
상사병
연륜
바쁩니다
##걸어다니
##말린다
##니어
##하얘
보살펴
꼬꼬면
##업해
얻어걸리
형제자매
듣보잡
이관
마리아
추임새
쿠알라룸푸르
##하근
##사시
##꼬여
알통
##앤디
말라깽이
##출입국
턱밑
학수
##저해
##입시
괜츈한데
쓰임
주워왔
##삑
시달렸
안효섭
그림책
싳다
아늠
##따른
##쳣다리
지방대
##이항
##간다더니
아등바등
TMI
##상쾌
김종현
봉명동
##정작
부영
왕족
동촌
원수
##변명
빠른지
돌아서
##클린
애간장
안보영
##본다니까
##길동
##른뎅
##까져
어지럼증
뵌
조코
##후리
겁도
배색
##줫네
##행가
##반인
올려나
##보증금
##지다
##하두
약해진
##벌금
##범죄
##새우튀김
##틔
전쟁터
배불러도
##밭이
##출연
##조화
##뿌릴
에필로그
##딸아
내건
##녀랑
잡수
다닐라
보브
제제
관계없
##가격대
그럴께
케밥
##처서
근성
순풍산부인과
##떱
##도와줘
지칭
와바
숄
조크
##야서
##관데
##폐쇄
청렴
##갂
할라다가
연기파
오공
어떠신지요
##파먹
프랜
라이나
강물
그까
저출산
풀렸으면
##격감
역활
##패여
수세
##녓냐
크리에이터
황정음
##지성
##춋네
퍼밀
설립
씁니다
##수줍
모실
미담
원재료
왜염
루저
쟁취
##더미
편두
로메인
##와치
신임
##나간지
지비
켄타로
장미꽃
훔냐링
약가
까불이
연설
##가엄
날아와
##거산
##버렸었
더워져
돈거래
놀음
응하
흑우
##딴딴
맡아본
신부동
##대책
점마
##텼
벙
연노랑
##입학
남다른
심심풀이
##부업
민간인
야지
##모험
##봣더
##겧네
인디자인
퍼붓
발소리
버럭
안쓰러웠
##리라는
##공략
조곤조곤
하숙집
##긍까
##기니
비열
##고무
면책
맜
정한거
구직자
버뮤다
##비내
대소변
##청량
##지무
경로당
빨라도
종족
리리
꾸르륵
못지않
와볼
##발도
##셨잖아요
에어포스
음영
이드
##초도
##멈춘
##형사
##국인
해져
뒤져봐
##넘어오
##여하
레샤
여혐
##폴린
##아으
클리셰
부대끼
##알려준다
올려둘
##는듸
싸그리
탄수
무서워졌
교관
##리지
파이어
눈썰매
극기
##켯나
우루루
짱아
##팬더
상갈
묵묵히
##오제
잡혀갔
##토토
남남
##강의실
##상단
경솔
오쇼
##치지는
##헤헤헤헤
근시
성모병원
김녕
##쟘
나뉜
전차
될런지
##뿌까
네스
비왕
가진다고
간다더니
편육
##갈겟
##끼침
##회래
티샤
미궁
자연산
##화보
걸린지
감액
잠긴
복소
아무래두
쌓임
위안부
베이퍼
드릴지
##짭짤
은이
애지
피플
쳐다본다
유명세
##당할까봐
##씯
서관
보가
끼친다
##장르
재능기부
피의
홈스
랩스커트
이뇨
졸업반
눈대중
혜교
의뢰서
영흥도
##미얀
##들어간대
##면임
##아크
세입
##날감
내전
쓰라리
밀착
##느려서
사살
얼루
사각사각
걸렀
##알뜰
##시출
##앵이
꺼낼까
##빨랑
##쎈데
##카추
##서브웨이
레퍼런스
##놕
##어언
##시소
두면
Usb
미장
별난
리쿠
싱크로
군살
주어지
무고
##문다
쏘옥
무하
분열
서합
##일향
천재지변
독립문
주워야
대안
금팔찌
테스트로
뺏겨
펄펄
렘
##산이
시선집중
상속세
##코끼리
##푸대
어지러울
##콘텐츠
##쓰림
시프
톰브라운
두둑히
##에치
웅덩이
어처
어찌해
##옹아
김현우
진달래
시달릴
망가진다
고걸
순해서
쓰노
알려져
주루룩
반감
범수
##리파
해저
지겨우
##쬐
##니마
##뎃이
왼손잡이
##라섹
##기이
손구락
##찯
따라간다
열화상
##부딪히
##래니
팅커벨
##갈기
전업주부
절뚝거리
이휘재
상상마당
공산당
빠글
키득키득
두근거린다
##국적
바톤
CT
소독기
나올땐
드롱
찾아간다
언뜻
##근육통
상은
갔었잖
티라
천상계
합쳐져서
##노가다
악덕
##매야
방침
전송이
고주망태
재범
피기
개색
번해
##놨던데
단오
##신비
##가셔야
뺀다는
접니다
앜맞아
##스팸
##컀
##청역
계란탕
##보름
보군
쉬면
##!!!!!!!!!!!!!!!!!!!!!!
경위
##겎
물수건
##났거든
밝아지
##핸들
복포
##물들
연애담
##협의
##시어
##최초
잠글
밀리터리
타고
괜차누
마니커
평가서
##원주
시궁창
##코지
탄방
스토킹
후비
##중대
지겨웠
구부리
홍제
번거롭
흑석
립도
거린다
월동
오마주
퇴짜
얼룩말
학익동
줫으
탈취제
부를지
누비
##음중
##천도
연생
##오피스
한단다
뒤주
융통성
##연다
##계급
일러라
여름철
팔과
##최신
##쎌
단벌
하이트
휴교
쭈꾸미를
명문
##예정자
가까워야
##서지
동그래
유신
한드
드메
##서서
창민
노브라
전방
마의
장지역
옥시
분납
보테
들썩
좌측
물미역
##휴대폰
묵히
곽도원
##내노
어지러우
##호스트
어음
접영
바꿀라
##으려던
꼬들꼬들
##그만둔다고
세콤
가짓수
따진다고
장영실
빨아들이
증산
##삽입
우표
원단위
##뀰
쥬니어
음대
##메달
키튼
망향
돈방석
틈날
이노시톨
##옮겨서
전향
때수건
##증진
더워진
타파
##거집
##억제제
안테나
점막
비움
##뭉탱이
##요구르트
찾아보기
해택
우르
##염인
나지
광해
배팅
방판
고막이
어성
짜지
테크닉
##수와
##열릴
묘기
부스스
##시브
함유
##취량
노래서
광이
직사광선
##옮긴
자연주의
지효
##제안
날아왔
카베
타바타
간지야
##쭈구리
복고
레몬차
##사라져서
유엘
면도날
컬투쇼
뽑힘
##뀬
직각
새우구이
피엠
댄싱
다노
박기
햅쌀
종근당
##과당
조여서
원색
산나물
##털렸
##한달
검출
탄방동
뒷길
악성
일종
채워지
가벼움
아름다움
빠를수록
콜린
갈변
##임미미
잘림
비엔나소시지
환각
##리무
##당겨
서태지
노량
침샘
짜린데
##겍다
어나더
남촌
##퓨터
경쟁사
드로
돌림판
##륨
아이브
반차도
##하철
##실액
##조시
배럴
As
된데
원두커피
판넬
##정액
백미리
##딜러
##체인점
##원당
##삼마
채도
왤케비싸
모여라
와치
캐딜락
##오페
엠사이즈
피잣
넛츠
멘토스
써본다
동나
레몬그라스
더스트
##리펀
마레
##개편
브루
##선착순
신세계백화점
##플레이트
##오프라인
물풀
세법
버틸지
##상세
##보트
##주유소
##콜라보
올라야
공석
SRT
##블릿
호보
컴포트
##성능
##아일리
죽인다고
숭어회
##클리프
애경
##위약금
##이스나
##루갈
거스름돈
대합실
던져도
국기
퍼스텍
어포
##베이가
##국은
케이카
고강동
곤색
##매트리스
정발
##데임
##펌프
엔비
헬로키티
도매가
##명동
담글
콜롬비아
$
##수리비
##당원
우후
핸드볼
송월
메르
스캐너
##라완
##스팀
##물려
##재랑
렉스
##오타쿠
박자기
세이코
비사
비모
##영이
##할미
##풍년
##냩
승률
##익스
되파
##투도
상암동
오스트
##소포
##발주
##릅츄릅
자수로
라스베가스
조이스틱
##인절미
아이언
페레로
##바니
##월액
마일
##욕조
##대후
쓰인
원동기
##트랙
항균
##부와
로즈몽
방산
솝
HB
턴테이블
맥시멀
##코스터
유재
샌프란시스코
인덕원역
증액
관세청
##한우
먼치킨
은행나무
옥토퍼스
열광
본계약
##해리포터
루블
##화만
##여비
남산동
실태
조두순
정정기
신석기
##불법
흉기
##기동
금정구
Pdf
저항
보행자
물위
이학기
교도관
급행열차
##온난
병상
##학부
##견직
구룡
땅덩어리
외도
알선
타깃
제정
경부고속도로
RC
질병관리본부
##본사
지브
텝
##진화
Y
블리
후궁
전념
##북대
미확정
홍보물
농어촌
PPT
조무
노무현
##숙주
세단
##어학원
##지원서
계리
연방
쇼트
대치동
휘트니
밑그림
환경부
산출
설전
학장
허수아비
몬테
겹겹이
##배추쌈
부꾸미
커스터드
모츠
##살집
팔공
걸죽
JMT
완당
매생이
청어
베네딕트
크림소스
##맨들
##떼목
위켄드
능이
지평
걸어올라가
에일
##모반
귤과
##소록
##폴레
모닥불
불낙
##스쿱
혜화역
청국
부서져
근거리
이스트
염사
주력
##IC
##bhc
장작
김희철
맥플러리
상하이
스톡
원판
카오
유림
오스트리아
동대문역
산토리니
김민경
##메뉴인
##방서
##미야키
내려온다
행궁동
이해리
강유미
충장
가십걸
동재
##종대
이광수
##길드
후속작
드러그
진형
이센스
브라운관
##대제전
보나
이윤지
파경
##눌러도
지선우
송광민
바하마
김호중
엔피
투애니원
##매자
세션
로빈
천리마
진행자
씨엘
선우
죽장
프리스타일
##킹덤
남배우
블리자드
김희선
##이제한
소린지
##아카
##빙판
공예
회전목마
축구장
화성시
벚나무
말모이
밤하늘
##그래피
##입주
두비
탄다는
정해져서
유희
##퀄
##아산
인사이동
초년생
세액
추오
수자
매교역
경위서
물청소
##현리
BI
분쉬
곧장
감천
웍스
제설
##반과
인천항
국민신문고
북상
와셔
통행료
동해선
##납입
상륙
팀플레이
보일러실
옥정
부슬비
스포츠카
다이묘
역세권
환전소
미분양
탄현
문산
왕십리역
시려울
별채
##김공
거리의
강창
암스테르담
은모래
주야장천
##LED
갔으며
고파졌
165
에이디
물린다고
선짓국
왔으나
해서인지
87
약의
6500
86
##00
21000
##14
##KBS
127
2022
바란다는
##NC
놨으니
4900
##SE
##ABC
##아르티
엘시
##LH
쫑파티
일초
스카이블루
꼮
다이나
함박웃음
##오공
포착
##서다
##쿜
##통한
저층
인신공격
##피한
##파지
##지치
##요래
^^^
비뚤
솔지
##털려서
석가
숙여서
##레시
##말려서
하이라이스
##아닌데요
어리숙
훼이크
쪼으
##해공
요롷게
졸도
##성충
##글로리
##다원
예진
##마려워
우나
##시집가
##럴까
##납다
도요
인지부조화
##각보
##감시
##가져다주
힘냅시다
##얼라
눈부셔서
##털려
내빼
줄라구
##산소
##꼭대기
들뜬
제산제
영국인
##허용
##호구
신명
봉화산역
##그동안
구닥다리
##가누
가염
##바고
잡스
잇단
이야긴
과대평가
##쓸려고
쯔쯔
즤
꼬로록
토만
준하
옷깃
그이
원생
서인국
아집
분포
##뿌림
임영민
##구마이
##침약
##라느니
주우러
울수
대폭
막이
나앉
물러날
갈아끼우
신우신염
##길러서
##온몸
쓰가
새끼야
##잖이
##으믄서
안성맞춤
가위눌린
난입
##어재
##문대
불러라
##해내
##짜른
##아이콘
왼팔
##부릅
##재워
##용서
통한다고
부양
##떠먹
묵언
온순
답답이
##내려온
고령
그런다니까
##쌋다
산다구
##귬
경극
갈라졌
빨개져
내몸에
성형수술
##코마
##들어서
오브젝트
차문
마려우
역동
허지
경혼
웽
##어소
열망
##후다닥
큰아버지
허니문
##끊겨서
허송세월
##개의
##저긴
##가잠
머리맡
##움직인
고상
월내
##와오
##할라다가
나마
##서모
?^^
울부짖
##자공
##답인
##???????????????
##기안
좌우명
건투
주저리주저리
##는디유
##럈다
오다리
##드시
맞춰도
##오잉
짧아진
##마앙
으헤헤
##줫옹
##범창
##잤으면
##습네까
우익
강산
버려졌
휩쓸려서
노산
맴매
눈물바다
##한느
웨이
##챙겨줘
변함없
석유
##다닌지
떼쟁이
형상
##처묵
##고당
##고동
빚지
벳
##보컬
떼쓰
##디테일
알림장
##쉬이
유우
##드러가
모친상
##지브
##븅
##!!@
만져야
##앋
##해줄지
##?!???
그래서인지
##기용
따윈
도화
색색
베짱이
##인종
##오른다고
##쁜
방명록
##젤라
##디질
문젠지
적잖
레즈비언
비틀비틀
##어렸
##절레절레
##친당
콩비지
##경산
##꾸러미
절간
##적절
짤막
##찌꺼기
놀랠
시바견
하인
##마리야
나빠져
##춘다
##랬다고
초코바나나
##뉨
피해갈
오이소박이
구렁이
타국
쑈
zzzzzz
레지던트
유체
줠라
##바랍니다
##던다
뚱땅
##른듯
##탄대
##피드
태어난지
##하학
고루
##!??!
##생상
##실라
호락호락
싱글벙글
뻘줌
거랭
멀티태스킹
##자장
비지찌개
##땨마다
매달린
넘침
##맂
회자
##해준다고
##가모
##주어
##와주
쫓아와서
김건모
##흔한
역간
느닷없이
##석실
앜가
쌩판
노망
빈정
아랫사람
어녀
##장파
전라
팽창
아몬
불독
##윈데
##읭
##앞두
이중인격
함안
옶다
새우젓
어쭈
##살아가
워떤
##배도
비실비실
##해져요
블락
타지마
##쳣군
묻어나
세교
떠오른
##쳐다봐
##방패
지어낸
찬구
망충
##다강
##하난데
만의
드러누
편해짐
절연
호남
##버킷
##뚕
브로마이드
보니
##굴러
홍합탕
##어구
##미역
##줫는디
##꼬나
##누어
저질렀
통일로
##옠
유얼
##나강
##볏
##해얄
##쪽팔려
업보
달랠
##풍경
##팩스
괜찬아요
전교생
##임원
성가대
떠올
토커
##실만
민석
부끄러울
##래두
##신댜
##허이
##익혀
##흗
오랄
##태기
##법석
상쇄
효자손
##온다던
파혼
무력
올챙이
##h
소야
##실려나
isfj
취했었
실고
나리
야야야야야
샌다
##녓던
내리막
오옥
##랗지
##쨬
##퍼다
얍삽
돌변
##찡긋
썩히
##수많
캑
##그리워
호빵맨
##저럴
케로로
##가려워
실황
##으어
##해묵
옥장
받아들인
자서전
##땟오
가랏
##여제
정보력
##흔드
##해올
##반했
써야할지
위급
따라다녀
찌그러졌
##뭉에
안비
속상허
오른손잡이
기성
##야한
실드
오발탄
얼런
신조선
음미
연중무휴
졸랐
고른다면
##라야지
따구
##털기
mbc
##젺
순간이동
##효소
이히
##??!!!!!
텔레토비
코르테즈
##전송
푸지
매이
올래요
납골당
##갓다리
븅신
춘자
속좁
##욌
##날려서
아닌겨
##긓
들들
##달차
제끼
연가시
##!!?!
기지개
##돌파
빨갱이
##미사
친동생
동무
##깻다
기형아
##져왔
독거
가이드라인
코야
도고
금상첨화
페일
##켔
##처벌
올핸
##펭귄
##짤렸
뷁
천상의
##골리
##얘긴지
회산
입증
##메스
연주자
##몰라라
이환
빨빨거리
청자
외톨이
쳐진
사족
헐래
알쌈
##찌도
버슨
칠게
잦아지
꼬챙이
언나
안가
웃겨야
##질수
선택도
만유
늑힘
##모고
##전가
##야이
##명만
##찬성
##게서
변질
골인
쥐어박
##걸인
명박
주진우
경보기
쫓겨날
발정기
영대
갑니더
세비야
쏟아부
##문득
##틀려서
##디프
쑥스럽
네셔
말다툼
##든다며
Gs
##쫏
녹용
인신매매
정설
자일리톨
##네버
##종교
##추울까
떠돌이
다가갔
##쓰노
##겉옷
##외모
##동일
교제
들이붓
막자
즉사
내배
##감탄
##여전히
화화
##환상
##은거
다가올
장가가
쏘이
경춘선
인타
##노시
언놈
후다다닥
##고친
귀금속
안신
##화자
시녀
오너
옳소
##깉아
##려수
세영
불치병
##시크
우웨
돌아볼
##내조
말조심
##번쩍
준걸
윗분
얼말
##도고
##돌려도
낌새
표준어
##된다함
##인발
##어서라도
##고쳐야
##농담
독식
괘씸죄
뭠가
올테
국방부
##어후
윤택
##수없
진스
##궜다
##플로어
##착함
묶일
##볼륨
죽일까
##리요
소문난
내숭
##글씨체
치렁치렁
풀어놨
jpg
이런지
모스카토
데자뷰
주둥
궂
##복실
펩시
##안뜸
꿰맸
미적지근
이해력
학관
##친의
영전
훈육
편안히
##단호박
태워줄
바빠야
지휘
##동탄
##속보
베푸
마술사
##칠게
나잇살
##다녔었
##잘난
준적
##소풍
허다
모인다
##이긴다
아반
첨해
##미녀
깎였
출군
##사두
##제개
##빠져도
##개부
쥼
깨닳
다혈질
금감원
##깜박
리어카
##깁니다
시류
뿌린다
씩씩
주옥
방방이
원남
칼럼
청룡
##락말락
대요
##타래
엇비슷
##욕해
##천행
내생
##침구
##싸였
##단당
##실까요
like
캥
걍가
차린다
대운
초년
##으십
칫솔질
생물학
빵빵거리
##비면
넘어온
의존도
해버릴까
##기복
##발려
##아티스트
가생이
지하실
##전갈
시주
##생수
##타오는
##화났
시끌벅적
이어졌
차자
##줫당
##이을
##넘겼
갈개
##방수
##무우
봐야죠
늦장
##내버려
강남구청역
개기름
흐른다고
위인
빈둥거리
산가
FLEX
오징어채
그렇지만
도축
사갈라
##쇽
##반개
집기
먄날
##뇻
잣대
약함
몸소
할까나
풍이
##엤
개산
우체
##보랑
은비
양현석
##리퍼블릭
##대모
컴맹
##가분
젯
##제대
선부
##늨
가십
혜나
##염상
정해질
윗입술
##맥히
##먹인
##는대여
무모
##그만둔다
##언데
똑딱
##새낀
에인절
여미
##쌕
영리
굶기
##우심
##지독
모나카
준다면서
증언
하등
##지쳤
##거안
씹힘
사차원
굽혀
딱새
##우회
##파사
마라가
##춘기
##날수
##보살
##을겡
허해
엄하
고내
##거버
경건
사혜
개일
##은다고
##후면
##동상
가그
##규리
잠자리채
##설렌다
##잠구
대임
##담궈
캐물
수화기
술기운
급함
마음놓
##이비
잡아떼
끝맺
이곡
##제감
##써진
카와이
##건제
톡스
고어
기울여
근린
##졋을듯
##앤지
##건전
##세도
##유나
##따올
쉼표
대명사
순서도
##매기
건선
들이키
##으래요
외계어
##셥
화물
꼇
##렇짘
##본단
##렇군
##시디
긍디
##비이
메디컬
방사선사
챡
##무거울
##필링
##절미
다툼
두리번두리번
##견도
##철저
외진
쩍쩍
유민상
뚜들겨
##인아
옥탑
여쭤볼
지호
접지
##스미스
명학역
짯
삼산동
면서
##됏당
으아아아악
때워야
풍산역
##잉께
깔짝깔짝
##자치기
똥내
가봉
부쉈
가책
알아봐도
##징나
##봣는대
##구인
남겨둘
차멀미
퍼트
##좆
꺾였
통달
안쓰러워하
지겨움
##때린다
도로는
응급차
지선
성탄절
감회가
##차래
##임어
##짤려
##사이클
놧
헤테로
그랬을까
할렐루야
경찰청
유실물
##차가운
왕성
데려와야
혼신
노발대발
##조래
##구몬
##봣던
부정교합
##돌아감
결판
입조심
증오
##찬다고
##조도
말라야
##거린다는
##가각
##거라고
##장위
열빙어
##중애
슬러
잔병
_?
##군지
교무
##기반
산하
자급자족
정은
비쳐
비누칠
봉태규
보문산
점약
쎈데
날일
외출복
인엽
들쑥날쑥
##염병
산다니까
소유욕
이튿날
##퇴함
해프닝
##지업
##중앙선
남정네
미필
소집
흩어져
골수
금박
불의
##팡야
##화팅
코막
찡그리
만다라
##창조
##여전
##변이
##챵
##켯엉
쓰벌
+_+
##가제
##지운
##스켓
머이
효정
##뱅뱅
훗날
귿데
##된다던
여보오
##자융
커핀
##균요
농작물
##도란
야맹증
음시
에너자이저
##닭도리탕
##떡보
벌거
왈가왈부
##아버
해놨으니까
미비
추수감사절
##돌때
토성
듭니다
널뛰
능글능글
아옹
돈더
미야
역적
##카더라
마초
##감안
##몰링
시예
##세모
##대앙
##살렸
##올까요
하휴
입혀야
걸리적거리
##팻
##전했
얹힌
##!!!???
##끼울
##비슷비슷
에이에스엠
##학교의
살인범
시스터
시발점
##전거
난다면
제이드
일희일비
올려라
소르
개량
포도주
##?????????????????
##굴이
박대
놔두었
##지만서두
##캭
산동
개업식
래도
##아해
건드린
솔비
##훌
부르스
##이똥
##개조
퇴소
죽어나
##내릴까
쪕
##빠라
갖춰
잘대
킈
간과
자지러지
말술
빌붙
마원
##다구나
감정기
##역부
##버릴래
##한올
공작새
말버릇
##무얼
실정
수소문
울렁울렁
현상금
##요라
##배래
##허어
횡포
##내려감
##유장
보그
쏴라
##엳
구불구불
약산
협곡
##외서
지긋
##북한
##그칠
##전바
##도업
참살
##호랑이
##언젠지
##아수
중노동
회산데
큐레이터
##기정
##선호
##호오
##대추
##강연
절박
##잠겼
돈데
##신도
##세무
##전설
헴
문병
##낔
한식집
해충
##고여서
신불
##좠
##모크
##웟오
표고
모름지기
##복희
##쓰러져
강민성
부의
아르헨티나
만아
쫑쫑
##실하
##해저
##돌려놓
##사업가
##누울
드릉
##가했
##갈테니
까치발
사셔
델타
쯘다
##야거
##빌림
명탐정
##찢어졌
춘절
##토성
##고과
##졸림
모색
수도권
##인데다가
옴팡
##다저
웅기
휘청
종도
해오름
괴사
##서면
##답니당
역효과
##하체
용봉
단명
##프로모션
스포티지
##제보
폭등
자글자글
도망다니
성내
카도
LA
수초
고든램지
##굨
##세열
특산물
##뒀었
예브다
거머리
입힌
뎁히
가우
##비체
##요리사
##고어
지표
전화번호부
##가우
거요
돌침대
##???!!!!
세진
##첩이
##편입
##아입니까
##돌려먹
##방향제
치욕
##이녀
##아세요
회진
기에
##곱하
##휴양림
##만날래
스산
지져스
유스케
##스노
##햇소
재판매
##남성
로테이션
만어
법조
새겨
##뎆
자람
원티드
##임시
개리
쪼르르
##낡
여호
아녀요
##대잔치
떨굴
##끼니
썻나
##팈
두아
##산감
쌍용동
##동갈
##잔가
복부비만
우렁차
정말루
##오카
we
##깋
##무면
##느껴져서
##침해
후들후들
어긋난
오존
##비니
##마돌
잡숴
꼬야
##주비
##발매
넘어져도
##안코
주기만
##별생각
가리키
외항
착오
용문
선암사
코맹맹이
##흐흣
햇구
사정사정
##먹혔
##탔었
교리
##단독
익사
##으엉
##대감
관운
멀뚱히
사과나무
##해놔서
개신교
대성통곡
##나주
바인더
##사마귀
시저
##마부
메아리
궤양
육룡
끄내
적발
소간
##끓였
대국민
세밀
예뻐질
##그래이
번질
##커졌
##명함
핑핑
직출
마신다는
##곗
top
로터리
자유자재
##피리
쾌락
아우리
읍지
긁혀서
롤러스케이트
##혓네
누룩
맡겨야지
다재다능
들여오
##수운
시큰둥
##굴레
##왜감
##절레
천도복숭아
그대론
보송
문질
##문질
조국
##쪽방
추레
##오모
##세스
##안항
우장
주아
라이코스
때린다
물컵
해신
속눈
##찮고
짜라
##브로드밴드
진분홍
경정
들어맞
갈램
안하
보호제
점진
테트라
지킨다
무에타이
##구기
##제함
가랭이
성주
다라
##미키
##꿐
헬트
##말장
미제
여름밤
시소
카멜레온
오쿠
##알파
콤비
##내삼
집고
##약주
##영환데
노력파
종이봉투
떠벌리
콧방귀
##율려
저려서
쾌속
##군영
##아파야
소희
율하
##나귀
lc
##에버랜드
##싼대
##붙혀
##유스
출간
등과
##발기
약효
말발굽
##이걸로
증여세
욱신거리
보신각
##편견
안생
예절
##응급실
##내게
역가
여고생
광운대
##하단
하정
동덕
올라면
##카쿠
열거
지졌
포루
읶
빌릴까
##멀티
떨기
##가르
##생략
차여서
SM
##강자
##다맛
##스위트
##우치
##제력
블루스퀘어
타미힐피거
이슬비
날다람쥐
##랩소디
똥색
청계
비피
##타타
한석규
스트롱
투덜대
중고사
##망가
히라가나
굴릴
친일파
레이아웃
따분
메뚜기
##맞춰도
삼총사
그나
한예슬
##부적
애매모호
##양지
니글니글
컴퍼니
에치
연회장
버릴라
종기
뛸까
##개구리
바래다
만담
열재
고일
##눙디
괴상
순이익
켬
감삼
##판의
카드깡
꺄호
공론
##켯대
##구레
카시오
ssg
가져야지
##듑
##제지
##몽드
완성품
전국노래자랑
아도
오싹
갈무리
##가전
그런지는
부음
##미술
투투
##그러니까
##위상
##브래드
올라갔었
양발
불상사
후크
한시
ak
##흐음
요구사항
꾸역
히스테리
정아
모은다고
부셨
##와사
##플라워
은사
##근력
헥헥거리
만족도
자문자답
##보이스
부친상
##정복
##보제
신림동
술판
유노
반질
행학
쉬어
##일시불
발현
쥑인
##탄수화물
뒷줄
왔다간
##칼칼
##장맛
##두주
댑니다
기름칠
##레트
##묭실
스타크
클리
타거
북창동
마포역
댐스
##메리트
박주홍
광각
시보리
태워준
명백
판때기
파파야
고분자
탈구
쓰렸
##계획표
졀
옥스포드
삼성병원
현금화
짭잘
헤맬
처절
동은
##장대
##봉은
내려준
머무르
베이비파우더
마커스
##넚
##경연
##신한
경준
##문단
지지직
피워야
거삼
##떠도
그린다고
긐대
##안양
저작권료
##싳은
##지감
되돌릴
예복
명사
집사부
노아
msg
##품질
##닦여
##^^)
##리해
들일
드시
##바진
##안거
내려다
##갈라거
힘줘
실금
김종대
눌르
퉷
미끄러운
##퍼져
##감은
전회
시정
컄
##반주
##톡스
쩌렁쩌렁
치움
##쉣
불멸
##온마
어침
부셔지
##주점
뜯어고치
지짐
통모
##이벤
인즈
##합쳐
백구
##그럴걸
날리지
떨어질지
준다니
쓸까봐
깊숙
##엄두
불당동
틀어막
계신지
##믹서
##싼걸로
금공
##야수
##토론
소련
축이
알몸
라코
##레고
사셔요
온종일
##들것
난분
죠죠
##타스
##생맥
##세종
##해야겠다
##그린다
##도비
태극
아수라
날린다
삼국지
유니온
잔주름
##지워짐
##특약
##따가워
##지앤
나팔관
귓볼
##딸리
##서함
수암
##마니아
루아
##금발
##후진
##서울역
숄더
인슐린
원통
판토텐산
낮췄
삼두
꺾여서
재검사
##내증
큐어
##랴면
맥앤치즈
뻗치
##양배추
##떨어진다고
앞코
##무여
##김해
##끅
##단단
근천
##프레이
했잖어
노형
갈아탈까
##버텨야
##땡땡
조영
노래졌
##플라잉
##시카
##긍데
특파원
셀린
카밀
##발레
아미노
발받침
##헤라
매트릭스
뿔테
의료인
지져서
합니까
퐁당퐁당
닦이
올라갈지
구로역
타트
퍼부
채색
도달
컷팅
헹궈
##요하
쓸어가
후라보노
##매입
##민은
##위쪽
히비스커스
구리역
목동역
##나영
밀리토
##재판
애송이
##백반
##절기
바르니
테마주
쌀알
##뽑힌
우메다
깜빡거리
염원
##포유
팔면
cg
##용액
출소
##유산
예부
라벤더색
예매처
##물류
추매
##인안
##구비
싸군
다망
SE
스크류바
##케미
쭈꾸미랑
더블린
컬처
마인츠
메리야스
숩
신품
잃어버릴까
ifc
관공서
개삼
##직인
##정규
##매스
커비
##은감
레더
바스켓
빠뜨린
재차
##크러스트
set
도프
가넷
텍사스
지산
변동성
찾아간다고
##인서
##센서
용아
##내복
이중환
오버액션
혈장
##국민은행
달대
세트라
##화로
누추
##두루치기
##에이트
##명란
##범계
##페일
찌그러지
밀러
##불이
nc
뒤차
##리용
윈드
터무니없이
##리비
프릴
##마이너스
느려진
##파이트
브렉
일어날까
샤롯
##서재
바이올렛
리콜
##나이키
캐년
##브라우니
운항
##볼텨
##멜로디
##개로
##어떤가
아레나
버섯볶음
구김
외인
산화
##철학
요술봉
##천집
절판
낚싯대
##해랑
##무인
브리짓
쉐라
아동복
##피처
라일락
시켰으니
현대사
요걸로
씁시다
에반
바른손
비옷
##장용
빨간머리앤
품명
챙겨온
##토의
만든지
호재
삼류
탐사
##포린
스웨트
모랑
##토닉
쥐색
##산단
세이브존
##써써
##아이보리
##맡겼
##카스테라
##번호판
증진
현영
펼쳤
##텔레콤
월드콘
성원
##점가
##갤런
통크
바뀐지
##여할
낙첨
##텐동
레이트
##공채
불티
우마
##피겨
킬로수
##건전지
노려서
##니원
##빨대
지관
버텨라
카세트테이프
##하인
먹힌
DX
열기구
##상수리
완두
콜로
도락
CPU
휘성
뚝섬역
보좌관
##난이도
생중
##개국
##후원
sql
출품
##보강
희망퇴직
##감독관
베를린
관통
##처장
오보
개그우먼
숨진
앞당겨
##수습
무증
이산화
열혈
##문헌
##구해질
두암동
의전
##국제공항
최진실
##발표회
##역량
실직
평양
나랏돈
##카랑
멜버른
국과수
##배랑
##시표
집행유예
##쉬움
##비즈
실형
##배포
도로교통공단
##남부
자본금
독자
리더십
살아날
종용
##록의
##검사기
이은
스루
휴스턴
서광주
사백
케이엠
우면동
##비발디
닭구이
##칼국
흑맥
##모듬
불고
뢰
##숙성
##파닭
단팥빵은
##패티
스페어
피렌체
춘의역
치키
트레인
신포동
뜨아
월터
헤이즐
##놧는디
기각
숙회
쿠차
##함박
##깜빡했
##진짬
테린
참돔
##빕스
##내비
가져온다
데꾸가
##생고기
오동
말미잘
##티라미수
태종대
게토레이
조마
계량기
##샌디
배부를
카오산
둥굴레
맛소금
노조
북엇국
장승
부전역
##마니오
초량
구일
마이카
##국공
판타스틱
##할맥
가파
##근방
매머드
이시영
라이즈
##명작
격투기
정근우
장근수
천우희
npc
유기현
파울
각본
배트맨
니노
방어구
이순재
양준일
##영화관
귀환
카프카
버키
엔트리
사용자
순정만화
은하철도
파이가
초동
##뽑힐
엔버
##발일
이세돌
성곽
카우보이
승강장
톰크루즈
케인
대대장
##로크
초대권
크리미널
권현
아이스링크
강지영
라스푸틴
리듬감
샘스미스
레이크
전작
번임
루브르
김선아
박성웅
제어판
유온
려욱
##연시
주드로
풍차
최신식
허재
리플리
항우
##견의
##인류
##몰려서
대전의
음악중심
통인
이백만
라테일
개막식
당감동
윅스
베컴
김태호
쏴야
시디플레이어
대공원역
악동뮤지션
커넥트
비발디
흙탕물
보리암
##네트워크
##쿠지
##녹원
맨체스터
감리
##거래처
##날아갔
후임자
써둔
정년퇴직
엑스코
공고문
##바비도
층수
케미컬
소개서
부린다고
월급제
창동역
휀
ATM
부수입
째주
상신
한국장학재단
동승자
리볼빙
코란도
율하역
그쳤으면
대야미
가까운지
완행
선루프
콘도
계양역
텔레콤
출로
##해진다며
패키지여행
##추운거
쐴
두루미
상록수역
##영등포
천안아산역
NEWaverage
##수욕장
수와
취한다고
여의나루
파타야
바람피우
2013
히프
디오르
되질
76
30000
74
났으며
23000
##쉑쉑
##31
73
3800
20000
999
235
어플리케이션
550
토르티야
27000
에이비시
바셋
##SD
##90
시래깃국
##모배
##연승
##부원
끌려갈
##요마
##똫
##움직여야
##여게
커타
목주름
분대
##단절
##싸개
두둔
목마
##편했
앍
##받아들이
##풀린다
!!!!!!!!!!!!!!
##탄신일
##거칠
생식
대영
세례
##오갈
우호
흑사병
릠
##쉬미
계셔요
##파야
차임
해군
해병대
##%%
묵상
##모먼트
마용
벼로
떨쳐
얼러
태평양
사룽
##따라다니
##마새
will
##시진
##식장
##내시
##상반기
바보바보
무난히
##난건
##손대
오피셜
##거진
##집고
플레이트
##쪼이
##제이원
##치심
rg
향수병
원내
##갘다
빙하
경인
##씨씨
확실이
학구열
따라간다고
어려워도
외워도
##껍니다
인국
바락바락
##자존
미래도
마쇼
신변
##된다더니
##힉
##히는데
징징거렸
노랜데
##닝께
간다더라
##텄
가슴둘레
##와어
바당
##안궁
드나
저만
##부쳤
빼꼼
##지전
##쾌감
##굵기
뽀얀
부린다
##쓰러질
가진다
##지어
종이접기
들을려고
##생겼잖아
##케스
논대
지나오
나테
##다디
야자수
##반병동
자초
##탄다는
초크
##루다
노령
##쳣닼
부아
##요망
Cgv
삼심
부러워할
바디스
##털린
어저께
상각
##고디
##눈깔
방목
양치기
##지직
##은모
촘
##팝업
영한
##빌려야
하명
상책
##기쁨
##탁지
풀숲
##단강
순응
집어
##그땐
##재촉
자라가
##해드려
##볼가
이학교
인사말
##비인
##진언
행시
손모가지
패륜
##선고
앜그
##빼빼
##보저
^_____^
##동구
##의뢰
맥도
##혐함
개여서
일으켰
소근
##쌩쌩
공시가
장난칠
##나소
남짓
##하더
하주
태일
포상금
다퉜
##스러워야
괴로우
그구
보아
커밍
끌어들이
후려쳐서
##고각
엄친
날랐
이러이러
##졌나
##중가
##수위
##긴요
##심해져
##안의
매스
##셀러
##반절
##깍두기
중수
통곡
어투
다조
##쉴래
이뤘
뇌세포
##객관화
봣을
사단
냉커피
비닐하우스
올가
키읔
##나아가
히어로즈
교배
배털
겁니까
##이혼
아리마
말음
꿧
##흐흐흐흐흐
##리트리버
암세포
##지켰
헬륨
방화동
##주낭
자축
수치심
##쳣넼
랩퍼
터져야
장유
개그콘서트
##위키
금장
##장구
오내
큰길
얽힌
##처했
홧병
훌쩍거리
##직영
기시감
만드셨
##쳐진
##멕이
피로회
주입식
이래라
반금
##넼케
인날
응집
##리마
맨하탄
##주갈
##여엉
##래면
##파리채
##여러분
##할려다가
##찬가
##슙니다
##헤어짐
해놨으니
##수험
나타난다
맺히
쉴새없이
표구
카드라
와의
##곱창전골
휘유
##일등
##없는
준결승
갑기
불효
놨다
못한데
##생겼어요
##기귀
##으셨을
##명충
##심도
으헉
##깊이
##누라
휘휘
신안
##*_*
##거봐
##구별
돌아봤
##복근
##진보
아근
정망
##읅
엎어져
방관
견뎠
성장통
넠
주무셔요
##폭행
무반응
##케다
##눌린
머릴
##고품
##바박
사징
삘링
##저걸로
##안시
##기냥
혹해
깔대
##넘어져서
##부류
남겨둠
##연데
물보
뀨뀨
바끼
띵해
##줄테
##교야
와하
##댸
##쳣대
##바그
##성모
꾸밈
##아진
이예
쎀
##유무
하야
훨훨
뒤척였
므야
페톡
##배식
##됏오
##아야징
거스르
씻겼
##쩖
사이고
배불르
봣구나
##거슬리
##너거
##죈
화석
꺾인
##접장
열시
괜차노
##삼키
자태
##헤매
##겎네
자유인
##자곤
봐온
##살치
꺄우
황급히
짹
##짹
##짜개
##야니
##왤캐
가벼워진
멍한
쪼인
짜여
뒷심
##찐한
돌아댕겼
들어올리
아껴둔
##원한
한다구요
듬뿍듬뿍
##보하
초이
간지러울
##그런댜
뒤돌아서
재화
부르르
알디
씹혀
추천서
불러요
데니
##발찌
끈질기
##히기
똥그란
##구한다
상팔자
줫지
##과식
##아달라
줫음
맴도
버라이어티
판별
틀림없
##애비
버린다는
##앚
##움짤
##늉데
수레
##존경
기부금
##구장
구장
##닾
##솔깃
모른다니까
귓밥
구경거리
##강한
어대
티안
빠가사리
##오미
##쌓여서
사돈
로두
옹호
섯다
##벗겨지
백억
##아야제
별내
네버엔딩
버퍼링
개상
상비
gg
원하
##장단
##됏자나
##확신
##가밀
##라나요
마두
반신반의
판단력
거동
##사카
냅둬야지
이랴
나보
숨숨
##특유
수난
경쾌
옛다
##도루묵
##내산
##페임
##프라다
##어째야
모거
##소거
##유치
밀감
##엄다
##닻
가버려
이길래
##목숨
제임스
##울거
곱배기
##웟던
겹침
쫓아냈
##유여
세컨드
삐리
##털털이
마그
##주물럭
아낀다
봣대
들어갈라
##몸매
##간직
##귀요미
빼곡
간다요
##으으응
원동
저그
##웬만
##나갑니다
##여드
기색
삼미
돈백
##잘려구
마른다
지지리
나안
주르르
앵앵
##쪼매
##놀이터
앖음
독실
울상
##수마
##졋구만
네요
세자
갼
증량
물꼬
##다는지
제게
##서시
비틀거리
버번
##줄였
세사
언닌데
왕발
쪼끄매
##잘린
##메나
##못내
##읍니까
뿡뿡이
##혼식
부평구
풀릴지
의경
##과하
딸기코
불러줄
##찌그러
비호
이바
문두
오센
##봣는데
뒤집기
줄인다
질책
##사소
##기두
걸릴걸
우하하하
##신지요
선포
제곱
울디
##치워서
튕겼
##jpg
잠심
이정후
손꼽
아팠으면
위자료
집개
도진
와전
웃겨라
잌다
##소환
##어업
##줅
so
##양가
대반
##도박
힘찬
##색히
피정
할망
##바이트
따가웠
돌아갑니다
알아챘
##곳도
나신
초원
네발자전거
세발자전거
요술
고쳐라
##오냐
상근
##골프
훔칠
##륽
배방
헤치
##지뢰
따내
게슴츠레
쪼물쪼물
##악몽
##관둬
##섭섭
한포
도인
##떨이
##까매
##면시
##쾌
##신축
줭
설거지통
오전반
빈대
솜방망이
##풀기
##다무
##을란가
갈림길
마살라
##온단다
##게시물
##쓸게
##업종
##번짼데
서먹
미워할
인포메이션
오빠생각
찔린
##럿엉
기면증
##후임
##발러
구렁
##목교
##전무
바보니
억장
##광광
##그랬나
오돌오돌
##><!!!!
##졋는디
##담부
##유자
##실려고
모과차
대물
##즌가
##기를
부어야
##설날
entp
해어지
##빨개지
##거낭
간답
##망신
퍼런
멕여
##빼빼로
집터
##가짜
잖아요
뚜벅뚜벅
##날자
##청원
노리코
우락부락
설상
이싸
앞길
##화끈
##묨
로나
##???!!
##오렴
공양
떔에
곡선
타박
둔해
연막
수없이
##짜내
퐁당
백과사전
##울트라
##당뇨
였을
해부러
Zzzzz
##해꾸
빨라진
이라구
가르키
##배여
가까웠으면
다서
##버린대
##별의
미끄러워
흔들거리
##뭐하니
##도언
##복스
갔을까
##코토
평전
##그곳
##으닝까
##켄데
자노
괜차네
##순가
장난쳐
##하딘
번진
##까보
총평
과부하
##차안
도로시
언행
##먼일
##불구
##정면
스칼렛
떠진다
여행객
글게
투자가
##찔러
##가져와도
##필리핀
##몽은
대구리
##귀욤
에리카
후루루
무친
동물농장
유골
금물
와시
##뒤집히
엄지발톱
##일명
일훈
##봣구나
Kf
학굔데
##상행
잉가
##부르르
##야짓
##딸린
엎드리
피그
##돌아다님
##립시
군중
##놧엉
활력소
루체른
라는데
##레귤러
##진로
##본새
##이만큼
##어쩐
거침없
괜츈괜츈
##총각
깨무
채워져
##적자
##휴게실
##뜨끈
일밤
##느루
##엉엉엉
라던데
##망상
난독증
쫓아갔
##서머
끄떡
##뭣
##숯불
##><!!!
>?
##파란
##잘대
##시한
##지불
꿰
##무음
##이쿠야
관념
이노
##더구나
시청각
##목자
##세지
깨어났
이룬
##웟대
바꿨었
지린내
품앗이
교환권
앜근데
##잃어버려서
더치트
##해녀
##그래퍼
페르소나
##가년
##블록
갑툭튀
##허전
차려도
##거운
관문
뭉개지
갓갓
콜라주
##히도
기두
##뾰족
##업그레이드
들어내
괴짜
주무신다
##리각
##찬물
통찰력
##슴돵
그레서
##자소
단정짓
더그
스런
어매
나온단
생과일
반지로
조성진
남과
##놀랍
##괜
##안도
##따라갔
분동
똨
##갑자
물려줄
인시디어스
아구구
호루라기
허우
덜덜덜덜
썪
##라예
마사회
##카너
##껳
도밍고
##매울
##빼주
##들개
급감
대주주
기름때
##부피
트위드
##뷱
습성
광종
##청산
##즐거운
##핀다
##나타
##병리
##게임즈
반모
번외
속내
몰아쳐서
신약
회포
충공깽
##마주쳐서
언어유희
##컨벤션
부딪힘
등살
##내켜
새겨들
첫판
구루마
##을런지
러프
##실고
##지스
##늑
얽매여
##치지
천운
인상착의
매화수
##서관
치솟
##들어올지
##온다더라
##군오
탁구공
##색인
##대길
털털
헌책방
젬마
화계사
급습
##끼여
##무선
난게
힘겨워
난제
##시합
미닫이문
##난무
물라
##파벌
카타르시스
##나간다는
무김치
시끄러운데
설레이
##읰
앖으
싀
살게요
코리아나
폴짝
소수로
사진기
자랫
덤벼
진술
하이웨이
포유
나불나불
조아지
갈끼
방호복
##시릴
##미국인
기치
할긋
다주
##구만요
##양성
두꺼워야
##가벼운
##연인
황의조
들여놔
##뷰러
##한테로
막냇동생
오미자차
소개비
레이첼
##일끝
놀데
콧수염
귀척
후려쳐
##소분
이승훈
더듬더듬
고약
##섭니
##막말
##콬
##워드
교인
순회
모성애
강할
나온다면
모세
##나아야
유선호
##색코트
##기피
긁혀
섬유질
꺼림칙
콘돔
방만
통닭집
뻥뻥
##아무데
##트친
기현
##면실
이겁니다
발라당
몰려들
##차오
##붙여도
##코니아
돌려쓰
##동강
##안날
##하얗
가차없이
정화조
다이얼
##지로가
##겨울옷
##는다던가
##을러
훗카이도
검소
오새
##감유
##민감
##연력
##시킨다는
##달일
##꽄
거제도
방통대
##봉선
찐덕
##설기
한느
얘긴가
vpn
맞춰준
##커디
도화지
쌉인정
용궁
큰오빠
섣불리
##아저
헌금
##멍이
마가
##으꺄
챙겨도
아슈
##언나
##어땠어
쓴다구
장장
##뗌
삼거리
음정
##횤
싱거우
금시초문
사물놀이
##들릴까
##꼥
알레르
##저인
##하얀색
##샇
##니임
슬리피
##줍시다
찌그러진
비속어
##기피제
##파래
##나예
##상당
실반
##돰
남겨뒀
##꿧나
몽실
##건졌
조여
회유
파야
눈여겨
궁시렁
어지러웠
##인네
학동역
##감염자
##완존
액면
##바느질
##조거
##정운
##미어
온탕
##죄다
와룡
검암역
사토미
허탕
대프
##살균기
##방방
홋
산악
등허리
예스터데이
##핍
호황
##켜야지
따닥따닥
시킬려고
##마중
소담
##양천
곤히
지글지글
##헌테
##겨워
아얏
낵
##쌓일
이엘
회룡역
바브
남도현
폐교
##떴었
##다닐라
실눈
##래냐
##매치
챙겨둘
##주무세요
으웩
뛰어와
써왔
댄디
##버텼
찌긴
뒷전
마른다고
상할까봐
##개사
머기
케뱅
니트로
##증정
죽순
##공도
난아
##미들
덤보
단시간
##용못
데요
다도
뻐기
오비
절감
끌려갔
육박
팬다
##뵌
우후후
어딨나
체제
거뜬히
찌금
##규시
##대옥
절세
##불쾌
##푸른
##비루
자바라
##전력
부딪쳤
귀여워해
폭삭
##으니라구
담소
##대차
##읍성
운전병
##이바
비타스
##극복
씽씽이
##현지
##오실
##방뇨
태음인
##노고
갖춘
만족감
에미
문디
작당
##돌아다녔
##무서우
상동역
##부린다고
##아인가
신경전
박만
발렌
짬짬이
##추해
고대로
택했
쌍용
##지친다
고니
이봉원
미약
##비춰
불순
볼래요
해치웠
행회
##그놈
넘친
떨떠름
##근지
낙인
킨다
##유물
##고시원
##걀걀
망설임
풀칠
##봉아
##예뻐요
어부
##다움
##딴다
##함가
이질감
유비
##산수
같잖
씁슬
골대
축적
올려둔
애스
새들
##돈부리
##젠더
##돼지갈비
##줄일
이국주
폴스
##띠끄
##테디
##리까리
문화재
떠오
##노니
##꾸몄
스쳤
##유라
##바치
##등록금
##건성
닫힐
지워진
마틸다
다다다다
KG
##토마
매일반
해이
##관비
##이메
가르친
##모만
조취
살점
오색
기관사
마셔봐야
출방
일어났었
우짤라고
계략
##레터
##냑오
엇갈려서
?!
정마
##른자
수선화
융합
##그름
##썼으니
소속감
?_?
dx
선다
날라와
똥고집
박치기
##때려야
##으셨다고
바랫
구룡포
##고롬
##장정
마찬가진데
##레가
서대문역
면사포
##얄밉
장기용
메꿀
나유
##색칠
감퇴
부나
##그만둠
스피츠
고준
꿩
현충원
##들였
천마총
##탔으면
일만
건드릴
뛰댕기
권사
##맡길
##겐데
##진입
깨운다고
감겨서
색맹
켜야지
끄적이
붙여져
##프루프
만일
편애
느껴본
됏으
##슬로
차인가
둥지냉면
풍덩
##중국집
노양
놓칠까봐
그러엄
흐리멍텅
##셰프
연습함
두란노
##잔디
##거잖아
됫다
황자
다요
##려믄
천방지축
살수록
그러므로
일로
방언
도계
엉거주춤
##능교
따짐
필터링
##판지
퇴직자
너그런
라바
문란
아전
한눈팔
##스진
##일싸
##정대
달라진다는
십자
대유
##동해
투닥투닥
주무르
스카치
행군
냉국
물어볼게요
긍대
일확천금
학성
러브러브
최가네
뷰리
링링
뜰까
후천
##길잡이
##읽혀
모나리자
디알
##민쓰
##큐나
서성이
주인장
최한결
##날린
##은근히
할망구
해피콜
##주나
굴지
보건복지부
유승민
##려지
##노와
압승
지일
성정
작위
##즠
센티미터
브릭
호주가
##리쉬
부녀
막달
초커
##유령
##가어
배꼽시계
##레즈
감긴다
수주
##모셔
압살
틀어박혀서
##돗자리
위위
보폭
##스페인
##쓰봉
##졋데
##거위
##내려간
##쟈감
##면도기
캐스퍼
노지
##원안
콩팥
##챙긴다
접착
녹사평
안상
다로
엄연히
##머릿결
번개치
##약시
국제법
##앙하
마셨었
마들역
와본
반신
만동
##포항
열세
배정남
군필
과즙
##시킬려고
##간다면서
비상사태
호박씨
붇
만학도
##됩니다요
지노
마인드맵
외벌
끌기
자반
부속
떠먹여
동맹
##져버려
##재시
##시동
줫다
경쟁심
붙여놨
선매
##명사
##막힐까
##퇴실
원원
##재이
##조급
##복원
##강스
##볼라면
##제니
##고막
돌비
이룰
김지훈
##경도
빌려준다
질소
진밥
##탐나
밀레니엄
##감면
누린
생고생
옥색
##이겨서
##심한가
##달초
듈다
신파
가좌동
불자
##외계인
의창구
##다왔
썰리
쉐리
엉엉엉엉
##엠지
옐
트랜드
코메디
##듀오
결단
##노미
재충전
##막판
짤짤이
라따뚜이
상생
##더구만
##소유
롤빵
쓴다니까
골목골목
너덜
다발
끼어드
목마른
##타그
##번만
##미친놈
##느껴질
스토리텔링
##잠겨서
짱박
야비
눈밭
##친화
##주디
상남
본다니까
음모론
말이
반트
##졋다고
##질렸
주번
따오
클라나
매끄럽
##메뉴판
두루뭉실
온화
##감미
##맹이
##권유
쬬아
찬데
##난지도
탈수도
##>>
매코
##조오
승주
##송의
##당긴다
똥파리
엇갈렸
BTS
##익히
##섶
##유모차
일렬
툴리
대마초
팔수
길들여
서편제
찍힌다고
씰
##체형
남겨진
판자
##코즈
귓속
당류
##면회
##배임
##닺
대저
회기역
이호선
up
치마바지
가벼울
##몹
태가
빠진다며
출하
##줫오
공놀이
아른거려
##챙겨라
##알려줘야
대화문
##처너
표적
##새우깡
흑자
##퇼
큽니다
##단게
쳤었
하기야
살냄새
##도배
##띄워
각서
로미스
##이케
##노상
산다던
토종닭
당고
##니엘
게리
##돈나
##횡
##씁쓸
##하늘색
춰서
당뇨병
주물
##통상
##왛
##위플
일지매
자연사
##세균
군화
##개발자
이래라저래라
세아
수아
미흡
##광명
괴산
##야조
##죽임
##남아도
스카피
스러운
한대요
지끈
먿
블루종
##마친
놀러와
막집
##딧오
너저분
포르테
##구슬
바깥바람
##육회
그편
##한동안
##편행
##나아진
##방차
##마린
조른다
징검다리
##종아리
지린
원비
##집구
아군
##쉬울
퀘이커
파란불
##단백질
골르
키리
다리미판
##댄가
젝스키스
의성
##남요
저어서
신발주머니
즈음에
물벼락
##하반기
##챙겨야지
우두둑
##졋옹
##반증
헤쳐
스트립
장안동
달아보
플레어
##왜사
##동나
거식증
장침
##세브
입원비
퍼기
비침
##팀원
끌어올리
높낮이
방댕이
고드름
열린다는
크나큰
묘지
쓸렸
재래
##캘
완연
##막대
##양초
삼켰
걸리적거려
폰즈
편평
##댕긴다
##유독
##동업
불포화
울룩불룩
보인대
##데나
임당
쌉니다
유근
캘
재지
단건
##걸린다는데
망막
내릴지
##땡땡이
##?!?!?!
봄맞이
후들거리
##개먹
##커밍
쌍가락지
황달
프로라
##세안
부인과
칸디다
##조랑
실핏줄
납땜
항산
세숫대야
나토
보시오
##에소
##퍼플
들쭉날쭉
헹궈서
먹음직
##타민
걸어옴
눈부심
옼게이
##치려
##한데다가
뒤룩뒤룩
반인
이프로
조형
##지색
##l
옥포
##프리가
심혈
케틀
과산화수소
로프
가베
##우왕
삐쩍
##브레스
브로우
잠근
우주인
##뻘개
윤조
##걸릴라
작전동
넓혀
##판매자
##해산물
나이미
비올라
붘
도임
브렌다
괜차는거
뽀빠이
노래질
##다랑
에스트
##세운
##피크
뚫린다고
##문난
##재요
멈춘다
나타난다고
##오비
##짠데
곰보
##광이
##찬의
##책정
##거레
##흐흐흐
##순번
접어들
육월
##봣징
##습니다만
##이빙
##눜
##파산
솔리드
원점
##기출
대기표
##탁도
##파손
조립도
##교로
위닉스
##스키니
선적
강환국
걸래
만골
##주곤
라피
늦여름
dhl
자갈
##룐데
순수익
공항세
평상복
챙이
스타우브
##오토
청판
##박의
나비잠
md
##페리어
떠놓
입주민
꽃샘추위
##사심
hdmi
심플리
##파피
구고
##Y
##낭도
낱말
사슈
로부
오백
##살려구
극치
##판과
##본도
##갱이
##디럭스
##배너
우상
##제석
색별
pvc
목대
##가연
에폭시
##기달려
파카
##스택
쓸라구
주리
##운서
초봄
##제스
비닐봉투
##호출
문동
지세븐
어거스트
##사렴
밀짚모자
##캐스터
서금
이결
##수질
태고
##원카드
뜨게질
유레카
재개
종국
소보원
목각
스튜어트
빚져
##펠
오란
공산품
스피디
직사각
돌상
##사라다
##쓴다며
임차인
전출
레이니
타라
주소창
##됙
미니스
##슈거
샤오
가상현실
남긴다고
루주
XR
클로버
닌자
블렌더
온단
등촌역
인수자
떠요
글렌
##작동
문질러
##객의
##켱
키세스
박리다매
청이
##미칼
만덕
##정할
##정에
##수중
문고
내보냈
##큐리
차익
총액
##사아
##팩토리
띠지
나리타
##분실
##디온
BMW
##도표
##시무룩
##김치전
스피넬
배율
유천
##권한
좌판
아시아나항공
##타마
전석
깔개
운송비
채영
각재
##행각
권이
멍텅구리
사브
삐죽
종갓집
##담의
빠뜨려서
##전기장판
##지정석
아아악
축방
항공기
##취의
잡화점
치중
글로
물러나
##초생
하루나
##홍차
덜렁거리
세차장
파고다
교선
락다운
##역학
법무부
법무
운송
인천대교
초속
동극
짜집기
델프
##종강
##법률
배급
엘리엇
로이킴
##수처
사법
##기능사
에버노트
인솔
##간만
##통역사
할당
유창
영소
쉬워질
올려진
쿼리
튈까
##석사
떠납니다
호외
노트르담
##월화수
숭실대
##왕건
역차별
신월동
노래자랑
푸틴
유인물
if
##직일
지지율
##일본어
한영
진기
양육비
내정자
퍼시픽
##나온다는데
비평
철자
##청도
농대
지방세
종편
##텅텅
무임승차
하계
##휴업
넛
총리
팔각정
조민기
가양역
##숲길
##혐의
슈퍼볼
##롯데월드
모방
스코어
여당
전태일
발라내
홍연
단역
맡긴다고
강국
표로
##펨
사체
qa
길림
영철
##강습
박빙
##여행자
위생사
##전남
그럭
##아르바이트
손봐야
헤서
덥석
곤돌라
이승엽
한차
청우
##라미스
쫀드기를
왕새우
티렉스
##싱싱
커피타임
브이콘
통감자
숯불갈비
준단
구좌
빨랫감
유나이티
우려내
취두
송로
##뚜기
오징어짬뽕
##처한
흥했
파수
커피프린스
걸스데이
가창
핏물
삼합
알감
도척
##캐이
##파라다이스
무가당
모조품
마카로니
##터스
다대기
편순
##얼린
##빈이
홋카이도
체리쥬빌레
딜라이트
농어
야키
##월가
양림동
브륄
미어터질
단것을
쇼콜라
삼덕동
뿌려진
##코엑스
##동거리
똠양
괴정동
석수
엘살바도르
목이버섯
꼬부기
부슬부슬
여관
해갈
##도식
바둑알
포방
특산품
##대아
고스란히
먹을거리
양철
보문
##근천
식재
##피맥
##해운대
서교
갖은
대흥
##역세
신디케이트
야구팬
남창
송상현
촛농
흑월
아이러브커피
에스파
검법
새러
마이클잭슨
노랜
달빛천사
##신인
수비수
김민석
##보스토크
럭비
신은경
주접떨
홍광호
나영석
초지
준기
현수
베이비복스
모니카
셀린디온
##강림
##친다며
실책
토이스
불펜
성규
상대편
심연
비주류
패딩턴
소사이어티
영이
전개도
##슈미트
하워드
유준상
발야구
악인
예루살렘
유슬
숙련도
프리키
자호
보육원
박원
최우
CG
사라코너
탁구장
##브린
가렌
##누스
서정
우쿠
로건
꽂이
유에
##지붕
헝거
이겼으니
미호
배코
모래시계
데려다준대
텃새
보관소
##대치
수애
윤후
야왕
##모남
샤시
##선발
투모로우
김국진
휴가일
샤이닝
문틈
이문세
랜턴
커피나무
우담
겈
박열
##출금
##지평
밝아졌
읽힌다
비의
끊긴다
응원단
##화신
만장
정탄
세령
스나이퍼
이촌
데스노트
##cj
물던
라쿤
선라이즈
정택
##홈마
베어스
김동희
가르친다고
##청담
##웟는디
다마스
실토
선착장
다졌
액티브
품격
관할
##대장정
스트레인지
일출봉
흐린데
##퇴직금
쳐준다고
대휴
##여의
부담금
보증료
기본소득
##인포
겸직
페이도
임원진
보내온
표의
모눈종이
대림역
부적격
탑동
옼케
##cctv
채무
자철
냉각수
염창
후덥
그쳐야
무더위
당수동
##srt
한강진
##이율
절기
왕숙
채무자
가족석
석면
끝일
침산동
타행
예비자
써져서
단열재
사북
티자
몰링
##봉과
싱글베드
흘린다고
##느냐며
103
89
병과
망설여진다
##페톡
나쁜지
##LTE
큐얼
##전해서
114
갔으나
플래카드
##ATM
선다고
팸플릿
##84
##23
225
32000
3300
370
너깃
향의
75000
340
##VOD
웨어
##GX
84
브리지
9500
2200
##볼트
290
111
부챗살
본판
아두
##큄
속해
##소수자
나비야
##주레
##랙스
밥줄
예견
올라와도
빠져요
장녀
파라디소
##아일
나쁜가
말수
##철벽
##해벌
보낼게
자랑거리
꼴리
속닥속닥
잡아내
파묻
지킴
##노사
##퍼져서
됏음
저시
##tmi
여성복
##낯설
플렉
쥐죽
##할무니
##비웠
어데로
##자꼬
##들려주
##렇겤
##개차
##사합
명복
측정기
돌아갈까
괜차나유
##기고
경호
##떄만
##워리
지구력
아킬레스
싱거웠
다비
##복학
친할
이펙트
만수무강
미사일
맙시다
##기약
##신앙
##슬픈데
##어버이날
순전히
##칩니다
!!!!!!!!!!!!!!!
때론
##깔려서
안전거리
사근사근
백태
비해선
##니요
반애
##토했
##하하하하
##연청
##회산데
##야애
만연
##전분
##괴로워
우주복
##발작
행세
프리다이빙
장어구이
파리지옥
##사월
제복
우성
##댬
메트
전활
##봬요
크윽
##제임
이래야지
문턱
##큰이
##바지라
우시
##커질
##개학
췌
헣헣
말려줘
체기
##색스
##안쓰럽
즐김
이노옴
발발
##거원
##애야
##무르
대장부
##건하
##서두
##죠부
##윙크
##발광
##언젠
시니컬
##??????????????????
친칠라
붉히
##수조
##자러
앜웃곀
##바조
따사
카마
##느긋
##겁니더
천안역
##리머
없앤다고
##써준
울정
명가
pm
귓가
##낙이
##정당
위법
그런진
##핳핳
학예회
발사
##찧
##질일
##형아
떄려
##잃어버려
##으앙
휘인
##쿱
##예고편
백순데
백해무익
##떤게
##으셨던
가난뱅이
##놨잖아
대소
열운
안주머니
##못생김
변함없이
씩씩거리
할무이
##맡긴
쥬거
곯
##란다고
##삘링
사고방식
여행사진
킁킁대
특출난
사경
##죽일
버물리
##끄렁
##정색
##정본
끙끙거리
가르쳐줘
굳어진
##으셨는지
##페르
##여용
농축
##짤라서
##거무
더함
##행하
##납시
랄랄라
##삐끗
##잼따
편협
카모
##빠져요
##투더
##사운
##할려는
투덜거리
##각일
엿들
##옇
멀끔
수저통
##대못
##미묘
##로디
찌워
뵀
똑똑똑
##걸렸었
여차저차
수만
엔젤리
끌려간
뽀얗
차올랐
패시브
##교구
깨갱
조연출
##아암
보행
초빙
합동
##계수
접해
##면제
훼손
##대녀
##파로
띄웠
원전
쨉도
떠봤
동정심
##포라
not
파고
##요고
율동
##우찌
윤은혜
##다다다다
뜨악
##그새
손나은
##미지
##올릴까
##거했
뽜
##바랬
땠
구덩이
둘러대
쪽방
도치
##나두
피구
치주염
닭개장
산전
흡흡
##지미
대작전
꿔야
잔심부름
##경리
층집
시벨
토닥여
##음원
낙담
##마전
##매집
##대말
벼슬
앜헐
##쉰내
##즐거워
프림
##콜스
##꺘
자빠질
놓인다
##애니메이션
##섣
쉴라
귀여워졌
##요행
수칙
##뭐시
##러스트
##허당
까무잡잡
야구단
##뽑혀서
부개역
터놓
##대미
치졸
개착
##마십쇼
##웟당
##키사
##큰일날
##찔끔
염전
경단
라임색
##인뎁쇼
##갈라구요
##딴소리
연변
##채점
##세서
재송
##밷
##휴사
쉬엄
깡깡
계신가
다린
받자
곁들
##잠든
나구
##태랑
심성
##가세
부축
##폐지
두루두루
##썩이
##게에
돌라
미성숙
예기
##다렸
올려요
돌아온다는
드라이빙
인쇄물
반한
쪼물
##라취
##봣을땐
창욱
##낱
##재면
문지기
##마제
##간다요
빈둥
용감한
##게지
화두
태어남
##대륙
##정고
ms
수순
##멍게
##쉬만
요만
##햔
##려막
꾸꾸
윷
##주렴
##친함
##스트로
쟐
##자영
웅사
##키니
##금식
##증발
이어져서
벗겨진
##민충
동성애자
밀지
여포
##명다
##춰서
성질나
##머무
?!!!!
##퓸
골목대장
##불의
떠남
##암말
복채
##빨리빨리
##낮술
##어르신
##눙물
##비다
##인니
##길러야
글케
##롼
##확장
물정
역부족
지젤
##오락
깨보
##나오늘
보물찾기
악평
##태세
##조또
##인향
삐쳐
뱡원
##던트
##꾸민
기운차
급속도
살금살금
죽전역
##값어치
##챙피
암흑기
##치운
드셔도
쾌
가꿈
음음음
다뤄
바통
입찰
##지걸
##반쪽
##케이프
종잡
##네네
##해대
##원문
##닫혔
##미지근
소드
잡종
##보새
##끊긴
##붇
##싈
출현
##아아나
##태국
##따진
이대휘
##분정
아들내미
난만
##도목
파자
과학고
##더거
##어녀
하질
##누군
히힝
센가
보라돌이
조야
##사집
##겯
결여
##갑당
한세
##우해
무너짐
##나성
아요
신들린
칼도
##반짝이
##기차역
##가쏘
일그러진
엄미
직결
펴져
부니
부려야
띄울
##잔지
자음
##발아
##갔을까
##길거리
치운다
깎아내리
백수탈출
이루어진다
##지켜야
친형
알쏭달쏭
크다란
##성질
##소견
인만
둔하
감음
순공
##부수
##프로스트
##으십니다
##마려운
여군
싸울까
##뿌려도
##됫넹
##괜차
미군
##가질래
퉤퉤
##당오
##서영
삼락
기습
##누를
발신
날아갈까
이윤
앜미친
문질러서
늦바람
그럼요
##더부룩
##고와서
##끼친다
아셔
발진
##지적
그럴수록
##된데요
겨냥
MB
그야말로
빠직
##이노
##소라빵
##친목
재시
프란체스카
벼랑
##봉만
성묘
도안동
허덕이
예심
특채
슬퍼할
##루수
##고라니
헤딩
##저림
찬송가
##가해
##갈아탈
조련
부고
울먹
위궤양
살작
언년
노랠
##쌍둥이
기억날
##즥
##차일
##평단
술버릇
두리번거리
##드릅
외래어
조이스
강점기
##주명
측은
##잊혀
##거목
혜성
이녀
햣
##징그럽
가정폭력
부쳐줄
##훗
바서
환호
##곘지
청렴결백
##건도
불우
구사
똑똑히
##떨구
먹혀
##렇넼
##원각
소혜
뺑뺑이
눈뜰
깨울까
##꿬
영양실조
근로복지공단
##괜차너
단내
수그러들
드러와
##냏
하울링
##마차
세요
탈각
마실라고
##잔여
부탄가스
월별
##떼우
바이퍼
집히
메미
팻말
##갚음
##무임
캐묻
주워도
지킴이
##아녀요
아가방
SBS
과로
역습
##스케일링
##신촌
사역
살의
앆
뽑혀
쌈지
##방사
##근두
##초초
프로그래머
연애관
중력
난망
머그잔
구준
##두두두두
비집
##고였
혼카
봣었
go
##승질
##딧음
국경절
불토
스모키
배이
##미우
후앙
트릭
##메기
##씻겨
##수야
소일거리
저용
##하이드
##둿대
이상행
피한
끄적여
##저녁때
엘도
##웟나봐
##뭍히
##강일
##어성
바닷속
##통한다
딸깍
##어쩌구저쩌구
인네
물고
모셔야
줫엇
##창출
##참내
삐뚤어졌
##우셔
작약
정강
안귀
여려
땅따먹기
공들여
##부케
꽂힐
야옹야옹
청승
빠트려
에이피
##끌림
으니
이엠에스
강해져서
이사단
분업
살줄
##모빌
요쪽
개혁
자투리
##광의
##눈빛
##정각
나담
##령기
니야
오행
화수분
##집지
##액체
식사량
야무져
##펏다
##뻔한
##원조
##신뢰
존심
##달려야
##꿔야
기진맥진
업슨
축구공
##듘
##쥬거
##슴두
무채
##세움
##아닐까요
##기발
##모호
##꿍이
아낀다는
연근조림
##어선지
##데려와서
으하
##반갑
##질러야
##와줘서
##극단
##거이
##풰
식힐
##행기
애원
##꺼리
답주
담합
##지으면
헤집
삐뚤어진
##문애
##나갈래
##서진
군용
##큨
위험부담
트기
##꾸밀
##죠타
초심자
어하
##엌다
##질색
##매니큐어
보낼려고
액팅
비워서
##선글라스
무로
##잽이
당할까봐
##이언
##보지
##제빵
울라
꽁초
나가사키
##머드
수호천사
##게이지
헤드뱅잉
##갸자
그런다구
뭉칠
##나선
왕의
##커져
이주연
올레길
##질린다
##나전
입수
##침침
벌린
토킹
##도입
##된께
씹힐
##사상충
##동언
##라타
블랙아웃
##욕했
##전집
##배차
##해서든
##향해
##직장인
##차갑
임다
##뜯겨
쪼가리
##주삼
##우욱
##더지
##도제
##구엽
깐족
리포
떄는
글쎄요
퍼뜨리
구면
##꼇지
공포감
또르르르
략간
마쉬
##미모
##생각혀
여야
고호
오나
##단정
따가
##찐다고
봉사자
뜨거움
##함부로
##이원
##나뿌
차라
##망해라
##줫니
여겨
##뽀샵
쓰러진다
##됏냐
이슬이
선교
##떨기
바렐
대래
사로잡
엮여
##직종
##던더
##난다니까
##외랑
예뻐보여
둔산
##포만
머뭇거리
암산
이곤
헐겁
엎드렸
봄바람
질투심
나빠진다고
##다보
사께
작자
댓바람
트위스트
##원근처
인도인
ip
##척안
실직자
잠복
##w
금잔디
##치레
##새삼
아수라장
##돌입
상상도
##충치
부산시
왼발
##부록
젬병
갑니까
치덕치덕
봉황
약손
밟히
##번대
여걸
간고
##잠드
##빨랐
##코튼
##마더
나타남
호사
##리드
조운
속물
갓난아기
조삼모사
요코
뜬구름
##됫으
##내꺼야
해치울
코스코
변상
비실
##마슨
소유자
남녀공학
##거짓
설태
##곤다
##옴므
##충임
피로감
브리즈번
##들어온지
부주의
##다잖아
화소
발뺌
##놨단
##우지
비너스
##기양
뚠
일가서
오밤중
##오내
마추
식도락
뽀독뽀독
##꿑나
서이
무무
메슥거리
디시
##밥맛
##인자
기웃기웃
임파서블
활보
##녓오
##표실
스마
##덩치
소싯적
##글케
##꼬박꼬박
엄청남
쿠바
드러난
기합
자그마
##와영
강강술래
내어주
사울
꺽이
사업체
##연주
혿시
재끼
익힐
또오
##을까고
##명령
놈의
갈렸
솔메
센다
예금주
##감과
실세
잘구
구조물
##성서
##yo
##퉈
베여
침해
##유니클로
##송원
##버텨서
듬성듬성
유흥비
적정선
숫기
녹음실
경국
##미언
구녕
예뻐야
지저
춤춘
##드니만
##향지
어려워진
딱이
##커짐
##앙가
##싸운다
##가본적
도마도
흰둥이
##무님
##저고
벌도
빼앗겼
##웅거
##대남
##바뿐
##짜릿
베터
##리퍼
날걸
##사생
강한데
뜯어볼
발명품
삐질삐질
천백
##모토
##기독
##방침
경비행기
##나쥐
재도
##씀니다
##큰아빠
##푸짐
스테파니
시림
##어주
##바링
봣는뎅
유타
##!!!!!!!!!!!!!!!!!!!!!!!
곱셈
##오피
차올라서
티지
예뻐도
##환갑
##꿧엉
##고약
월회
##찮아서
지조
##늘어났
마정
##읏다
건거
##하항
빅뉴스
난애
안착
크다
덜렁대
얽히
꼴값
폭탄주
##샾
반성문
지랄났
##늘려서
##이감
꼽혀
단답형
해포
##퀴퀴
##위협
끼룩
소국
##아이즈
##졋내
##켯음
짹짹
합시
##졋드라
헏
가증
솨
##딩동
프로파일러
무서워할
##말마
##질라
##대롱
##명품
야물딱지
##빈티지
##해할까
##필라
흉질
##한다는디
##입니꺼
심드렁
##나로
##장지
##아쉬운
##닙스
행색
##바쿠
##와선
총출동
##한국어
출세
##아놈
양봉
##폴드
##트라우마
##대급
얼름
후들
##흔들려
자결
보매
기승전결
##보행
휴문
더블데이트
에이비형
서문
다보
순간순간
jmt
##언저리
##재가
아이모
아오이유우
##물약
끼려
달료
경포
##예비
엘라
걸맞
절뚝
죽죽
엠마
##카드라
실로폰
외향형
진짠지
대지진
##했다간
##가마니
##한다꼬
##똘
##춥다
##감여
볼품
걸어간다고
##없을무
##반환
나와랏
##대중
반문
효자동
##커쳐
##서양
보호막
##룟
월여
##plz
끄덕이
##진임
##손금
코안
털모자
##냐지
총신대
##독특
써버려서
달아나
제우스
##차마
##짠다
##초등학생
##풀로
이안
오물
##틴디
##늘어난
##미약
##걸려요
어쩌고저쩌고
포획
##댄디
동질감
묻힐
지라
??????????????
##히가
개호
##욷
추석날
드라큘라
##성가
##입문
##밖이
##재학
엄수
돈길
로즈데이
##정예
##해버릴까
오연서
벤자민
##해이
##가랏
##상담소
따왔
##비대
죄악
청청
아드레날린
##왠만
꿑나
##화냥
##윤곽
비춰서
##뱈
##진다던
##머스크
손담비
내려보
일차원
번사
에나
##꾸이
##미실
쌍쌍
케크
##짙
굴러갈
##칵
얔나
보람찬
##니티
극심
퀘퀘
##배당
서예
사우디
##온리
막일
원주민
일름보
##업안
##초조
##튠
##탈자
뛰쳐나갔
하지원
##으쇼
##햐아
입막음
뭉탱이로
이인
##꺼질
IT
강림
##따질
##걸으니까
##지저분
철원
오링
##껔
##별화
편치
라켓
##밀어주
쌉싸름
##견뎌
저편
립스
독립운동
##가져간다
성전
테더링
까꿍이
흩날리
사이안
놔둬라
##육포
##사물함
구티
미스코리아
##적도
##반대편
값진
##숙취
혐
##자취방
장손
억세
되돌아보
누릴
모먼트
면했
##타너
##대해선
뿌수
역삼역
##어자
##사주자
몽실이
##안음
미래형
살맛나
굴러떨어지
##나보이
야도
##쉴드
##노도
##뵐
그서
##흐려서
우여곡절
드래
##꽈배기
정에
받쳐서
mmpi
승천
하루다
앞문
실음
##부끄럽
진절머리
##나인데
다릅니다
뜀틀
송형준
에겐
갑상선암
그래에
벌거벗
군바리
궁이
##학개
##착해서
제고
씅질
목지
##트위터
너흰
든당
콜라로
##겧지
##짱깨
##작인
##가젤
##놧으니
뽐
##사염
나무라
스퍼트
##공공
정떨어질
성실히
##항수
아이바
그지라
##티유
##깨닫
자리나
유세윤
##스캔
반란
##지냄
##챙겨왔
더니
웅어
채끝살
##촌스럽
##슁
흐흠
##발식
##버벅
##우르
##제육볶음
##뻘쭘
##원사
물차
듭다
##금만
##듁
미련없이
밟혀
해사
탐욕
##스티
을밀대
쌓았
##실려
##멘토
엮인
활기찬
장바
빠개질
은안
밤거리
##꽌
인더
체련
여기사
후광
##맡아보
##드링크
하르
##몯
망각
##줘야돼
필기도구
##거저
거점
순종
달링
바꿔왔
죗값
나돌아다니
##함마
냉담
불끈
##실겨
민스
기럭지
##홍홍
##산더미
분보
서비
바꿨으면
죽는다
미지
대루
##이슴
##부엌
##쉬워서
##기다려요
##넜는데
##라머
기욤
##넄
하철
돌구
##금니
##화지
고척동
남잔
찾아냄
##떙겨
긐
##숭이
호록
먹여살릴
급브레이크
##부프
약침
##자셨
욕봤
쳐졌
##해낼
##등촌
##인편
##할듯
##어렷
##보완
시큰시큰
##다이어터
##가림
홧팅홧팅
고무나무
국채
궁상맞
##넘어간다
층층
##스미
##가렵
끌어당기
##디거
건방져
##암요
##져간다
##칼바람
##독하
하네다
반정
사식
##훌륭
##빈대떡
얼레
##피워
##미충
##개모
탁재훈
##데만
##예당
엌근데
챔피온
틈나
주렴
봏
무조
##미투
##펼쳐
몰란
##으셔도
##절제
결코
휘젓
##찿
계소
훌쩍훌쩍
##낼지
지끈거리
컼
겉돌
##캨
방범
##노원
피운
비닐우산
##별류
김혜자
##이맘때
오탈
##별각
##디리
오갔
##프라페
낵아
##레포트
##바너
들어줄래
##맙시다
쌀통
##가난
김세정
무성
##대노
히안
##스릴러
##단속
##자게
##삘이
재니
듄
##태울
약인
아첨
우노
포대기
키자니아
마법소녀
여남
##꺼야지
함평
연우
##오너
의식주
정은경
초식
##쫃
모트
##뚝뚝
뿌러지
폰타나
설렁
치워도
로펌
하류
##정안
##내사
이탈리아어
????????????
김무성
펼
##알아주
##창원
시릴
분포도
행인
상간
##탕수
##벤치
##비올
졸러
동절기
수열
분했
##길일
?????????????
프라이빗
커보였
둔지
##U
젛다
##내려놓
아즉
##옅
합격선
샐까
흥겹
비수
##살아났
유대인
##시양
고아라
##증거
개인위생
자욱
떠난다고
떄리
번잡
덜덜거리
샤츠
쓴다면
##대끼
켜진
엥겔
##티어
과년도
말단
떨어진대
선출
쉬시
##흘려서
##리딩
##각오
풀릴까
코빅
심해진다고
##섀도
라타
편곡
은총
떠들썩
황희
가양동
뱔루
아랫입술
##볼걸
##맥북
히라
으하하하
요조숙녀
##끓인
도스
##강거
##떄메
한다던
살린다
혈색
##안내도
##어두운
##한다든데
##더래도
몬드리안
##금순
대실패
##망가져
##구시
##모아도
폐허
##당할까
##즉시
샬
##영접
사짜
뉴요커
마른기침
중랑
부정맥
극명
날라와서
노끈
다독
남녕
짝다리
##들일
무밥
##유노
##사워
모바일게임
나일
악담
먾이
용두사미
##늘어남
##갔었잖
갈진
##뵛
단테
##몰이
##로프
갈려다가
www
##김이
돌아올게
의왼데
사올라
슈도
##어워드
##횐데
아방
산초
로보
##하세용
일심
마하
애사심
채워진
##순한
택지
물리치
싸도
정중앙
들어왔으니
##가본
##거약
##사살
식고
대시
쉽사리
##없음
##섯다
쨔응
쉬즈
##어학
##리라고
##굉장
뒤집혀서
##크리스탈
뒀었
데미소다
##케이지
윙윙
인건
##쪼그만
빠딱빠딱
좡
##봣으니
계단식
글로리아
##니오
##트였
##명곡
국립대
출격
우로
##장단점
문창
섬기
여석
##소멸
땡긴다고
야해서
엊그저께
여락
토란
인장
하잉
##젭
##돈대
돌려보
손가방
산사
조각조각
용마
##으로선
입성
##벌어먹
외운다
카린
##납치
헐리
살고
도봉
##도바이
감성돔
##근뎅
카세트
어리바리
##명당
이기광
나대지
장동민
쏩니다
적당량
골디
##흐륵
윤하
울릉
새하얀
프레이
부어올랐
끌림
이제서야
조재범
버드와이저
##담긴
##쏠쏠
폐해
탈일
책임자
##버시
불가래
얼래
##타보
코스트
내다보
내려라
##그건데
##교보
신창동
성애
##들어갈게
미진
입심
쾌청
바람맞
땨
##빨렸
##낸데
##미오
대망
후아힌
가르친다
침입자
파사
귀지가
##디모
##만항
##전통
##니들
알단
괜춘네
##소화제
다툰다
##협조
모자람
기점
합주
안와
강종
##쫓
##신호등
넓직
##거인
##염색약
원뿔
무보험
##그랜드
시큰거리
악독
우물쭈물
지검
백스
브라도
도룡
타이쿤
에디
지난해
들을라
##곗지
개인차
##뜨거
##뜰까
올라구
##구아
텐디
##이티
zoom
바사
전량
하몽
##브랑
넙죽
괜춘쓰
쓸려가
##이대공
##부러진
색갈이
아홀
배끼
던지기
심전도
작살나
반가울
학군
##업과
##아파지
##촌은
##쳐줄
부로
나사렛
##성형
##완이
쥔장
양감
심해진다
##페메
중심부
자셔
빼앗기
##돈줄
##씨도
키오
일벌
신평
하얀데
충재
##으라니
끊임없
시제품
혈통
##세에
##야용
##하원
##소수
##잌데
##셐
아파질
##마츠
##부각
이홍빈
옹알이
##마리스
숸역
바깠
이스
신신당부
엠블랙
##밥통
명학
낙심
기쁠
청록
시놉시스
고공
승소
##될수록
기념관
##찢어진
아세톤
##복용
증후
##그건가
배쪽
##쿠르트
압출기
##그려도
흡수력
##묶여
조르지오
##원천
##미백
##여한
걸음걸이
##단백
##염할
##종신
허리둘레
##썜
##벙벙
탁한
대장균
##원킬
##괜찬
체지
##니장
##메이크
##픙데
업구
의구심
서울대입구역
남양산
정맥
계면
##연골
미풍
##송한
우응
신통
정해준
날아온
녹였
##아필
치핵
약콩
휑해
경미
##부결
##정착
##축소
##맥혀
##들여서
억제제
AB
##대파
##차노
##드레싱
위로금
제치
##봉기
##피엠
본뜨
##출결
르네
##마오
우르르르
No
강직
불광천
무래
아니면은
포포
산삼
다쳐도
오른발
뿌까
##해구
강력히
##듯한
블랙커피
소염
##지안나
데몬
유청
쓰릴
털기
##전식
##태반
##파운데이션
##화용
합쳐져
최강희
후들거린다
걸렸을까
용담
자빠지
즐겨서
시작점
냉매
##각점
이베
##하만
림프절
한혜연
프론데
ABC
고강도
##자람
족저
단다
##방동
새우만두
스왑
맛봤
##목동
##페로
어두워졌
##모자란
##끼려
벨라
산타마리아
##새워
설친
##냈으니
팩토리
두꺼웠
##거북
생면
역한
##비노
움푹
##로더
명일동
세워도
##어떨지
흐트러지
호기
과반수
담석
심해도
##을라꼬
치크
##악화
지하수
베이비핑크
W
스키야키
입체형
아말감
##줄여서
배합
벽돌색
곱슬머리
##야양
플라
치사율
호박엿
저곳
##구제
##개스
##이봉
시려웠
##생강
##곸큐
산산조각
꼬임
##라이징
물속
탄성
##끼워서
국과
물의
##센트럴
경보음
##재량
세척제
##험하
##마추
끈다
##서핑
##당개
두드려서
##프라이머
##입미
##일예
얼만가
클렌징크림
아이셰
칸칸
##퓨어
##인심
해치백
쓴다는데
##천유
우량
재팬
디바이스
##단종
팔릴지
호라
인견
##방앗간
##부안
라우쉬
##벨리
##니스트
민무늬
회안
노바
맨들
언젠디
줄걸
##과함
신고식
생활한복
##복포
복정동
송천동
##뽑혔
##더라만
##제해
폭넓
빨빨
##탈려고
##모의고사
##체결
이천희
백그라운드
##위탁
##비수
##실청
벗겼
재용
진격
싹쓸이
브랜든
국지
##스메
마샬
빠라
일련
티볼리
허라취
##삿눈
내려다보
베레모
아베크롬비
내놔도
골동품
##튀겨서
강세
터진다는
##주구장창
얼만데요
젠틀맨
##오레
태백
##새김
윤동주
##꺼니
찡기
##컹
##터파
##생태
해마
마티스
##으깨
켄터키
##퀀시는
트로피컬
해밀턴
플레
팬레터
호도
별다를
유황
와이키키
시계방
태진
파시
벤허
##빅스
##?^^
힘써
##뢈
피톤치드
리정
##하피
살균기
진액
##렌탈
##클레이
##면호
내놔야
밸류
##지호
##용안
빨래집게
다산
##관무
##포키
보잉
##왔어야
고철
##내려온다
잉글리쉬
##야외
관이
cs
어촌
핀턱
부교재
##일회용
들린다는
프래
##위고
계란장
##세척기
첨사
대유행
##노벨
##마투
##주류
##녹이
팔랑팔랑
##산맥
##앨리스
확성기
할인점
##라인업
##비장
카드기
원반
액젓
##스컴
##사파리
오일장
혼용
사질
다합
일반석
지당
원화전
##봣슈
달밤
##차스
번창
페어리
당구대
os
##성본
##용산
##는데유
QA
엏
버릴라고
크루저
천하
볼꾸
##치열
블랭킷
킹스
바쿠
국희
##물량
##테츠
##월수
중청
##진역
쉘
진품
##올라면
##볼리
음모
하안
일렉트로
##구채
허벌나
엑기스
명불허전
기억법
서주
ci
cma
##브이아이피
기다린다는
제이지
##조알
두신
##보험금
갴
##뜨랑
##관광객
암표
오리진스
박한별
쎘
프리스비
괴도
가리개
통마늘
엄정화
풋고추
불발
밀도
에이블
가스버너
터질까
조망
제작사
불황
##튿
##마늘빵
바스크
방진
변압기
비핵화
##범인
공증
돌려준다는
전공과
생판
물대포
##중급
단락
이상일
영문학
보란
무사고
뒤집힐
자전
세계사
##왕후
침몰
##복습
##트이
##농민
부양가족
청강
성적순
송출
화곡역
공소시효
미술사
로즈리
타이포
수강자
꾸려
형법
세르지
##충의
중급반
계명
쏘였
실습수업
##중간고사
도계동
병점역
포탈
조직도
리머
큰불
면학
추수
그달
전치사
국고
오대양
소네트
윤지
히가시노
정회
##사돈
아그니
##폐의
전류
실해
정시로
기다릴래
결강
광고비
네장
발표회
##부평
##시음
##멈췄
약식
유사점
갈겼
df
도예
##주신
거상
취항
##전반
연습용
##대중교통
한밭
셜
뉴딜
##탐색
들입다
바이브레이션
이영애
금자씨
##아카데미
##실강
미뤄져
묵묵부답
에머
##적어도
몰타
he
##I
의왕역
박경수
유충
에일리언
초시
단지로
농업
현업
작년도
디스토피아
다일
온천수
붕장어
##크리스토
삼치구이
사누키
무쳐
라그
##릴리아
##비린내
은지원
코케
동광
민락
##계란장
##용일
토시살
가쓰오
사빠
기뻐했
##단무지
불향
##트레인
감싼
로열
이끼
진했
빵나무
마라마
칼제비
##식히
가지나물
##랭킹
펜네
##허니
희소
데울
맹그
##아구찜
도다리
##배부름
술떡
외국산
잡탕
바나나빵
기정떡
머구리
저으면
VR
오드랑
여향
##올래요
주엽
라드
쭈꾸미집
여보게
데쳐
잊히
##코바
습지
##면옥
청평
##가는대
빌즈
##동과
끓여도
크러스트
잭스
손칼국수
##발굴
##차즈케
##구상
금만
##부락
장충
##등분
슈고
하단역
##로에
요리법
##이킹
옥주부
##할라구요
평택역
##할로
떡고물
구의
데이데이
아름다웠
튜토리얼
투니
월던
리시브
달린다고
루시우
승기
박찬욱
웨스트
##일산
반교
하성
나올걸
##위시
호아킨
뒤편
##더빙
랑야
##선샤인
DIY
##막장
블리치
유니버스
##거린데
fps
길버트
김유정
##북로
유영진
트랙스
박경
로직
행오버
친선경기
한게임
##포커
더블헤더
프랭키
##불꽃
yg
##비수기
거름
##정주
강백호
박은태
플라자
수찬
김준면
현서
##챕터
누각
데뷔작
스위니
건강보험공단
그래비티
커닝
채림
도와서
역전승
요한슨
문투
김희재
득점
##무용
이다영
유성화
단조
##비랜드
갈아탄다고
심은경
##엠피
앉을자리
스케이트보드
롤린
##운전사
페이커
유재하
##로프트
최은영
인사과
이승우
경기력
수은
송강
미셸
초밥왕
예원
신탁
반투명
불러다가
갑옷
크림슨
지진희
##한옥
힘듦을
룬의
도리안
군단장
쇼생크
조여정
수용소
벨기에
노랫소리
서유럽
소공녀
서고
##화마
고현정
시공간
##걸어오
재편집
솎
로사리오
##코믹
바티칸
##만악
##가요제
배성우
##어로
즐긴다고
물빛
날아간다고
##혼영
할슈타트
무심천
배구장
칼리
캐스터
대미지
##잉에
커진다고
흘린다
##추진
##키파
성수대교
헤이리
인왕산
갑천
중개인
##바우
독려
유망
원더걸스
안시성
수맥
들었었다
어두워져서
도로변
##우취
소형차
캐니언
전경
돌산
##무실
분소
요율
근저당
##근비
컨벤션
최장
통계청
부정수
##학처
##무관
##비왕
##휴가비
[...]
